<unk>	0
<s>	0
</s>	0
,	-2.54393
.	-3.04052
▁ᎠᎴ	-3.32008
▁ᎾᏍᎩ	-3.74462
;	-3.84657
Ꮓ	-4.05736
▁ᎯᎠ	-4.40361
▁ᎨᏒ	-4.69076
▁	-4.80196
Ꭲ	-4.89989
▁ᎥᏝ	-5.11018
▁ᎨᏒᎢ	-5.16483
ᏰᏃ	-5.23888
Ꭹ	-5.29137
▁ᎨᏎᏍᏗ	-5.2919
▁ᎤᏁᎳᏅᎯ	-5.30573
?	-5.38227
▁ᏃᎴ	-5.41577
▁Ꭴ	-5.45954
▁Ꭰ	-5.55055
▁ᏴᏫ	-5.55698
Ꮙ	-5.62357
Ꮧ	-5.64492
”	-5.64664
Ꭿ	-5.71947
▁ᎩᎶ	-5.72385
▁ᎾᏍᏉ	-5.76501
▁ᎢᏳᏍᏗ	-5.80213
▁ᎾᎿ	-5.80755
▁ᎾᏍᎩᏯ	-5.81762
⁠	-5.8234
▁ᎠᏎᏃ	-5.83675
▁ᎠᏴ	-5.85629
Ꭽ	-5.90906
▁ᏱᎩ	-5.91544
▁Ꮎ	-5.91926
-	-5.94808
▁ᏥᎩ	-5.95764
▁ᏱᎰᏩ	-5.9588
▁ᎪᎱᏍᏗ	-5.9589
▁ᏂᎦᏛ	-5.98153
▁ᏂᎯ	-5.98992
▁ᎢᎦ	-5.99128
▁ᎤᎬᏫᏳᎯ	-6.01942
▁ᏥᏌ	-6.02006
▁ᏂᎨᏒᎾ	-6.0207
Ᏹ	-6.07666
▁“	-6.09282
Ꮎ	-6.13014
ᏍᎩᏂ	-6.13869
▁ᎣᏍᏛ	-6.19801
Ꮫ	-6.20767
▁ᎯᎠᏃ	-6.2111
ᏍᏗ	-6.25509
▁ᎤᏪᏥ	-6.28097
▁Ꮷ	-6.29606
▁Ꮧ	-6.2986
▁ᎢᏳᏃ	-6.30915
▁ᎾᏍᎩᏃ	-6.34215
▁ᏧᏪᏥ	-6.3612
▁ᎦᎶᏁᏛ	-6.38276
▁ᏄᏪᏎᎢ	-6.40358
Ꮣ	-6.40374
▁ᎿᏉ	-6.42033
▁ᎡᎶᎯ	-6.43418
▁ᏞᏍᏗ	-6.44641
▁Ꮵ	-6.46011
▁ᎠᏂ	-6.46347
▁ᎨᏍᏗ	-6.46512
▁ᎿᏉᏃ	-6.49601
▁ᎤᏲ	-6.53098
Ꭶ	-6.55188
▁ᎤᏛᏁ	-6.56483
▁Ꮳ	-6.57859
!	-6.57899
▁ᎤᏣᏘ	-6.59076
▁ᎠᏥᎸ	-6.62593
▁Ᏹ	-6.64234
▁Ꮪ	-6.64477
▁”	-6.65186
▁ᏫᎵᎻ	-6.67483
▁ᎾᎯᏳ	-6.68968
▁ᏂᎦᎥ	-6.70095
▁ᎬᏂᎨᏒ	-6.71179
▁ᎠᏍᎦᏯ	-6.7176
▁ᎦᎸᏉᏗᏳ	-6.72394
▁ᎬᏂᏳᏉ	-6.73303
▁ᏄᏍᏛ	-6.73545
▁ᎦᏙ	-6.75685
▁ᎧᏃᎮᏛ	-6.75916
Ꮒ	-6.75917
▁ᎡᎯ	-6.76817
▁ᎤᏩᏒ	-6.77375
▁ᎠᏁᎯ	-6.77487
▁ᎦᎸᎳᏗ	-6.77775
▁ᎠᏰᎵ	-6.80332
Ꮕ	-6.80338
▁ᎠᏕᎸ	-6.82547
▁ᎨᏎᎢ	-6.82773
▁ᎤᏤᎵ	-6.84908
▁ᏌᏉ	-6.85847
▁ᏰᎵ	-6.85913
▁ᎤᏤᎵᎦ	-6.86215
▁ᎠᎹ	-6.86622
▁ᎢᏣ	-6.87124
▁ᎢᏴᏛ	-6.879
Ꭸ	-6.88706
ᏗᏱ	-6.89553
▁ᎤᏂ	-6.90173
Ꮟ	-6.90188
Ꮈ	-6.90294
Ꮅ	-6.90928
▁ᎾᏂᎥ	-6.9347
▁Ꭲ	-6.93579
▁ᎣᏏᏳ	-6.93811
▁ᎠᏎ	-6.94407
Ᏻ	-6.95606
▁ᎦᏙᎯ	-6.95677
▁ᏔᎵ	-6.96344
▁ᎢᏏᎵ	-6.97663
▁[	-6.98636
Ꮄ	-6.98876
▁ᎤᏟ	-6.99369
]	-6.99401
▁ᎪᎯ	-6.99443
▁ᏗᎧᎿᏩᏛᏍᏗ	-6.9957
▁Ꭿ	-7.02167
▁ᎠᏓᏅᏙ	-7.02702
▁ᎣᏍᏓ	-7.03024
▁ᎠᏂᏍᎦᏯ	-7.04526
Ꮢ	-7.0461
▁Ꮣ	-7.04851
▁ᎨᏎ	-7.05692
▁ᎢᏥᏈᏱ	-7.08677
▁ᏔᎵᏁ	-7.10111
▁ᎼᏏ	-7.1168
Ꮂ	-7.13121
ᏍᎪ	-7.13154
▁Ꭶ	-7.14064
▁ᎢᏳ	-7.14731
▁ᎨᏒᎩ	-7.1595
▁ᎬᏩ	-7.16382
▁⁠	-7.16682
▁ᎤᏍᏗ	-7.18111
▁ᎢᎬᏱ	-7.18165
▁ᏤᎦᏈ	-7.18493
▁ᏚᏳᎪᏛ	-7.18566
▁ᎤᏂᏣᏘ	-7.21576
▁ᎡᎳᏗ	-7.21609
▁ᎡᏆᎭᎻ	-7.23123
▁ᎢᏳᎵᏍᏙᏗᏱ	-7.23196
▁ᎦᏙᏃ	-7.23475
▁ᎠᏫ	-7.23563
ᏍᎩ	-7.23677
▁Ᏻ	-7.23678
:	-7.24095
ᎨᏍᏗ	-7.24223
▁ᎢᏗᏢ	-7.24601
▁ᏩᎦ	-7.24864
Ꭰ	-7.25045
▁ᏇᎵᏲ	-7.26584
▁Ꮻ	-7.27065
▁ᏏᏆ	-7.28048
▁ᎠᎨᏴ	-7.29155
▁ᏲᎾ	-7.29204
Ꭼ	-7.30436
▁ᎤᎾ	-7.30633
▁ᏦᏩ	-7.30714
▁ᏌᎳᏓ	-7.31832
Ꭺ	-7.32028
▁ᎠᏏ	-7.32112
▁ᎾᎥ	-7.33324
ᏙᏗ	-7.33524
▁ᏄᏪᏒᎩ	-7.34102
▁ᏅᎩ	-7.34627
▁ᏄᏪᏎᎴᎢ	-7.3555
▁ᏂᎦᏓ	-7.3728
▁Ꮽ	-7.37369
▁ᏧᏓᎴᏅᏛ	-7.39482
▁ᏱᎨᏎᏍᏗ	-7.40762
▁ᏦᎢ	-7.41118
Ꮿ	-7.4208
▁ᎢᏥ	-7.42788
Ꮑ	-7.43493
▁ᎤᏙᎯᏳᎯᏯ	-7.44203
▁ᏥᏌᏃ	-7.44586
▁ᏅᏯ	-7.4479
Ꮵ	-7.44922
▁ᏂᏚᏪᏎᎴᎢ	-7.47404
▁Ꮿ	-7.48
▁ᎦᏚ	-7.48764
▁ᏐᏈᎵ	-7.49101
▁ᏝᏍᎪ	-7.49119
▁ᎠᏂᏧᏏ	-7.49899
▁Ꮔ	-7.49976
▁ᏣᎬᏫᏳᎯ	-7.50372
▁ᎤᎬᏩᎵ	-7.50997
Ꮞ	-7.51424
▁ᏧᏤᎵ	-7.51456
▁Ꮒ	-7.5246
▁ᎦᎵᏉᎩ	-7.52823
▁ᏓᎶᏂᎨ	-7.52903
▁Ꭼ	-7.53577
▁ᎬᏩᏍᏓᏩᏗᏙᎯ	-7.53608
▁ᏄᏪᏎᎸᎩ	-7.5372
ᏍᎬ	-7.54004
▁ᎡᏍᎦ	-7.54381
▁ᎦᎪ	-7.54804
▁ᏂᎦᏗᏳ	-7.54945
▁ᎢᏧᎳᎭ	-7.57203
▁ᎬᏗ	-7.57296
▁ᏂᎪᎯᎸ	-7.57373
▁ᏰᎵᏉ	-7.58062
Ꭾ	-7.58727
▁ᎦᏓ	-7.59046
Ꮃ	-7.5957
▁Ꭸ	-7.60402
▁ᎠᏆ	-7.60651
▁ᎠᏓ	-7.60854
▁ᎤᏙᏓ	-7.61492
▁ᏚᏂ	-7.61603
▁ᏈᏓ	-7.6189
▁ᎣᏂ	-7.62582
▁ᏄᏪᏎᎴ	-7.63331
▁ᎤᏤᏍᏙ	-7.64765
▁Ꮥ	-7.66036
▁ᏥᎷᏏᎵᎻ	-7.67007
▁ᏂᏚᏪᏎᎸᎩ	-7.67804
▁ᎠᏏᏉ	-7.67898
▁ᏣᏂ	-7.68536
▁ᎦᏚᎲ	-7.68665
▁Ꭱ	-7.68809
▁ᏅᏗᎦᎵᏍᏙᏗᎭ	-7.69324
▁ᎠᏂᎨᏴ	-7.70079
▁ᎬᏂ	-7.70575
▁ᎤᏅᏒ	-7.71095
▁ᎢᎩ	-7.714
▁ᎪᏪᎵ	-7.72109
▁ᏉᎳ	-7.73114
▁ᏧᎾᏓᎴᏅᏛ	-7.73244
▁ᏱᎨᏎ	-7.73936
▁ᎢᏯᏂᏛ	-7.74107
▁ᎬᏂᏛ	-7.74272
▁ᎠᎩ	-7.75133
▁ᎡᏙᏓ	-7.75528
▁ᏄᎬᏫᏳᏒ	-7.75675
Ꮨ	-7.75742
▁ᏂᎬᎾᏛ	-7.75769
▁ᎢᎦᎢ	-7.76605
▁ᏍᎩ	-7.76797
▁ᎾᏍᎩᏯᎢ	-7.77448
▁ᏐᏉ	-7.78269
▁ᏣᎵ	-7.78287
▁ᎪᎯᏳᏗ	-7.79302
ᏔᏅᎯ	-7.79556
▁ᎠᏂᏔᎵ	-7.79599
Ᏼ	-7.80695
▁ᎾᎥᏂ	-7.81511
▁ᎡᎳᏂ	-7.81544
Ꮀ	-7.81952
▁ᎤᎵᏂᎩᏛ	-7.82499
▁ᏄᎵᏍᏔᏁᎢ	-7.82949
▁ᎢᏴ	-7.83184
▁ᎤᏁᏨ	-7.83563
▁ᎤᏙᎯᏳᎯ	-7.83687
▁ᎼᏏᏃ	-7.84193
▁ᎤᏓᎵᎢ	-7.84363
ᎸᎩ	-7.84608
▁ᏗᎦᎳᏫᎢᏍᏗᏱ	-7.8463
▁ᏧᏂ	-7.85916
▁ᎢᎬᏱᏗᏢ	-7.86993
▁ᎤᏓᏙᎵᏍᏗ	-7.86996
▁ᎠᏣᏗ	-7.87027
▁ᏄᏂᏪᏎᎢ	-7.87037
▁ᏥᎪ	-7.87476
ᎸᎯ	-7.87953
▁Ꭽ	-7.88172
ᎴᎢ	-7.88202
ᏍᎨᏍᏗ	-7.88779
▁ᎢᎨᏎᏍᏗ	-7.88852
ᎮᏍᏗ	-7.89131
▁ᏗᎧᎿᏩᏗᏙᎯ	-7.90756
▁Ꭷ	-7.90945
Ꭵ	-7.90965
▁Ꮩ	-7.91141
▁ᎯᏍᎩ	-7.9125
▁ᏗᎦᎸᏫᏍᏓᏁᏗ	-7.91468
▁ᎠᏯ	-7.9163
▁ᎢᏧᎳ	-7.93395
▁ᎤᏛᏅ	-7.93687
▁ᎡᏏᎩ	-7.94026
▁ᎠᎾᎵᏅᏟ	-7.94646
▁ᏌᏌ	-7.94663
▁ᏗᏣ	-7.94748
▁ᎩᎦᎨ	-7.95654
▁ᎰᎻ	-7.96674
▁ᎦᎶᎯᏍᏗᏱ	-7.96769
▁ᏅᏩᏓᎴ	-7.97183
▁ᎭᏫᏂ	-7.97486
▁ᏑᎾᎴ	-7.97834
▁ᏧᎾ	-7.98076
▁ᎠᎵᏍᏓᏴᏗ	-7.98491
ᏔᏅ	-7.98533
▁ᏍᎩᎾᎾ	-7.98662
Ꮸ	-7.99102
▁ᏅᏙ	-7.99471
Ꮻ	-7.99572
▁ᏒᏃᏱ	-7.99754
▁ᎢᎬᏱᏱ	-7.998
▁ᎢᎾᎨ	-8.00468
▁ᎬᏩᎦᏘᏯ	-8.00808
▁ᎤᏃᏕᎾ	-8.00809
▁ᎠᏧᏣ	-8.0081
▁ᎤᏩᏌ	-8.01805
▁ᏔᎳᏚ	-8.01871
Ꮲ	-8.02489
▁ᎤᏥ	-8.02713
▁ᎦᎸᎶᎢ	-8.03392
▁ᏱᎨᏎᎢ	-8.03932
▁Ꭳ	-8.04853
▁ᏧᎬᏩᎶᏗ	-8.05146
▁ᎩᎳ	-8.05295
▁ᎤᏓ	-8.05476
Ꮜ	-8.05588
▁ᎤᎾᏤᎵᎦ	-8.06581
ᏅᎯ	-8.06871
▁ᏚᏙᎥ	-8.07207
▁ᏚᎾ	-8.0728
Ꮳ	-8.0769
▁ᎢᏤ	-8.0781
▁ᎦᏲᏟ	-8.08386
▁ᏅᏩᏙᎯᏯᏛ	-8.08503
▁ᎠᏏᏴᏫ	-8.08696
▁Ꭵ	-8.0908
ᏍᏛ	-8.09162
ᏉᏍᎩᏂ	-8.09391
▁ᎢᎸᎯᏳ	-8.09647
▁ᎢᏓᎵᏅᏟ	-8.0965
▁ᏧᎾᏁᎶᏗ	-8.09661
ᏍᎩᏂᏃᏅ	-8.10708
Ꮩ	-8.10769
▁ᏱᎨᏒᎾ	-8.10811
▁ᎤᏍᏆᏂᎪᏗ	-8.11954
▁ᎤᏚᎩ	-8.12144
▁ᏗᎦ	-8.13494
▁ᎠᏆᏤᎵ	-8.1425
▁ᎢᎪᎯᏛ	-8.14405
▁ᎠᎬᏱ	-8.14433
Ꮝ	-8.14985
▁ᎣᎩ	-8.15074
▁ᎠᏰᎸ	-8.15184
▁ᏄᎵᏍᏔᏅ	-8.15312
▁ᎡᏆ	-8.15454
▁ᎭᏫᏂᏗᏢ	-8.15607
▁ᎠᏇᏥ	-8.15609
Ꮥ	-8.15911
▁ᏧᏤᎵᎦ	-8.16084
▁ᎩᎳᏉ	-8.16331
▁ᏅᏓᏳᏓᎴᏅᎯ	-8.16839
▁ᏂᏨᏪᏎᎭ	-8.1685
▁ᏄᏂᏪᏒᎩ	-8.16906
▁ᎦᏓᎭ	-8.17407
▁ᎤᏇᏓᎵ	-8.18069
▁ᎦᏳᎳ	-8.18094
▁ᎤᎾᏓᏅᏘ	-8.18119
Ꮤ	-8.18931
ᏎᎢ	-8.19031
▁ᎢᏳᏩᏂᏌᏛ	-8.19352
▁ᎢᏳᏰᏃ	-8.19582
▁ᎢᏐ	-8.19624
▁ᏥᏳ	-8.2024
▁ᏃᏗ	-8.21085
▁ᎢᎦᏛ	-8.21697
▁ᎤᏁᎳᎩ	-8.21951
▁ᎤᏕᎵᏛ	-8.21955
▁ᏧᏙᎢᏛ	-8.21964
▁ᏄᏪᏒ	-8.22029
▁ᏄᏍᏗ	-8.22977
▁Ꮫ	-8.23103
▁ᎢᏯᎦᏴᎵ	-8.23248
▁ᏧᏍᏆᏴᏍᏗ	-8.23323
▁ᎤᏛᏛᏁ	-8.2376
▁ᏗᎪᏢᏔᏅᎯ	-8.24594
▁Ꮶ	-8.24675
ᏁᎢ	-8.25229
▁ᏓᏂ	-8.25407
▁ᏍᏉ	-8.25825
▁ᎠᏁᎲ	-8.26153
▁ᎦᎵᏦᏛ	-8.26589
ᎮᎢ	-8.2684
▁ᏄᎵᏍᏔᏁ	-8.27241
▁Ꮹ	-8.27293
▁ᏄᏓᎴᏒ	-8.27444
ᎸᎢ	-8.27565
ᏍᏗᏱ	-8.28093
▁ᎠᏁᎲᎢ	-8.28117
ᏒᎩ	-8.28535
▁ᎠᏍᏓᏯ	-8.28886
ᏅᎩ	-8.29477
▁ᎤᎾᏤᎵ	-8.29736
▁ᎢᏳᎵᏍᏙᏗ	-8.29902
▁ᎠᎾᏙᎴᎰᏍᎩ	-8.30102
▁ᎦᏁᎸ	-8.3018
▁ᏐᎢ	-8.30224
▁ᏦᎢᏁ	-8.30503
ᏙᏗᏱ	-8.31096
▁ᏃᏉ	-8.31363
▁ᎠᏍᎪᎯᏧᏈ	-8.3156
▁ᎡᎳᏆᏗ	-8.33004
▁ᏧᏅᏏᏓᏍᏗ	-8.33009
▁ᎩᎬ	-8.33043
ᎨᎢ	-8.33249
▁ᏄᎵᏍᏔᏅᎩ	-8.33568
ᎲᎢ	-8.34121
▁ᏌᏩᏂ	-8.34448
▁ᎠᏂᏆᎵᏏ	-8.34449
▁ᏠᎨᏏ	-8.34468
▁ᎠᏲᎱᎯᏍᏗ	-8.34478
▁ᎠᏓᏁᎸ	-8.35452
▁ᎧᏅᏂᏍᎩ	-8.35529
▁ᎠᎦᏴᎵᎨ	-8.36819
▁ᎠᎺᏉᎯ	-8.37455
▁ᏄᏂᎬᏫᏳᏒ	-8.3746
▁ᏧᏕᏘᏴᏛ	-8.37461
▁ᎤᏂᏃᏕᎾ	-8.37464
▁ᏥᏳᎯ	-8.37473
▁ᎤᏁᎬ	-8.37607
▁Ꮭ	-8.37704
▁ᎤᏒᎯ	-8.37915
▁Ꮟ	-8.38834
▁ᎤᏂᎬᏫᏳᎯ	-8.39032
▁ᎤᏃᎴ	-8.39107
ᎪᎢ	-8.39594
▁ᎢᎦᏤᎵ	-8.40446
▁ᎠᏙᎴᎰᏍᎩ	-8.40568
▁ᎠᏍᎪᎵ	-8.40614
▁ᏕᏥ	-8.40674
▁ᏗᏂᎧᎿᏩᏗᏙᎯ	-8.42144
▁ᏣᏄᏏ	-8.42179
▁ᏅᏩᎾᏓᎴ	-8.42953
▁ᏂᎯᏍᎩᏂ	-8.42996
▁ᎠᏍᎦᏂ	-8.43068
Ꮴ	-8.44456
▁ᎾᎿᏂ	-8.45385
ᎨᎶᎯ	-8.46033
▁ᎡᏣ	-8.46765
▁ᎤᏓᏅᏘ	-8.47012
▁ᏧᏂᏍᏆᏂᎪᏙᏗ	-8.47104
▁ᎥᎥ	-8.47117
Ꮆ	-8.47736
▁ᏗᏂᏲᎵ	-8.47929
▁ᏂᎬ	-8.48106
▁ᎤᏬᏰᏂ	-8.48765
▁ᎡᏆᎻ	-8.48775
▁ᎤᎵᏂᎩᏗᏳ	-8.48795
▁ᎡᏝᏪᎯ	-8.48902
▁ᏂᎬᏅ	-8.4914
▁ᎠᎦᏴᎵᎨᎢ	-8.49595
▁ᎤᎵᏏᎩ	-8.5052
▁ᎪᎰᏍᏗ	-8.50522
▁ᏨᏒ	-8.50642
▁ᎢᏨᏒ	-8.50664
ᏁᎸ	-8.5095
ᎬᎢ	-8.51032
▁ᎦᎸᎶ	-8.5153
▁ᎠᏲᎵ	-8.51693
▁ᎡᏥ	-8.52006
▁ᏤᏥ	-8.52027
ᏍᏙᏗ	-8.52215
▁ᏔᎵᏁᏃ	-8.52238
▁ᎦᎾᏝᎢ	-8.52263
▁ᎠᏓᎨᏳᏗ	-8.52278
▁ᎨᎵᎵ	-8.52311
▁ᏥᎨᏒᎩ	-8.52668
▁ᏥᎨᏎᎢ	-8.5288
▁ᎨᏐᎢ	-8.52912
ᎠᏁᎶᎯ	-8.52929
Ꭴ	-8.53054
Ꭳ	-8.53148
Ꮖ	-8.53508
▁ᏕᎦ	-8.53959
▁ᎤᏁᎳᏅᎯᏃ	-8.54019
)	-8.54022
▁ᎢᏯᎩᏳᏍᏈᏛ	-8.54025
▁ᎭᎾ	-8.54176
▁ᎢᏨ	-8.54192
ᏍᎦ	-8.54862
▁ᎠᏄᏬ	-8.55649
▁ᏗᏃᏪᎵᏍᎩ	-8.5584
▁ᎠᏍᎩᎾ	-8.55862
▁ᎤᏤᎵᎪᎯ	-8.55898
▁ᎤᏅᏏᏓᏍᏗ	-8.55911
▁ᏕᏫ	-8.55928
▁ᎢᏗ	-8.56025
Ꮷ	-8.56489
▁ᎦᏰᎪᎩ	-8.57713
▁ᎠᏂᏴᏫᏯ	-8.57736
▁ᎢᎪᎯᏓ	-8.57741
ᏍᎬᎢ	-8.57746
▁ᎠᎦᏔᎲᎢ	-8.58157
▁ᎭᏂ	-8.58541
▁ᎣᏓᎸ	-8.58844
▁ᏗᏥ	-8.5903
▁(	-8.59578
Ꮘ	-8.59854
▁ᎦᎸᏉᏗ	-8.59886
Ꭱ	-8.59972
▁Ꮨ	-8.60893
Ꭷ	-8.61006
ᎦᎵ	-8.61302
ᏒᎢ	-8.61325
▁ᏗᏆᏤᎵ	-8.61366
▁ᎤᏴᏍᏗ	-8.61378
▁ᎴᏆᏂ	-8.61502
▁ᎠᏃᎯᏳᎲᏍᎩ	-8.61506
▁ᏓᏆᎴᎳ	-8.61514
▁ᎤᏣᏔᏅᎯ	-8.61519
▁ᏥᏍᏕᏥ	-8.61528
▁ᎠᏰᎳᏍᏗ	-8.61547
▁ᎤᎬᏫᏳᏌᏕᎩ	-8.61565
▁ᎧᏁᏌᎢ	-8.61595
▁ᏄᏍᏕᏍᏗ	-8.6161
▁ᎨᏐ	-8.62775
ᏔᏅᎩ	-8.62948
Ꮹ	-8.62978
▁ᏄᏓᎴ	-8.63048
▁ᏣᏤᎵ	-8.63129
▁ᎪᎢ	-8.63388
▁ᎠᏛ	-8.63451
▁ᎧᏁᏍᎦ	-8.63465
▁ᎠᏂᏍᎩᎾ	-8.63468
▁ᏗᎦᏙᎵ	-8.6351
ᏍᎨᎢ	-8.63719
▁ᎠᎩᎾ	-8.63758
▁ᎨᎳᏍᏗᏱ	-8.64248
▁ᎤᏰᎸᏗ	-8.64546
▁ᎤᏛᎦᏅ	-8.64747
▁ᏫᏥ	-8.65227
▁ᎦᏚᎲᎢ	-8.65446
▁ᏗᏂᏲᏟ	-8.65462
▁ᎠᏌᎻᏓ	-8.65462
▁ᎨᏥᏅᏏᏛ	-8.65471
▁ᎺᎵ	-8.65507
▁ᎠᏗᎾ	-8.65539
▁ᏧᏁᏥ	-8.65558
▁ᎠᏂᏏᏴᏫᎭ	-8.6556
▁ᎤᏲᎱᏒ	-8.65875
▁ᎢᎦᏛᏃ	-8.66187
▁Ꮸ	-8.66427
▁ᎠᎾ	-8.66519
▁ᎤᏰᎸᏛ	-8.66774
▁ᏥᎨᏒ	-8.67128
▁ᎤᎪᎲ	-8.67204
▁ᏗᏣᏤᎵ	-8.67368
▁ᎢᎸᎯᏢ	-8.67503
▁ᎦᏩᏒᎩ	-8.67503
▁ᏧᏂᏲᎱᏒᎯ	-8.67509
▁ᎢᏳᏕᏘᏴᏛ	-8.67513
▁ᎤᏕᏁᎴᎢ	-8.67532
▁ᎪᏢᏔᏅᎯ	-8.6757
▁ᎢᏯ	-8.67654
▁ᎠᏥ	-8.67724
▁ᏑᏓᎵ	-8.67894
▁ᎠᏍᎪᎯ	-8.67921
▁ᎠᏎᏉ	-8.68415
ᏧᏈ	-8.68645
▁ᎢᏳᏍᎩᏂ	-8.68771
▁ᏥᎨᏎ	-8.69016
▁ᎬᏅ	-8.69018
Ᏺ	-8.69039
▁Ꮁ	-8.69549
▁ᏅᏓᎬᏩᏓᎴᏅᏛ	-8.6959
▁ᏣᏁᎳᏅᎯ	-8.69658
▁ᏂᎪᎯᎸᎢ	-8.69728
▁ᎢᏳᎾᏍᏗ	-8.69853
ᏍᎨ	-8.7002
▁ᎠᎦᏙᎥᎯᏍᏗ	-8.70107
▁ᎤᏒ	-8.70267
ᎬᎾ	-8.70293
ᏗᎦᎳᏫᎢᏍᏗᏱ	-8.7079
▁ᎤᎾᏓᏡᎬ	-8.71026
▁ᎧᏁᎬ	-8.71051
▁Ᏼ	-8.7125
ᏍᎪᎢ	-8.71408
ᏔᏁᎢ	-8.71638
▁ᏗᏓᏍᏚᏗᏱ	-8.71715
▁ᏃᏯ	-8.71767
▁Ꮕ	-8.7177
▁ᏅᏲᎯ	-8.71779
ᏁᏗᏱ	-8.7182
▁ᏥᎦᏔᎭ	-8.71907
ᎲᎩ	-8.71948
ᏍᏔᏅ	-8.72044
Ꮯ	-8.72229
o	-8.72402
▁ᏄᏪᏎ	-8.72911
▁ᏅᏗᎦᎵᏍᏙᏗᏍᎨ	-8.72931
ᎭᏩ	-8.73267
▁ᎨᏴ	-8.73359
▁ᏔᏕᏲᎲᏍᎩ	-8.73888
▁ᏆᎴᏗ	-8.73896
▁ᏗᏤᏥ	-8.73907
▁ᎥᏣᏱ	-8.73924
▁ᎤᎾᏤᎵᎪᎯ	-8.73928
▁ᏗᎾᏓᏅᏟ	-8.74074
▁ᎤᏐᏅ	-8.74237
▁ᎤᎵ	-8.75133
▁ᎤᏅᏗ	-8.75161
▁ᎤᎾᏛᎦᏅ	-8.75224
▁ᏂᎦ	-8.75402
▁ᎠᎲ	-8.75548
▁ᎰᏩ	-8.75775
▁Ꮀ	-8.75888
▁ᏗᏂ	-8.75982
▁ᏅᎦᏍᎪᎯ	-8.76112
▁ᎤᎵᎮᎵᏍᏗ	-8.76147
▁ᎤᎴᏅᎮ	-8.76162
▁ᏅᏓᎦᎵᏍᏙᏗᏍᎬᎩ	-8.76172
▁ᎤᏲᎢᏳ	-8.76238
▁ᎠᎳᏂ	-8.7626
▁ᎬᏘ	-8.76263
▁ᏚᏬᎡᎢ	-8.76269
▁ᎡᎶᏛ	-8.76314
▁ᎤᏠᏱ	-8.76349
▁ᎠᏂᏯᏫᏍᎩ	-8.7651
ᏎᏍᏗ	-8.76577
Ᏸ	-8.76789
▁ᏓᏔᎴᏒ	-8.76953
▁ᎠᏂᏐᎢ	-8.77119
▁ᎤᎷᏨ	-8.77245
▁ᎦᏁᎸᎢ	-8.77285
▁ᎦᎵᏦᏛᎢ	-8.77321
▁ᎤᏙᎯᏳ	-8.77391
ᏔᏁ	-8.77491
▁-	-8.77559
▁ᎤᎧᏛ	-8.77655
▁ᎤᏅ	-8.77782
ᎾᏍᎩ	-8.77896
▁ᏌᏉᏉ	-8.78
▁ᏂᎯᏃ	-8.78057
ᏒᎯ	-8.78104
▁ᏗᏅᏃᏛ	-8.7811
▁ᎡᎺᏅ	-8.78384
▁ᎬᏩᏚᏫᏛ	-8.78385
▁ᎠᏂᏧᏣ	-8.7839
▁ᎩᎳᏈᏴ	-8.78396
▁ᎠᎬᏱᏣ	-8.78442
▁ᎭᏫᏂᏣ	-8.78452
▁ᎣᎯᏍᏙᏗ	-8.78458
▁ᎾᏍᎩᏍᎩᏂ	-8.78482
▁ᎬᏔᏅᎯ	-8.78592
Ꮠ	-8.78769
▁Ꭻ	-8.79068
▁ᎬᏂᎨ	-8.79164
▁ᎣᏂᏃ	-8.79238
▁ᎦᏍᎩᎸ	-8.79975
▁ᏂᏚᏪᏎᎴ	-8.7999
▁ᎤᏙᎴᎰᏒ	-8.80192
▁ᏥᏚ	-8.80666
▁ᎴᏥᎵ	-8.8072
▁ᎤᏣᎴᏍᏗ	-8.80726
▁ᏂᏣ	-8.80961
▁ᎦᎸᎳᏗᏢ	-8.80971
▁ᎭᏢ	-8.81089
▁Ꮴ	-8.81984
ᎨᎳᏍᏗᏱ	-8.82145
▁ᏓᎦ	-8.8235
▁ᏥᎨᏐ	-8.82357
▁ᏂᏥᎥ	-8.82373
▁ᏍᎩᏴ	-8.82523
▁ᎤᏓᏅᏙ	-8.82605
▁ᏱᎦ	-8.82769
▁ᏗᏄᏬ	-8.82892
▁ᏫᎾᏍᏛᎾ	-8.8309
▁ᏧᏒᎯᏛ	-8.83136
▁ᏎᎵ	-8.83215
▁ᎤᏁ	-8.83383
▁ᏤᎯ	-8.83529
▁ᏗᎬᏩ	-8.84602
▁ᏚᏏᎳᏛ	-8.84692
ᎬᎩ	-8.84739
▁ᎤᎾᏙᏓᏆᏍᎬ	-8.84766
▁ᎢᎸᏍᎩ	-8.84923
▁ᎢᏯᏂ	-8.85012
ᏁᎸᎯ	-8.85136
ᏍᏓ	-8.85265
▁ᏖᎸᎳᏗ	-8.85529
▁ᎦᎵᏦᏕ	-8.85533
▁ᎡᏉᏂ	-8.85549
▁ᎾᏂᏪᏍᎨᎢ	-8.85616
▁ᏔᎷᎩᏍᎩ	-8.85759
▁ᎠᏆᏤᎵᎦ	-8.85836
▁ᎡᎭ	-8.86669
▁ᏧᏗᏱ	-8.86892
▁ᎠᏋᏒ	-8.87023
▁ᎠᎦ	-8.87758
▁ᎨᎾᏂ	-8.87812
▁ᎭᏫᏯ	-8.88031
▁ᎤᏏᏙᎵ	-8.88045
▁ᎢᏳᏟᎶᏛ	-8.88052
▁ᏃᏈᏏ	-8.88067
▁ᏂᎬᏩᏪᏎᎴᎢ	-8.88077
▁ᏕᏣ	-8.88218
▁ᎪᏱᏁᎢ	-8.88245
▁ᎦᏚᏏ	-8.88455
▁ᏤᏍᏗ	-8.88697
▁ᎠᏂᎦᏔᎲ	-8.89444
▁ᎤᏁᏤ	-8.89656
▁ᎢᎾᎨᎢ	-8.89814
ᏓᏁᏗ	-8.90233
▁ᏭᏕᎵᎬ	-8.90593
▁ᏗᏨᏍᏙᏗ	-8.90598
▁ᏑᎾᏓᏡᎩ	-8.90601
ᏒᎾ	-8.90632
▁ᏧᏂᎸᏫᏍᏓᏁᎯ	-8.90673
▁ᎢᎾᏛ	-8.90692
▁ᎫᏩ	-8.9083
▁ᏅᏗᎦᎵᏍᏙᏗᏍᎨᏍᏗ	-8.9084
▁ᎦᏍᎩᎶ	-8.91181
▁ᏥᎨᏐᎢ	-8.91395
▁ᎠᏴᏃ	-8.91681
▁ᎡᎯᏍᏗ	-8.92185
ᎲᎾ	-8.92284
▁ᏗᎫᎪᏙᏗ	-8.92291
▁ᎤᏪᎵᏎ	-8.9237
▁ᏄᎾᏍᏛ	-8.92471
ᏛᎾ	-8.9258
▁ᎤᏁᏤᎴ	-8.92666
▁ᎨᏥ	-8.92685
▁ᎣᎭᏁ	-8.92798
ᏗᏍᎬ	-8.93217
▁ᎬᏃᏛ	-8.93239
▁ᏗᎵᏍᏓᏴᏗᏱ	-8.9326
▁ᎠᏥᎸᏉᏗᏳ	-8.93312
▁ᎤᏁᎳᏅᎯᏍᎩᏂ	-8.93312
▁ᎤᏙ	-8.93334
▁ᏂᏚ	-8.9356
▁Ꭺ	-8.93778
ᎴᏍᏗ	-8.93889
ᏗᏍᎩ	-8.9415
ᎯᎠ	-8.94181
▁ᏂᎦᏪᏍᎬ	-8.94673
▁ᎤᎵᏏᎬ	-8.9514
▁ᎡᎶ	-8.95147
▁ᎤᏪᎷᏁ	-8.95173
▁ᏄᏛᏁᎴ	-8.95196
▁ᎬᏂᏳᏉᏃ	-8.95225
▁ᎠᏆᏓᏅᏙ	-8.95421
▁ᏥᏍᏆ	-8.95649
ᎯᏳ	-8.95705
▁ᎢᏅ	-8.95852
▁ᎦᎵ	-8.95862
▁ᎤᏂᎷᏤ	-8.95871
▁ᏧᎾᏤᎵ	-8.95889
▁ᏂᎦᏪᎭ	-8.95964
▁ᎥᏞᏍᏗ	-8.95967
▁ᎠᎰᎵ	-8.96028
▁ᎠᎵ	-8.96249
▁ᎠᏎᏉᏉ	-8.96405
▁ᎣᎦ	-8.96537
Ꮇ	-8.96863
▁ᎤᎬᏫᏳ	-8.97028
▁ᎮᎾ	-8.97048
ᏕᏍᏗ	-8.97223
▁ᏣᏥ	-8.97257
▁ᎡᎵ	-8.97577
▁ᎠᏰᎸᎢ	-8.97587
Ꮪ	-8.97662
▁ᏑᎾᎴᎢ	-8.97792
▁ᎠᏓᏅᏖᏍᎬ	-8.97949
▁ᎨᏣ	-8.98219
Ꮔ	-8.98249
▁ᎣᏥ	-8.98307
ᎰᎢ	-8.98394
▁ᎠᎵᏍᎪᎸᏙᏗ	-8.98499
▁ᏫᏚ	-8.98517
▁ᎤᏍᎪᎸ	-8.98568
▁ᎩᎶᏍᎩᏂ	-8.98701
▁ᏦᎠᏍᎪᎯ	-8.98706
▁ᏧᏆᎶᎦ	-8.98707
▁ᎩᎦ	-8.98712
▁ᏗᏂᎳᏫᎩ	-8.98741
▁ᎤᎩᎬ	-8.98762
▁Ꮤ	-8.98764
▁ᏧᎾᏤᎵᎦ	-8.98863
▁ᏣᏁᎭ	-8.98875
▁ᎩᎦᎨᎢ	-8.99192
Ꮋ	-8.9925
▁ᎤᏩᏒᏉ	-8.9958
ᏁᏢᏔᏅᏛ	-9.00144
▁ᏍᎩᎾ	-9.00396
▁ᏗᎬ	-9.00465
▁ᏓᏳ	-9.00645
▁ᏅᏗᎦᎵᏍᏙᏗᏍᎬ	-9.00839
▁ᎢᏣᎵᏍᏓᏁᏗ	-9.01292
▁ᏩᎭᏯ	-9.01562
▁ᏗᎧᎸᎬ	-9.01563
▁ᏙᏱᏗᏢ	-9.01579
▁ᏣᎳᎩ	-9.01617
▁ᎡᎶᏗ	-9.01871
▁ᎤᏠᏱᏉ	-9.02037
▁ᎠᏙᎯ	-9.02187
Ꮺ	-9.02202
ᏙᎢᏳᏍᏗ	-9.02568
ᎯᏍᏗ	-9.0261
▁ᏱᏓ	-9.0269
▁ᎦᎶᎯᏍᏗ	-9.02829
▁ᎤᏣᏘᏂ	-9.03586
▁ᎤᏚᎵᏍᎬ	-9.03798
▁ᎤᎾᏓ	-9.03904
▁ᎢᏳᎾᎵᏍᏓᏁᏗ	-9.04275
▁ᎢᏳᎾᏛᏁᏗ	-9.04299
ᏁᎴ	-9.04497
▁ᎯᏍᎦᏍᎪᎯ	-9.04503
▁ᏂᏚᏳᎪᏛᎾ	-9.04504
▁ᏧᏬᏰᏂ	-9.04507
▁ᎠᏂᏲᏍᎩ	-9.04519
▁ᏣᏁᏢᏔᏅᎯ	-9.04532
▁ᏣᏙᏓ	-9.04556
▁ᎤᏂᏙᏓ	-9.04575
▁ᏩᏍᏛ	-9.04595
▁ᎬᏩᏂ	-9.04609
▁ᏱᏥᎦᏔᎭ	-9.04622
▁ᏥᎻ	-9.04766
▁ᎤᏍᏆᏂᎩᏗ	-9.04816
▁ᎶᏗ	-9.04965
▁ᎾᎥᏂᎨ	-9.05187
ᏍᏓᏯ	-9.05281
▁ᎤᎦᏔ	-9.05476
▁ᎤᎵᏍᏆᎸᏗ	-9.05735
▁ᎠᏂᏅ	-9.06074
ᏗᏍᎨᏍᏗ	-9.06137
▁ᎤᏐᏱ	-9.06488
▁ᎤᏩ	-9.06525
▁ᎤᏪ	-9.06663
▁ᎬᎩ	-9.06677
▁ᏱᏣ	-9.06947
ᏔᏂ	-9.07333
▁ᎤᎵᏍᏓᏴᏗ	-9.07362
▁ᏕᎤ	-9.07441
▁ᎤᏪᏘ	-9.07498
▁ᏱᎦᎵᏍᏙᏓ	-9.07537
▁ᎵᎠ	-9.07539
▁ᎤᎵᏍᏈᏗ	-9.07541
▁ᎠᏥᏅᏏᏓᏍᏗ	-9.07545
▁ᏃᏊ	-9.07548
▁ᎢᏥᏍᎦᏯ	-9.0756
▁ᏎᎦ	-9.07682
▁ᎤᏁᎦ	-9.07694
▁ᎤᎧᎵᏨᎯ	-9.07697
▁ᏧᏓᏏ	-9.07699
▁ᎠᎦᏔᎲ	-9.07748
▁ᎤᎾᏝᎢ	-9.07774
Ꮚ	-9.07874
ᏗᎭ	-9.08146
▁ᎤᏍᎪᏍ	-9.08155
▁Ᏺ	-9.0817
▁ᎢᏤᎲᎢ	-9.08326
--	-9.08839
ᏛᎢ	-9.09297
▁ᎢᏤᎲ	-9.09486
ᏁᏗ	-9.09487
▁ᎠᎹᏱ	-9.0959
▁ᏄᏪᏎᎸ	-9.09729
▁ᎠᏴᏍᎩᏂ	-9.0989
▁ᏓᎩ	-9.10396
▁ᎤᎷᏤ	-9.10578
▁ᎵᏇᎩ	-9.10658
▁ᏚᏅᏓᏒ	-9.10659
▁ᏒᎦᏔ	-9.10659
▁ᎤᎦᎾᏍᏛ	-9.10666
▁ᎦᎶᏇ	-9.10681
▁ᏏᏌ	-9.10725
▁ᏚᎾᏙᎥ	-9.10731
▁ᏥᏄᏍᏗ	-9.10746
▁ᎬᏙᏗ	-9.10825
ᎸᎭ	-9.10886
▁ᎦᎸᎳᏗᏣ	-9.10977
ᏍᏔᏁᎢ	-9.11117
Ꮭ	-9.11446
▁ᏧᏓ	-9.11962
ᏍᏘ	-9.1225
▁ᎡᎲ	-9.13064
▁ᏡᎬ	-9.13269
▁ᏛᎦ	-9.1341
ᎯᏍᏗᏱ	-9.13652
▁ᎢᏯᏛᏁᏗ	-9.13658
▁ᏱᏚ	-9.13806
▁ᏎᏓᏂ	-9.13886
▁ᏔᎴᎲᎦ	-9.13886
▁ᏥᎪᏪᎳ	-9.13891
▁ᎠᏂᏳᏩᏁᎦ	-9.13892
▁ᏧᏓᏆᏙᎩ	-9.13897
▁ᎠᏂᏴᏫ	-9.139
▁ᎢᎬᏁᎸᎯ	-9.13919
▁ᎦᏚᎢᏣ	-9.13923
▁ᎤᏲᎱᏎᎢ	-9.14122
▁ᏓᏥ	-9.14243
▁ᏭᎷᏤ	-9.14331
▁ᎢᏳᎵᏍᏓᏁᏗ	-9.14453
▁ᎠᏗᏔᏍᏗ	-9.14455
▁ᎬᏅᎢ	-9.15086
▁ᏄᎾ	-9.15511
Ꮦ	-9.15589
▁ᎨᎵ	-9.15722
ᏏᏴᏫᎭ	-9.15957
▁ᎤᏬᏢ	-9.16005
▁ᎤᏂᏍᎦᏅᏨ	-9.1612
▁ᏕᎯ	-9.16393
▁ᎤᏛᎦᏁ	-9.16453
▁ᏄᎵᏍᏔᏂᏙᎸ	-9.1646
▁ᎦᏰ	-9.16558
▁ᏈᎵᎩ	-9.17077
▁ᎨᎻᎵ	-9.17218
▁ᏧᎸᏫᏍᏓᏁᎯ	-9.17218
▁ᏅᏓᎦᎵᏍᏔᏂ	-9.17218
▁ᏔᎳᏍᎪᎯ	-9.17218
▁ᎢᏣᎵᏅᏟ	-9.1722
▁ᎦᏅᏍᏙᏗ	-9.17224
▁ᏕᏧᎬ	-9.17225
▁ᎤᎾᏓᏤᎵᏛ	-9.17228
▁ᎯᏅᏏᏓᏍᏗ	-9.17246
▁ᎢᏥᏙᏓ	-9.17248
▁ᏧᎾᏛᏐᏅᎯ	-9.17272
▁ᎢᏣᏛᏁᏗᏱ	-9.17301
▁ᏂᏗ	-9.17629
▁ᎤᏕᏯᏙᏗ	-9.17671
▁ᎦᏚᎢ	-9.17746
▁ᏙᏱ	-9.18117
▁ᎤᏂᎪᎲ	-9.1903
ᏙᎸᎢ	-9.19111
▁ᎤᎶᎩᎸ	-9.19255
▁ᎬᏗᏍᎬ	-9.19691
ᎣᏍᏓ	-9.19825
▁ᏂᎯᏰᏃ	-9.19942
▁ᎤᏛᎾ	-9.20537
▁ᏐᎣᏁᎳ	-9.20666
▁ᎠᏂᎨᏯ	-9.20667
▁ᎤᎩᏨᏛ	-9.20681
▁ᏥᏂᎬᏅ	-9.20689
▁ᎢᏯᏛᏁᎯ	-9.20692
▁ᎠᏕᎳ	-9.20699
▁ᎢᏨᎨᏳᎢ	-9.20706
▁ᏂᎦᎵᏍᏗᎭ	-9.20718
▁ᎦᎸᏉᏙᏗ	-9.20735
▁ᎤᎴᏂᏙᎴᎢ	-9.20758
▁ᎦᏁᎦ	-9.20767
▁ᏓᎾ	-9.20897
▁ᎢᏯᏍᏗ	-9.21003
▁ᏭᎶᏎᎢ	-9.21077
▁ᎡᎮᎢ	-9.21175
▁ᎾᎯᏳᏉ	-9.21253
▁ᎦᎵᏉᎩᏁ	-9.21415
▁ᎤᎷᏨᎩ	-9.21439
▁ᎤᎪᎮ	-9.21461
▁ᎤᏪᏅᏎ	-9.2168
▁ᏂᎦᎥᏉ	-9.22076
▁ᎤᏁᏤᎸ	-9.22816
▁ᎦᏬᏂᏍᎬ	-9.22955
ᎨᏳᎯᏳ	-9.23126
ᎠᏗᏔᏍᏗ	-9.23296
ᏗᎦᏅᏌᏗ	-9.23323
Ꮱ	-9.23511
▁ᏗᎨᏒ	-9.23732
ᎧᏔᎮᎢ	-9.23763
▁ᏂᎬᎾᏛᎢ	-9.23847
▁ᎤᎵᏍᏆᏗᏍᏗ	-9.23987
▁ᏧᏂᎾᏫ	-9.24024
▁ᎠᏂᏍᎦᎾ	-9.24168
▁ᎤᎾᏫ	-9.24248
▁ᏓᏆᎴᎷ	-9.24256
▁ᏅᎬᏩᏪᏎᎸᎩ	-9.24266
▁ᎢᏥᎦᏔᎭ	-9.24302
▁ᏏᏓᏁᎸᎯ	-9.24343
▁ᎠᏂᏃᎯᎵᏙᎯ	-9.24371
▁ᎠᏓᏁᎯ	-9.24376
▁ᎤᏟᎯᏳ	-9.24379
▁ᎦᏛᎦ	-9.24556
▁ᎠᏤᎯ	-9.2459
▁ᏤᎭ	-9.24869
▁ᎢᎬᏩ	-9.24936
▁ᎢᎦᏓ	-9.25161
▁ᎠᏂᎦᏔᎲᎢ	-9.25302
Ꮗ	-9.25491
ᏛᎩ	-9.25594
▁ᎦᏓᏁ	-9.25763
▁ᎠᏓᏅᏓᏗᏍᏗ	-9.26017
ᎲᎦ	-9.26432
▁ᏴᏫᏉ	-9.26667
▁ᎪᏪᎸ	-9.26748
▁ᏅᏩᏓᎴᏃ	-9.26766
▁ᏥᏓ	-9.26791
▁ᎠᏂᏬᏂᏍᎬ	-9.27189
▁ᏄᏩᏁᎴ	-9.27239
▁ᏂᎦᎵᏍᏗᏍᎬ	-9.27417
▁ᎠᏠᏁᏗ	-9.27941
▁ᏓᎿᏩ	-9.27941
▁ᏅᏓᏳᎶᏒᎯ	-9.27948
▁ᎧᏃᎯᏰᎩ	-9.2795
▁ᎡᏉᎯᏳ	-9.27951
▁ᎠᎦᏘᏏᏗᏢ	-9.27964
▁ᏧᏳᎪᏗ	-9.27976
▁ᎾᏍᎩᏯᏉ	-9.27979
▁ᏗᏰᎸᎯ	-9.27991
▁ᎤᏔᎳᏬᎯᏍᏗ	-9.28013
▁ᎦᎷᏨᎭ	-9.28026
▁ᏅᏃᎯ	-9.28114
▁ᎠᎹᏟ	-9.28121
▁ᎠᏆᏛᏅ	-9.28219
▁ᎤᏂᏲ	-9.28407
▁ᎤᎾᎵ	-9.28548
▁ᏧᏂᏍᏗ	-9.28771
▁ᎪᏪᎸᎢ	-9.28776
▁ᎤᏁᏨᎩ	-9.3009
▁ᏄᏛᏁᎸ	-9.30306
▁ᎦᏙᎨ	-9.30363
---	-9.30682
▁ᏄᏍᏕ	-9.30889
▁ᎤᏕᏘᏴᏌᏗᏒ	-9.31007
▁ᏕᎤᏙᎥ	-9.3104
▁ᏓᏳᏓᎴᏅ	-9.31053
▁ᎠᏍᏛ	-9.31196
▁ᎦᏙᎬ	-9.31306
▁ᏗᏏᏓᎵ	-9.31787
▁ᎣᏣᎵᏅᏟ	-9.31788
▁ᏤᎩᏏᏂ	-9.31788
▁ᏆᏂᏆ	-9.31789
▁ᎯᎸᎢᏴ	-9.3179
▁ᎢᏓᏓᏅᏟ	-9.31794
▁ᎨᏥᎸᏉᏗ	-9.31796
▁ᏗᎨᎦᏁᎶᏗ	-9.31798
▁ᎠᏈᎻᎴᎩ	-9.31807
▁ᏗᏇᏥ	-9.31807
▁ᎤᎦᎵᏍᏗ	-9.31811
ᏅᏏᏛ	-9.3183
▁ᏩᎶᏏ	-9.31848
▁ᎬᏩᏕᏁᎴᎢ	-9.31888
▁ᎾᎩᏪᏎᎸᎩ	-9.31897
▁ᏕᏣᏓᏅᏛᎢ	-9.31979
▁ᎠᏓᏫ	-9.3198
▁ᏦᏰᏂ	-9.32048
▁ᏧᏩ	-9.3222
ᏱᎩ	-9.32262
▁ᎠᏂᎪᎢ	-9.32321
▁ᎪᏍᏓ	-9.32414
▁ᏧᎬ	-9.33326
▁ᎯᎪ	-9.33464
▁ᎪᏪᎵᎯ	-9.33529
▁ᎪᎳ	-9.33561
▁ᎠᏯᏙ	-9.33672
ᏍᎪᎯ	-9.3379
ᎢᏍᏗᏱ	-9.34551
ᏁᎭ	-9.34561
▁ᏚᎴᏅ	-9.34581
▁ᎾᏃ	-9.34836
▁ᎦᎸ	-9.34883
▁ᏕᏣᏙᎥ	-9.35013
ᏙᎯ	-9.35158
▁ᎢᏣᏤᎵ	-9.35686
▁ᏘᏅᏏᏓᏍᏗ	-9.35794
▁ᏄᏂᎬᏫᏳᏌᏕᎩ	-9.358
▁ᎥᏓᎵ	-9.35806
▁ᎢᎳᏯ	-9.35815
▁ᎤᎾᎵᏍᏕᎸᏙᏗ	-9.35825
▁ᏗᏘᏂᏙᎯ	-9.35852
▁ᏐᎳ	-9.35873
▁ᎠᏁᏙᎯ	-9.35873
▁ᏗᎨ	-9.35983
▁ᎤᏩᏒᎯᏳ	-9.35988
▁ᏎᎦᏨ	-9.3599
▁ᏗᏣᏤᎵᎦ	-9.36091
▁ᎤᏙᎯᏳᏒ	-9.36131
▁ᎤᏕᏅᎯ	-9.36168
ᏨᎩ	-9.3626
▁ᎠᏍᏓᏱ	-9.36292
▁ᎬᏗᏍᎩ	-9.36328
▁ᎠᎦᏗ	-9.36423
▁ᏭᏂ	-9.37062
▁ᎠᏂᏓ	-9.37318
ᎧᏂ	-9.37368
ᏛᏁᏗ	-9.37386
▁Ꮑ	-9.37389
▁ᎣᏓᎸᎢ	-9.37399
ᎦᏅᎯᏛ	-9.37447
ᎢᏳᏍᏗ	-9.37517
e	-9.38629
▁ᎠᎵᏍᏚᎶ	-9.38796
ᎩᏍᏗ	-9.38884
▁ᎥᎩ	-9.3898
ᏌᏛ	-9.39145
ᏅᏒ	-9.39241
▁ᎠᏥᎸᏱ	-9.39287
▁ᏱᏥ	-9.3939
▁ᏄᏩᏁᎸ	-9.39571
▁ᏙᏛ	-9.39647
▁ᎤᎶᏐᏅ	-9.39687
▁ᎠᎦᏴᎵ	-9.39879
▁ᎠᎧᎵᎢ	-9.39888
▁ᎠᏰᏙᎳᏛᏗ	-9.39928
▁ᏩᏏᏓᏂ	-9.39954
▁ᏓᏏᎳᏛ	-9.39955
▁ᏚᏬᏢᏔᏅᎩ	-9.39967
▁ᏗᏓᏅᏙ	-9.3998
▁ᎠᎨᏳᏣ	-9.40001
▁ᏱᏄᏍᏗ	-9.40007
▁ᏗᎨᏫ	-9.40012
▁ᏧᏂᎸᏫᏍᏓᏁᏗᏱ	-9.40048
▁ᎠᎹᏰᎵ	-9.4007
▁ᎤᏍᎦᏃᎵ	-9.40081
▁ᏥᏁᎬᎢ	-9.40325
▁ᏂᏥ	-9.40416
▁ᎠᏤ	-9.40432
▁ᎤᏲᎱᏒᎯ	-9.4069
▁ᎨᏂ	-9.40714
▁ᎪᎩ	-9.4077
▁ᎢᎬ	-9.40871
▁ᎫᏢᏗ	-9.40899
ᎯᏍᏙᏗ	-9.41011
ᎠᏂᎳᏍᏓᎸ	-9.41036
ᏍᏙ	-9.41139
▁ᏗᎩ	-9.4141
▁ᎧᏁᎬᎢ	-9.41442
ᏍᎬᎾ	-9.41635
▁Ꮡ	-9.4166
▁ᏚᏁᏤᎴ	-9.41732
▁ᏗᎦᎸᏉᏗ	-9.41791
▁ᎾᏂᎥᏉ	-9.42418
▁ᎠᎲᎢ	-9.42597
ᏅᎢ	-9.42617
▁ᏚᏙᎥᎢ	-9.42797
ᎨᏒ	-9.42878
▁ᎠᏦᏴ	-9.43547
▁ᏗᏓᎴᏂᏍᎬ	-9.43552
▁ᎤᏬᎸ	-9.438
▁ᎣᏏ	-9.43815
t	-9.43816
▁ᏗᎦᎫᏍᏛᏗ	-9.44065
▁ᏍᏈᏍᏓ	-9.44302
▁ᎠᏍᏆᎨᏂ	-9.44302
▁ᎵᏫ	-9.44305
▁ᎨᏥᏅᏏᏓᏍᏗ	-9.44308
▁ᎧᏂᎩᏓ	-9.44331
▁ᎦᏬᏂᏍᎩ	-9.44334
▁ᏚᏬᏢᏅᎩ	-9.44336
▁ᎢᎩᏙᏓ	-9.44338
▁ᎾᏍᎦᏅᎾ	-9.44345
▁ᎤᏗᎴᎩ	-9.44347
▁ᎧᏃᎮᏍᎩ	-9.44348
▁ᏍᏔᏯ	-9.44389
▁ᎤᎾᏁᎳᎩ	-9.44423
▁ᎢᏳᏍᏗᏉ	-9.44424
▁ᎤᏅᏌ	-9.44438
▁ᎠᏢᏗᏱ	-9.44452
▁ᎦᎶᏙᏗ	-9.4446
Ꮼ	-9.44495
ᏕᎢ	-9.44529
▁ᎠᏲᎩ	-9.44558
▁ᎤᏓᏅᏘᏳ	-9.44589
▁ᎤᏂᏥ	-9.44596
▁ᎤᏅᏟ	-9.44619
▁ᏱᏗᏥ	-9.44678
ᏒᎭ	-9.44873
▁ᎦᎶ	-9.44906
▁ᎤᎵᏍᏗ	-9.44976
▁ᎦᏅᎯᏛ	-9.45233
▁ᏕᎨ	-9.4538
▁ᏂᏓ	-9.45393
▁ᎡᎲᎢ	-9.45627
▁ᏥᏕ	-9.4578
▁ᎤᏓᏅᏖ	-9.46332
ᏤᎢ	-9.46452
▁ᎠᏍᎦᎾ	-9.46467
▁ᏱᏗ	-9.46715
▁ᏅᏓ	-9.46718
▁ᏓᎬ	-9.47235
▁ᎠᏔᎴᏒ	-9.47548
ᎠᎴ	-9.4756
▁ᏫᏣ	-9.47866
▁ᏦᎩ	-9.47954
▁ᏓᏓᎿᏩᏍᏛ	-9.48041
▁ᎤᏂᏣᏖ	-9.48059
▁ᏂᏚᎩᏨᏂᏒ	-9.48066
ᏚᎵᏍᎬᎾ	-9.48076
▁ᏓᏆᏙᎥ	-9.48085
▁ᎢᎦᎦᏛ	-9.48198
▁ᏗᎧᏃᏗ	-9.48649
▁ᏧᎸᏫᏍᏓᏁᏗ	-9.48675
▁ᏩᏚᎵᏏ	-9.48848
▁ᎦᎷᏯᏍᏗ	-9.48849
▁ᎪᏍᏚ	-9.48851
▁ᏧᏯᏖᎾ	-9.48852
ᎴᎯᏐᏗ	-9.48855
▁ᏧᏃᏰᏂ	-9.48857
▁ᏓᎦᎷᏥ	-9.48868
▁ᏅᏛᎩᏅᏏᏛ	-9.4887
▁ᏂᎦᏪᏍᎨᎢ	-9.4887
▁Ꭹ	-9.48872
▁ᏧᏂᏢᎩ	-9.48884
▁ᏗᏂᎦᏙᎵ	-9.48887
▁ᎾᏎᎵᏗ	-9.48889
▁ᎠᎩᏅᏏᏙᎯ	-9.48894
▁ᎯᎸᎯᏳ	-9.48915
▁ᎬᏂᏗᏳ	-9.4892
▁ᎠᏂᎩᏏ	-9.48922
▁ᎤᏍᏆᎸᎲ	-9.4894
▁ᏗᎧᏃᏗᏱ	-9.49074
▁ᎠᎩᏏ	-9.49175
▁ᎤᏂᎷᏨᎩ	-9.4926
▁ᎭᎾᎾ	-9.49424
▁ᎤᏥᎸᎢ	-9.49556
ᏍᏆ	-9.49598
▁ᎠᎼ	-9.49671
▁ᎢᎦᏘ	-9.49752
▁ᏭᎷᏤᎢ	-9.49968
ᏁᎯ	-9.50019
ᏍᏉ	-9.50071
▁ᎢᎬᏁᏗ	-9.50199
ᎠᏋᏌ	-9.502
ᎦᏔᎲᎾ	-9.5029
▁ᏩᏯ	-9.50435
ᏍᎬᎩ	-9.50711
ᎡᎵ	-9.50914
ᏅᎾ	-9.51035
ᏍᎦᏅᎢᏍᏗ	-9.51237
▁Ꭾ	-9.51272
ᎩᏎ	-9.52251
▁ᎤᏲᎢ	-9.52289
▁ᎤᏍᎦᏅᏨ	-9.52489
▁ᏥᏣ	-9.5249
▁ᎢᏤᎾ	-9.52558
ᏤᏍᏗ	-9.52622
▁ᎠᎴᏬ	-9.52735
ᎲᏏ	-9.52748
▁ᎦᏛᎬ	-9.52802
▁ᎦᎳᎨᏴ	-9.52817
▁ᏕᎦᏚᎲ	-9.52822
▁ᏗᎩᎦᏴᎵᎨ	-9.52831
▁ᏂᏣᏛᏁᎸ	-9.52834
▁ᏚᏂᎸᏫᏍᏓᏁᎲ	-9.52857
▁ᎦᏓᏅᏖᏍᎬ	-9.52878
▁ᏚᎾᏓᏅᏛ	-9.52892
▁ᎤᏕᏅ	-9.52925
▁ᎠᎪ	-9.5301
▁ᎦᏄᎸ	-9.53127
ᏰᎵ	-9.53184
▁ᏇᏂ	-9.53383
▁ᏥᎦ	-9.53432
▁ᎤᎾᎵᏍᏓᏴᏗ	-9.53487
▁ᎢᏥᏈ	-9.53576
c	-9.53576
▁ᏗᎾ	-9.536
▁ᎢᏳᏩᎫᏗ	-9.53609
▁ᏒᎧᏔ	-9.53609
▁ᎢᏳᏓᎴᎩ	-9.53609
▁ᏄᏃᎯᏳᏒᎾ	-9.53609
▁ᎢᏥᏡᏱ	-9.53609
▁ᎦᎵᏆᏍᎪᎯ	-9.5361
▁ᏚᏙᎡᎢ	-9.53612
▁ᏙᎴᏛ	-9.53617
▁ᏫᏥᎢᎦ	-9.53618
▁ᏎᎷ	-9.53618
▁ᎠᏂᏣᎳᎩ	-9.53621
▁ᎢᏤᏯᏔᎮᏍᏗ	-9.53624
▁ᎤᏍᎦᏎᏗ	-9.53625
▁ᎢᏌᏯ	-9.53625
▁ᎢᏗᎦᏔᎭ	-9.53638
▁ᏅᏓᏳᎵᏍᏙᏔᏅᎩ	-9.53646
▁ᏄᎬᏫᏳᏌᏕᎩ	-9.53654
▁ᎢᏨᏲᏎᎭ	-9.53664
▁ᏗᎹᏗ	-9.53671
▁ᎠᏂᎪᏕᏍᎩ	-9.53676
▁ᎤᎯᏐᏗ	-9.53682
▁ᏧᏙᏓᏆᏓ	-9.53708
▁ᎾᏂᎥᎢ	-9.53737
ᎵᎦ	-9.5374
▁ᎠᏏᎾᏌᏂ	-9.53746
▁ᎠᎫᏴᏙᏗ	-9.53822
▁ᏗᎦᎪᏗᏱ	-9.5385
▁ᎦᎾᏰᎯᏍᏗ	-9.53854
▁ᎤᎾᏄᎪᏫᏒᎯ	-9.53918
▁ᎤᎾᏫᏱ	-9.53921
▁ᎠᏆᏛᎦᏅᎩ	-9.53969
▁ᏗᏦᏢᏗ	-9.54073
▁ᎦᏬᏂᎯᏍᏗ	-9.54094
▁ᏁᎳ	-9.54115
ᏁᎳᏅᎯ	-9.54133
▁ᏭᏴᎴᎢ	-9.54146
▁ᏩᏍᏗ	-9.54311
▁ᏉᎳᏃ	-9.54341
▁ᏧᏪ	-9.54472
▁ᎠᏗᎭ	-9.54492
▁ᏂᏕ	-9.54571
▁ᎤᏪᎿᎢ	-9.54702
▁ᏴᎩ	-9.54812
▁ᏗᏦ	-9.54943
▁ᏫᎦ	-9.55029
▁ᎢᏤᎯ	-9.5507
▁ᏅᏛ	-9.55742
▁ᎦᏥ	-9.55833
▁ᏄᏍᏛᎢ	-9.55922
▁ᎡᏘ	-9.56526
ᏗᏍᎪ	-9.56938
ᏂᏏ	-9.57083
ᎡᎢ	-9.57427
ᎦᏘ	-9.57545
ᏕᎾ	-9.57664
▁ᏚᎪᎮ	-9.57673
▁ᏅᏗᎦᎵᏍᏙᏗᏍᎪ	-9.57704
ᎤᏁᎳᏅᎯ	-9.57762
▁ᎠᏂᏃᎮᏍᎬ	-9.57809
▁ᏧᏪᏅᏒ	-9.57812
▁ᎤᏃᏴᎬ	-9.57854
▁ᏓᏓᏁᎸ	-9.5788
▁ᎯᏯ	-9.58248
ᎲᏍᎩ	-9.58319
ᏁᎳ	-9.58398
ᎶᎯ	-9.58423
ᏛᎬᎦ	-9.58479
▁ᎡᏉᏗ	-9.58487
▁ᎤᏂᏬᏂᎯᏍᏗ	-9.58521
ᎾᏝᎢ	-9.58536
▁Cr	-9.58609
▁ᎢᏳᎾᏛᎿᏕᎩ	-9.58609
▁ᏍᎦᏚᎩ	-9.58609
▁ᏂᏥᏪᎭ	-9.5861
▁ᏎᎩᎵ	-9.58611
▁ᏧᏓᏕᏒᏛ	-9.58615
▁ᏗᏂᎭᏄᎸᎯ	-9.58616
▁ᎡᏈᏌ	-9.58618
▁ᏔᎷᏣ	-9.58619
▁ᎠᏦᎭᏴ	-9.58622
▁ᎠᎩᎵᏯ	-9.5863
▁ᏌᎪᏂᎨ	-9.58635
▁ᎢᎳᎪ	-9.58639
▁ᏍᎩᏃᎲᏏ	-9.5864
▁ᏗᎪᏪᎵᏍᎩ	-9.58646
▁ᎤᏩᏙᎯᏴᏓ	-9.58647
▁ᎢᏳᏓᎴᏅᏛ	-9.58648
▁ᎤᏂᎬᏫᏳᏌᏕᎩ	-9.58649
▁ᎢᏳᏩᏂᏐᏗᏱ	-9.58651
▁ᎢᏳᏩᏁᏗᏱ	-9.5866
▁ᏙᏰ	-9.58693
▁ᎤᏰᎯ	-9.58695
▁ᎤᏬᏗᎨ	-9.58733
▁ᏒᎮᏱᏣ	-9.5877
▁ᎢᎬᏁᎯ	-9.58771
▁ᏓᏯᎢ	-9.58783
▁ᎾᏍᎩᏉ	-9.59039
▁Ꮖ	-9.59074
▁ᎧᎸᎢ	-9.59088
ᏙᎩ	-9.59102
▁ᏚᎸᏫᏍᏓᏁᎲᎢ	-9.59117
▁ᏚᎾᏓᏅᏛᎢ	-9.59415
ᏁᎴᎢ	-9.59503
▁ᎤᎾᎵᎢ	-9.59644
ᏔᏅᎭ	-9.59915
▁ᏄᏛᏁᎴᎢ	-9.60039
ᏑᏴᎾ	-9.60084
▁ᎦᎸᎳᏗᏳ	-9.60236
▁ᎤᎾᏓᏡᎬᎢ	-9.60411
▁ᏣᏤᎵᎦ	-9.60514
▁ᎡᏓ	-9.60617
▁ᎨᎦ	-9.60779
▁ᎪᎯᏓ	-9.60893
ᏁᎸᎩ	-9.61148
▁ᏂᎦᏗ	-9.61183
▁ᏴᎦ	-9.6122
ᏁᎲ	-9.61269
▁ᎤᏓᏅᏖᏗ	-9.61443
▁ᏗᎧᎿᏩᏛᏍᏗᏱ	-9.61662
▁ᏱᏂ	-9.61667
▁ᏯᏆ	-9.61679
▁ᏗᎦᏓ	-9.61818
▁ᎯᎸ	-9.62385
▁ᎾᏍᎩᏴ	-9.62414
▁ᎾᏂ	-9.62729
▁ᎦᏃᎸᎥᏍᎬ	-9.6291
▁ᎧᎳᏩᏗᏒ	-9.63043
ᎦᏔᎭ	-9.63063
ᎢᏍᏗ	-9.63083
▁ᏗᎦᏚᎲ	-9.63085
▁ᎢᏦᎯᏳᏒ	-9.63102
▁ᎠᏤᎵᏍᏛ	-9.63107
ᏥᏌ	-9.63121
▁ᎦᎨ	-9.63244
▁ᎠᏃ	-9.63315
▁ᎨᎳ	-9.63452
▁ᏭᎶᏒ	-9.63458
▁ᎠᏆᏚᎵ	-9.63504
▁ᎤᏅᏒᏉ	-9.63578
▁ᎦᏁᏌᎢ	-9.63581
ᏍᏔᏂ	-9.63599
▁ᏙᎯ	-9.63753
▁ᏍᏆ	-9.63806
▁ᏨᏗᏓᎴᎲᏍᎦ	-9.63872
▁ᏧᏕᏘᏴᏓ	-9.63874
▁ᏗᏟᎶᏍᏔᏅᎯ	-9.63875
▁ᏗᏖᎵᏙ	-9.6388
▁ᎤᎪᏏᏓ	-9.63886
▁ᏦᏓᏂ	-9.63887
▁ᎠᏂᏫᏅ	-9.63887
▁ᏱᏅᏗᎦᎵᏍᏙᏗᎭ	-9.63894
▁ᎢᏳᎾᎵᏍᏙᏗᏱ	-9.63904
▁ᎤᎦᎾᏍᏓ	-9.63913
▁ᏧᎪᎳ	-9.63921
▁ᎢᏯᎾᏛᏁᎯ	-9.63922
▁ᎬᏩᏟᏍᏗ	-9.63938
▁ᎠᏥᏍᏛ	-9.63954
▁ᏧᏍᏗ	-9.63963
▁ᎪᎯᏗᏳ	-9.63966
▁ᎠᎵᏍᏕᎸᏙᏗ	-9.64041
▁ᎤᏚᎵᏍᎨᏍᏗ	-9.64041
▁ᎤᏚᎸᏗ	-9.64109
▁ᎢᏣᏤᎵᎦ	-9.64119
▁ᏣᏁᎳ	-9.64127
▁ᎢᎦᎦᏘ	-9.64146
ᏁᎵ	-9.64198
ᎪᎯ	-9.64277
▁ᏗᏆᏤᎵᎦ	-9.64286
ᏛᎦ	-9.6471
▁ᎡᎵᏍᏗ	-9.64714
▁ᏱᎬ	-9.64731
ᏉᏃ	-9.64898
▁ᏧᏓᏃ	-9.65215
ᏕᎵ	-9.65297
▁ᏙᏓ	-9.65539
▁ᎤᏂᏣᏔ	-9.65576
▁ᎣᏂᏱ	-9.65577
▁ᎯᎠᏍᎩᏂ	-9.65769
ᎪᏗ	-9.65861
▁ᏗᏆ	-9.65944
ᎭᏂ	-9.66095
▁ᏃᏥ	-9.66122
ᏁᎮᏍᏗ	-9.66161
▁ᏱᏨ	-9.66606
▁ᎠᏓᏁᎸᎢ	-9.66621
▁ᏭᎾ	-9.66734
▁ᏄᏪᏒᎢ	-9.66994
▁ᏄᎵᏍᏔᏅᎢ	-9.67204
▁ᏯᎩ	-9.67561
▁ᎾᎾᏛᏁᎲ	-9.6779
▁ᏞᎦ	-9.67799
▁ᎬᏩᎾ	-9.67896
ᎷᎦ	-9.68004
▁ᏚᎳᏍᎬ	-9.68466
▁ᎤᏁᏨᎢ	-9.68479
▁ᏫᏓ	-9.68534
▁ᎤᎨᏓᎵᏴ	-9.68599
▁ᎤᏅᏏᏴ	-9.68599
▁ᏭᏯᏅᎮ	-9.68606
ᎩᎶ	-9.6862
▁ᎠᎾᎢᏒ	-9.68648
▁ᎤᏂᎷᏨ	-9.68671
▁ᏕᎭᎷᎨ	-9.68714
▁ᎦᏅᏅ	-9.68732
▁ᏕᎩ	-9.68872
▁ᏭᎷᏨ	-9.68935
▁ᏧᎾᏍᏗ	-9.68984
▁ᎤᏒᎢ	-9.69068
▁ᏗᏥᎾᏫ	-9.69193
▁ᏐᏓᎻ	-9.69194
▁ᏓᏣ	-9.69216
ᏌᎳᏓ	-9.69295
▁ᎤᎷᎯᏍᏗ	-9.69371
▁ᎤᏂᏴᏍᏗ	-9.69417
▁ᎠᎦᏘᏏ	-9.69425
▁Perry	-9.69428
▁ᏧᎦᎾᏮ	-9.69428
ᏚᏓᎴᏍᏙᏗ	-9.69428
▁ᎥᏳᎩ	-9.6943
▁ᎠᎵᏍᏔᏴᏗ	-9.69441
▁ᎤᎩᏨᏓ	-9.69443
▁ᎧᏂᎩᏛ	-9.69448
▁ᏗᏕᏲᏗ	-9.69456
▁ᎤᎾᏰᎯᏍᏗ	-9.69457
▁ᎤᏫᏯ	-9.69458
▁ᎤᏂᎩᎬ	-9.69458
▁ᎤᏬᏢᏔᏅᎩ	-9.6946
▁ᏧᎾᎩᎸᏗ	-9.69462
▁ᏗᏓᏘᏂᏙᎯ	-9.69465
▁ᎤᏁᎫᏥᏛ	-9.69466
▁ᏗᎪ	-9.69484
▁ᎠᏆᏁᎳᏅᎯ	-9.69485
▁ᎠᎵᏍᎪᎸᏔᏅᎯ	-9.69493
▁ᏳᏚᎵᏍᎨ	-9.69507
▁ᎠᏍᏚᏗ	-9.69514
▁ᎨᎵᏍᎬ	-9.69545
▁ᏂᏗᎥ	-9.69562
▁ᏚᏓᏘᎾᎥᎢ	-9.69664
▁ᎤᏂᏍᏆᏂᎪᏎᎢ	-9.69669
▁ᎢᏳᎾᏛᏁᏗᏱ	-9.69885
▁ᎤᏍᏆᏂᎪᏗᏳ	-9.69983
▁ᏓᏆ	-9.70038
▁ᎣᏏᏉ	-9.70186
▁ᏄᏛᏁᎸᎩ	-9.70193
▁ᎤᎿ	-9.70524
▁ᏗᎨᏒᎢ	-9.70642
▁Ᏸ	-9.70767
▁ᎤᎾᎵᎪ	-9.70771
▁ᎠᏫᏅ	-9.70975
ᏍᏕᎸᏗ	-9.70997
▁ᏂᎦᏪᏍᎬᎢ	-9.71018
ᎴᏂ	-9.71137
▁ᎠᎩᏍᏗ	-9.71161
ᎵᏍᏙᏗ	-9.71229
ᎡᎯ	-9.71498
▁ᎢᏧ	-9.71663
ᎵᏍᏗ	-9.71838
▁ᏅᎩᏁ	-9.71896
ᎡᏗᏱ	-9.71902
▁ᏁᎰ	-9.71981
▁ᏳᎾ	-9.71992
▁ᎾᎥᎢ	-9.72047
ᏍᏔ	-9.72103
▁ᎤᏁᏨᎯ	-9.72112
n	-9.7221
▁ᎠᏏᏴᏫᏃ	-9.72425
▁ᏣᎾ	-9.72547
▁ᏫᎬᏩ	-9.72604
▁ᏚᏳᎪᏛᎢ	-9.72832
▁ᎢᏳᎢ	-9.73165
ᏗᏍᎨᎢ	-9.73396
▁ᎤᏥᎸ	-9.7368
ᎶᏛ	-9.73789
▁ᎤᏪᎵᎯᏍᏗ	-9.73882
▁ᎤᏕᏁᎸ	-9.74028
▁ᎠᏰᏙᎳᏛ	-9.74035
▁ᎡᏙᎲ	-9.74059
ᏗᏳ	-9.74293
▁ᎠᎾᏓ	-9.74337
▁ᎤᏓᏂᎵᎨ	-9.74439
▁ᎤᎵᏁᏨ	-9.745
▁ᏕᏡᎬ	-9.74563
▁ᏓᏁᏩᏗᏒ	-9.74564
▁ᏕᎨᏌᏗᏒ	-9.74589
▁ᎤᏓᏅᏖᎴ	-9.74659
▁ᎠᏆᏚᎵᏍᎬ	-9.74712
▁ᎤᏓᏴᏍᏗ	-9.75108
▁ᎷᏈᏂ	-9.7531
▁ᏗᏂᎵᎠᏅᎯᏛ	-9.7531
▁ᎢᏈᎬᎢ	-9.7531
▁ᎹᏏᏙᏂ	-9.75314
▁ᏞᎩᏳ	-9.75317
▁ᎠᎾᏓᏅᏟ	-9.75319
▁ᎬᏔᏂᏓᏍᏗ	-9.75325
▁ᎠᎪᏄ	-9.75326
▁ᏌᎺᎵᏱ	-9.75331
▁ᎠᏙᎳᏅᏍᏗ	-9.75332
▁ᎩᏟ	-9.75343
▁ᏗᎦᏅᏙᏗ	-9.75346
▁ᎠᏫᏄᏣ	-9.75349
▁ᎠᏟᎶᏍᏗ	-9.75362
▁ᎢᏨᏗᏍᎨᏍᏗ	-9.75368
▁ᎢᏳᏪᏅᏍᏗ	-9.7537
▁ᏧᏍᏆᏅᎾ	-9.75375
▁ᎡᏏᏱ	-9.75399
▁ᎤᏬᏚᎯ	-9.75406
▁ᎤᏬᏚᎯᏳ	-9.75415
▁ᎠᏥᎾᏝᎢ	-9.75416
▁ᎤᎶᏒᏍᏗ	-9.75418
▁ᏧᏓᎴᏅᏓ	-9.7545
▁ᎠᏓᎯ	-9.75455
▁ᏎᎳᏱ	-9.75498
▁ᎤᏂᏴᏍᏗᏱ	-9.7559
▁ᏔᎵᏧᏈ	-9.75594
ᎤᏅ	-9.75748
▁ᎣᏁ	-9.75768
▁ᏚᏯ	-9.75771
▁ᏤᎮᎢ	-9.75815
ᎶᏗ	-9.75832
▁ᎠᏁᎮᎢ	-9.75898
▁ᏚᎴᏁᎢ	-9.76063
▁ᏰᎭ	-9.76092
▁ᎠᏁᎭ	-9.7618
▁ᏐᎢᏱ	-9.76283
▁ᏱᏗᏣ	-9.76477
ᎾᏏ	-9.76528
ᏨᎯ	-9.76582
▁ᎢᏳᎾ	-9.76584
▁ᎠᎬ	-9.76665
▁ᏓᏨ	-9.76938
▁ᎦᏍᎩᎸᎢ	-9.77266
▁ᎠᏥᎸᏉᏗ	-9.77274
ᏍᏊ	-9.77736
ᏍᏗᏍᎬ	-9.78051
▁ᎤᎨᏳᎯ	-9.78124
▁ᎢᏓ	-9.78304
▁ᎤᏬᎵ	-9.78356
▁ᏙᎯᏱ	-9.7837
▁ᎠᏎᎩ	-9.7867
▁ᎠᏜ	-9.78778
ᏛᏗ	-9.7883
▁ᏚᎴᏁ	-9.78842
▁ᎤᏁᏅᏎ	-9.78929
▁ᎤᎸ	-9.79089
▁ᏓᎾᏓ	-9.79118
a	-9.79247
ᏠᎾᏍᏗ	-9.79268
ᏛᎯ	-9.79489
ᎸᏉᏙᏗ	-9.79647
ᏛᎭ	-9.79886
ᎸᏉᏗᏳ	-9.79954
▁ᏅᏓᏳ	-9.80132
▁ᎠᏂᏙᎾᎥ	-9.80185
ᏅᏒᎩ	-9.80238
▁ᏔᎵᎭ	-9.80348
▁ᏄᏂ	-9.80464
▁ᏗᏣᏓᏅᏙ	-9.8055
▁ᎡᏗ	-9.80583
▁ᎬᏆ	-9.80643
ᎠᏯ	-9.80643
▁ᏨᏍᎩᏃ	-9.80762
▁ᎤᏰᏤ	-9.80763
▁ᎠᏆᎧᏛ	-9.80773
▁ᏓᏠᎯᏍᏛ	-9.8081
▁ᎠᏁᏙᎲ	-9.80813
▁ᏭᎶᏎ	-9.80832
▁ᎠᎾᏛ	-9.80839
▁ᎤᏓᏅᏎ	-9.80971
▁ᏗᏓ	-9.81015
▁ᏕᎦᎶᏗ	-9.81247
▁ᏏᎩᎻ	-9.8127
▁ᎠᏥᎦᏘᏗᏍᏗ	-9.81296
▁ᎤᏓᏅ	-9.8134
▁ᎤᏍᎪᎵ	-9.81375
▁ᎪᏪᎳ	-9.81416
ᏐᎢ	-9.81454
▁ᎤᏕᎰᎯᏍᏗ	-9.81458
▁ᎢᏳᏛᏁᏗ	-9.81488
y	-9.81549
▁ᎦᎷᏯᏍᏘ	-9.8156
▁ᎢᏏᎺᎵ	-9.8156
▁ᎬᏩᏍᏓᏩᏛᏎᎢ	-9.8156
▁ᎤᎵᏗᏨ	-9.8156
ett	-9.81561
▁ᏅᏓᏳᏂᎶᏒᎯ	-9.81562
▁ᏑᎾᏙᏓᏆᏍᏗ	-9.81562
▁ᎢᏯᏅᏙ	-9.81564
▁ᏗᎬᏔᏂᏓᏍᏗ	-9.81564
▁ᎢᎦᏪᏍᏗ	-9.81565
▁ᏂᎬᏩᏪᏎᎸᎩ	-9.81565
▁ᎤᏓᎵ	-9.81567
▁ᏗᏰᏙᎳᏛᏗ	-9.81569
▁ᎠᏖᎵᏙ	-9.81569
▁ᎭᏩᏧ	-9.81573
▁ᏚᏘᏅᏎ	-9.81578
▁ᎤᎴᏂᏙᎸ	-9.81584
▁ᏕᎹᏍᎦ	-9.81593
▁ᎠᏂᎨᎾᏂ	-9.81593
▁ᎠᏫᏒᏗᏱ	-9.81593
▁ᏗᏍᏓᏓᏅᏟ	-9.81593
▁ᎦᏂᎦᏔ	-9.81595
▁ᏣᏓᎵᎢ	-9.81613
▁ᎠᏂᎦᏓᎭ	-9.81624
▁ᏌᎾᏱ	-9.81626
▁ᏥᏚᏙᎥ	-9.81628
▁ᎤᏁᎵᏤᎢ	-9.81636
▁ᎤᎾᏁᎳᏅᎯ	-9.81649
▁ᎠᎪᏙᏗ	-9.81653
▁ᏙᏱᏨ	-9.81659
▁ᎤᎾᏠᎾᏍᏗ	-9.81665
▁ᏗᏦᏢᏙᏗ	-9.81667
▁ᎤᎾᏰᎯᏍᏗᏳ	-9.81669
▁ᏎᎻ	-9.81687
▁ᎤᏏᏩ	-9.81742
▁ᎤᏬᏚᏨ	-9.81758
▁ᎮᎦ	-9.81768
▁ᏁᎲᎾ	-9.81768
▁ᏂᎦᎵᏍᏓ	-9.81795
▁ᏱᏂᎦᎵᏍᏓ	-9.81796
ᎢᏳ	-9.81797
▁ᎠᎩᏰᎸᎭ	-9.81808
▁ᎤᏂᎯᏍᏗᏱ	-9.81817
▁ᎢᎨ	-9.81826
▁ᏫᏗ	-9.8183
▁ᎠᏍᎪᎯᏁ	-9.81842
▁ᎤᏟᏍᏓ	-9.81852
▁ᎢᎬᏓ	-9.81856
▁ᎤᎷᎯᏍᏗᏱ	-9.81864
▁ᎾᏂᏪᏍᎬᎩ	-9.81873
▁ᏈᎳ	-9.8188
ᏩᏛᎲ	-9.81954
▁ᎢᎬᏒ	-9.82048
▁ᏗᏂᏅᏌᏗ	-9.82055
▁ᎠᎱᏍᏕ	-9.82056
▁ᎠᏁᎩ	-9.82172
ᎨᏳᏎᏍᏗ	-9.82188
▁ᎢᎾ	-9.82262
▁ᏄᎾᏛᏅᎢ	-9.82268
▁ᏓᏁᏩᏗᏒᎢ	-9.82366
▁ᏕᎭᎷᎨᎢ	-9.82415
▁ᏙᎩ	-9.82706
Ꮰ	-9.82786
▁ᎦᏂ	-9.82909
▁ᏕᎦᏛ	-9.83227
ᏃᎮᎭ	-9.833
▁ᎨᏴᎢ	-9.83809
ᎥᏍᎬ	-9.84013
ᎥᎢ	-9.84142
ᎳᏅᎯ	-9.84142
ᎪᎵᏰᏍᎩ	-9.8415
ᏩᏛᏗ	-9.84151
Ꮡ	-9.84284
▁ᎠᎩᎵᏲᎢᏍᏗ	-9.84429
▁ᎠᏙ	-9.84503
▁ᎯᎳ	-9.8456
▁ᎤᏂᏁ	-9.84584
▁ᏗᏤ	-9.84985
▁ᎤᏂᏠᏱ	-9.85044
ᏉᏰᏃ	-9.85236
▁ᏕᏣᏓ	-9.85619
▁ᎤᎾᏙᎴᎰᏒ	-9.85674
▁ᎤᏇᏓᎸ	-9.85947
▁ᏗᏗ	-9.86336
ᎦᏛ	-9.86481
▁ᏣᏉ	-9.86508
ᎡᎭ	-9.86569
▁ᎦᏥᏯ	-9.86629
▁ᏔᎵᏁᎢ	-9.86837
▁ᏧᎾᏓ	-9.86843
ᏅᏟ	-9.8686
▁ᏚᎸᏫᏍᏓᏁᎸ	-9.86941
Ꮏ	-9.86999
▁ᏯᎾ	-9.87013
ᎸᎾ	-9.87031
▁ᎦᏁᎲ	-9.87049
▁ᎤᏴ	-9.87094
ᎵᏱ	-9.8711
ᏛᏅ	-9.87238
▁ᎤᏚᎵᏍᎨ	-9.87274
▁ᏁᎳᎩ	-9.87347
▁ᏕᏥᎸᏫᏍᏓᏁᎲ	-9.87468
▁ᏭᏴᎴ	-9.87503
ᏯᏖᏅ	-9.87505
ᎵᏍᏆᏗᏍᎩ	-9.87512
▁ᏙᏓᎸ	-9.87567
▁ᏄᎾᏛᏅ	-9.87579
▁ᎡᎮ	-9.87668
▁ᏗᏁᎲ	-9.87739
ᎲᏍᎬ	-9.87804
▁ᏅᏗᎦᎵᏍᏙᏗ	-9.87839
▁ᎤᏁᎸ	-9.87936
Ꮁ	-9.87946
▁ᎤᏛᏁᎢ	-9.87956
▁ᎠᎾᏓᎾᏏᏂᏙᎯ	-9.88227
▁ᏯᎦᏔᎮ	-9.88227
▁ᎠᎵᏰᎾ	-9.88228
▁ᎦᏣᏄᎳ	-9.8823
▁ᎠᏨᏍᏙᏗ	-9.88231
▁ᏧᎦᏒᏍᏗ	-9.88234
▁ᎢᎬᏩᎵᏍᏙᏗ	-9.88242
▁ᎠᏒᎬ	-9.88246
▁ᎢᏣᎵᏍᏙᏗᏱ	-9.88248
▁ᏗᏥᏲᎵ	-9.88252
▁ᏗᏂᏏᏗ	-9.88254
▁ᎠᏤᎷᎩ	-9.88256
▁ᏥᏄᏪᏎᎢ	-9.88256
▁ᎠᏂᎩᎷᏫ	-9.88264
▁ᏧᎳᏏᏕᏂ	-9.88271
▁ᎤᏛ	-9.88272
▁ᏫᎦᎷᎩ	-9.88294
▁ᏥᏍᏚ	-9.88299
▁ᎤᎾᎳᏅᎯ	-9.88313
▁ᏗᏂᏰᎸ	-9.88313
▁ᏄᎾᏓᎴᏒ	-9.8832
▁ᎫᎫ	-9.88335
ᏯᏅᏛ	-9.88374
ᎵᏰᎢᎶᎯᏍᏗ	-9.88414
▁ᎤᏲᎱᎯᏍᏗᏱ	-9.88424
▁ᎤᎵᏍᎨᏛ	-9.88435
▁ᏏᏲ	-9.88456
▁ᎭᏫᏂᏨ	-9.88461
▁ᎧᏃᎮᏗ	-9.8849
▁ᎢᏳᏍᏘ	-9.88491
▁ᎠᎾᏓᏅᏖᏍᎬ	-9.88501
▁ᏚᎾᏓ	-9.88508
▁ᎫᎴ	-9.88511
▁ᎤᏂᏣᏛᎩ	-9.88565
▁ᏭᏂᎶᏎᎢ	-9.88567
ᎦᏙᏃ	-9.88572
▁ᏗᎩᏏ	-9.88574
▁ᎠᏆᏚᎵᎭ	-9.88594
▁ᎠᎪᏩᏛᏗ	-9.88595
▁ᏓᏅᏅ	-9.88605
▁ᏂᎪᎯᎸᎾᏉ	-9.88653
▁ᎤᏲᏨ	-9.88679
▁ᏙᎦ	-9.88684
▁ᏥᎨᏳᎢ	-9.88698
▁ᏱᎨᏐᎢ	-9.88729
ᎳᎻ	-9.88734
ᏴᏫ	-9.88766
▁ᏂᎦᎵᏍᏙᏗ	-9.88876
▁ᎨᎵᎠ	-9.88911
▁ᎡᎮᏍᏗ	-9.88966
▁ᎡᎩ	-9.88976
▁ᏚᎸᏫᏍᏓᏁᎸᎢ	-9.88992
▁ᎠᏁ	-9.88994
▁ᎠᏁᏙᎲᎢ	-9.89041
▁ᎢᎦᏤᎵᎦ	-9.89051
▁ᎪᎨ	-9.89117
▁ᎡᏙᎲᎢ	-9.89125
▁ᏗᏁᎲᎢ	-9.89156
▁ᎤᏓᏅᏅ	-9.89259
▁ᎠᏓᏁᏗ	-9.8947
▁ᎠᏗ	-9.89511
▁Ꮠ	-9.89754
▁ᎡᎾ	-9.8977
▁ᏂᏙᏓᏳ	-9.90156
▁ᏂᎪᎯᎸᎾ	-9.90201
▁ᎤᏂᎷᏤᎢ	-9.9038
▁ᏂᏥᎥᎢ	-9.90417
ᎦᏗᏓ	-9.90601
▁ᏧᏅ	-9.90605
▁ᏍᎩᏯ	-9.90689
▁ᎠᏂᏐ	-9.90911
▁ᎠᏋᏒᏉ	-9.91243
▁ᏣᏚ	-9.91267
▁Ꮜ	-9.91308
▁ᏴᎬ	-9.91379
▁ᏤᏣ	-9.9146
ᏧᏈᏍᏗ	-9.91553
ᎲᏍᎨᏍᏗ	-9.92112
▁ᎪᎯᏍᎩᏂ	-9.92255
ᏙᎴᎰᎯᏍᏗ	-9.92524
ᏢᏙᏗ	-9.92633
ᎳᏗ	-9.92791
ᏣᏘ	-9.93071
▁ᏕᎬᏩ	-9.93942
▁ᏚᏪ	-9.94097
ᏂᎸ	-9.94116
▁ᏧᎾᏄᏬ	-9.94315
Ꮉ	-9.94382
▁ᏎᎳ	-9.94498
ᎦᎶᏁᏛ	-9.94502
▁ᎠᏆᏛᎦᏅ	-9.94537
▁ᎡᎳᏪ	-9.9456
▁Ꮞ	-9.94567
▁ᏓᏫᏒ	-9.94624
▁ᎢᏳᏪ	-9.94678
▁ᏭᏂᎷᏨ	-9.94858
ᏩᎬᏘ	-9.9496
▁ᏚᏁᎴ	-9.94968
▁ᏄᏛᏅ	-9.95025
ᎵᏍᎦᏍᏙᏛ	-9.95027
▁ᎡᏝᏪ	-9.95082
▁ᎤᏓᏅᏛ	-9.95151
▁ᏗᎧᏃᎩᏍᏗ	-9.95173
▁ᎠᏛᎪᏗ	-9.95202
▁ᎬᏍᎦᎢᏍᏓᎩ	-9.95369
▁ᎠᏗᏆᎸᏕᏲ	-9.9537
▁ᏂᎦᏅᎯᏎᏍᏗ	-9.9537
▁ᎠᏂᏌᏚᏏ	-9.9537
▁ᏄᏜᏏᏛᏒᎾ	-9.9537
▁ᏌᏯᏂ	-9.9537
▁ᎤᎵᎪᎲᏍᏗ	-9.9537
▁ᏗᏁᎶᏙᏗ	-9.9537
▁ᏧᏃᏑᎶᏨᎯ	-9.9537
▁ᏥᏔᎦ	-9.95371
▁ᎤᎶᏒᏍᏔᏅᎯ	-9.95372
▁ᏧᎾᏦᎯᏍᏗ	-9.95376
▁ᎢᏨᏔᏲᏎᎭ	-9.95376
▁ᏧᎾᎳᏏᏕᏂ	-9.95378
▁ᎳᏏᎳ	-9.95379
▁ᎢᏳᏓᎨᏛ	-9.95381
▁ᎢᏣᏓᏙᎵᏍᏗᏍᎨᏍᏗ	-9.95387
▁ᎢᎩᏍᏕᎵᏍᎩ	-9.95389
▁ᎾᏛᏁᎮᏍᏗ	-9.95389
▁ᎤᏚᏫᏛ	-9.95391
▁ᏫᏂᎦᎵᏍᏓ	-9.95392
▁ᏫᏄᏒᎸ	-9.95392
▁ᎣᏌᏂ	-9.95401
▁ᎣᎦᏁᎳᏅᎯ	-9.95401
▁ᎤᏴᏣ	-9.95402
▁ᎤᎾᎴᏅᎮ	-9.95405
▁ᎦᏰᏌᏗ	-9.95407
▁ᏤᏈ	-9.95409
▁ᎠᎦᏘᏯ	-9.9542
▁ᎠᏂᎦᏔᎿᎢ	-9.95423
▁ᎬᎪᏩᏛᏗ	-9.95424
▁ᏗᏯᏖᎾ	-9.95431
▁ᎠᎵᎮᎵᏍᏗ	-9.95432
▁ᎢᎦᏪᏛ	-9.95432
▁ᎤᎵᏑᏫᏓ	-9.95455
ᎭᏗ	-9.95499
▁ᎤᎦᏃᏩ	-9.955
▁ᏧᎾᏓᎵᎢ	-9.95514
ᏛᏳᎨᏗ	-9.95571
▁ᎢᏳᏅᏁᏗᏱ	-9.95574
▁ᎢᎾᏓ	-9.95607
▁ᎪᎨᏱ	-9.95614
▁ᎤᏬᏢᏅᎯ	-9.95621
▁ᎤᎴᏫᏍᏔᏅ	-9.9563
ᏔᏲᏎᎴ	-9.95645
▁ᎠᏓᏅᏖᏗ	-9.95652
▁ᎢᏍᏗ	-9.95664
▁ᏣᏁᎮᎢ	-9.95679
▁ᏧᎸᏫᏍᏓᏁᏗᏱ	-9.95736
▁ᏗᎦᎵᎠᏅᎯᏛ	-9.95806
▁ᏄᎾᏛᏁᎸᎩ	-9.95815
▁ᏚᏳᎪᏗ	-9.95841
▁ᎤᎾᏄᎪᏫᏎᎢ	-9.95926
▁ᎠᏥᎸᎠᏁᎶᎯ	-9.95942
▁ᎤᏔᎷᎩᏍᎩ	-9.95986
▁ᏥᏥ	-9.96033
▁ᎬᏩᏛᏛᏁ	-9.96043
▁ᏭᎶᏒᎩ	-9.96078
▁ᎠᎦᏔᎭ	-9.96114
▁ᎤᎵᏍᎨ	-9.96164
▁ᏧᎵᎢ	-9.962
▁ᎾᎥᏂᏳ	-9.9621
▁ᎠᏓᏰᏍ	-9.96246
▁ᏓᏠᎯᏍᏛᎢ	-9.96253
▁ᏕᎨᏌᏗᏒᎢ	-9.963
▁ᏚᎸᏫᏍᏓᏁᎲ	-9.96328
▁ᎤᏂᎵ	-9.96374
▁ᎭᏓᏅᏖᏍᎬ	-9.96457
▁ᎣᏣ	-9.96531
▁ᏍᎪᎯ	-9.96555
ᏗᏍᎨ	-9.9657
ᏌᏘ	-9.96578
▁ᎤᏁᏤᎸᎩ	-9.96628
▁ᎧᏁᎢᏍᏗ	-9.96666
ᏅᏍᏗ	-9.96672
an	-9.96736
ᎦᏘᏍᏙᏗ	-9.96743
▁ᏑᏓᎵᏁ	-9.96764
▁ᎤᏣᏛ	-9.96776
▁ᏳᏂ	-9.96928
▁ᏙᏳ	-9.96939
▁ᏗᎨᏥ	-9.97044
▁ᏥᏯ	-9.97199
ᎵᏏ	-9.97248
▁ᎬᏗᏍᎬᎢ	-9.9725
▁ᏗᏣᏓ	-9.9748
ᏃᎯᏎᎸ	-9.97536
▁ᎤᎴᏅ	-9.97603
▁ᎠᏰᎸᏗ	-9.97823
▁ᏳᏩ	-9.97912
▁ᏚᏅ	-9.97927
ᎵᏍᏔᏅ	-9.98101
▁ᎤᏰᎸᏛᎢ	-9.98162
ᏍᏔᏅᎩ	-9.9831
▁ᎤᏕ	-9.9863
▁ᎤᏲᏉ	-9.98658
ᏁᏥ	-9.98844
▁ᏤᎩ	-9.98884
Ꭻ	-9.9929
▁ᎪᎯᏛ	-9.99434
▁ᎠᏓᏅᏙᏍᎩᏂ	-9.99572
ᎯᎭ	-9.99631
ᏟᏍᏗ	-9.99633
▁ᏍᎩᏃ	-9.99759
▁ᎯᎦᏔᎭ	-9.99826
▁ᎤᏬ	-9.99938
▁---	-10.0004
▁ᎢᏅᎯ	-10.0006
▁ᏱᎨ	-10.0009
ᏂᏗᏳ	-10.002
▁ᏙᏓᎦ	-10.0022
▁Ꮼ	-10.0025
▁ᎤᎫᏴᏗ	-10.0031
▁ᏑᎾᎴᏃ	-10.0068
▁ᏩᏁ	-10.0106
▁ᏗᎬᏩᏂ	-10.0112
▁ᏥᏅᏏᏓᏍᏗ	-10.0115
▁ᏄᏍᏛᎾ	-10.0117
▁ᏧᎵ	-10.0132
▁ᎤᎪ	-10.0161
▁ᏛᎾ	-10.0169
▁Ꮲ	-10.0201
▁ᎠᏁᏙᎮ	-10.0205
▁ᏕᎨᏴ	-10.0219
▁ᎾᏑᏴ	-10.0221
ᎪᏩᏛᏗ	-10.0224
▁ᏚᎾᏓᏡᏩᏗᏒ	-10.0231
▁ᎯᏆ	-10.0232
▁ᏅᏃ	-10.0247
▁ᎤᏄᎪᏨ	-10.0255
▁ᏚᎪᎲ	-10.0265
▁ᎦᏅᎬ	-10.0266
▁ᎤᏪᏙᎸ	-10.0273
▁ᎤᏪᏅᏍᏗ	-10.0292
▁ᏥᎬ	-10.0293
▁ᎠᏒᎨ	-10.0294
▁ᎠᎩᎾᏫ	-10.0295
▁ᎤᏲᎱᎯᏍᏗ	-10.0296
▁ᎠᏇ	-10.0303
ᏄᎮᏛ	-10.0306
▁ᏅᏬᏘ	-10.0306
▁ᏑᏓᎴᎩ	-10.0306
▁ᎦᏃᏍᎩᏍᎩ	-10.0306
▁ᏀᎾ	-10.0306
▁ᏍᏏᏉᏯ	-10.0306
▁ᏗᎦᏙᏌᏗᏍᏗᏱ	-10.0306
▁ᏗᏂᎨᏫ	-10.0306
▁ᏌᏙᏂ	-10.0306
▁ᏧᎾᏦᏴᏍᏗ	-10.0306
▁ᎮᎳᏂ	-10.0307
▁ᏗᎪᏒᏔᏅ	-10.0307
▁ᎾᎦᎥ	-10.0307
▁ᎨᏣᏍᎦᎩ	-10.0307
▁ᎠᏉᏰᏂ	-10.0307
▁ᎦᏚᎢᏗᏢ	-10.0307
▁ᏇᏍᏓ	-10.0307
▁ᏗᏂᎰᎵ	-10.0307
▁ᏍᏗᏫ	-10.0308
▁ᏌᏊ	-10.0308
▁ᏚᏑᎬ	-10.0308
▁ᎤᎧᏲᏛᎯ	-10.0308
▁ᏁᏂᏏ	-10.0308
▁ᎨᎦᏑᏰᏛ	-10.0308
▁ᎠᏂᎦᏔᎾᎢ	-10.0308
▁ᏚᎦᏒᏍᏛ	-10.0308
▁ᏗᏍᏆᎾᎳᏗᏍᏗ	-10.0309
▁ᏄᏍᏗᏓᏅ	-10.0309
▁ᏗᎳᏑᎶ	-10.0309
▁ᎢᏳᏓᏅᎯᏓ	-10.0309
▁ᎬᎩᏍᎦᎩ	-10.0309
▁ᎣᏥᎦᏔᎭ	-10.0309
▁ᎤᏕᎶᎰᏎ	-10.031
▁ᏩᏛᎬᎦ	-10.031
▁ᎢᏥᏯᏫᏍᎨᏍᏗ	-10.0312
▁ᎣᎭᏂ	-10.0312
ᎪᏣᎴᏛ	-10.0312
▁ᎠᏂᎩᏏᏙᎯ	-10.0312
▁ᎨᏆᏂ	-10.0312
▁ᎠᏂᎦᏔᎯ	-10.0313
▁ᏗᏥᎶᏍᏔᏅ	-10.0313
▁ᎢᏥᏅᏟ	-10.0313
▁ᎤᏓᏅᏖᎸ	-10.0313
▁ᎠᏍᎦᏰᎬᏍᏔ	-10.0315
▁ᏥᎮᎾ	-10.0315
▁ᏫᎶᎯ	-10.0318
▁ᎤᏙᎴᎰᏎ	-10.0319
▁ᎤᏪᎷᏅᎩ	-10.0321
▁ᏄᏕᏘᏴᎮᎢ	-10.0322
ᏁᎲᎢ	-10.0322
▁ᏓᏳᎶᏒ	-10.0323
▁ᏂᎦᏚ	-10.0325
▁ᎤᏤ	-10.0328
▁ᏚᎧᎾᏁ	-10.0331
▁ᎤᏛᏐᏅᎯ	-10.0334
▁ᎤᏁᎷᏁᎢ	-10.0334
▁ᎢᏥᏍᎦᏅᏨᎢ	-10.0334
▁ᎪᏢᏅᎯ	-10.0339
▁ᏯᏂ	-10.0339
▁ᎤᎵᏍᏕᎸᏙᏗ	-10.0339
▁ᎤᏓᏅᏒᎩ	-10.034
▁ᎠᏧᏏ	-10.0345
ᎠᏎᏃ	-10.0345
▁ᏕᎦᎶᏗᎯ	-10.0348
▁ᎠᎩᎪᎲᎩ	-10.0349
▁ᎤᏓᏔᏅᎯ	-10.0349
▁ᏓᎧᏅᎢ	-10.0353
▁ᏓᏓ	-10.0355
▁ᎬᏩᎷᏤᎸᎩ	-10.0356
▁ᎪᏢᏒᎢ	-10.0359
▁ᎡᎳᏗᏣ	-10.036
ᎿᎨ	-10.0361
▁ᎢᏧᏩᏁ	-10.0361
▁ᎤᏄᎪᏤ	-10.0363
ᏗᏍᎪᎢ	-10.0365
▁ᎠᏥᎸᎨᎶᎯ	-10.0373
▁ᎡᏙᎯ	-10.0374
▁ᏓᎬᎾ	-10.0374
ᎶᎢ	-10.0376
▁ᎠᏁᎳ	-10.0379
▁ᎨᎾᏂᏱ	-10.0379
▁ᏚᎾᏓᏡᏩᏗᏒᎢ	-10.0384
▁ᎤᏁᎳᏅᎯᏱ	-10.0384
▁ᎤᏂᏍᎦᏅᏨᎯ	-10.0389
ᏌᏂ	-10.0389
Ꮾ	-10.039
▁ᎤᎾᏓᏑᏴ	-10.0395
▁ᎪᏣᎴᏛ	-10.0397
▁ᎮᏗ	-10.0397
▁ᎤᏍᏘᏰᎬ	-10.04
▁ᏥᎪᎨ	-10.0404
▁ᏣᏂᏃ	-10.0407
ᏙᏓ	-10.0414
ᏖᎸᏗ	-10.0417
▁ᏚᏂᎸᏫᏍᏓᏁᎲᎢ	-10.0432
ᏓᏥ	-10.0438
▁ᎠᏔᎴᏒᎢ	-10.0439
ᎸᏗ	-10.0448
▁ᏂᎦᏪᏍᎬᎩ	-10.0459
ᎵᏓᏍᏗ	-10.0466
ᏕᎩ	-10.0473
▁ᏱᎦᎩ	-10.0475
▁ᎤᎪᎮᎢ	-10.048
▁ᏡᎬᎢ	-10.0493
▁ᎤᎴ	-10.0545
▁ᎤᏣ	-10.0584
▁ᏙᏗ	-10.0601
▁ᎠᏍᎦ	-10.0607
▁ᎤᏲᎱᏒᎢ	-10.0607
▁ᏓᏰ	-10.0624
▁ᎡᎳ	-10.0642
▁Ꮋ	-10.0659
ᏴᏓ	-10.0676
ᎵᏍᎪᎸᏓᏁᎸᎯ	-10.0683
▁ᎠᏂᏂ	-10.069
▁ᏥᏓᏂ	-10.0702
▁ᎤᏩᏛᏗ	-10.0717
ᏚᎦ	-10.0736
ᎴᎭ	-10.0745
▁ᏥᏴ	-10.0752
ᏣᏓ	-10.0769
ᎷᏥᏏ	-10.0782
ᏖᏍᏗ	-10.0783
▁ᎤᏄᏬ	-10.079
▁ᎤᏂᏁᏨ	-10.0792
ᎥᎾ	-10.0793
▁ᎦᎾ	-10.0803
ᏓᏑᏯ	-10.0829
ᏅᏎ	-10.0874
ᏓᏂᎸᏨᎯ	-10.0888
▁ᎢᏍ	-10.0914
ᏗᏣ	-10.0914
▁ᏱᎬᏩ	-10.0924
▁ᎤᏦ	-10.0931
▁ᎦᏁ	-10.0933
▁ᏏᎻᏯᏂ	-10.095
ᏎᎸ	-10.0952
▁ᎪᎯᏳᏗᏍᎩ	-10.0956
ᏤᎵ	-10.0956
▁ᎠᎯᏗ	-10.0972
▁ᎣᎦᏤᎵ	-10.0983
ᏁᎶᏗ	-10.0984
▁ᎦᏛ	-10.0989
ᏒᏅ	-10.0992
▁ᏂᎬᏁ	-10.0994
▁ᎧᏃᎮᏍᎬ	-10.1009
▁ᏄᎾᏛᏁᎸ	-10.1012
▁ᎠᏍᏓ	-10.1032
▁ᎠᏅᏗᏍᎬ	-10.1056
▁ᎤᏜᏅᏛ	-10.1057
▁ᎤᎿᏥ	-10.1058
▁ᏫᏚᏯᏅᎮ	-10.1066
▁ᎠᏨᏯ	-10.1074
▁ᎠᏂᏁᎬ	-10.1078
▁ᎤᎾᏚᎵᏍᎬ	-10.1086
▁ᎤᏂᎩᏎ	-10.1087
ᎥᎯᏍᏗ	-10.1089
▁ᎪᏱᏁ	-10.1089
▁ᏚᎸᏌᏛ	-10.109
▁ᎠᏇᎵᏒ	-10.1091
▁ᏂᏚᏩᏁᎸ	-10.1091
▁ᎤᏪᏅᏒ	-10.1094
ᎬᎭᎷᏴ	-10.1095
▁ᏥᏁᎬ	-10.1098
▁ᎠᏴᏫᏯ	-10.11
ᎸᏌᏛ	-10.1103
▁ᎢᏨᏯ	-10.1108
▁ᏱᏥᎦᏔ	-10.1109
ᎶᏒ	-10.1114
▁ᏫᎬ	-10.1115
▁ᎢᏯᏆᏛᏁᏗ	-10.1117
▁ᏂᏨᏁᎸ	-10.1118
▁ᎤᏁᏓᏍᏗ	-10.1119
▁ᏗᎦᎪᏗ	-10.1122
▁ᎠᏁᎵᏍᎨ	-10.1126
▁ᎡᎳᏂᎬ	-10.1131
▁ᎤᏩᏛᎲ	-10.1138
▁ᎤᎵᏬᏨ	-10.1139
▁ᎠᏂᏩᏥᏂ	-10.114
▁ᎦᎳᎱᏂ	-10.114
▁ᏕᎦᎳᏫᎥ	-10.114
▁ᏧᏓᎿᏩᏛ	-10.114
▁ᎢᏆᎶᏂ	-10.114
▁ᎾᎪᏔᏅᎾ	-10.114
▁ᏚᎾᎧᏛ	-10.114
▁ᏗᏂᏬᏂᏍᎩ	-10.114
▁ᏣᏔᎦ	-10.114
▁ᎤᏙᎴᎰᎯᏍᏗᏱ	-10.114
▁ᏚᏃᏢᏔᏅᎩ	-10.114
▁ᎢᏕᎯ	-10.114
▁ᏄᏓᎵᏓᏍᏛᎾ	-10.114
▁ᏗᎨᏥᎤᏍᏕᏎᎸᎯ	-10.114
▁ᏅᏓᎦᎵᏍᏙᏓ	-10.114
▁ᏗᏂᏍᎪᎵ	-10.114
▁ᏂᎦᎵᏍᏔᏂᏙᎲ	-10.114
▁ᎦᏂᏓᏛ	-10.1141
▁ᏍᎪᏯ	-10.1141
▁ᏧᏆᎶᎬ	-10.1141
▁ᏂᏣᏛᏁᎮᏍᏗ	-10.1141
▁ᎾᎵᏍᏆᏗᏍᎬᎾ	-10.1141
▁ᎢᏥᏰᎸᏎᏍᏗ	-10.1141
▁ᎢᏣᏅᏖᏍᏗ	-10.1141
▁ᎤᏬᏑᎶᏨᎯ	-10.1141
▁ᎥᎩᏅᏏᏛ	-10.1141
▁ᎠᏂᏃᏍᎩᏍᎩ	-10.1142
▁ᏗᏓᏬᏍᎩ	-10.1142
▁ᏓᎬᏩ	-10.1142
▁ᎢᏳᏕᏘᏴᏓ	-10.1142
▁ᎢᏧᎳᏗᏢ	-10.1143
▁ᎯᏍᎦᏯ	-10.1143
▁ᎢᏥᎦᏔᎮᏍᏗ	-10.1143
▁ᎡᏂᏗ	-10.1143
▁ᏂᏚᎾᏓᏪᏎᎴᎢ	-10.1143
▁ᎠᏌᏅᏙᏗ	-10.1144
▁ᏗᏑᏢᏛ	-10.1144
▁ᎣᏂᏗᏢ	-10.1144
▁ᏅᏓᎦᎵᏍᏙᏔᏂ	-10.1144
▁ᎠᎵᏥᏙᎲᏍᎩ	-10.1144
▁ᎢᏯᏍᏘ	-10.1144
▁ᎡᏈᎵ	-10.1145
▁ᎢᏥᎦᏙᎥᎯᏍᏗᏱ	-10.1145
▁ᏧᎾᎵᏂᎩᏛ	-10.1145
▁ᎠᎦᏯᎷᏗ	-10.1146
▁ᎠᏥᎤᏍᏕᏎᎸᎯ	-10.1146
▁ᎪᎯᏳᎲᏍᎩ	-10.1146
▁ᏂᎬᏪᏎᎭ	-10.1146
▁ᏣᏓᏅᏙ	-10.1148
▁ᏧᏍᎪᎵ	-10.1148
▁ᎦᎾᏍᏓ	-10.1148
▁ᏂᎦᎵᏍᏔᏅᎭ	-10.1151
▁ᏅᏧᎵᏍᏙᏔᏅ	-10.1152
▁ᏍᎩᏙᎵᎩ	-10.1155
▁ᎤᏕᎵᏒ	-10.1155
▁ᎢᏳᎵᏍᏔᏅᎯ	-10.1157
▁ᎤᎵᏍᏗᏳ	-10.1159
▁ᏧᏂᎳᏫᎢᏍᏗᏱ	-10.1159
▁ᎢᏕᎾ	-10.1159
▁ᏓᏓᏏ	-10.116
▁ᎠᎦᏔᎿᎢ	-10.116
▁ᎠᏆᎵᏏ	-10.1161
▁ᏚᏠᏱᎴᎢ	-10.1161
▁ᎤᏍᏆᏛ	-10.1162
▁ᎢᏯᏆᏛᏁᏗᏱ	-10.1163
▁ᎢᏓᎵ	-10.1164
▁ᎹᏗ	-10.1168
▁ᎤᏪᏗᏱ	-10.1171
▁ᎨᎥᎢ	-10.1175
▁ᎤᏟᏂᎩᏓ	-10.1177
ᎷᏤᏗᏱ	-10.1179
▁ᎤᏂᎩᏒᎩ	-10.1181
▁ᏘᎵ	-10.1185
▁ᎡᏘᏴ	-10.1187
▁ᎤᎾᏛᏁᎢ	-10.1188
▁ᎤᏩᏅ	-10.119
▁ᎹᎩ	-10.1191
▁ᏂᏚᏩᏁᎸᎩ	-10.1192
▁ᏄᎾᏍᏗ	-10.1195
▁ᏧᏂᎾᏫᏱ	-10.1196
▁ᏫᏚᏂ	-10.1198
▁ᏧᏓᏅᏛᎢ	-10.1201
▁ᎬᏩᎪᎲ	-10.1205
▁ᏭᏂᎷᏤᎢ	-10.1212
▁ᎨᏙᎲ	-10.1214
ᏢᏗ	-10.1218
▁ᎨᏂᏗ	-10.1218
▁ᏂᏙ	-10.122
ᏃᏁᎸᎩ	-10.124
ᏓᏡᎬ	-10.1248
▁Ꮘ	-10.1251
▁ᏂᏫ	-10.1253
▁ᏯᏆᏚᎵ	-10.1261
▁ᎠᏆᎵ	-10.1262
▁ᎤᏣᏖ	-10.1267
▁ᎭᎵ	-10.1272
▁ᏱᎰ	-10.1275
▁ᎯᎸᎯ	-10.1276
▁ᎦᏛᎬᎢ	-10.1278
ᏁᏍᎨ	-10.1282
▁ᎤᎪᎲᎯ	-10.1293
▁ᎨᏓᎵ	-10.1298
▁ᎤᏁᎢᏍᏗ	-10.1302
▁ᎤᎭᎨ	-10.1312
ᏙᎥ	-10.1312
▁ᏄᏛᏁᎸᎢ	-10.1313
ᎡᏍᏗ	-10.1315
ᏓᏅ	-10.1324
ᏃᎲᏏ	-10.1331
ᏙᎵᏍᏗ	-10.1334
▁ᎤᏩᎨᏫ	-10.1334
ᏍᏆᏂᎪᏗ	-10.1343
ᎫᏴᏙᏗ	-10.1346
ᏪᏨᎯ	-10.1363
▁ᎤᎴᏅᎲ	-10.1369
▁ᏧᏪᏘ	-10.1373
▁ᎤᏯ	-10.1386
▁ᏗᎬᏙᏗ	-10.1397
ᏅᎭ	-10.1418
▁ᎠᎩᎭ	-10.1443
▁ᎯᎾ	-10.1456
ᏓᏏ	-10.1468
ᏩᏛᎮ	-10.1473
▁ᎠᎦᏛ	-10.1477
▁ᏓᏥᏯ	-10.1512
▁ᎤᏔᏅ	-10.1518
ᎠᏯᏗ	-10.1521
▁ᎤᏙᏓᏃ	-10.1524
ᏂᏒ	-10.1527
ᏅᏏᏙᎯ	-10.1535
ᏍᏕᏍᏗ	-10.1562
▁ᎤᏛᏅᎩ	-10.1624
▁ᎨᎶᎯ	-10.1647
▁ᏭᏂᎷᏤ	-10.1664
ᏁᎸᏔᏅ	-10.1681
▁ᏄᏓ	-10.1708
▁ᏂᏣᏛᏅᎢ	-10.1744
ᏧᏏ	-10.1746
ᎤᏙᎯᏳ	-10.1748
ᏓᏁᎸ	-10.1775
ᏙᎵ	-10.1784
ᏴᎭ	-10.1785
ᏐᏅ	-10.1792
ᎩᏍᎨᏍᏗ	-10.1805
ᎥᏝ	-10.1808
ᏓᏅᎦᎸᏛ	-10.1822
▁ᎠᏂᏁ	-10.1849
▁ᎠᏍᎦᏅᏨ	-10.1893
ᏓᎶᏂᎨ	-10.1903
▁ᎾᏆᏛᏁᎸ	-10.1916
ᏔᎷᎩᏍᎩ	-10.1917
ᎨᎳᏍᏗ	-10.1921
ᏚᎵ	-10.1924
▁ᎠᎩᏁᏨ	-10.1933
▁ᎠᏓᏅᏖᏍᎨ	-10.1948
▁ᎡᎵᏍᎨ	-10.1952
▁ᏫᎦᏅᏅ	-10.1955
▁ᎠᏂᏨᏯ	-10.1957
▁ᎠᏓᏯ	-10.196
▁ᎤᎩᏨᏅ	-10.196
▁ᎤᎵᏂᎬᎬ	-10.1961
▁ᏕᎦᏅᏅ	-10.1961
▁ᏗᏤᎲ	-10.1964
▁ᎥᏓᎸ	-10.1965
ᎩᎯ	-10.1965
ᎢᏳᎾᏍᏗ	-10.1965
▁ᎤᏂᏃᎮᎸ	-10.1967
▁ᏣᎧᏛ	-10.1969
▁ᎦᏰᏌᏛ	-10.197
▁ᎬᏩᎷᏤᎴ	-10.1971
▁ᏗᏓᏁᎸ	-10.1977
▁ᏂᏣᏛᏅ	-10.198
▁ᎤᏰᎸᏁ	-10.1982
ᏎᏗ	-10.1985
▁ᎤᎿᎥ	-10.1985
▁ᏗᏥᏰᎸ	-10.1995
▁ᏥᏙᎬ	-10.1996
▁ᏫᏚᏯᏅᎲ	-10.1998
ᏍᏗᏍᎨᏍᏗ	-10.1999
▁ᎠᏍᏚᎲ	-10.2004
ᏅᏓ	-10.201
▁ᎬᏩᎷᏤᎸ	-10.2011
▁ᏂᎪ	-10.2014
▁ᎠᏂᏃᎯᎵᏙ	-10.2023
▁ᏗᏄᎪᏗᏍᎩ	-10.2025
▁ᎢᎬᏩᏁᏗ	-10.2025
▁ᎠᏥᎢᏍᏗ	-10.2026
▁ᏱᏙ	-10.2033
▁ᎠᏁᎵᏍᎬ	-10.2033
ᏔᏅᎢ	-10.204
▁ᏚᏅᏎ	-10.204
▁ᎠᏰᎲ	-10.2044
▁ᏂᏓᎪᏔᏅᎾ	-10.2049
▁ᎡᎩᎵᏈ	-10.2049
▁ᎢᏗᏍᏓᏓᎳ	-10.2049
▁ᎢᏯᎬᏁᎸᎯ	-10.2049
▁ᏌᏬᏚ	-10.2049
▁Chap	-10.2049
▁ᎠᏂᏈᎵᏍᏗ	-10.2049
▁ᏌᏱᎳ	-10.2049
▁ᎠᏰᎳᏍᏘ	-10.2049
▁ᏚᎧᏔᏍᏔᏁᎢ	-10.2049
▁ᏣᎦᏟᎶᏍᏔᏅᎯ	-10.2049
▁ᏥᏍᎪᏴ	-10.2049
▁ᏅᏓᎦᏥᏴᏁᎵ	-10.2049
▁ᏧᏓᏕᏍᏗᏱ	-10.2049
▁ᎠᏗᏒᏍᏗ	-10.2049
▁ᎮᎼ	-10.2049
▁ᎤᏲᏍᏛᏉ	-10.2049
▁ᎠᏕᏒᎲᏍᎩ	-10.2049
▁ᎢᏆᎻ	-10.2049
▁ᏗᏥᎦᏙᎵ	-10.205
▁ᏧᎾᏓᏅᏙ	-10.205
▁ᎤᏂᏁᎫᏥᏛ	-10.205
▁ᏥᏂᏣᏛᏅ	-10.205
▁ᎤᎳᎨᏯᏛᏤᎢ	-10.2051
▁ᎤᎩᏓᏟᏅᏯ	-10.2051
▁ᎢᏳᏛᏁᎸᎯ	-10.2051
▁ᏌᏚ	-10.2051
▁ᎠᎹᏳᎸᏓ	-10.2051
▁ᏱᏥᏍᎦᎢᎮᏍᏗ	-10.2052
▁ᎠᎩᎬᏫᏳᎯ	-10.2052
▁ᏣᏤᎵᎪᎯ	-10.2052
▁ᏏᎵᏱ	-10.2052
▁ᎦᎫᏍᏛᏗ	-10.2052
▁ᏤᏙᎲ	-10.2053
▁ᎤᏍᏚᎢᏒ	-10.2053
▁ᎤᏣᏔ	-10.2054
▁ᏭᎷᏣ	-10.2054
▁ᏇᏕᎵ	-10.2054
▁ᏗᎨᏥᎾᏌᎢ	-10.2054
▁ᎠᏂᏃᎮᏍᎩ	-10.2054
▁ᎧᏁᏍᎪ	-10.2054
▁ᏥᏲᏎᎸ	-10.2055
▁ᎠᏉᎳ	-10.2055
▁ᎠᎦᏔᎾᎢ	-10.2055
▁ᎤᎾᏗᏍᎦᎶᏗ	-10.2055
▁ᏓᎬᏔᏂ	-10.2056
▁ᎣᎩᏙᏓ	-10.2056
▁ᎬᏩᏍᏓᏩᏛᏒᎩ	-10.2057
▁ᏗᎦᏅᏍᎨᏂ	-10.2057
▁ᎬᎵᏍᏆᏗᏍᎩ	-10.2057
▁ᏗᎬᏩᎸᏌᏛ	-10.2057
▁ᎢᏳᏩᏁᎯ	-10.2058
▁ᏥᏥᎦᏔᎭ	-10.2058
▁ᎠᎵᏍᎪᎸᏓᏁᏗ	-10.2058
▁ᏚᏃᎡᎢ	-10.2058
▁ᏯᎦᏔᎭ	-10.2059
▁ᎠᏃᏍᏛ	-10.206
▁ᏓᎨᏏ	-10.2061
▁ᎾᏥᎾᏝᎥᎾ	-10.2061
▁ᎤᏁᏢᏔᏅᎯ	-10.2061
▁ᎾᎨ	-10.2061
ᎬᏫᏳᏒ	-10.2062
▁ᎠᏂᏅᎢ	-10.2062
▁ᏦᎳᏂ	-10.2062
▁ᏧᏂᎦᏴᎵᎨ	-10.2063
▁ᏭᎶᎯᏍᏗᏱ	-10.2064
▁ᏳᏩᏁᎦ	-10.2065
▁ᎢᏣᏠᎾᏍᏗ	-10.2065
▁ᎪᏪᎳᏅᎯ	-10.2067
▁ᏦᏈ	-10.2069
▁ᎬᏂᎨᏒᎢᏳ	-10.2071
▁ᏥᏂᎦᏪᎭ	-10.2072
▁ᏦᎳ	-10.2072
ᎦᏅᎯᏓ	-10.2073
▁ᎠᏥᏃᎮᏍᎬᎢ	-10.2076
▁ᏂᎦᏅᎯᏒᎩ	-10.2081
▁ᏧᏁᎬ	-10.2081
▁ᏂᏚᏍᏛ	-10.2085
▁ᎤᏬᏢᏅᎩ	-10.2091
▁ᎤᏢᎩ	-10.2092
▁ᎢᏳᏩ	-10.2095
▁ᎤᏅᏏᏙᎯ	-10.2096
▁ᎡᏉᏗᏱ	-10.2096
▁ᏕᏍᎩ	-10.2096
▁ᎤᏓᏅᏖᎸᎯ	-10.2097
▁ᎤᏕᏁᎸᎯ	-10.2105
ᎾᏰᏍᎬᎾ	-10.2105
ᎸᏉᏗ	-10.2116
▁ᎡᎳᏗᏢ	-10.2117
▁ᏓᏂᏁᎸᎢ	-10.2119
▁ᎠᎢᏒᎢ	-10.2121
▁ᎬᏂᏳ	-10.2131
▁ᎤᏍᎦᏅᏨᎯ	-10.2131
ᎨᏳᏗ	-10.2132
ᏏᏗᏒ	-10.2133
ᏳᎯ	-10.2134
▁ᏧᏬᏚᎯ	-10.2138
▁ᎦᏅᎯᏓ	-10.2139
▁ᎠᎩᏍᏗᏱ	-10.215
▁ᎤᎿᎥᎢ	-10.2151
▁ᎨᎳᏍᏗ	-10.2154
▁ᎤᏄᏢ	-10.216
ᏓᎵ	-10.2163
▁ᏤᏆ	-10.2165
▁ᏕᏡᎬᎢ	-10.2174
ᏗᏍᎬᎢ	-10.2183
ᏑᏰᏛ	-10.2184
▁ᎤᎾᏛᎦᏅᎯ	-10.2197
▁ᏥᎨ	-10.2198
▁ᎾᏆ	-10.2201
▁ᎤᎾᏛ	-10.2204
▁ᏕᏂ	-10.2211
▁ᏫᏍᎩ	-10.2217
ᎡᎸᎯ	-10.2226
▁ᎠᎩᏰᎸ	-10.2233
ᏅᏗ	-10.2233
▁ᎠᏆᏓᏅᏙᎩ	-10.2234
▁ᎦᏙᎬᎩ	-10.2238
ᏄᎪᏫᏒᎩ	-10.2242
ᏁᏃ	-10.2248
▁ᏂᎬᏁᎲ	-10.2258
▁ᎾᏛᏁᎲ	-10.2259
ᏰᎯ	-10.2259
ᏙᏓᏆᏓ	-10.226
ᏙᏢᏅ	-10.2265
ᏕᎶᎰᎯᏍᏗ	-10.2267
▁ᎤᏂᏍᎦᏅᏨᎢ	-10.227
ᏔᏅᎾ	-10.2273
▁ᎤᎷᏤᎢ	-10.2287
▁ᏚᎦ	-10.2287
▁ᎤᏚ	-10.2294
▁ᏅᏗᎦᎵᏍᏙᏗᏍᎬᎢ	-10.2306
▁ᏕᎬ	-10.2311
▁ᎤᏯᏅ	-10.2312
ᏂᏓᏍᏗᏱ	-10.2315
▁ᎠᎭ	-10.233
ᎴᏅ	-10.2331
ᏔᏲᏏ	-10.2343
▁ᎠᏒᎩ	-10.2352
▁ᎢᏒ	-10.2357
▁ᎬᏯ	-10.2358
ᏤᎸ	-10.2372
▁ᏦᎯᏳᏒ	-10.238
ᏦᏢᏗ	-10.2382
id	-10.2387
ᏁᏤᎴ	-10.2389
ᎦᏙ	-10.2392
▁ᏗᏨ	-10.2396
▁ᎠᎩᎪᎲ	-10.241
▁ᎤᏂᎲ	-10.2411
ᏙᎴᎰᏏ	-10.2451
ᎵᏏᏱ	-10.2477
▁ᎭᏩ	-10.248
▁ᎦᏲᎵ	-10.2502
ᏉᏗ	-10.2506
▁ᏥᏙ	-10.2511
ᏍᏔᏅᎯ	-10.2522
ᎩᎳ	-10.2528
l	-10.2532
ᎧᎵᎢ	-10.2535
▁ᎢᏥᏰᎸ	-10.254
ᏌᏁ	-10.255
ᏂᎩᏛ	-10.2561
▁ᎠᏂᏫᎾ	-10.2575
ᏲᎯᏍᏗ	-10.2639
▁ᎢᏏᎵᏱ	-10.2645
▁ᏫᎩ	-10.2648
▁ᎠᏰ	-10.265
ᏅᏓᏓ	-10.2656
▁ᎠᎾᎵ	-10.2694
ᏁᏤᏗ	-10.2695
ᎪᎵᏰᏗ	-10.2696
ᏛᏂ	-10.2704
▁Ꮗ	-10.2712
ᎵᏍᏔᏁ	-10.2715
ᏒᏃ	-10.2728
ᎩᏓ	-10.2736
ᏄᎦ	-10.2739
ᎶᏨ	-10.2742
▁ᏥᏄ	-10.2749
▁ᎯᏍᎩᏁ	-10.2754
▁ᎠᎢᏒ	-10.2754
▁ᎠᎦᏔ	-10.2759
▁ᏂᎨ	-10.2784
ᏥᏲᏏ	-10.279
ᏁᏤᎸᎯ	-10.2792
▁ᎠᏋ	-10.2794
▁ᏚᎾᎴᏁ	-10.2822
▁ᎯᎦᏘᏏ	-10.2839
▁ᎭᎻ	-10.2841
ᏕᏅ	-10.2852
ᏗᏢ	-10.2866
ᎪᏩᏘᎭ	-10.2872
ᏬᏂᎯᏍᏗ	-10.2886
▁ᏚᎧᎿᏅ	-10.2906
▁ᎤᏂᏣᏛ	-10.2912
▁ᎣᎩᎾ	-10.2926
▁ᎾᎩ	-10.2938
ᎬᎿ	-10.2939
▁ᎠᏔᎴᎦᏒ	-10.2953
▁ᎤᏃᏁᎴ	-10.2955
▁ᏕᎦᏚᏩᏗᏒ	-10.2966
▁ᎤᏂᎷᏤᏗ	-10.2969
▁ᏧᏩᎫᏔᏅᏒ	-10.2969
ᎾᏄᎪᏫᏏ	-10.297
▁ᏓᏕᏲᎲᏍᎬ	-10.2972
▁ᏱᎨᏐ	-10.2976
▁ᏚᏬᎡ	-10.2982
▁ᎠᎦᏍᎦᏂ	-10.2983
▁ᎠᏚᎢᏍᏛ	-10.2985
▁ᎦᎸᏉ	-10.2986
▁ᎤᏰᎸᏅ	-10.2986
▁ᏓᏂᏁᎸ	-10.299
▁ᎠᏓᏙᎵᏍᏗ	-10.2994
ᏃᎮᏍᎬᎢ	-10.2995
▁ᎤᎦᏔᎲᏒ	-10.2998
▁ᎣᎵᏩ	-10.3003
▁ᎤᎷᏤᎴ	-10.3011
▁ᎤᏬᏚ	-10.3012
▁ᏤᎮ	-10.3015
▁ᏕᎪᏪᎸ	-10.3015
▁ᎤᏛᏐᏅ	-10.3016
ᏲᎯᏍᏔᏅ	-10.3022
▁ᎦᎴᏂ	-10.3034
ᏯᏅᎲ	-10.3041
▁ᎦᏁᏥ	-10.3043
▁ᎤᏅᏎ	-10.3046
▁ᏩᎩ	-10.3046
ᏓᎴᏅᏛ	-10.3047
ᎰᎲᏍᏗ	-10.3049
▁ᎡᏂᎾᏯ	-10.3049
▁ᎢᏍᎦᎳᏗ	-10.3049
▁ᎥᏘᎣᎩ	-10.3049
▁ᎦᏌᏆᎸ	-10.3049
▁ᏑᏓᎳᏍᎪᎯ	-10.3049
▁ᏗᎫᏓᎸᏗᏱ	-10.3049
▁ᏤᎦᎳᏯ	-10.3049
▁ᎡᎹᏂᏓ	-10.3049
▁ᏧᏙᏓᏋᏓ	-10.3049
▁ᏧᏯᏖᏃᎯ	-10.3049
▁ᏯᏃᎩᏳ	-10.3049
▁ᏫᏚᎧᎿᏁ	-10.3049
▁ᎤᏯᏖᏃᎯ	-10.3049
▁ᏗᏍᏆᎨᏂ	-10.3049
▁ᎢᏤᎳᏗᏙᎮᏍᏗ	-10.3049
▁ᎬᏉᏎᎰ	-10.3049
▁ᏕᎨᏥᏰᎸᏔᏅᎩ	-10.3049
▁ᎤᎾᏢᏉᏗ	-10.3049
▁ᎻᎾᏌ	-10.3049
▁ᏂᏣᏪᏒ	-10.3049
▁ᎢᏳᏩᏂᏌᏅᎯ	-10.3049
▁ᏑᎾᏓᎴᎩ	-10.3049
▁ᎦᎶᎯᏍᏗᏳᎶᏗ	-10.3049
▁ᎡᏥᎸᏉᏓ	-10.3049
▁ᎤᏂᏃᎮᎴ	-10.3049
▁ᏅᏓᏳᎵᏍᏙᏗᏱ	-10.3049
▁ᎨᏣᏍᏓᏩᏗᏙᎯ	-10.305
▁ᏗᎧᎾᏩᏛᏍᏗ	-10.305
▁ᎠᎦᎵᏍᎬ	-10.305
▁ᏄᎵᏍᏔᎾ	-10.305
▁ᏍᎩᏄᏍᏛ	-10.305
▁ᎢᏲᏍᏛ	-10.305
▁ᎦᏌᎾᎵ	-10.305
▁ᏅᏓᎬᏁᎵ	-10.305
▁ᏱᏅᎦᎵᏍᏓ	-10.305
▁ᎪᏌᏂ	-10.305
▁ᏱᏚᏂ	-10.3051
▁ᎢᏳᏩᏂᎸ	-10.3051
▁ᎠᏂᏈᎷ	-10.3051
▁ᎤᎵᏍᏔᏴᏗ	-10.3051
▁ᎤᏰᎸᎮ	-10.3052
▁ᏑᏕᏘᏴᏛ	-10.3052
▁ᏄᎾᎵᏍᏔᏁ	-10.3053
▁ᏭᏴᎸ	-10.3053
▁ᎯᎨᏴ	-10.3053
▁ᏗᏓᎴᎲᏍᎦ	-10.3053
▁ᎢᏳᏛᎿᏕᎩ	-10.3054
▁ᎢᎧᏁᏨᎯ	-10.3054
ᏍᎦᎢᎲᎾ	-10.3054
▁ᏗᏓᏂᏐᏗᏱ	-10.3054
▁ᏓᏓᎶᏂ	-10.3055
▁ᏫᏨᎷᏤᏗᏱ	-10.3055
ᎸᏉᏕᏍᏗ	-10.3055
▁ᎤᏂᎷᎯᏍᏗᏱ	-10.3056
▁ᎤᎵᏠᏯᏍᏕᏍᏗ	-10.3056
▁ᎠᏂᏦᎢ	-10.3056
▁ᏛᏍᏆᎸᎯ	-10.3057
▁ᎢᏣᎵᏍᏕᎸᏙᏗ	-10.3058
▁ᎢᏣᏛᎦᏅᎯ	-10.3058
▁ᏗᎦᎴᏂ	-10.3058
▁ᎠᏙᎴᎰᎯᏍᏙᏗ	-10.3059
▁ᎤᏂᎩᏍᏗ	-10.3059
▁ᎤᏛᎪᏗᏱ	-10.306
▁ᎢᏳᏩᏁᎸᎯ	-10.306
▁ᎠᎩᏅᏏᏛ	-10.306
▁ᏭᏂᎶᎯᏍᏗᏱ	-10.306
▁ᎤᏪᎵᏍᏗ	-10.3061
▁ᎤᏓᏙᎵᏍᏓᏁᎴᎢ	-10.3061
▁ᎢᏣᏓᏡᎬ	-10.3061
▁ᎾᏂᎦᏔᎲᎾ	-10.3062
▁ᎤᏁᎷᏅᎩ	-10.3062
▁ᎧᏃᎮᏓ	-10.3063
▁ᎤᏁᏍᏓᎳ	-10.3063
▁ᎤᏓᏙᎵᏣᏘᏳ	-10.3063
▁ᏦᏓᎸ	-10.3064
▁ᎤᏪᏙᎵᏍᏗ	-10.3065
▁ᎬᏩᏔᏲᏎᎴ	-10.3066
▁ᎢᎨᎬᏁᏗ	-10.3067
▁ᏙᏓᏳ	-10.3068
▁ᎾᎩᏪᏒᎩ	-10.3068
▁ᏂᎦᎵᏍᏗᏍᎨᏍᏗ	-10.3069
▁ᎤᏂᏇᏓᎸᎢ	-10.307
▁ᎪᏢᏅ	-10.3072
▁ᎠᎦᏍᎬ	-10.3072
▁ᏥᏍᏆᏯ	-10.3072
▁ᎤᏂᏁᎫ	-10.3075
▁ᏗᎦᎶᏗ	-10.3077
ᎦᏴᎵᎨ	-10.3079
▁ᏙᎩᎾ	-10.3083
▁ᎤᎾᏕᏅᎯ	-10.3085
▁ᎤᏂᏃᎮᎸᎯ	-10.3087
▁ᏂᎬᏁᎭ	-10.3088
▁ᎤᎵᏬᏨᎯ	-10.309
▁ᎦᏁᎳ	-10.309
▁ᏴᎨᏥ	-10.309
▁ᎠᏂᏁᎵ	-10.3092
▁ᏚᏂᏅᏎ	-10.3093
▁ᏚᏁᏤᎸᎩ	-10.3093
▁ᏙᏧᎾᏓᏅᏛᎢ	-10.3093
▁ᎭᎴ	-10.3095
▁ᎢᏳᏛᏁᏗᏱ	-10.3095
▁ᎤᏪᏅᏍᏗᏱ	-10.3096
▁ᎤᏓᎴᏅᏛ	-10.3099
▁ᎤᏓᏑᏯ	-10.3099
▁ᎤᏰᎸᎯ	-10.31
▁ᎤᎾᎵᏍᏓᏴᏗᏱ	-10.3102
▁ᏤᎲᎩ	-10.3102
▁ᏄᎾᏛᏁᎴᎢ	-10.3102
▁ᎠᏆᏓᏅᏛ	-10.3103
▁ᏫᏚᏯᏅᎲᎩ	-10.3107
▁ᎣᎬᏒ	-10.311
▁ᎾᎦᏔᎲᎾ	-10.3113
ᎦᏔᎯ	-10.3113
▁ᎤᏪᏅᏒᎩ	-10.3115
▁ᏚᏌᎳᏓᏁ	-10.3117
▁ᎤᏪᏙᎸᎩ	-10.3118
▁ᎾᏂᏪᏍᎬᎢ	-10.3118
▁ᎠᏥᎸᎨᎳᏍᏗᏱ	-10.3121
▁ᏓᏕᏲᎲᏍᎬᎢ	-10.3126
▁ᏧᏒᎯ	-10.3127
▁ᎨᎦᎫᏴᎡ	-10.3128
▁ᎧᏅᏑᎸ	-10.3134
▁ᎢᎾᎩ	-10.3135
ᏏᏅᏓ	-10.3136
▁ᎤᏄᎪᏨᎩ	-10.3137
▁ᎠᏎᏍᎩᏂᏃᏅ	-10.314
▁ᎤᏰᎸᏁᎢ	-10.3141
▁ᎠᏨᏯᎢ	-10.3142
ᏅᏃ	-10.3145
▁ᏩᎾ	-10.3148
▁ᎤᏂᏰ	-10.3148
ᏓᏂ	-10.3148
▁ᏕᎳ	-10.3159
ᏄᎪᏩ	-10.318
▁ᎤᏂᏰᎸᏁ	-10.3182
▁ᎠᏫᏍᎩ	-10.3189
▁ᎧᎪ	-10.319
▁ᎠᏤᎵᏍᏛᎢ	-10.3199
ᏍᏔᏁ	-10.3237
▁ᏧᏙ	-10.3238
▁ᎤᏥᎸᏒ	-10.324
ᏍᏛᎾ	-10.3252
ᏁᎸᎾ	-10.3255
▁ᏄᏩᏁᎴᎢ	-10.3267
▁ᎦᏬᏂᏍᎬᎢ	-10.3275
▁ᎤᎶᎩᎸᎢ	-10.3283
ᏅᏍᏗᏱ	-10.3289
ᏓᏱᎵ	-10.3296
▁ᎣᎬ	-10.3297
▁ᎾᏋᏁᎸ	-10.3316
ᏁᎮ	-10.332
▁ᏗᎦᏅᏌᏗ	-10.3321
▁ᎦᏰᏥ	-10.3325
ᎨᏛ	-10.3326
ᏆᎵ	-10.3327
▁ᏕᎪ	-10.3329
▁ᎠᏉ	-10.3329
ᏲᎯ	-10.3329
▁ᏗᎪᏪᎶᏗ	-10.3337
▁ᏧᏬ	-10.3338
▁ᎤᎴᏁ	-10.3338
ᎦᏓᏁ	-10.3342
▁ᏱᏏ	-10.3367
▁ᏕᎭ	-10.337
ᎢᏴ	-10.3389
ᏅᏏᏓᏍᏗ	-10.3392
▁ᎤᎧᏛᎢ	-10.3406
ᎰᎵ	-10.3428
ᏍᏓᏴ	-10.3434
ᎦᏔᎰ	-10.3444
▁ᎤᎲᎢ	-10.346
▁ᏂᏕᎬᏁ	-10.3475
ᏏᏆ	-10.3476
ᏁᏆ	-10.3482
▁ᎩᎶᎢ	-10.3501
ᎡᎸᎩ	-10.3504
▁ᎠᏲ	-10.3514
ᏣᏛᏁᎯ	-10.3516
ᏫᏍᏗ	-10.353
ᏓᎳ	-10.3533
ᏂᏌᏁ	-10.3535
ᎾᎥ	-10.3547
▁ᎦᏃ	-10.3549
ᏛᏙᏗ	-10.3563
▁ᏄᎵᏍᏔᏁᎮ	-10.3568
▁ᏱᏙᎦ	-10.3577
ᏍᏆᏙᏅ	-10.3579
ᏤᎵᎦ	-10.3581
▁ᏰᎵᏍᎨ	-10.3583
ᎠᏈ	-10.3588
▁ᎢᎯ	-10.3593
ᏥᎪᏩᏛ	-10.3607
▁ᎣᎩᏂ	-10.3611
ᏗᏏ	-10.3617
▁ᎢᏣᏓᏅᏘ	-10.3622
ᎦᏐᎯ	-10.3639
ᏁᎮᎢ	-10.3648
▁ᎤᎲ	-10.3653
▁ᎢᎬᏁ	-10.3654
ᎵᏯ	-10.3657
ᏙᎮᏍᏗ	-10.3681
ᎵᎪ	-10.3687
▁ᎩᎳᎯ	-10.3699
ᎸᏉᏙᏗᏱ	-10.3704
ᎾᏄᎪᏨᎯ	-10.3718
ᎷᏣ	-10.3731
▁ᎡᏥᏁᏗ	-10.3734
▁ᎦᏅ	-10.3736
▁ᎤᎾᏛᎦᏁ	-10.3739
▁ᎢᎳ	-10.3761
ᏍᏓᏩᏗᏙᎯ	-10.3767
ᎪᎵᏰᎡ	-10.3768
ᎯᏫ	-10.3775
▁Ꮾ	-10.3791
▁ᎤᎶᏒ	-10.3791
▁ᎤᏲᎱᏎ	-10.38
▁Ꮉ	-10.3802
ᏰᏂ	-10.3812
▁ᎤᎶ	-10.3812
ᏙᎸ	-10.3814
ᏍᎦᎩ	-10.3836
ᏅᏓᏗᏍᏙᏗ	-10.3846
▁ᏲᎩ	-10.3849
▁ᏥᎾ	-10.3868
▁ᏗᎾᏓ	-10.3877
ᏍᏔᏱ	-10.3904
▁ᎠᏂᏐᎢᏃ	-10.3914
▁ᏥᏂᎦᏪ	-10.3933
▁ᏄᏪ	-10.3938
▁ᎾᎿᏉ	-10.3959
▁ᎠᏓᏅᏖᎵᏙ	-10.3959
ᎨᏂ	-10.3963
▁ᏥᏂ	-10.3964
ᏏᏁ	-10.3966
ᎩᎡᎸ	-10.3992
▁ᎠᏍᎪᎯᏃ	-10.4
▁ᏫᏓᏂ	-10.4002
ᎡᎴᎢ	-10.4026
▁ᏄᏂᏪᏒ	-10.4026
ᏠᏱ	-10.4028
▁ᎪᏢᏒ	-10.403
ᎠᏎ	-10.4031
ᏰᎭ	-10.4033
▁ᏱᏗᎦ	-10.4033
ᏍᏕ	-10.4038
▁ᎾᎬᏁᎸ	-10.4039
▁ᎾᏂᏪᏍᎬ	-10.4042
▁ᏥᏁᎸ	-10.4046
▁ᏣᏓ	-10.4046
ᏗᏒ	-10.4048
▁ᏂᎦᎵᏍᏗᏍᎨ	-10.4058
ᏎᎴ	-10.4059
ᏗᏂᏅᏌᏗ	-10.4062
ᎭᏕᏬ	-10.4065
▁ᎣᏓᏅᏛ	-10.4065
▁ᎤᏲᎯᏍᏔᏁ	-10.407
ᎨᎵᎠ	-10.4073
ᎪᎱᏍᏗ	-10.4074
ᎠᏕᎸ	-10.4076
ᎧᎵᏨᎯ	-10.4081
ᏗᎦᏘᏯ	-10.4084
ᎠᎩᎾ	-10.4085
▁ᎯᏰᎸ	-10.4088
▁ᎡᏙᎮ	-10.4089
▁ᎠᏕ	-10.4089
▁ᏧᏓᏅᏛ	-10.409
▁ᏕᎤᎴᏔᏅ	-10.4091
▁ᏚᏂᎸᏫᏍᏓᏁᎸ	-10.4094
▁ᎤᏁᎦᎸ	-10.411
ᏠᎠᏏ	-10.4112
▁ᎠᏓᏁᏣᏍᏚᎶ	-10.4112
▁ᏧᎾᎴᎯᏐ	-10.4113
ᎶᏐᏅ	-10.4129
▁ᎤᎾᎵᎮᎵᏤ	-10.4131
▁ᎢᏙᎻ	-10.4133
▁ᏏᏓᏁᎸ	-10.4135
▁ᏅᏲ	-10.4136
▁ᏧᏂᎳᏫᎢᏍᏗ	-10.4137
▁ᎠᏥᏍᏕᎸᏗ	-10.4138
ᎵᏍᏗᏱ	-10.4139
▁ᎠᏲᎱᏒ	-10.4141
▁ᏣᎾᏫ	-10.4143
▁ᎤᎾᏕᏅ	-10.4146
▁ᏱᏓᏂ	-10.4148
ᎶᎯᏍᏗᏱ	-10.4149
ᏍᏕᎸᎯ	-10.4151
ᎥᎩ	-10.4153
▁ᏗᎪᏪᎵ	-10.4157
ᏲᎢᏴ	-10.4157
ᎭᏄᎸᎯ	-10.4158
ᏍᏆᏂᎪᏙᏗᏱ	-10.4159
rs	-10.4159
▁Philadelphia	-10.416
▁ᎠᏓᏪᎳᎩᏍᎩ	-10.416
▁ᏐᎵᎹᏅ	-10.416
▁ᏕᏦᎯᏳᏎᏍᏗ	-10.416
▁ᏚᏍᏆᎸᏔᏁ	-10.416
▁ᏱᏄᎵᏍᏔᎾ	-10.416
▁ᏆᎳᏆ	-10.416
▁ᏗᎦᏒᏍᏔᏅ	-10.416
▁ᎢᏦᎯᏳᎯ	-10.416
▁ᏇᏚᎡᎵ	-10.416
▁ᎤᏣᎴᏓ	-10.416
▁ᏗᎾᏕᏲᎲᏍᎩ	-10.416
▁ᏧᎴᎯᏌᏅᎯ	-10.416
▁ᎧᏂᎵᏯ	-10.416
▁ᏗᏇᏅᏒ	-10.416
▁ᏧᏴᏨ	-10.416
▁ᎤᏬᏓᎸ	-10.416
▁ᏚᎧᎿᏁ	-10.416
▁ᏓᏳᏂᎶᏒ	-10.416
▁ᎠᏚᎸᏗ	-10.416
▁ᎤᏓᏅᎵᏰᎥ	-10.416
▁ᎢᏗᏅᏁ	-10.416
▁ᏱᏣᏓᏅᏖᏗᏍᎨᏍᏗ	-10.416
▁ᎢᏥᏆᎵᏏ	-10.416
▁ᎬᏩᏠᏯᏍᏗ	-10.4161
▁ᎢᏧᎾᏓᎳ	-10.4161
▁ᏗᏥᎸᏫᏍᏓᏁᏗᏱ	-10.4161
▁ᏗᎦᎸᏫᏍᏓᏁᎸᎯ	-10.4161
▁ᎤᏓᏑᏱ	-10.4161
▁ᏚᏛᏛᏁ	-10.4161
▁ᎨᏅᎢᏍᏗ	-10.4161
▁ᎡᏣᏂᎵ	-10.4161
▁ᏕᎪᏪᎵᏍᎬ	-10.4161
▁ᏗᏛᏓᏅᎯ	-10.4161
▁ᏗᎨᏥᎾᏝᎢ	-10.4161
▁ᎤᏒᎯᏰᏱ	-10.4161
▁ᎦᏓᎷᏯᏛ	-10.4161
▁ᎠᎾᏛᎩᏍᎩ	-10.4162
▁ᏗᎬᎪᏩᏛᏗ	-10.4162
▁ᎠᎩᎷᏥᎸ	-10.4162
▁ᏱᎪᎵᎦ	-10.4162
▁ᎠᏍᏆᏚᎸ	-10.4163
▁ᎠᏂᎴᏴᏍᎩ	-10.4163
▁ᎠᎵᎮᎵᎬ	-10.4163
▁ᎤᏂᎪᎮ	-10.4163
▁ᏧᏓᎴᏅᎲ	-10.4163
▁ᎤᎾᏓᏓᏍᎬ	-10.4163
▁ᏂᏣᏛᎦ	-10.4163
▁ᎬᏩᏲᎱᎯᏍᏗ	-10.4163
▁ᎾᏯᏛᎡᏍᏗ	-10.4163
▁ᎠᏄᎦᎸ	-10.4164
▁ᎦᏣᏃᏍ	-10.4164
▁ᏥᏕᎦ	-10.4164
▁ᎧᏴᏐᎵ	-10.4164
▁ᏚᏃᏢᏅᎩ	-10.4164
▁ᏗᎪᏑᎴᏗᏱ	-10.4164
▁ᏧᏴᏢ	-10.4164
▁ᎤᏓᎴᏨ	-10.4164
▁ᏧᎴᏔᏅᎯ	-10.4164
▁ᎤᏄᎪᎢᏍᏗ	-10.4165
▁ᏥᎣᎵ	-10.4165
▁ᎬᏆᏛᏁᏗᏱ	-10.4165
▁ᎠᏓᏍᏓᏩᏗᏙᎯ	-10.4165
▁ᏂᏥᎦᏔᎲᎾ	-10.4166
▁ᏀᎢᏳ	-10.4166
▁ᎥᏥᎪᎥᎩ	-10.4166
ᎳᏏᏕᎾ	-10.4166
▁ᎤᎾᎵᏗᎩᏛ	-10.4166
▁ᎤᏬᏪᎳᏅᎯ	-10.4167
▁ᏚᎷᏫᏍᏔᏁᎲ	-10.4167
▁ᎢᏧᏕᏘᏴᏛ	-10.4167
▁ᎠᎹᎴᎩ	-10.4167
▁ᏔᎸᏗ	-10.4167
▁ᎤᏗᏔᎲ	-10.4167
▁ᎢᎩᏅᏟ	-10.4168
ᏛᏅᎢᏍᏙᏗᏱ	-10.4168
▁ᏍᎩᎾᏝᎢ	-10.4169
▁ᎤᎬᏫᏳᏎᏍᏗ	-10.417
▁ᎦᏅᏙᏗ	-10.417
▁ᏧᎾᏄᏩᎢ	-10.417
▁ᏄᏩᏅ	-10.4171
▁ᎾᏁᎲᎾ	-10.4171
▁ᎤᏂᏰᎸᏒᎩ	-10.4172
▁ᎤᏕᏁᎢ	-10.4172
▁ᎢᏳᏓᎵᎭ	-10.4174
▁ᎠᎩᏰᎸᎲ	-10.4174
▁ᎤᎧᎭᏛ	-10.4174
▁ᏭᏂᏴᎴᎢ	-10.4175
▁ᏩᎩᎷᏨ	-10.4177
▁ᎤᎴᏫᏍᏔᏁ	-10.4177
ᏥᎯᏍᏗ	-10.4178
▁ᎠᎵᏥᏙᎲᏍᎨ	-10.4179
▁ᎤᎾᏗᏅᏗ	-10.418
▁ᎡᏙᎭ	-10.418
▁ᎤᏌᎳᏓᏅ	-10.4182
▁ᎨᏥᏁᎸᎯ	-10.4183
▁ᎥᎩᏙᏉ	-10.4184
ᏲᎯᏎᎸᎩ	-10.4184
▁ᎠᏟᏍᏛᎢ	-10.4186
▁ᎤᏬᎯᏳ	-10.4187
▁ᏭᏂᎶᏒᎩ	-10.4187
▁ᏅᏓᎬ	-10.4188
▁ᎤᏪᎧᏅᎩ	-10.4188
▁ᎤᏅᏙᏗᏱ	-10.4189
▁ᏗᏂᎦᏘᏯ	-10.4189
▁ᎤᏕᏗᏱ	-10.419
▁ᎾᏍᎦᎢᎲᎾ	-10.4192
▁ᏄᏂᏪᏎᎸᎩ	-10.4193
▁ᎾᏂᎡᎢ	-10.4193
▁ᎤᎵᏏᏂ	-10.4194
▁ᏧᏬᎸ	-10.4194
▁ᎢᏗᎦᏪᏍ	-10.4196
▁ᎠᎧᎵᏬᎯ	-10.4197
▁ᎤᏨᏉᏗ	-10.4198
▁ᎤᏪᏁᎢ	-10.4203
▁ᏗᏟᏍᏗ	-10.4203
▁ᎤᏢ	-10.4203
▁ᏗᎦᎵᏍᏙᏗᎭ	-10.4203
▁ᎤᎪᏩᏛᏗ	-10.4204
▁ᎤᏔᎾ	-10.4205
ᎾᏄᎪᎢᏍᏗ	-10.4206
▁ᏐᏓᎻᏱ	-10.4208
▁ᎢᎩᏁᎸᎯ	-10.4208
▁ᏧᏁᎳ	-10.421
ᏗᏍᎪᏂᎯ	-10.4211
▁ᏓᏳᏓᎴᏅᏓ	-10.4219
▁ᏯᎩᎭ	-10.422
▁ᎢᎦᏁᎳᏅᎯ	-10.4229
ᏁᎬ	-10.4229
▁ᎢᏯᎬᏁᏗ	-10.423
▁ᎤᏯᏅᎯ	-10.4232
▁ᎦᏁᏌᎢᎯ	-10.4234
▁ᏚᏂᎸᏫᏍᏓᏁᎸᎢ	-10.4237
▁ᏗᏐᎢ	-10.4239
▁ᎡᏙᎮᎢ	-10.4239
▁ᎭᎾᏂ	-10.424
▁ᏥᎨᏥ	-10.4243
▁ᎤᎾᏛᎦᏁᎢ	-10.4245
▁ᏓᏈ	-10.4247
▁ᎤᏩᏛᎮᎢ	-10.4247
▁ᏍᎩᎨᏳ	-10.4251
ᏂᏯ	-10.4251
▁ᏗᏍᎩ	-10.4254
▁ᎧᎸ	-10.4256
▁ᏭᎷᏨᎩ	-10.4267
▁ᎤᏯᎢ	-10.4268
▁ᎡᎵᏍᎨᎢ	-10.427
▁ᎤᏎᎵᏔᏅ	-10.4272
ᎡᏗ	-10.4273
▁ᎠᏒᎭ	-10.4274
▁ᎥᎵ	-10.4277
ᎭᏲᎲ	-10.4278
ᏓᏍᏗ	-10.428
ᎳᏁᎢ	-10.4282
▁ᎤᏓᏅᏖᎸᎢ	-10.4283
on	-10.4285
▁ᏕᏥᎸᏫᏍᏓᏁᎲᎢ	-10.4293
▁ᎬᏙᏗᏱ	-10.4295
ᎪᎵᏯ	-10.43
▁ᎤᏓᏅᏛᎢ	-10.4301
▁ᎤᏃᎮᎴ	-10.4301
▁ᏇᎵᏥ	-10.4307
▁ᎤᏓᏅᏎᎢ	-10.4308
▁ᏗᎬᏗ	-10.4317
▁ᏚᏁᎴᎢ	-10.4319
▁ᎾᎾᏛᏁᎲᎢ	-10.4322
▁ᎢᏦᎯᏳᏒᎢ	-10.4332
▁ᎦᏓᏅᏖᏍᎬᎢ	-10.4348
ᏁᎰᎢ	-10.435
▁ᎤᏲᎴ	-10.4351
▁ᎢᏦ	-10.4353
ᎦᏨ	-10.4354
▁ᎠᏍᎦᎾᎢ	-10.4361
▁ᎠᏁᎰ	-10.4364
▁ᏦᎾ	-10.4365
▁ᏚᏁᏤᎴᎢ	-10.4374
▁ᎡᎲᎩ	-10.4379
▁ᎡᎵᎩ	-10.4381
▁ᏧᎴ	-10.4384
▁ᏌᎵ	-10.4393
ᏍᏛᏱ	-10.4398
ᎿᎢ	-10.4399
ᏲᎰᏎᎸ	-10.4402
▁ᎤᏅᏅ	-10.4414
▁ᎤᏪᏅᏎᎢ	-10.4423
▁ᏧᎾᏄᎪᏫᏎᏗ	-10.4429
▁ᎠᏍᏛᎢ	-10.4435
ᏍᎪᏃ	-10.4436
▁ᏅᏓᏳᎾᎵᏍᎪᎸᏔ	-10.444
▁ᎤᏩᏂ	-10.4446
ᏕᏗ	-10.4449
ᎦᏯ	-10.4452
▁ᏗᎬᏩᏓᏂᎸᎢᏍ	-10.4453
▁ᎪᏍᏔ	-10.4469
▁ᎩᎵ	-10.4472
▁ᎤᎪᎲᎩ	-10.4485
▁ᎠᏓᏅᏖᏍᎬᎢ	-10.4487
▁ᎤᎾᏄᎪᏫᏒ	-10.4494
▁ᎤᏪᎷᏁᎢ	-10.4498
▁ᏗᏂᏩᎾᎦᎳ	-10.4502
ᏳᎵ	-10.452
▁ᎢᏯᏂᎢ	-10.4531
▁ᎢᏣᏓ	-10.4532
▁ᎤᎾᏙᏓᏆᏍᎬᎢ	-10.4534
▁ᎦᏨ	-10.4548
▁ᎤᏂᎬ	-10.4552
▁ᏗᏂᏃ	-10.4569
▁ᏅᏗᎦᎵᏍᏙᏗᏍᎨᎢ	-10.4585
ᏙᎢ	-10.4585
ᎴᏅᎯ	-10.4586
▁ᎠᏆᏓᏅᏖᏗ	-10.4595
▁ᎦᏚᏱ	-10.4603
▁ᎤᎩᎸ	-10.4623
ᏓᏁᏟᏴᏛ	-10.4623
ᎱᏍᏗ	-10.4623
ᎲᏍᎦ	-10.463
ᏎᎭ	-10.464
ᎳᏏ	-10.4644
ᏂᏫ	-10.4649
▁ᏚᏙ	-10.4655
▁ᏫᏚᎾ	-10.466
▁ᎤᏂᏩᏛᏗ	-10.4661
▁ᏙᏘ	-10.4667
▁Ꮮ	-10.4691
▁ᎠᏫᎾ	-10.4712
▁ᎬᏗᎭ	-10.4716
ᏍᏆᏂᎪᏕᏍᏗ	-10.4718
ᏁᏤᎵ	-10.472
ᏢᏅ	-10.4732
▁ᏦᎦ	-10.4751
▁ᏗᏨᏂᏗ	-10.4765
▁ᎤᎾᏄᎪᏫᏎ	-10.4769
▁ᏣᏁ	-10.4781
ᏥᏩᏛᎲ	-10.4788
▁ᏂᎦᎵᏍᏙᏗᏍᎨ	-10.4793
▁ᎤᎵᎮᎵᏤ	-10.4796
▁ᎦᏅᎨ	-10.4799
▁ᏚᏁᎸ	-10.4807
ᎵᏍᎬ	-10.4813
▁ᎤᎬ	-10.4818
ᏟᎶᏍᏙᏗ	-10.482
▁ᎠᎦᏕ	-10.4822
ᎾᏄᎪᏫᏒᎯ	-10.4826
▁ᎧᏁᏉ	-10.4828
▁ᏗᎨᏣ	-10.4829
▁ᏧᏂᎵ	-10.4837
ᎵᏍᏕᎸᏙᏗ	-10.4844
ᏗᏍᎬᎾ	-10.4846
ᎸᏓ	-10.4854
▁ᎢᏥᎩᏍᏗ	-10.4857
▁ᎠᏋᎭ	-10.4878
▁ᎠᎦᏘᏰ	-10.4882
▁ᎤᏁᎴ	-10.4888
ᏏᏳ	-10.4897
▁ᏛᎩ	-10.4907
ᎤᏅᏓᏕ	-10.4912
ᏍᏕᎵᎭ	-10.4928
▁ᎥᏍᎩ	-10.4931
▁ᎤᏥᏃ	-10.4939
ᎦᏙᎥᎯᏍᏗᏱ	-10.4939
▁ᎡᏣᎫᏴ	-10.4939
ᎩᏍᎪ	-10.4949
▁ᎾᎦᏛ	-10.4952
▁Ꮏ	-10.4964
ᏎᎸᎩ	-10.4984
▁ᏄᏅ	-10.4999
ᎨᏍᏗᏗ	-10.5003
▁ᎤᏂᎸᏉᏗ	-10.5016
▁ᎢᏥᎲ	-10.5019
▁ᏛᏂ	-10.5037
▁ᏂᎯᏍᎪ	-10.505
▁ᎠᏲᎱᏍ	-10.5052
▁ᎡᎳᏪᏱ	-10.5061
ᎢᏍᏔᏂ	-10.5065
▁ᏂᎬᏩ	-10.5073
ᏚᎬ	-10.5077
ᏁᏍᏗ	-10.5105
ᏦᏅ	-10.513
▁ᏱᏫ	-10.5142
▁ᏣᎩ	-10.5142
▁ᎤᏂᏗ	-10.5152
▁ᏣᏆ	-10.5153
ᏁᏟᏴᏍᏗ	-10.5166
ᎬᏫᏳᎯ	-10.5172
ᏂᎬᎦ	-10.5172
ᏇᏓᎵ	-10.5174
▁ᎤᎧᏔ	-10.5177
▁ᎦᏗ	-10.5191
▁ᎠᏗᏍᎬ	-10.5206
ᏲᎪ	-10.521
ᎷᏨ	-10.5214
▁ᏁᎵᏍᎬ	-10.5217
ᏎᎸᎯ	-10.5227
▁ᎣᏍᏗ	-10.5227
ᎪᏩᏛ	-10.5236
h	-10.5243
ᎥᎦ	-10.5247
ᎴᏅᏛ	-10.5258
ᏰᏌᏛ	-10.527
▁ᎤᏬᏂᏒ	-10.5273
▁ᏂᏚᏪᏎᎸ	-10.528
▁ᎯᎠᏉ	-10.5281
ᎦᏔ	-10.5298
▁ᎾᏍ	-10.5305
▁ᎠᏲᏟ	-10.5308
▁ᏓᎵᏍᏗᎳᏁᎬ	-10.5314
r	-10.5323
ᏥᎨᏳᎢ	-10.5323
▁ᎤᏬᎴ	-10.5324
▁ᏗᎦᏅᏬ	-10.5324
▁ᎤᏁᎵᏎ	-10.5324
▁ᎧᎸᎬ	-10.5325
▁ᎢᏕᎲ	-10.5327
▁ᏓᏂᎳᏫᎥ	-10.533
▁ᏗᏥᎦᏴᎵᎨ	-10.533
▁ᏓᏟᎶᏍᏛ	-10.5331
▁ᎤᏗᏛᎮ	-10.5331
▁ᎤᏚᎢᏍᏔᏅ	-10.5333
▁ᎢᎩᏍᎦᏅᏨ	-10.5333
▁ᎤᏬᏎᎴ	-10.5333
▁ᎤᏍᏓᎦᎸ	-10.5334
ᎠᎹ	-10.5335
ᏔᎾ	-10.5337
▁ᎠᏂᏙᎾᎡ	-10.5338
▁ᏚᎴᎯᏌᏅ	-10.534
▁ᎤᏪᎧᏁᎴ	-10.5343
▁ᎠᏂᎦᏴᎵᎨ	-10.5348
▁ᏓᏂᎧᏅ	-10.535
▁ᏧᎦᏴᎵᎨ	-10.5352
▁ᎤᏂᎦᏙᎥᏒ	-10.5354
ᏘᏰ	-10.5355
ᎵᏬᏨ	-10.5355
ᏯᎠ	-10.5355
ᎤᏍᏆᏂᎩᏗ	-10.5356
ᏂᎦᏓ	-10.5356
ᎬᏫᏳᏌᏕᎩ	-10.5357
▁ᏚᏁᏤᎸ	-10.5368
ᎧᎵᏬᎯ	-10.5368
▁ᏳᏫ	-10.537
▁ᎤᏂᏴ	-10.5372
▁ᎤᏂᎩᏒ	-10.5373
▁ᎢᏣᏚᎵ	-10.5375
ᏟᏂᎩᏓ	-10.5376
▁ᎠᏁᎮ	-10.5376
▁ᎤᏂᏍᏆᏂᎪᏙᏗ	-10.5387
▁ᎪᎹᎵ	-10.5387
▁ᏚᎷᏫᏍᏔᏁ	-10.5388
▁ᏣᎨ	-10.5389
▁ᎢᏥᏍᏆᏂᎪᏙᏗ	-10.5391
▁ᎢᏳᏅᏁᏗ	-10.5395
▁ᎤᎾᏅᏗ	-10.5396
ᏔᏲᏎᎸᎩ	-10.5396
ᎴᎯᏌᏅ	-10.5397
▁ᎨᏥᏁᏗ	-10.5397
▁ᎤᏩᏛᎮ	-10.5399
▁ᎤᎾᏅᏅ	-10.5401
ᏴᏐᎵ	-10.5406
ᎾᏓᎴᎩ	-10.5409
▁ᎡᏉᏄᎶᏗ	-10.541
▁ᎤᎭᎸᏂᎯ	-10.541
▁ᎤᏂᏚᏯᏍᏗ	-10.541
▁ᎤᏓᏏᏂᏕᎾ	-10.541
▁ᎤᏪᏲᏓᏛ	-10.541
▁ᏅᏓᎬᏴᏁᎵ	-10.541
▁ᏈᏯᏏᏆ	-10.541
▁ᏕᎨᎦᏨᏍᏗᏍᎬ	-10.541
▁ᏗᎾᏙᏂᏍᎩ	-10.541
▁ᏦᎩᎸᏫᏍᏓᏁᎯ	-10.541
ᎦᏌᏯᏍᏕᏍᏗ	-10.541
▁ᎢᏰᏆ	-10.541
▁ᎦᎵᏦᏙᏙᏗ	-10.541
▁ᏆᎻᏆᏂ	-10.541
▁ᏚᏩᏂᎦᏢ	-10.541
▁ᎠᏣᏪᏐᎸᏍᏙᏗᏱ	-10.541
▁ᎯᎧᏅᎭ	-10.541
▁ᏧᏣᏲᏍ	-10.541
▁ᎯᎦᏙᎵ	-10.541
▁ᎠᎵᎮᎵᎨ	-10.541
▁ᎤᏓᏛᏛᏁ	-10.541
▁ᏧᎦᏃᏮ	-10.541
▁ᏂᏚᎾᏓᏪᏎᎸᎩ	-10.541
▁ᏫᏂᎦᎵᏍᏙᏓ	-10.541
▁ᏗᏉᏰᏂ	-10.541
▁ᏗᎾᏓᏂᏱᏍᎩ	-10.541
▁ᏗᎦᏃᏣᏟ	-10.541
▁ᎾᏂᎳᏍᏓᎸ	-10.541
▁ᏧᏙᎢᏓ	-10.541
▁ᏗᏆᎳᏏᏕᏂ	-10.541
▁ᏄᏬᎯᏳᏒᎾ	-10.541
▁ᏅᏓᎪᎯᏥ	-10.541
▁ᏅᏃᎱᎶᏗ	-10.541
▁ᏅᏩᏙᎯ	-10.541
ᏍᎦᎣᏅ	-10.541
▁ᎤᏬᏞ	-10.541
▁ᎤᏪᏚᎲ	-10.541
▁ᏧᏩᏂᎦᏝᏅ	-10.541
▁ᎦᏣᏄᎸ	-10.541
▁ᏕᏥᏲᎵᎸᎭ	-10.541
▁ᎬᏩᏕᏁᎸᎯ	-10.541
▁ᏌᎶᎵ	-10.5411
▁ᎤᏂᎬᎥᏍᎩ	-10.5411
▁ᎪᏒᏔᏅ	-10.5411
▁ᎤᏂᎸᏉᏔᏁ	-10.5411
▁ᏱᏄᎵᏍᏔᏅ	-10.5411
▁ᎲᏗᏍᎨᏍᏗ	-10.5411
ᎥᏍᎨᏍᏗ	-10.5411
▁ᎰᏪᎸᎦ	-10.5411
▁ᏧᏓᏘᎾᎢ	-10.5411
▁ᏗᎧᏁᎢᏍᏗ	-10.5411
▁ᎪᏢᏗ	-10.5411
▁ᎤᎾᏓᏑᏰᏛ	-10.5411
▁ᎥᎩᏅᏟ	-10.5411
▁ᎢᏨᏍᏗᏰᏗᎭ	-10.5411
▁ᎦᏯᎴᏍᏗ	-10.5412
▁ᎢᎬᏪᏅᏛ	-10.5412
▁ᎠᏓᏍᏓᏴᏗ	-10.5412
▁ᏕᎪᏢᏩᏗᏒ	-10.5412
▁ᏧᏃᏩ	-10.5412
▁ᏅᏓᏳᏓᎴᏅᏛ	-10.5412
▁ᏂᏚᏅᏏᏴ	-10.5413
▁ᏗᎩᏅᏒ	-10.5413
▁ᏄᏂᎲᎾ	-10.5413
▁ᏗᏁᏙᎲ	-10.5413
▁ᎠᏂᎾᏁᏍᎬ	-10.5413
▁ᏄᏠᎾᏍᏛᎾ	-10.5413
▁ᎤᏢᏉᏗ	-10.5413
▁ᏌᏈ	-10.5414
▁ᏚᎦᏌᏛ	-10.5414
▁ᎠᏆᎵᏍᏓᏴᏗ	-10.5414
▁ᎠᏓᏠᏍᏗ	-10.5414
▁ᎠᎹᏳᎶᏗ	-10.5415
▁ᎢᏥᏪᏍᏗᏱ	-10.5415
ᏃᎴ	-10.5415
▁ᎤᏂᏑᎸᏓ	-10.5415
▁ᎡᏣᎸᏉᏗᏳ	-10.5415
▁ᎢᎠ	-10.5415
▁ᎬᏩᏓᏍᏕᎸᏗ	-10.5415
▁ᏫᎨᏥᏲᎵᎭ	-10.5415
▁ᎠᏂᏙᎾᎢ	-10.5416
▁ᏙᏗᏣᏓᏅᏛᎢ	-10.5416
▁ᎠᏁᏢᏔᏅᎯ	-10.5416
ᏅᎪᏤ	-10.5416
▁ᎬᏁᏍᏗ	-10.5416
▁ᏓᎭᏃᏫ	-10.5416
▁ᏚᏦᎯᏍᏛ	-10.5417
▁ᎤᏘᏴᎯ	-10.5417
▁ᎠᎾᏓᏙᎵᏍᏓᏁᎯ	-10.5417
▁ᎡᏃᏱ	-10.5417
ᎿᏕᎩ	-10.5417
▁ᎠᏯᏖᎾ	-10.5418
▁ᏧᏙᏓᏆᏛ	-10.5418
▁ᎠᎬᎭᎸᏛ	-10.5418
▁ᎠᏆᏓᎵᎢ	-10.5418
▁ᎠᏓᏪᎳᎩᏍᎬ	-10.5418
▁ᎢᎧᏁᎢᏍᏗ	-10.5419
▁ᎯᏬᏂᏍᎬ	-10.5419
▁ᏫᎦᎶᎯᏍᏗ	-10.5419
▁ᎤᏃᏍᏛ	-10.5419
▁ᎦᏆᏘ	-10.5419
▁ᎤᎶᎯᏍᏗ	-10.5419
▁ᎤᏍᏗᎩᏛ	-10.5419
▁ᎤᏂᎵᏦᏩᏛ	-10.5419
▁ᎤᎩᎵᏲᏨ	-10.5419
▁ᏥᏅᏗᎦᎵᏍᏙᏗᎭ	-10.542
▁ᏓᎬᏁᎵ	-10.542
▁ᏱᏍᎦᎢᎮᏍᏗ	-10.542
▁ᎤᎾᏛᏁᎸᏗ	-10.542
▁ᎤᏂᏍᏆᏂᎪᏒᎩ	-10.542
ᎦᏃᎱᎩᏍᎬ	-10.5421
▁ᎤᏰᎸᏎ	-10.5423
▁ᏗᏓᏬᏍᏗ	-10.5423
▁ᎬᏩᏃᏁᎴ	-10.5424
▁ᎠᎪᏎᎮᏍᏗ	-10.5424
▁ᎦᎵᎡᎵᎦ	-10.5424
▁ᎹᎾ	-10.5424
ᎳᎩᏒ	-10.5425
▁ᎢᎪᎯ	-10.5425
▁ᎠᏂᏯᎢ	-10.5426
▁ᏕᎬᏗᏍᎬ	-10.5427
▁ᎤᏛᏅᎢᏍᏔᏁ	-10.5427
▁ᎢᏥᏁᏍᏗ	-10.5427
▁ᎮᏂᎵ	-10.5429
▁ᎠᏓᏰᎨᏍᏗ	-10.543
▁ᎠᏴᏤᏂ	-10.543
▁ᎠᎪᏔᏅᎯ	-10.543
▁ᎤᏃᎯᏳᏗᏱ	-10.543
▁ᎠᎦᎸᏓ	-10.5431
▁ᎠᏥᏅᏏᏛ	-10.5431
▁ᏳᏚᎵ	-10.5431
▁ᏧᎾᏄᎪᏫᏒᎯ	-10.5432
▁ᎩᎾᎵᎢ	-10.5433
▁ᎭᏂᏣ	-10.5433
▁ᏕᎧᏁᏤ	-10.5434
▁ᏮᏛ	-10.5435
▁ᎠᏂᎯᏗ	-10.5437
▁ᎤᎾᎦᏙᏍᏕᎢ	-10.5438
▁ᏯᏗᎭ	-10.5438
▁ᎧᏃᎩᏍᏗ	-10.5439
ᎲᏍᎬᎾ	-10.544
▁ᏄᎾᎵᏍᏓᏁᎸ	-10.544
▁ᎤᎾᏕᏗᏱ	-10.544
▁ᎠᏲᏙᏗ	-10.5441
▁ᏗᎵᏍᎪᎸᏓᏁᎸᎯ	-10.5442
▁ᎠᏥᎳ	-10.5443
▁ᎤᏂᏩᏛᎮ	-10.5443
▁ᎠᏇᏅᏍᏗ	-10.5444
▁ᏥᏍᎪᎵ	-10.5448
ᏰᎢᎵᏓᏍᏗ	-10.5448
ᏓᏅᏖᏗ	-10.5448
▁ᏕᏥᏁᎸ	-10.545
▁ᎤᏂᎩᏍᏗᏱ	-10.5452
▁ᎤᏂᏁᎬ	-10.5452
▁ᏬᎩᎷᏨᎩ	-10.5455
▁ᎤᏗᏗᏢ	-10.5456
▁ᎤᏡᏗᏍᎩ	-10.5456
▁ᏙᏥ	-10.5457
▁ᎠᎬᏗᏍᎬᎢ	-10.5458
▁ᎡᎮᎾ	-10.5459
▁ᎧᏫ	-10.546
▁ᎠᎴᏂᏍᎩ	-10.5462
▁ᎠᏓᎴᏂᏍᎬ	-10.5462
ᏓᏁᎮ	-10.5463
▁ᎠᏂᎩᏍᎬ	-10.5463
ᏲᎾ	-10.5464
ᎤᏲ	-10.5465
▁ᏧᏁᏤᎢ	-10.5465
▁ᎤᏪᏅᎩ	-10.5465
▁ᏗᏥᎾᏫᏱ	-10.5465
ᏓᏴᎳᏛ	-10.5465
▁ᎦᏟᎮ	-10.5465
▁ᎠᎪᎵᏰᏗ	-10.5466
ᏛᏁᎲ	-10.5468
▁Ꮺ	-10.5474
▁ᎤᏰᎸᎭ	-10.5474
ᏯᏔᎮᏍᏗ	-10.5476
▁ᏗᎧᏂᎨ	-10.5476
▁ᏓᏍᏛᎢ	-10.5477
▁ᎤᏌᎯᎸᎢ	-10.5477
▁ᏗᏁᎯ	-10.548
▁ᏕᏣᎧ	-10.548
▁ᏎᏉ	-10.5481
▁ᏄᏛᏅᎢ	-10.5481
ᏍᏛᎢ	-10.5482
▁ᎠᏥᏛᏙᏗ	-10.5482
▁ᎾᏆᏍᏛ	-10.5483
▁ᏓᏆᎧᎾᏅ	-10.5486
▁ᎠᏯᎥ	-10.549
ᏯᏅ	-10.549
▁ᎢᎩᏍᎦᏅᏨᎢ	-10.549
▁ᎤᏂᏁᏨᎩ	-10.5495
▁ᎤᎾᏓᏅᏎ	-10.5495
▁ᎦᏓᏍᎬᎢ	-10.5496
▁ᎮᏓ	-10.5497
▁ᎤᎴᏅᎩ	-10.5506
▁ᏓᏤᎸ	-10.5514
▁ᏙᏯ	-10.5517
▁ᎦᏁᏟᏴᏍᏗ	-10.5525
▁ᏚᏩᏛᎮ	-10.5531
▁ᎦᏄᎸᏒ	-10.5532
▁ᏗᎪᏢ	-10.5534
▁ᏅᎵᏌᎵᏉ	-10.5536
▁ᎤᏂᎩᏎᎢ	-10.5541
ᏂᏍᏙᏗ	-10.5541
▁ᎣᏒ	-10.555
▁ᎬᎨᏳᎢ	-10.5559
▁ᎤᏂᎪᎲᎯ	-10.5562
▁ᏏᎳ	-10.5563
▁ᏣᏚᎵᏍᎬ	-10.5566
ᎠᏆ	-10.5566
ᏐᏉ	-10.557
▁ᏮᏓ	-10.557
▁ᎤᏩᏔᏅ	-10.5575
ᏃᎮᎸ	-10.5576
ᏕᏯᏙᏔᏅᎩ	-10.5576
ᎥᏏ	-10.5583
▁ᎠᏍᏘ	-10.5584
▁ᎤᏍᏉᏟ	-10.5585
▁ᎦᎬᏩ	-10.5587
▁ᏗᎦᏅ	-10.5587
▁ᎤᏁᎳ	-10.5592
ᏥᎶᏏ	-10.5593
ᏔᏂᏓ	-10.5595
▁ᎦᏅᏅᎢ	-10.5597
▁ᎪᏪᎸᎩ	-10.5598
▁ᎠᎵᏍᏆᏗᏍ	-10.5603
▁ᎤᏁᏒ	-10.5608
▁ᎤᎦᏃ	-10.561
▁ᏓᎶᏂᎨᎢ	-10.562
▁ᏨᏗ	-10.5621
▁ᏄᏓᎴᎯ	-10.5644
▁ᎡᏍᎦᏂ	-10.5646
▁ᎤᏬᎸᎢ	-10.565
ᎧᏏ	-10.5657
▁ᎠᎦᏙ	-10.5663
▁ᎠᏂᏲ	-10.5664
ᎪᎲ	-10.5665
ᏙᎳ	-10.5669
▁ᎤᏭ	-10.568
ᏦᏩᏛ	-10.5688
▁ᎠᏂᏍᎦᎾᎢ	-10.5699
ᎸᏉᏛᎾ	-10.5699
▁ᏄᏍᏕᎢ	-10.5701
ᎯᏳᎲᏍᎦ	-10.5705
▁ᎮᎯ	-10.5709
ᎡᎵᏍᏗ	-10.571
▁ᏅᏗ	-10.5711
▁ᎠᏓᏙᎵᏍᏙᏗ	-10.5711
▁ᎤᎦᏛ	-10.5715
▁ᎤᏁᏤᎸᎢ	-10.5716
▁ᏄᎵᏍᏔᏂᏙᎸᎢ	-10.572
ᎯᏯ	-10.5722
ᎬᎾᎨ	-10.5737
▁ᏲᏥ	-10.5737
ᏍᎦᏃᎳ	-10.5737
▁ᎥᏣ	-10.5739
▁ᏅᏩᏍᏛ	-10.5742
▁ᏚᏬ	-10.5753
▁ᎤᎾᏛᎦᏅᎩ	-10.5753
ᎩᏍᏗᏱ	-10.5754
ᎧᏅ	-10.5754
ᎵᎹ	-10.5757
▁ᎲᎦ	-10.5761
▁ᎵᏏ	-10.5762
▁ᏕᏅ	-10.5764
ᏍᏙᏗᏱ	-10.5764
▁ᎧᎵ	-10.5779
▁ᎢᏥᎩ	-10.5785
▁ᏱᎾ	-10.5786
ᎾᏉ	-10.5789
ss	-10.579
▁ᎤᏍᎪ	-10.5792
ᏦᏰᏂ	-10.5811
▁ᎤᏩᏁ	-10.5817
ᏯᏅᎲᎩ	-10.5834
▁ᎯᏁᎸ	-10.5836
s	-10.5838
Ꮮ	-10.5846
▁ᎢᏣᏟᏂᎬᏁ	-10.5855
▁ᎠᏂᏔᎵᎭ	-10.5859
▁ᏥᎪᎥ	-10.5881
ᏙᎵᏨ	-10.5891
▁ᎬᏩᏍᏓᏩᏗ	-10.5905
▁ᏣᏛ	-10.5906
▁ᎤᎵᏍᏚᎢ	-10.5909
▁ᎾᏕᏘᏴ	-10.5915
▁ᎤᏗᏔᏍᏗ	-10.5916
ᎴᏃ	-10.5922
▁ᏗᎲ	-10.5923
ᏬᏂᏍᎬ	-10.5931
ᏓᏅᏖᎴ	-10.5938
▁ᏙᏉ	-10.5941
ᏥᏃᎮᏍᎩ	-10.5944
ᏰᎸᎭ	-10.5945
ᏫᏒ	-10.5946
▁ᎤᏂᎷᏤᎸ	-10.5957
▁ᏱᏕ	-10.5965
ᏘᏃᎮᎸᎩ	-10.5991
▁ᏓᏲ	-10.5993
ᏦᏢᏙᏗ	-10.6004
▁ᎠᏌ	-10.6014
ᏰᎸᎲ	-10.6016
▁ᎠᎩᏰᎸᏅ	-10.6018
▁ᎨᎩ	-10.6024
ᏰᎸᏗ	-10.6034
ᏍᏚᎢᏒ	-10.6038
ᎶᏏ	-10.6058
▁ᏑᎾᎴᏉ	-10.6077
ᏏᎾᏌᏂ	-10.6078
ᏴᎵ	-10.6079
▁ᎢᏣᎵᎮᎵ	-10.6089
▁ᏥᏁ	-10.6105
ᏣᎵᏍᏙ	-10.6106
▁ᎤᏪᏅᏎᏃ	-10.6114
▁ᏍᎦ	-10.6116
▁ᏗᎫ	-10.6127
▁ᎤᏁᏅ	-10.614
ᎦᏘᏴ	-10.6156
▁ᎬᏩᎪᏩᏛ	-10.6156
▁ᎠᏁᎶᎯ	-10.616
▁ᏧᏄᏬ	-10.6167
▁ᏚᏃ	-10.6168
▁ᎬᎾ	-10.6168
ᏍᏔᏅᎭ	-10.617
ᎯᏓ	-10.6173
▁ᏕᎦᏅ	-10.6178
▁ᎠᎦᏔᎮ	-10.618
▁ᎦᏂᏏ	-10.618
ᎷᏤᎸ	-10.6206
ᏁᏎᎢ	-10.6206
▁ᏱᏂᎬ	-10.6214
▁ᏚᏂᏲ	-10.6221
▁ᏗᎩᎦ	-10.6236
ᏕᎬ	-10.6251
ᎾᏄᎪᏩ	-10.6259
▁ᎤᎦ	-10.6262
ᏁᎸᎭ	-10.6262
ᎳᏕ	-10.6265
ᏛᏁᎵ	-10.6266
ᏍᏖ	-10.6269
▁ᏓᏂᎸ	-10.6314
▁ᎤᏂᎶᏒ	-10.6322
ᏏᎳ	-10.6329
ᎤᏍᏗ	-10.6329
▁ᏗᎩᏲᎯ	-10.6335
Ꮽ	-10.6349
ᏣᎵ	-10.6354
Ꮶ	-10.6357
▁ᎯᏍᎩᎦᏚ	-10.6369
ᏣᏅᎩ	-10.6378
ᏙᎬ	-10.6379
▁ᏱᏍᎩ	-10.6392
▁ᎤᏰ	-10.6394
ᏅᏓᏗᏍᏗ	-10.6401
ᏛᏔᏂ	-10.6419
▁ᎤᏍᏆᏂᎪᏙᏗ	-10.6432
▁ᎤᏩᏒᏍᎩᏂ	-10.6438
▁ᎠᏓᏅ	-10.644
▁ᏫᏨᏲᏪᎳ	-10.6448
▁ᎾᏓ	-10.6457
▁ᏄᏬ	-10.6462
▁ᏥᎦᏔᎲ	-10.6463
▁ᏂᏨ	-10.6467
ᏲᏍᏔᏂ	-10.6473
▁ᏓᎨᏣ	-10.6477
Ꮛ	-10.6479
ᏢᎢ	-10.6479
▁ᎤᎾᏕ	-10.6484
ᎾᏄᎪᏫᏎᎸ	-10.6494
▁ᏂᎦᎥᎩ	-10.6495
▁ᏚᏂᎧᎵ	-10.6507
ᎢᏍᏙᏗ	-10.6521
ᏩᏛ	-10.6535
ᏩᏒ	-10.6543
▁Ꮝ	-10.6547
▁ᏈᎵ	-10.6552
▁ᎢᏍᏓ	-10.6554
ᏠᏍᏗ	-10.6555
ᎵᏙᎴ	-10.6564
ᎯᎯ	-10.6584
▁ᏕᏨ	-10.6584
▁ᏥᏚᏂ	-10.6592
ᏥᎪᏩᏛᏗᏱ	-10.6593
ᏆᏏ	-10.6596
ᏘᏃᎸ	-10.6597
ᏇᏅ	-10.66
ᏍᏓᏱ	-10.6606
ᏴᏗ	-10.6606
▁ᎤᎭ	-10.6612
ᎸᏛ	-10.663
▁ᎤᎾᎩᎸ	-10.6632
ᏁᏨ	-10.6635
ᏨᏗ	-10.666
▁ᎤᏍᏗᏉ	-10.6668
ᏍᏗᏍᎩ	-10.6679
ᎪᏛ	-10.6679
▁ᎬᏩᏓ	-10.6689
ᎴᎣ	-10.6693
▁ᎤᏃᎮᎸ	-10.6701
▁ᎢᏥᏠ	-10.6706
ᏍᏚ	-10.6718
▁ᎤᎵᎮᎵᏨ	-10.6726
ᏬᎥ	-10.6734
▁ᏂᏣᏛᏁᎲ	-10.6735
d	-10.674
▁ᎤᏂᏙ	-10.6741
▁ᏚᎾᏄᎪᏫᏎᎴ	-10.6745
▁ᎦᎦᎶ	-10.6749
▁ᏓᏂᏙᎨ	-10.6751
ᏧᏍᏆᏴᏍᏗ	-10.6751
▁ᏙᏓᏆᏍᎬ	-10.6751
ᏗᎦᎵᎠᏅᎯᏛ	-10.6754
▁ᏤᎲ	-10.6755
▁ᏕᎦᎶᎨᏒ	-10.6755
ᏑᎾᎴ	-10.6757
▁ᎤᏦᏱᎴ	-10.676
▁ᏭᏂᎶᏎ	-10.6763
▁ᎤᏌᎯᎸ	-10.6765
▁ᏕᏣᏓᏅᏛ	-10.6765
▁ᎧᏁᏌ	-10.6767
▁ᎠᏍᏆᎵᏍᎬ	-10.6768
▁ᎤᏓᏑᏴ	-10.6769
▁ᎤᎾᏄᎪᏫᏎᎴ	-10.677
▁ᏗᏧ	-10.677
ᏍᏆᏂᎪᏔᏂ	-10.6771
▁ᏙᏓᎬ	-10.6772
ᎢᎦ	-10.6772
▁ᏄᎾᏛᏁᎴ	-10.6773
ᎤᏙᎯᏳᎯ	-10.6774
ᎳᏁ	-10.6774
▁ᎠᏂᏍᎦᎢᎲ	-10.6776
ᏔᏲᏍᏗ	-10.6778
▁ᎤᏂᏴᎮ	-10.6779
▁ᏂᎨᏎ	-10.678
▁ᎤᏪᏴ	-10.678
▁ᏧᎵᏏ	-10.678
ᏠᏨ	-10.678
ᏓᎴᏂᏍᎬ	-10.6781
ᏍᏈᏯ	-10.6782
▁ᎠᎫ	-10.6786
▁ᏬᎩᎷᏨ	-10.6786
▁ᏂᎦᏅᎯᏒ	-10.6788
ᎦᎸ	-10.6789
▁ᎦᎢᏒ	-10.6793
▁ᎡᎵᏍᎬ	-10.6795
ᎬᏁᎵ	-10.6795
▁ᎾᏯᏛᎥ	-10.6795
▁ᏕᎦᎧᎲ	-10.6801
ᏓᏂᎸᎢᏍᏗ	-10.6802
▁ᎤᏁᏝᏅ	-10.6804
ᏰᎸ	-10.6805
▁ᏓᎩᎸᏫᏍᏓᏁᎲ	-10.6806
▁ᏚᏩᏂᎦᎸ	-10.6807
▁ᎤᏁᎢᏍᏔᏅ	-10.6809
ᎸᏫᏍᏓᏁᏗ	-10.681
ᎵᏍᏓᏴᏙᏗ	-10.6811
▁ᏧᏭᎪᏙᏗ	-10.6812
▁ᎤᎾᏂᎩᏒ	-10.6816
ᎦᎵᎷᎨᏍᏗ	-10.682
▁ᎥᏞ	-10.6823
▁ᏂᎦᏛᏁᎲ	-10.6823
▁ᎪᎵᏍᏗ	-10.683
ᎦᏘᏕᎯ	-10.6832
▁ᏧᏂᎸᏫᏍᏓᏁᏗ	-10.6834
▁ᎠᏩᎾᎦᎳ	-10.6837
▁ᏥᎦᏘᏏ	-10.6838
▁ᎠᎵᏏᎾᎯᏍᏔᏅᎯ	-10.6838
▁ᎠᏂᏰᎪᎩ	-10.6838
▁ᎠᏲᏓᏌᎲ	-10.6838
▁ᎤᎾᏗᏍᎦᏟ	-10.6838
▁ᎤᏩᎭᏂᎴ	-10.6838
▁ᏂᎩᏪᏎᎸᎭ	-10.6838
▁ᏅᏧᏓᎴᏅᎲᎾ	-10.6838
▁ᏗᏦᏪᎵᏍᎩ	-10.6838
▁ᎠᏐᎥᏍᏙᏗ	-10.6838
▁ᏅᏛᏆᏓᎴᏅᎯ	-10.6838
▁ᏏᎵᏆ	-10.6838
▁ᏣᏓᏲᏁᎸᎩ	-10.6838
▁ᎠᎾᏓᏍᎦᎶᎩ	-10.6838
▁ᎦᏅᏃᏩ	-10.6838
▁ᏅᏥᏪᏎᎸᎩ	-10.6838
▁ᎤᏚᏓᎴᏛ	-10.6838
▁ᎠᏓᏪᎯ	-10.6838
▁ᏄᎾᏓᎡᏍᏗ	-10.6838
▁ᏦᏑᏫ	-10.6838
▁ᎤᏪᏐᏅᏴ	-10.6838
▁ᎤᏛᎴᎮ	-10.6838
▁ᎤᎿᎷᏒᎩ	-10.6838
▁ᎢᏣᏛᏓᏍᏓ	-10.6838
▁ᎢᎳᎩᏳ	-10.6839
ᏲᎦ	-10.6839
▁ᎠᎪᏕᏍᎩ	-10.6839
▁ᏧᏁᎿᎢ	-10.6839
▁ᎠᏍᎩᏓᏍᎬ	-10.6839
▁ᏤᏆᎳᏂ	-10.6839
▁ᏧᏁᎵᏁ	-10.6839
▁ᎨᎴᏏᏱ	-10.6839
▁ᎤᎵᏏᏂᏕᏅ	-10.6839
▁ᎤᎵᏲᏗ	-10.6839
▁ᎢᎪᏪᎳ	-10.6839
▁ᏕᏥᏃᎩᏍᎨᏍᏗ	-10.6839
▁ᎾᎨᎢᏴ	-10.6839
▁ᎠᎾᏓᏍᏓᏩᏗᏙᎯ	-10.6839
▁ᎤᏂᎩᎵᏲᎢᏍᏗ	-10.6839
▁ᏓᏲᏤᏏ	-10.6839
▁ᏔᏘᏄᎦ	-10.6839
▁ᎠᎾᎵᏍᏕᎵᏍᎩ	-10.6839
▁ᏱᏂᎬᏁᎭ	-10.6839
▁ᎠᏓᏅᏖᏍᎪ	-10.6839
▁ᏂᎩᏪᏏ	-10.6839
▁ᏚᎨᏓᎵᏴ	-10.6839
▁ᎠᎾᏓᏤᎵ	-10.6839
▁ᎠᏦᎳᏅ	-10.6839
▁ᏕᏥᎧᎿᏩᏗᏙᎮᏍᏗ	-10.6839
▁ᏚᏍᏓᎦᎸ	-10.684
▁ᏱᏤᎵᎯᏍᎨᏍᏗ	-10.684
▁ᏗᎦᎶᏔᏅ	-10.684
▁ᏚᎭᏄᏮ	-10.684
▁ᏗᎧᏃᎩᏍᏙᏗ	-10.684
▁ᏧᎾᎬᏩᎶᏗ	-10.684
▁ᎤᏭᏢᏔᏅᎩ	-10.684
ᏘᏯᏍᏓᏁ	-10.684
▁ᏗᎾᎢᏒ	-10.684
▁ᏕᎪᏪᎴᏍᏗ	-10.684
▁ᎤᏁᏉᏨ	-10.684
▁ᏫᏗᎶᎯ	-10.684
▁ᏓᎦᏛᏁᎵ	-10.684
▁ᏄᏪᎲᎾ	-10.684
▁ᎢᏦᎯᏳᏗᏱ	-10.684
▁ᎤᏛᎦᏍᏕ	-10.684
▁ᏓᏱᎾ	-10.684
▁ᎮᎵᎠ	-10.6841
▁ᎠᏓᏲᏁᎮᏍᏗ	-10.6841
▁ᎡᏥᏅᏏᏓᏍᏗ	-10.6841
▁ᎢᎬᏛᏁᏗ	-10.6842
▁ᎣᎦᏚᎵᎭ	-10.6842
▁ᏥᏚᏳᎪᏗ	-10.6842
▁ᏧᏂᎶᎸᏗ	-10.6842
▁ᎨᏥᏍᏕᎸᏗ	-10.6842
▁ᎠᎫᏩᏌ	-10.6842
▁ᎦᏂᎩᎸ	-10.6842
▁ᎢᏯᏥᎸᏉᏗ	-10.6842
▁ᎤᎬᎥᏍᎩ	-10.6842
▁ᏰᏙᎭ	-10.6842
▁ᎠᏂᎪᎲᎭ	-10.6842
▁ᎠᏰᏟ	-10.6843
▁ᎿᏛᎦ	-10.6843
▁ᎬᏬᎯᏳᏅᎩ	-10.6843
▁ᏧᏂᏁᏟᏴᏍᏗ	-10.6843
▁ᏣᎦᏨᏍ	-10.6843
▁ᎤᎴᏴᏒ	-10.6843
▁ᎠᏍᏕᏯᏓ	-10.6844
▁ᎢᏳᏪᏎᎸᎯ	-10.6844
▁ᎲᏓ	-10.6844
▁ᏓᎭᏏ	-10.6844
▁ᏍᎩᏍᏓᏩᏚᎦ	-10.6844
▁ᎤᏂᎪᏩᏛᏗᏱ	-10.6844
▁ᎯᎸᏉᏓ	-10.6844
▁ᏣᏙᎳᏅᏍᏗ	-10.6844
▁ᎤᏕᎶᎰᏒ	-10.6844
▁ᎭᏓᏅᎾ	-10.6845
▁ᏗᎫᎪᏗᏍᎩ	-10.6845
▁ᎤᎶᏗᏢ	-10.6845
▁ᏂᏴᏁᎸ	-10.6845
▁ᏂᏣᏛᎿᏕᎬᎢ	-10.6845
▁ᏗᎪᏢᏅᎯ	-10.6845
▁ᏑᏓᎵᏍᎪᎯ	-10.6846
▁ᎢᎩᏁᎸ	-10.6846
▁ᎠᏍᎩᏗᏍᎨᎢ	-10.6846
▁ᎢᏣᏚᎵᏍᎨᏍᏗ	-10.6846
▁ᏚᏯᏪᎨ	-10.6846
▁ᎢᏥᏯᎡᏍᏗ	-10.6846
▁ᏍᏈᏍᏔ	-10.6846
▁ᏗᏣᎧᏅᎦ	-10.6846
▁ᏫᏥᎷᏨᎭ	-10.6847
▁ᎢᏣᎵᎮᎵᎨᏍᏗ	-10.6847
▁ᎨᏥᏅᏒᎯ	-10.6847
▁ᏥᏣᏛᎩᎭ	-10.6847
▁ᏗᎩᎸᏫᏍᏓᏁᏗᏱ	-10.6847
▁ᏇᏗᏂᏱ	-10.6848
▁ᎶᎻ	-10.6848
▁ᎡᏥᏯᏅᏛ	-10.6848
▁ᎠᏠᏗᏱ	-10.6848
▁ᎤᏍᏆ	-10.6848
▁ᏎᏘ	-10.6848
▁ᏧᎳᏍᎩ	-10.6849
▁ᎤᎾᏛᏅᎩ	-10.6849
▁ᏧᎷᏫᏍᏔᏁᏗ	-10.6849
▁ᎠᏂᎦᏲᏟ	-10.6849
▁ᏗᏣᏓᎴᏅᏛ	-10.6849
▁ᏈᎵᏏ	-10.685
▁ᏍᎪᏁ	-10.6851
▁ᎠᎩᎵᎨᏂ	-10.6851
▁ᎤᏁᎯ	-10.6851
▁ᎠᏂᏴᎩ	-10.6851
▁ᎤᎾᏓᏙᎵᏍᏓᏁᎸᎩ	-10.6851
▁ᎦᏃᏙᏗᏱ	-10.6853
▁ᎪᎯᎢᏴ	-10.6854
▁ᎢᎦᎵᏍᏙᏗᏱ	-10.6854
▁ᏚᏃᎸ	-10.6855
▁ᎢᏨᏃᎮᎮᎸ	-10.6855
▁ᏂᏨᎦ	-10.6856
▁ᎢᎦᎦᏓ	-10.6858
▁ᎪᎰᏍ	-10.6858
▁ᎤᏓᏙᎵᏣᏛ	-10.6859
▁ᎠᏨᏍᏛ	-10.6859
▁ᎹᎦ	-10.6859
▁ᏓᎾᏕᏲᎲᏍᎬ	-10.686
▁ᏄᏩᏁᎰ	-10.686
▁ᎤᎦᏔᏔᏅᎯ	-10.6861
▁ᎤᏃᎯᏳᏅᎯ	-10.6863
▁ᎠᏓᏁᏣᏍᏚᎶᎩᎯ	-10.6863
ᎡᎸ	-10.6864
▁ᎠᏍᎫᏕᏍᏗᏱ	-10.6865
▁ᎤᏰᏨ	-10.6865
▁ᏯᏂᎦᏔᎮ	-10.6866
▁ᏥᏁᎦ	-10.6867
▁ᎤᏛᏒᎯ	-10.6867
▁ᎢᏍᏕᎾ	-10.6867
▁ᏗᏘᏲᎯ	-10.6867
▁ᏃᎩᏪᏎᎸ	-10.6869
▁ᎠᎦᏔᎯᏳ	-10.6869
▁ᎤᏓᏴᏎᎢ	-10.6869
▁ᏧᏓᎴ	-10.6869
▁ᏥᏙᎦ	-10.687
▁ᎬᏩᏛᏗ	-10.6871
▁ᎤᏪᎧᏁᎢ	-10.6871
▁ᎤᎾᏕᏗ	-10.6872
▁ᏥᎪᏩᏘᏍᎬ	-10.6873
▁ᎤᏁᏉᏨᎯ	-10.6873
▁ᏓᎧᏅ	-10.6873
▁ᎩᎳᎯᏳ	-10.6873
▁ᎤᎾᏄᎪᎢᏍᏗ	-10.6873
▁ᎤᏂᎾᏫ	-10.6875
▁ᏇᎵᎩ	-10.6875
▁ᎪᏪᎴ	-10.6875
▁ᎤᏃᎯᏳᏅᎩ	-10.6875
▁ᏓᏨᏁᎵ	-10.6876
▁ᎡᎦ	-10.6878
▁ᎤᎪᏩᏛᏗᏱ	-10.6878
▁ᎨᎵᏍᎩ	-10.6879
▁ᏗᎦᏥ	-10.6879
▁ᏥᏯᎵᎡᎵᏤ	-10.6879
ᏁᏉᏥ	-10.688
▁ᎡᏓᏍᏗ	-10.6881
▁ᎤᎾᏛᎪᏗᏱ	-10.6881
▁ᎤᏪᏍᎩᎸᎢ	-10.6881
▁ᏫᏥᎦᏛᎢ	-10.6881
▁ᏧᏓᎵᎢ	-10.6882
▁ᎤᎩᏒᎩ	-10.6882
▁ᎠᏂᏃᎮᎭ	-10.6883
▁ᏂᏚᏩᏁᎴᎢ	-10.6883
▁ᎤᏍᏆᏂᎪᏛ	-10.6883
▁ᎻᎳ	-10.689
▁ᎢᎦᎵᎢ	-10.689
▁ᎾᏯᏛᎥᎩ	-10.6891
▁ᎤᏓᏙᎵᏍᏔᏁᎢ	-10.6892
▁ᏗᎾᏓᎪᎾᏗᏍᎬᎢ	-10.6893
▁ᎠᎾᏓᎪᎾᏗᏍᎬᎢ	-10.6893
ᏍᎦᏎᏗ	-10.6893
▁ᎤᎾᏂᎩᏒᎩ	-10.6894
▁ᎦᏓᏙᎵᏍᏗᏍᎬᎢ	-10.6894
▁ᎢᎪ	-10.6895
▁ᎢᏳᏒᎯ	-10.6896
▁ᎠᎦᏍᎩ	-10.6898
ᏅᏬᏗᏱ	-10.6901
▁ᏥᏰᎸᎢ	-10.6902
▁ᎤᏬᏢᏅ	-10.6902
▁ᎣᎵᏩᏲ	-10.6905
ᏓᏛᏍᎩ	-10.6906
▁ᎤᏇᏓᎵᏉ	-10.6906
▁ᎤᎾᏂᎩᏎᎢ	-10.6907
▁ᎤᎾᏓᏅᏖᎴ	-10.6907
▁ᎤᏩᏔᏅᎩ	-10.6907
ᏂᏓᏍᏗ	-10.6907
▁ᎤᏂᏣᏖᏍᏗ	-10.6908
▁ᎠᏆᏣ	-10.6909
▁ᎤᎩᏎᎢ	-10.6914
▁ᏚᏩᏂᎦᎸᎢ	-10.6917
▁ᎤᏦᏱᎴᎢ	-10.6917
▁ᎤᎵᏍᏆᏛ	-10.6918
▁ᎠᎢᏒᎩ	-10.6921
▁ᎤᎾᏓᏅᏖᎸ	-10.6922
▁ᎦᏯᎸ	-10.6923
ᏓᏂᎸᎩ	-10.6924
▁ᏥᏄᏍᏕ	-10.6925
▁ᏣᏗᎭ	-10.6931
▁ᎤᏍᎪᏒ	-10.6932
▁ᎤᏗᏛᎮᎢ	-10.6933
▁ᎢᏣᏓᏅᏖᏍᎬ	-10.6936
▁ᎤᏲᎢᏴ	-10.6938
ᏰᏛ	-10.6943
▁ᏝᎨ	-10.6949
▁ᏭᏂᎷᏨᎩ	-10.6949
ᏔᎵ	-10.6953
ᏗᏂᏍᎪᏂᎯ	-10.6955
▁ᎤᏁᏍᏔ	-10.6956
▁ᎠᏓᎯᎯ	-10.6956
▁ᏫᎦᎷᎬ	-10.6956
▁ᎠᎩᏁᏨᎢ	-10.6966
ᏚᎢᏍᏓᏁᎴ	-10.6969
▁ᏧᏁᎦ	-10.6969
▁ᎫᎦ	-10.6969
▁ᏍᎩᏍᏕᎸ	-10.6974
▁ᎢᏗᎬᏁ	-10.6975
ᏃᎯᏎᎴ	-10.6977
▁ᏫᏚᏯᏅᎮᎢ	-10.6979
▁ᎤᏄᎪᏤᎢ	-10.6985
▁ᎢᏨᏗᏍᎬ	-10.6985
▁ᎢᏔ	-10.6985
▁ᏗᏐᏴ	-10.6986
ᏯᎥᎢ	-10.6986
▁ᏂᏕᎬᏁᎲ	-10.6988
▁ᎤᏅᏎᎢ	-10.699
▁ᎯᎦᏔᎲ	-10.6991
▁ᎠᏁᎮᏍᏗ	-10.6991
▁ᏪᏣ	-10.6996
ᏔᏁᏍᏗ	-10.6996
ᏞᏍᏗ	-10.6998
▁ᏧᏁᏗᏱ	-10.7001
▁ᎤᏬᏨ	-10.7002
ᏛᏁᏗᏱ	-10.7003
ᎦᏛᎦ	-10.7003
▁ᎤᎪᎵᏰᎥ	-10.7005
▁ᎭᏗ	-10.7005
▁ᎤᎷᏤᎴᎢ	-10.7007
ᏓᏁᎯ	-10.7011
▁ᏗᎬᏩᎾ	-10.7011
▁ᎤᏩᏔᏁ	-10.7012
▁ᎡᎾᎢ	-10.7014
▁ᎤᏁᏍᎩᎸ	-10.7016
▁ᎤᏬᏂᏎ	-10.702
ᎳᏅᎩ	-10.7025
ᏂᏗ	-10.7026
▁ᏚᏙᏍᏛ	-10.7027
▁ᎤᎾᏛᏁ	-10.703
▁ᏄᏩᏁᎸᎩ	-10.7033
ᏍᏗᏍᎨᎢ	-10.7035
ᎨᏎᎢ	-10.7046
ᏟᏌᏂ	-10.7046
▁ᎤᎪᏗ	-10.7049
ᎵᏍᏓᏴᎲᏍᎦ	-10.7051
▁ᎠᎾᎵᎮᎵᎨ	-10.7051
ᎵᏍᎪᎸᏓᏁᏗᏱ	-10.7057
ᏏᏐᏗ	-10.7061
▁ᏙᏓᎨ	-10.7063
▁ᏂᏥᏪᏎᎸ	-10.7067
▁ᏧᏁᏤᎴ	-10.7067
▁ᎤᏤᎸ	-10.7074
▁ᏗᎬᎩ	-10.7076
ᎫᏩ	-10.7076
▁ᏥᏗ	-10.7077
▁ᎤᏂᎪᎲᎩ	-10.7083
▁ᏓᎬᎩ	-10.7083
ᏁᎲᎩ	-10.7086
▁ᏗᎩᎦᏴᎵᎨᎢ	-10.7089
ᏅᎦ	-10.7093
ᏖᎵ	-10.7094
ᏄᎪᏫᏏ	-10.71
▁ᏂᏚᎩᏨᏂᏒᎢ	-10.7101
ᏢᎾᏁᏗ	-10.7109
▁ᎠᏦᏴᎢ	-10.7113
▁ᏧᎾᏦ	-10.7114
▁ᎤᏍᎦᏅᏨᎢ	-10.7116
ᏅᏗᏍᎨᏍᏗ	-10.7117
▁ᏕᎬᏩᏂ	-10.7121
▁ᎪᎦ	-10.7122
ᎲᏍᎪᎢ	-10.7122
▁ᎤᏁᏅᏍᏗ	-10.7128
▁ᏃᏳ	-10.7132
▁ᏱᏓᎩ	-10.7135
ᏒᏗ	-10.7135
▁ᎤᏂᏅ	-10.7135
▁ᏕᏣᏙᎥᎢ	-10.7139
ᏳᏍᏗ	-10.7141
ᏇᎵ	-10.7141
ᏰᎲ	-10.7143
▁ᎤᏓᏅᏙᎩ	-10.7143
ᏪᏎᏗ	-10.7147
▁ᏗᏍᏆ	-10.7156
ᏏᏩ	-10.7164
ᏏᎳᏛᏗ	-10.7167
▁ᏃᎩ	-10.7169
▁ᎤᏍᏓᏱᏕ	-10.717
▁ᎤᎵᏍᏆᏕ	-10.7172
▁ᏣᎪ	-10.7179
ᏟᏯ	-10.718
▁ᎤᎧᎵᎸ	-10.7183
ᎳᏚ	-10.7183
ᏨᎾ	-10.7184
ᎬᏂᎨ	-10.7186
ᏓᏁᎮᏍᏗ	-10.7187
ᎧᏁᎸ	-10.7195
ᎩᏍᎬ	-10.7196
▁ᎠᏂᏁᎸ	-10.7198
▁ᎤᏙᎯᏳᎭ	-10.7199
ᎪᏅ	-10.7206
ᏌᎳᏓᏁ	-10.7209
▁ᏗᎨᎦ	-10.721
▁ᏂᎬᏁᎸ	-10.7211
ᏏᏗ	-10.7216
▁ᏗᏛ	-10.7221
ᎦᏔᎲ	-10.7223
▁ᏦᏥ	-10.7238
ᏂᏌᏂ	-10.7238
▁ᎠᏉᏢ	-10.724
▁ᎠᏃᎵ	-10.7242
ᏅᎦᎸᏛ	-10.7243
▁ᏄᏪᏎᎸᎢ	-10.7248
ᎪᎵᏂᏗ	-10.7252
▁ᎤᏓᏅᏒ	-10.7256
▁ᎤᏍᏆᎸ	-10.7268
▁ᎤᎧᎵ	-10.7279
ᎦᏙᎥᏎ	-10.7281
ᏙᎲᎢ	-10.7299
▁ᎤᏁᏅᏎᏃ	-10.7303
ᏧᏂᏲᎯᏍᏗᏱ	-10.7306
▁ᏚᎸ	-10.7313
ᏕᎦ	-10.7314
▁ᎠᏰᎵᏒ	-10.7315
ᎯᎲᎢ	-10.7316
ᏲᏏ	-10.7317
▁ᎤᏃᏴᎵ	-10.7317
▁ᎤᏁᏤᎢ	-10.732
▁ᎬᏒ	-10.7323
▁ᏳᎪ	-10.7324
▁ᏃᏒ	-10.7329
▁ᎤᏙᎯ	-10.733
ᏂᏙᎸ	-10.7343
ᏣᏗ	-10.7343
ᎤᏩᏂᎦᎸ	-10.7343
▁ᎤᏁᏤᎴᎢ	-10.7344
▁ᎤᏙᏳ	-10.7349
ᏉᏍᎪ	-10.7359
ᏍᎦᎢᎮᏍᏗ	-10.7362
▁ᎾᏂᎥᎩ	-10.7375
▁ᏓᏔᎴᏒᎢ	-10.7379
▁ᎤᏅᏁ	-10.739
▁ᎠᏂᎸᏉᏗᏍᎨ	-10.7392
▁ᏦᏏ	-10.7396
▁ᏙᏓᏣ	-10.7433
▁ᏦᏒ	-10.7447
ᏡᏗᏍᎩ	-10.745
▁ᎠᎹᏂ	-10.7451
▁ᏤᎳᏗ	-10.7456
ᎵᏍᏓᏴᏗ	-10.7471
▁ᎦᏲᎦ	-10.7471
▁ᎤᎳ	-10.7474
▁ᏲᎦ	-10.7475
ᏁᎢᏍᏓᏁᏗ	-10.7479
▁ᎡᏍᏗ	-10.7483
▁ᎠᎫᏴᏗ	-10.75
ᎳᏛ	-10.75
▁ᎤᏂᏏᏗ	-10.7503
ᏤᎭ	-10.7507
▁ᏚᏁᏤᎴᏃ	-10.7508
▁ᏥᏕᏣ	-10.7519
▁ᎢᎬᏱᏱᏉ	-10.7521
▁ᎨᎢ	-10.7529
ᎬᏅ	-10.753
▁ᏓᎦᏥ	-10.7531
ᏍᏓᏩᏕᎩ	-10.7542
▁ᎠᏥᏁᎸ	-10.7543
ᏘᏍᏗᏍᎩ	-10.7545
▁ᎠᎩᏍᎦᏅᏨ	-10.7546
ᎧᎯᏯᏍᏗ	-10.7556
▁ᏱᏥᏰᎸ	-10.7557
ᏥᏧᏣ	-10.7562
▁ᎦᎾᏄᎪ	-10.757
ᎦᏚ	-10.7571
▁ᎤᏂᏴᎸ	-10.7581
ᏢᏅᎯ	-10.759
ᏗᏯ	-10.759
ᏗᏍᏔᏁ	-10.7598
ᏲᎭ	-10.7609
▁ᏥᏳᎪ	-10.761
ᏍᏓᏁ	-10.762
ᏂᏆᏘᎯ	-10.7624
ᏗᏔᏍᎬ	-10.764
▁ᏩᏴ	-10.7646
ᎵᎢ	-10.7649
▁ᏗᎧ	-10.7659
▁ᏂᏛ	-10.7669
ᏄᎵ	-10.7673
▁ᏥᎦᏔ	-10.7678
ᏂᏴ	-10.7694
▁ᎪᏛ	-10.77
▁ᎠᎾᏗᏍᎨ	-10.7701
▁ᎤᏂᏄᎪᏨ	-10.7711
▁ᎢᏳᏂ	-10.7721
▁ᎤᏣᏅ	-10.7729
ᏪᏎᎴᎢ	-10.7731
ᏘᎾᏫᏛᎲᎩ	-10.7737
ᏍᏆᎵ	-10.7746
ᏫᏎᎴᎢ	-10.7749
ᏍᎦᏰᎬᏍᏓ	-10.7767
ᎶᏓ	-10.7768
▁ᎠᏩᏛ	-10.7774
▁ᏂᎦᎥᎢ	-10.7776
ᏓᏱ	-10.7778
ᏍᏕᎵᏍᎬ	-10.7781
ᏁᏟᏴ	-10.7789
▁ᎢᎤ	-10.7791
▁ᎤᏪᏰ	-10.781
▁ᎤᎵᏍᏆᎸᏗᏃ	-10.7812
ᏓᏎᎪᎩᏍ	-10.7823
ᎩᏒ	-10.7828
ᎦᎳ	-10.7828
▁ᎾᎯᏳᎢ	-10.783
ᏛᏃᎯ	-10.783
ᎸᏉᏗᏍᎩ	-10.7833
▁ᏚᏳ	-10.7836
▁ᏕᎨᏥ	-10.7853
ᏲᏍᏗᏍᎬ	-10.7853
ᏡᏗᏍᎬᎢ	-10.7859
▁ᏚᏲᏎ	-10.7868
ᏫᏛ	-10.7877
▁ᎠᎨ	-10.7882
▁ᏱᎨᏣ	-10.7885
ᏍᏗᏍᎬᎢ	-10.7888
ᏍᏕᎵᏍᎩ	-10.7899
ᏳᎳ	-10.7915
ᏗᏍᏗᏍᎩ	-10.793
ᏅᎪᎢᏍᏗ	-10.7935
▁ᎤᎵᏍᏆ	-10.7938
al	-10.7947
ᏰᎸᎯ	-10.7947
ᏂᏙᎯ	-10.7951
▁ᏯᏓᏅᏖ	-10.7964
ᏑᏰᏒ	-10.7965
▁ᎠᎵᏰᎢᎵ	-10.7968
▁ᎦᏯ	-10.7968
ᏢᏗᏱ	-10.7976
▁ᏭᏩ	-10.7978
ᏴᏍᏗ	-10.7978
ᎵᏳ	-10.7983
▁ᏕᎫ	-10.7989
ᏂᎩᏍᎬ	-10.7989
▁ᎩᏯ	-10.7993
▁ᎢᏨᏲᏪᎳ	-10.7997
ᏥᏍᎦᏯ	-10.8006
▁ᏓᏳᏂ	-10.8013
▁ᏄᏍᏛᎩ	-10.8019
ᏍᎩᎸ	-10.8026
ᎡᎰᎢ	-10.803
▁ᎠᏍᏆᏂᎪᏙᏗ	-10.8033
ᏥᏁᎸ	-10.8038
ᏅᏛ	-10.8039
ᏓᏑᏰᏍᏗ	-10.8043
ᏍᏓᏩᏛᏒᎩ	-10.8044
ᏍᏓᏩᏗᏒ	-10.8047
ᏛᏅᎢᏍᏓ	-10.8049
▁ᏥᏂᎬ	-10.8054
▁ᏔᏯ	-10.8057
ᏓᎵᏓᏍᏗ	-10.8058
ᎤᏍᏓᎦᏴᎯᏓ	-10.8063
▁ᏚᏭ	-10.8067
▁ᎨᏍᏗᏗ	-10.8072
▁ᎦᎬ	-10.8074
▁ᏚᏁ	-10.8077
ᏲᏒᎩ	-10.8077
▁ᎢᏗᎦᏘ	-10.8085
▁ᎢᏳᏍᎩᏂᏃ	-10.8101
ᎳᏓ	-10.8108
ᎦᏁᎶᏗ	-10.8108
ᏲᎵ	-10.8114
ᎳᏂ	-10.8119
▁ᎥᎩᎸᏉ	-10.8125
▁ᎤᎵᏰ	-10.8145
ᏓᏙᎵᏍᏗᏍᎬ	-10.8149
ᎷᎯᏍᏗ	-10.8153
ᏘᏃᎯᏍᏗᏱ	-10.8159
ᏍᎦᏨᎯ	-10.816
ᏂᎪᎲ	-10.816
ᎦᏘᏓ	-10.8167
▁ᎢᏍᏛ	-10.8179
▁ᎬᏰᎸ	-10.819
▁ᏅᏓᎬᏩ	-10.8195
▁ᎠᏢ	-10.8195
ᎧᏁ	-10.8203
ᏙᎮ	-10.8223
▁ᎤᏂᏍᏆᏂᎪᏎ	-10.8233
ᎸᏂ	-10.8234
▁ᏗᏣᏁᎶ	-10.8237
▁ᏗᏍᏚ	-10.8248
ᏉᏂ	-10.8249
▁ᎤᎷ	-10.8251
ᏓᏂᎸᏤᎢ	-10.8259
▁ᏳᏬᎯᏳ	-10.8274
ᎶᎯᏍᏗ	-10.8279
ᏩᏕᎬ	-10.8293
Ꮌ	-10.8305
▁ᎠᏂᎦ	-10.8306
ᎦᏅᎦ	-10.8313
▁ᏄᏂᏪᏎ	-10.8319
▁ᏣᎦ	-10.8321
▁ᏧᏁᏨ	-10.8327
ᏪᏎᎸᎩ	-10.833
ᎿᎥᎢ	-10.8332
▁ᎤᎸᏉᏗ	-10.8337
▁ᎧᏃᎮ	-10.834
ᏪᎶᏗ	-10.8342
ᏍᏕᎸᏗᏱ	-10.8345
ᎢᎦᎸᏉᏗ	-10.8345
ᏦᏁ	-10.8346
ᏢᏛ	-10.8349
▁ᎦᏟ	-10.836
▁ᎤᏁᎷᎬ	-10.8365
ᏓᏬᏍᏗ	-10.8367
▁ᏧᎳᏑᎶ	-10.8372
▁ᎤᏃᎸ	-10.8376
ᎯᏍᏔᏂ	-10.8379
▁ᏙᏧ	-10.8381
▁ᎤᏍᎦ	-10.8385
▁ᏕᎦᏄᎪᏫᏍ	-10.8393
ᎪᎵᏰᎥᎯ	-10.8398
▁ᎥᏥ	-10.8398
ᏍᎦᏃᎵ	-10.8407
▁ᎢᎩᏰᎸ	-10.8407
▁ᏕᎦᏄᎪᎬ	-10.8409
▁ᏕᎦᎳᏅᏛ	-10.8411
ᎦᎸᎳᏗ	-10.8412
▁ᎤᏍᏆᏂᎪᏎ	-10.8412
▁ᎠᏐᏴ	-10.8412
▁ᎣᎦᏛᎦᏅ	-10.8414
ᏓᎩᏍᎨ	-10.8416
▁ᎠᏓᏪᎵᎩᏍᎬ	-10.8418
▁ᏚᏲ	-10.842
ᏄᏓᎴ	-10.8421
ᏫᎵᎻ	-10.8421
ᏗᎦᏛᎯ	-10.8421
▁ᎠᎩᏇᏓᎸ	-10.8423
▁ᏂᎦᎵᏍᏗᏍᎪ	-10.8424
▁ᏕᎦᏍᎩᎸ	-10.8424
▁ᎢᏣᏓᏙᎵᏍᏗᏍᎬ	-10.8425
▁ᏧᏁ	-10.8426
▁ᏱᎨᏥ	-10.8427
▁ᎬᏩᎾᏕ	-10.8427
▁ᎤᎵᏰᏔᏁ	-10.8427
▁ᏙᏧᎾᏓᏅᏛ	-10.8428
▁ᏱᏥᎦᏔᎮ	-10.8431
▁ᏄᏂᏪᏎᎴ	-10.8433
▁ᎢᏣᎵᎮᎵᎬ	-10.8433
▁ᎤᎾᏂᎩᏎ	-10.8433
▁ᏚᏓᏘᎾᎥ	-10.8434
▁ᎤᎶᎨᏒ	-10.8435
▁ᏯᏛᏅ	-10.8436
▁ᏱᏄᏍᏕ	-10.844
▁ᎤᏬᎯᏳᏒ	-10.8442
ᎰᏩ	-10.8445
▁ᎤᏄᏩᎥ	-10.8445
▁ᏈᎬ	-10.8451
▁ᏕᎦᏬᏁᏗᏍᎬ	-10.8451
▁ᎾᎩᏪᏎᎸ	-10.8455
ᎣᏏ	-10.8456
ᎪᎲᏍᏙᏗ	-10.8456
▁ᏭᏯᏅᎲ	-10.8458
▁ᎠᎩᏩᏛᎲ	-10.8459
▁ᏄᏅᏁᎸ	-10.846
▁ᏄᏛᏁ	-10.8461
ᎵᏙᎯ	-10.8465
▁ᎤᎵᏦᏛ	-10.8465
▁ᎥᎩᏙ	-10.8466
ᏰᎳᏍᏗ	-10.8466
▁ᎢᎫᏩ	-10.8471
▁ᎾᏏ	-10.8472
ᏬᏗᎨ	-10.8474
▁ᎠᏂᎪᏩᏘᏍᎬ	-10.8475
ᎪᎵᏰ	-10.8477
▁ᏇᏓᏁᎳᎻ	-10.8479
▁ᎠᏓᎨᏗ	-10.848
▁ᏧᏂᎧᎿᏩᏛᏍᏗ	-10.848
▁ᏫᏗᎦ	-10.8481
▁ᎠᏍᎫᏕᏍᏗ	-10.8481
ᎤᎷᏨ	-10.8482
▁ᎤᏬᎯᏳᏅ	-10.8482
▁ᏂᏕᎦᏪᏎᎲ	-10.8483
▁ᏗᎫᏍᏙᏍᏗ	-10.8483
ᏒᏆᎶᏍᏗ	-10.8484
▁ᏗᎨᎫᎪᏓᏁᏗ	-10.8486
▁ᎤᏪᏓᏍᏗ	-10.8487
ᏅᎵ	-10.8487
ᏲᎱᎯᏎᎸᎯ	-10.8487
▁ᎠᏥᏁᏗ	-10.849
▁ᏭᎷᏤᎴ	-10.8492
▁ᏤᏅᏍᏗ	-10.8492
ᎲᏎ	-10.8496
▁ᎤᎾᏛᎪᏗ	-10.8496
▁ᎠᏇᏓᏍᏗ	-10.8496
▁ᏅᏓᏰ	-10.8499
▁ᏚᏄᎪᏫᏒ	-10.8505
▁ᎠᏂᎾᏰᏍᎩ	-10.8505
▁ᎠᏂᏥᏊᏏ	-10.8505
▁ᎢᎨᎬᏁᎸᎯ	-10.8505
▁ᎢᎵᎡᏌ	-10.8505
▁ᎤᏍᏔᏲᏒ	-10.8505
▁ᎤᏖᎸᎳᏛ	-10.8505
▁ᎥᏆᎸᎢᏛ	-10.8505
▁ᎫᏫᏍᎫᏫ	-10.8505
▁ᎬᏬᎯᏳᎲᏍᎩ	-10.8505
▁ᎰᏢᏔᏅᎭ	-10.8505
▁ᎴᎣᏗᏏᏯ	-10.8505
▁ᎻᏚᏏᎳ	-10.8505
▁ᏂᏦᎵᎬᎾ	-10.8505
▁ᏇᏣᎵᎵ	-10.8505
▁ᏍᎪᏂᏗᏢ	-10.8505
▁ᏓᏇᎪᏔᏅ	-10.8505
▁ᏗᎾᏙᎴᏆᏍᎩ	-10.8505
▁ᏗᏓᎴᏅᏗᏍᎩ	-10.8505
▁ᏥᏈᎣᏂ	-10.8505
▁ᏧᏂᏦᏯᏍᏗ	-10.8505
▁ᎤᏂᎵᏅᏨᎯ	-10.8505
▁ᏗᎬᏩᎩᏨᏗ	-10.8505
▁ᏭᏕᎵᏤ	-10.8505
▁ᏓᏗᎶᏂ	-10.8505
▁ᏧᎾᏗᎩᏓ	-10.8505
▁ᎢᏯᏛᏁᎵᏓᏍᏗ	-10.8505
▁ᏗᏥᎨᏫ	-10.8505
ᏫᏂᏗᏢ	-10.8505
▁ᏦᏍᏓᏓᏅᏟ	-10.8505
▁ᏥᏂᏨᏪᏎᎸᎩ	-10.8505
▁ᎠᏆᏗᏔᏍᏗ	-10.8505
▁ᎤᏪᏯᎸᏤᎢ	-10.8505
▁ᎠᎵᏏᎾᎯᏍᏙᏗ	-10.8505
▁ᎠᎾᎵᏖᎸᎲᏍᎩ	-10.8505
▁ᎢᎬᏆᏛᏁᏗ	-10.8505
▁ᎤᎵᏍᏛᏧᏁ	-10.8505
▁ᎠᏟᎶᎥ	-10.8505
▁ᏗᎨᏘᏂᏓᏍᏗ	-10.8505
▁ᎹᎺᎵ	-10.8505
▁ᎠᏂᎶᏍᎩ	-10.8505
▁ᏧᎬᏩᎳᏅᎯ	-10.8505
▁ᏭᏕᎵᏨ	-10.8505
▁ᎤᏦᎠᏎᏗ	-10.8505
▁ᎪᎯᏳᎲᏍᎨᏍᏗ	-10.8505
▁ᎤᎵᏃᎯᏴᎯ	-10.8505
▁ᎤᎦᏛᎾᏨᎯ	-10.8505
▁ᏣᎦᏑᎲᎢ	-10.8505
▁ᎠᎪᎲᏍᏔᏅᎯ	-10.8505
▁ᏆᏏᎹ	-10.8505
▁ᎢᏥᏁᎫ	-10.8505
▁ᏕᏥᏂᏴᏎᏍᏗ	-10.8505
▁ᏓᏲᏣᏛᏁᎵ	-10.8505
▁ᎠᏁᎸᏗᏍᎨᎢ	-10.8505
▁ᎢᎪᏂᏯ	-10.8505
▁ᏖᎹ	-10.8505
▁ᎬᏲᏎᎭ	-10.8505
▁ᏅᏓᏳᎾᏓᎴᏅᎯ	-10.8505
▁ᏗᎩᏲᎱᏒᎯ	-10.8505
▁ᏧᏃᏚᎯ	-10.8505
▁ᎾᏂᏍᎦᏅᎾ	-10.8505
▁ᏕᎦᏅᏙᎬ	-10.8505
▁ᏱᏥᎪᎵᏰᎣ	-10.8505
▁ᎦᏗᎨᏂ	-10.8505
ᏙᎴᏋ	-10.8505
▁ᎠᏂᎪᏗᏳ	-10.8506
▁ᎾᏃᎯᏳᎲᏍᎬᎾ	-10.8506
▁ᏧᏈᏯ	-10.8506
▁ᏩᎩᎷᏣ	-10.8506
ᎩᏏᏕᎩ	-10.8506
▁ᎬᏩᏕᏱᏛ	-10.8506
▁ᎢᏥᏇᏓᎸ	-10.8506
▁ᎠᏙᎴᎰᏒᎯ	-10.8506
▁ᎤᎦᏃᏮ	-10.8506
▁ᏄᎾᏛᏁᎵᏙᎸ	-10.8506
▁ᏓᏓᏛᏂ	-10.8506
▁ᏳᏲᎱᏒ	-10.8506
▁ᏗᎬᏩᏂᏰᎯ	-10.8506
▁ᏗᏂᏃᎨᏂ	-10.8506
▁ᎦᎶᏣᏗ	-10.8506
▁ᎤᏴᎵᎴ	-10.8506
▁ᎢᏳᎾᏓᎳ	-10.8506
▁ᏗᏂᏐᎯ	-10.8506
▁ᏁᏆᎸ	-10.8506
▁ᏘᎦᏙᎵ	-10.8506
▁ᎤᏆᏛᎩ	-10.8506
▁ᎢᎬᎾᏕᏅ	-10.8506
▁ᏚᏪᎧᏅᎩ	-10.8506
▁ᏫᏥᏲᎵᎦ	-10.8506
▁ᎶᏩᏂ	-10.8506
▁ᎦᎵᏆᏚ	-10.8506
▁ᎠᏂᎱᏣ	-10.8506
▁ᏚᏭᏢᏔᏅᎩ	-10.8507
▁ᎠᏆᏟᏂᎬᏁᎸ	-10.8507
ᏌᎳᏛᎦ	-10.8507
▁ᏧᎾᎪᏅᏍᏓᎵ	-10.8507
▁ᎥᏃᏥ	-10.8507
▁ᏧᏬᏢᏅᎯ	-10.8507
▁ᏧᎵᎬᏩᏟ	-10.8507
▁ᏗᎦᎾᏌᎢ	-10.8507
▁ᎢᏯᏓᏛᏁᎯ	-10.8507
▁ᏓᎩᏯᏪᎦ	-10.8507
▁ᏐᏁᎳ	-10.8507
▁ᏗᏟᏍᏙᏗ	-10.8507
ᏐᎭᏛ	-10.8507
▁ᎭᏛᏓᏍᏓ	-10.8507
▁ᎠᏂᏃᎮᏍᎨ	-10.8507
▁ᏗᏣᎴᎲᎦ	-10.8507
▁ᎤᎾᏚᎵᏍᎩ	-10.8507
▁ᏓᎦᏥᏁᎵ	-10.8507
▁ᎢᏯᏆᎵᏍᏙᏗᏱ	-10.8507
▁ᎪᎢᏳᎲᏍᎦ	-10.8507
▁ᏅᏁᎸᎭ	-10.8507
▁ᏗᎩᏴᏫ	-10.8508
▁ᎦᏥᏯᏁᎳᏅᎯ	-10.8508
▁ᏥᏍᎦᎢᎲ	-10.8508
▁ᏅᏓᏳᏅᏏᏛ	-10.8508
▁ᎱᎷᏣ	-10.8508
▁ᏕᎦᏰᏌᏛ	-10.8508
▁ᎤᎾᏙᎴᎰᎯᏍᏙᏗ	-10.8508
▁ᏓᏓᏂᎸᎨᏍᏗ	-10.8508
▁ᎡᏥᏲᎵᎸᎭ	-10.8508
▁ᎠᎬᏓᎨᏂ	-10.8509
▁ᏄᏓᏑᏴᎾ	-10.8509
▁ᎤᏃᎯᏳᎯ	-10.8509
▁ᏦᎨᏥ	-10.8509
▁ᎠᎾᏓᎭᏲᎯ	-10.8509
▁ᏕᏅᏙᎥ	-10.8509
▁ᏅᏓᏍᏆ	-10.8509
▁ᏗᏥᎸᏫᏍᏓᏁᎯ	-10.851
▁ᎠᏂᎡᎼᎵ	-10.851
▁ᎤᏂᏆᏘᏍᏗ	-10.851
▁ᎠᏆᏕᎶᎰᏒ	-10.851
▁ᎢᏥᎨᏴ	-10.851
▁ᎠᏆᏛᏅᎢᏍᏗ	-10.851
▁ᎤᎸᏉᏔᏁ	-10.851
ᏡᏔᏂ	-10.851
▁ᎢᏧᏖ	-10.851
▁ᏗᏣᎳᏏ	-10.8511
▁ᏗᎭᎾᏬ	-10.8511
▁ᎤᎧ	-10.8511
ᏲᎵᏍᏗᏱ	-10.8511
▁ᏬᏤ	-10.8511
▁ᏫᏂᏪᏏ	-10.8511
▁ᏚᏄᏌᏛ	-10.8511
▁ᏗᎦᎪᏙᏗ	-10.8511
▁ᎤᏓᏑᏰᏛ	-10.8511
▁ᎯᏍᎪᎵ	-10.8511
ᏂᎴ	-10.8512
▁ᎪᏒᏅ	-10.8512
ᏓᎴᏒ	-10.8512
▁ᏓᏂᏴᎬᎢ	-10.8512
▁ᏣᏓᎸᎩ	-10.8513
▁ᏥᎦᏚᎭ	-10.8513
▁ᏓᏂᏴᎨᏍᏗ	-10.8513
▁ᎬᏔᏲᏎᎭ	-10.8513
▁ᎤᏙᎳᏅᏍᏗ	-10.8513
▁ᏓᏂᏄᏙᎬᎢ	-10.8513
▁ᏚᏚᏓᏛᎢ	-10.8513
▁ᎠᎨᏯ	-10.8513
▁ᎠᏄᏬᎩᎯ	-10.8513
▁ᎢᏤᏅᏍᏗᏱ	-10.8513
▁ᎤᏬᏒᏅ	-10.8513
▁ᏚᏕᏲᏁ	-10.8513
▁ᏗᏣᎳᏏᏕᏂ	-10.8513
▁ᏓᏥᏁᎵ	-10.8514
▁ᏤᎵᎪ	-10.8514
▁ᎡᏈᎳ	-10.8514
▁ᏭᎳᎩᏒ	-10.8514
▁ᏭᎩᎶᏫᏎ	-10.8514
▁ᎠᏂᎩᎾ	-10.8514
▁ᏚᏬᏁᏔᏅᎩ	-10.8514
▁ᏧᏲᎯᏍᏗᏱ	-10.8514
▁ᎢᏨᏲᏪᎳᏁᎭ	-10.8514
▁ᏙᎳᏧᎦ	-10.8514
ᎩᎾᏝᎢ	-10.8515
▁ᎤᎵᏦᎯᏛ	-10.8515
ᏍᎦᎢᏍᏗ	-10.8515
▁ᏇᎵᏏ	-10.8515
▁ᏧᎸᏫᏍᏓᏁᎸᎯ	-10.8515
▁ᏅᏛᏛᏁᎵ	-10.8516
▁ᏕᎯᎧᏅ	-10.8516
▁ᎤᏅᏪ	-10.8516
▁ᏗᎦᏁᎲ	-10.8516
▁ᏧᏬᏪᎳᏅ	-10.8516
▁ᏚᏘᏃᎮᎴᎢ	-10.8516
▁ᏫᏄᏪᏎᎢ	-10.8517
▁ᏣᏔᎳᏬᎯᏍᏗ	-10.8517
▁ᎬᏯᎵᎡᎵᏤ	-10.8517
▁ᎢᏯᏓᏅᏖᏗ	-10.8517
▁Ꮇ	-10.8517
▁ᏚᏏᏔᏛ	-10.8517
ᏄᏍᏗ	-10.8517
▁ᎠᏈᎷ	-10.8518
▁ᎠᏌᎳᏙᏗ	-10.8518
▁ᎢᏥᏁᏨ	-10.8518
▁ᏂᏥᏪᏍᎬ	-10.8519
▁ᏧᎧᎭᏲ	-10.8519
▁ᎧᏁᏍᎬ	-10.8519
▁ᎤᎵᏨᏓᏆᏓ	-10.852
▁ᎴᎻᎩ	-10.852
▁ᎢᏤᎵᎭ	-10.852
▁ᏧᎾᏁᎳᏅᎯ	-10.852
▁ᏓᎧᏁ	-10.852
▁ᎠᏁᏙᎭ	-10.852
▁ᎢᏣᎵᏍᏓᏴᏗᏱ	-10.852
▁ᎢᏨᏁᏗ	-10.852
▁ᎠᏆᏓᏅᏖᏛ	-10.8521
▁ᏣᏓᏅᏛᎢ	-10.8521
▁ᎠᏆᏛᏁᏗᏱ	-10.8521
▁ᎤᏬᏪᎳᏅᎩ	-10.8521
▁ᎤᏲᎱᏎᎮᏍᏗ	-10.8521
▁ᏑᏓᎵᏧᏈ	-10.8521
▁ᎡᏍᎦᏂᏳ	-10.8522
▁ᎠᎦᏙᎵ	-10.8522
-“	-10.8522
▁ᎠᏓᎬᎿ	-10.8522
▁ᎦᏰᎵᏍᏗ	-10.8522
▁ᎠᏂᏍᎦᏰᎬᏍᏓ	-10.8523
▁ᎤᏃᏪᎳᏅ	-10.8524
▁ᎠᏂᎦᏘᏯ	-10.8524
▁ᎠᏫᏌᏅ	-10.8524
▁ᎠᏤᏍᏙᎩᎯ	-10.8524
▁ᎤᏛᎦᎾ	-10.8524
▁ᎦᎪᎵᏍᏗ	-10.8524
▁ᎠᎺ	-10.8525
▁ᏗᏥᎧᎿᏩᏛᏍᏗᏱ	-10.8525
▁ᏚᏭᎪᏔᏅ	-10.8525
▁ᎤᏬᎳ	-10.8525
▁ᏚᏪᏴ	-10.8526
▁ᏣᏍᏆ	-10.8526
▁ᎤᏁᏅᏒᎩ	-10.8526
▁ᏳᏪᎭ	-10.8526
▁ᏓᎾᏠᏱᎲ	-10.8527
▁ᎤᏩᏂᎦᎸᎢ	-10.8527
▁ᎤᎾᏄᎪᏥᎸ	-10.8527
▁ᏱᏥᏏᎾ	-10.8527
▁ᎤᏂᎾᎥ	-10.8528
▁ᎤᏍᏆᏂᎪᏔᏁᎢ	-10.8528
▁ᎤᏂᏍᎦᎴᎢ	-10.8528
▁ᎠᏋᏔᏅᎯ	-10.8529
▁ᎤᏪᏙᎴᎢ	-10.8529
▁ᎢᏳᏩᎬᏗ	-10.8529
▁ᎦᏃᎯᎵᏙ	-10.8529
▁ᏗᎫᏍᏙᏍᏗᏱ	-10.8529
▁ᎭᏟᏂᎬᏁ	-10.8531
▁ᏱᏅᎦ	-10.8531
▁ᎾᏥᏪᏎᎴᎢ	-10.8531
▁ᎢᏳᏪᏍᏗ	-10.8532
▁ᎢᏣᏛᏁᏗ	-10.8532
▁ᎤᏂᏁᏉᏤ	-10.8532
▁ᎤᎦᎹ	-10.8532
▁ᎤᏂᏃᎮᏗᏱ	-10.8532
▁ᏧᎾᏛᎾ	-10.8533
ᏥᎤᏍᏕᏎᎸᎾ	-10.8533
▁ᏂᏨᏁᎲ	-10.8534
▁ᎬᏩᏍᎦᎩ	-10.8534
▁ᎾᏥᎤᏍᏕᏎᎸᎾ	-10.8534
▁ᏱᏂᎦᎩ	-10.8536
▁ᎤᏕᏔᏅᎯ	-10.8537
▁ᏗᏥᏁᏟᏴ	-10.8537
ᏴᎵᎸ	-10.8537
ᏩᏛᎲᏍᏗᏱ	-10.8538
▁ᎤᏛᏅᏗᎦᎳᏫᎢᏍᏗᏱ	-10.8538
▁ᎤᎵᏍᎪᎸᏔᏅᎯ	-10.8538
▁ᏤᏣᎧᏃᏗ	-10.8539
ᏁᏉᏣᏘ	-10.854
▁ᎤᏂᏚᎲᎢ	-10.8541
▁ᎢᏨᏙᏗᏱ	-10.8542
▁ᎠᎩᎷᏤᎸᎩ	-10.8542
▁ᏓᎪ	-10.8542
▁ᏥᏄᏍᏛ	-10.8542
▁ᏣᎾᏫᏱ	-10.8543
▁ᎤᎾᏅᏗᏱ	-10.8543
▁ᎢᏥᏁᏗ	-10.8544
▁ᏥᎬᏩ	-10.8544
ᏁᏅ	-10.8545
ᎵᏖᎸᏂᏍᏗ	-10.8545
▁ᎢᏣᏁᎳᏅᎯ	-10.8546
▁ᎤᏂᏰᎸᎯ	-10.8546
▁ᎦᏁᏥᏱ	-10.8547
▁ᏭᏓᏒᏍᏔᏁ	-10.8547
▁ᏭᏓᎪᎾᏛᏛ	-10.8547
▁ᎤᏴᎸᎩ	-10.8547
▁ᎤᏁᏝᏅᎯ	-10.8547
▁ᎤᎦᏔᎲᏎ	-10.8548
▁ᏍᎦᏰᎬᏍᏔ	-10.8549
▁ᎤᏦᏍᏗ	-10.8549
▁ᎠᏍᏕᎵᏍᎩ	-10.855
▁ᎱᏂᎷᏤ	-10.855
▁ᎡᏥᏁᎸᎯ	-10.8551
▁ᎯᏄᎪᎢ	-10.8551
▁ᎦᎬᏩᏐᏢ	-10.8552
▁ᏚᏃᏁᎴ	-10.8553
▁ᎠᏂᎩᎦᎨ	-10.8553
▁ᎣᎨᏅᏒ	-10.8553
▁ᏂᎨᏥᏪᏎᎸ	-10.8554
▁ᏗᎪᏩᏛᏗ	-10.8554
▁ᏧᎾᏍᏗᎦ	-10.8556
▁ᏩᎦᏛᎢ	-10.8557
▁ᎤᎾᏄᎪᏫᏍᏗᏱ	-10.8559
▁ᎤᎩᎵ	-10.856
▁ᎤᎾᏓᏟᏌᏅ	-10.856
▁ᎤᏔᏪᏙᏁᎢ	-10.856
▁ᎤᏍᏕᎸᏗᏱ	-10.8562
▁ᎠᎳᏑᎶ	-10.8563
▁ᎢᏓᏙᎴᎰᎯᏍᏗ	-10.8563
▁ᎠᎦᏅᎩ	-10.8564
ᏘᏁᏒᎭ	-10.8564
▁ᎤᏅᏙᏗ	-10.8564
▁ᎤᏍᏚᏁ	-10.8567
▁ᏌᎻ	-10.8568
▁ᎠᎩᎪᏩᏛᏗᏱ	-10.8568
ᏬᏁᏔᏁ	-10.8569
▁ᏕᎦᎧᎲᎩ	-10.857
▁ᎠᎾᏗᏍᎬ	-10.857
▁ᏧᏪᏥᏛᎯ	-10.8571
▁ᎹᎵ	-10.8571
▁ᎤᏂᏴᏗ	-10.8572
▁ᎠᏩᏛᏗ	-10.8572
▁ᎢᎾᏏ	-10.8572
▁ᎤᏬᏢᏁᎢ	-10.8572
▁ᏧᏓᎴᏁᎢ	-10.8574
▁ᏧᎦ	-10.8574
▁ᎤᏍᎦᏤ	-10.8574
ᎧᎸ	-10.8576
ᎴᏁᎯ	-10.8576
▁ᎦᏁᎮᎢ	-10.8576
▁ᎤᏍᏓᏩᏗᏙᎯ	-10.8578
▁ᏓᏥᏂ	-10.8578
▁ᏓᏍᏛ	-10.8579
▁ᏥᏅᎵ	-10.8579
▁Ꮌ	-10.858
ᏎᏗᏱ	-10.858
▁ᎯᏴ	-10.8581
▁ᎢᎨᏣᏛᏁᏗ	-10.8581
ᏂᏬᏂᎯᏍᏗ	-10.8583
▁ᏕᎠ	-10.8586
▁ᎦᏆᎵ	-10.8586
▁ᎤᎵᏰᏔᏁᎢ	-10.8587
▁ᎤᏄᏬᏍᏗ	-10.8587
▁ᎠᎩᏃᎮᎸ	-10.8587
ᏍᏗᏰᏗᎭ	-10.8591
▁ᎤᏂᎾ	-10.8592
▁ᎤᎾᎴᏅᎲ	-10.8596
▁ᏕᎪᏪᎸᎩ	-10.8598
▁ᏭᏴᎸᎩ	-10.86
▁ᏂᏣᏛᏁᎲᎢ	-10.8603
▁ᏗᎦᎫᏍᏛᏗᏱ	-10.8604
▁ᎣᎩᎾᎵᎪ	-10.8604
▁ᎤᎶᎨᏒᎢ	-10.8608
▁ᎠᏫᏒᎯ	-10.8608
▁ᎤᏰᎬ	-10.8611
▁ᎤᏬᏢᏅᎢ	-10.8612
▁ᏭᎷᏤᎴᎢ	-10.8612
▁ᏩᎩᎦ	-10.8613
ᏥᏁᎢᏍᏗᎭ	-10.8614
▁ᎤᏍᏓᎦᎸᎢ	-10.8614
▁ᏓᏟᎶᏍᏛᎢ	-10.8614
▁ᎠᏇᎵᏒᎩ	-10.8618
▁ᎦᎵᎷᎨᏍᏗ	-10.8618
ᏕᎪᎢ	-10.8619
▁ᎧᏃᎮᏍᎬᎩ	-10.8619
▁ᏂᏗᎨ	-10.862
ill	-10.8621
▁ᎢᏣᎴᏂᏙᎲ	-10.8622
▁ᎤᏬᎭ	-10.8623
▁ᏱᏍᏛ	-10.8623
▁ᏥᏂᎨᎬᏁ	-10.8623
▁ᎤᏂᏴᎮᎢ	-10.8627
▁ᏧᏃᎸ	-10.8629
▁ᎤᏬᏎᎴᎢ	-10.8631
ᏢᏂ	-10.8637
▁ᎦᏲᏟᎨ	-10.8638
ᏩᏔ	-10.8638
▁ᏎᎳᎩ	-10.8638
ᎵᏓᏍᏔᏅ	-10.8638
▁ᎤᏄᎸ	-10.8638
▁ᏧᏩᎫᏔᏅᏒᎢ	-10.8643
ᎶᎸᏗ	-10.8643
ᏕᎶᎰᏌ	-10.8646
ᏓᏅᎡᎮᏍᏗ	-10.8646
ᏘᏱ	-10.8647
▁ᎬᏩᎦ	-10.8648
▁ᎤᎾᏙᎴᎰᏒᎩ	-10.865
ᎠᎩᏏᏙᎯ	-10.865
▁ᎭᏕᏬ	-10.8653
▁ᎯᏌ	-10.8654
ᏯᏪᎢᏍᏗ	-10.8657
ᎵᏎᎲ	-10.8658
▁ᏣᎧᏛᎢ	-10.8658
▁ᏚᏂᎪᎲ	-10.8658
▁ᎾᏆᏛᏁᎸᎢ	-10.8659
ᏛᏛᎾ	-10.8663
▁ᎬᏩᎷᏤᎴᎢ	-10.8664
▁ᎡᏙᎲᎩ	-10.867
▁ᎠᏥᎾ	-10.8673
▁ᎨᏙᎲᎢ	-10.8675
ᎦᎶᎨᏒ	-10.8675
▁ᎠᏂᏁᎬᎢ	-10.8677
▁ᎾᏛᏁᎲᎢ	-10.8678
ᏚᎵᏍᎪ	-10.8678
▁ᏤᏏ	-10.8679
▁ᎦᎵᏦᏙᏗ	-10.868
▁ᎦᏁᎯ	-10.8684
ᎳᏗᏍᎬ	-10.8686
ᏚᏓᎴᏍᏗᏱ	-10.869
▁ᏏᎦ	-10.8692
▁ᎢᏌ	-10.8694
▁ᎤᏪᎭ	-10.8698
▁ᏯᎩᏰᎸ	-10.8699
▁ᎢᏥᎲᎢ	-10.8699
▁ᎾᏛᎦ	-10.8699
▁ᏓᏫᏒᎢ	-10.8704
▁ᏧᎾᏗᏔᏍᏗ	-10.8708
▁ᎢᏢ	-10.871
▁ᏣᏍᎦᏅᏨ	-10.8712
▁ᎠᎢᏎ	-10.8718
ᎵᏍᎪᎸᏙᏗ	-10.8718
ᏙᎡᏍᏗ	-10.8718
▁ᎠᎩᎲ	-10.8719
▁ᎡᎳᏂᎬᎢ	-10.8719
▁ᎤᏂᎯ	-10.872
ᏍᏚᏟᏍᏗ	-10.8721
▁ᏚᎷᎬ	-10.8723
ᎩᏳᏍᏈᏛ	-10.8723
▁ᏙᏓᎸᎢ	-10.8727
ha	-10.8732
▁ᎤᏄᏪ	-10.8737
▁ᏕᎨᏒ	-10.874
▁ᏕᎯᏁᎸ	-10.8745
▁ᏥᎩᎵᏲᎬ	-10.8757
▁ᎤᏚᎸᎲ	-10.876
▁ᎠᎾᎢᏒᎢ	-10.8761
ᏱᏆ	-10.8765
▁ᎠᎦᎵᏍᎪᎸᏓᏁᎸ	-10.8768
▁ᏁᏣ	-10.8771
ᏌᏛᏗ	-10.8771
▁ᏄᎳ	-10.8772
▁ᏗᏍᎩᎧᏁ	-10.8776
▁ᏅᎩᏃ	-10.8776
▁ᎤᏁᎳᏅ	-10.8776
ᎵᏍᏗᏍᎩ	-10.8779
▁ᏥᎳ	-10.8779
▁ᏗᏟ	-10.8785
▁ᎠᏣ	-10.8786
ᎧᎾ	-10.879
▁ᏂᎩ	-10.8792
▁ᏓᏓᏁᎸᎢ	-10.8792
▁ᏙᎤ	-10.8794
▁ᎤᎷᏨᎯ	-10.8801
▁ᎦᎳᎨᏴᎢ	-10.8805
▁ᏕᎦᏚᎲᎢ	-10.8805
ᏴᎮᎢ	-10.8805
▁ᏂᏣᏛᏁᎸᎢ	-10.8805
ᏌᏛᎥᏍᎩ	-10.8807
ᏫᏍᎩ	-10.8819
▁ᏓᏆᏙᎥᎢ	-10.882
▁ᎢᏥᏍᏆ	-10.8824
▁ᎤᏕᎸ	-10.8824
ᏬᎭ	-10.8827
ᏓᎴᎾᏍᏗ	-10.8828
▁ᎩᏓ	-10.8831
▁ᎡᏏ	-10.8832
▁ᎵᏍᏗ	-10.8832
▁ᎤᏓᏅᏖᎢ	-10.8832
▁ᎭᏗᏔ	-10.8835
▁ᎤᏃᏢᏅ	-10.8839
▁ᏂᏣᏍᏛ	-10.8843
▁ᎦᎸᏍᏗ	-10.8847
ᏂᏲᏏᏍᎩ	-10.885
▁ᎬᏩᏛᏛ	-10.8855
ᎵᏦᏩᏛ	-10.8858
ᎤᏣ	-10.8874
▁ᏔᎵᏍᎪ	-10.8881
▁ᏥᏂᎦ	-10.8884
ᏓᎾᏫᏛᎮ	-10.8884
ᏏᎳᏛ	-10.8889
▁ᎠᏍᎩ	-10.8894
▁ᎠᏂᏬᏂᏍᎬᎢ	-10.8894
▁ᎤᏕᎵ	-10.8896
ᏏᏂ	-10.89
▁ᎤᏓᎨᏳ	-10.8901
▁ᏏᏆᏏ	-10.8905
▁ᏃᎦ	-10.8906
▁ᏣᎬ	-10.8911
ᏙᎴ	-10.8932
▁ᎠᎵᏍᏓᏴᏗᏱ	-10.8934
▁ᏱᏣᏓᏅᏖ	-10.8937
▁ᏥᏫ	-10.8939
▁ᎠᎾᏛᎩᏍᎨ	-10.8941
▁ᎢᏆ	-10.8942
▁ᎤᏛᎦᏁᎢ	-10.8942
▁ᎠᏑ	-10.8948
ᏂᏍᏆᏂᎪ	-10.8951
ᎾᏄᎪᏫᏍᎨᏍᏗ	-10.8965
▁ᎦᏳ	-10.8965
▁ᎠᏏᎾ	-10.897
ᎵᎭ	-10.8971
ᎵᏱᎶᎯᏍᏗ	-10.8979
ᏛᏁᎲᎢ	-10.8989
▁ᏥᏰᎸ	-10.899
ᎯᏗᏳ	-10.8992
▁ᏇᎳ	-10.8992
▁ᏕᏗ	-10.8992
ᏏᏏ	-10.9001
▁ᏂᏚᏓᎴ	-10.9007
ᏙᎵᎩ	-10.9007
ᏰᎵᏉ	-10.9009
ᎩᏯ	-10.9013
▁ᏃᏉᏗ	-10.9015
▁ᏄᏅᏁ	-10.9017
▁ᎤᎶᏎ	-10.9021
ᎵᏍᎪᎸᏓᏏ	-10.9029
▁ᎨᏍ	-10.9031
ᏗᏅᏓ	-10.904
ᏯᎡᏍᏗ	-10.9045
ᏝᎡ	-10.9048
ᏓᏅᏖᏙᏗ	-10.9051
▁ᏚᏂᎸ	-10.9053
▁ᏱᏂᏣᏛᏁ	-10.9056
ᏯᏔᏬ	-10.9062
ᏅᏁᎮᏍᏗ	-10.9068
▁ᎢᏥᎷᏤᎸ	-10.9068
▁ᏳᏰᎸ	-10.907
ᏏᏔᏛ	-10.9071
▁ᎢᏍᏕ	-10.9076
▁ᎠᎾᏓᏙᎵᏍᏗᏍᎨ	-10.9079
ᎦᏍᎪ	-10.9092
ᏍᏗᎭ	-10.9098
ᏟᏂᎬᎬ	-10.9099
▁ᎠᏍᏆᏂᎪᏗᏍᎨ	-10.9133
▁ᎢᎸ	-10.9134
ᎰᎸ	-10.9147
▁ᎤᎩᏒ	-10.9152
▁ᎠᏆᏓ	-10.9156
▁ᏂᎬᏁᎮ	-10.916
▁ᎤᏭᏢ	-10.917
▁ᎤᏂᎬᏫᏳ	-10.9176
ᎷᏤ	-10.9181
▁ᏭᏍᏗ	-10.9192
ᏗᎦᏅᎯᏛ	-10.9194
▁ᏍᎩᏰᎸᏗ	-10.9203
▁ᏧᏲᎯᏎᏗ	-10.9206
▁ᏍᎩᏳ	-10.9226
▁ᎣᏍ	-10.9228
▁ᏣᎵᏍᎪᎸᏙᏗ	-10.9231
ᏰᎵᏎ	-10.9234
ᏛᏅᎩ	-10.9237
▁ᏧᏁᏤ	-10.9247
ᎵᏍᎦᏍᏙᏗ	-10.9271
ᎵᏍᏓᏏ	-10.9274
ᎾᏗ	-10.9276
▁ᎾᏥ	-10.9283
▁ᎢᎡ	-10.9284
▁ᎠᏁᎲᎩ	-10.9297
ᏅᏍᏓᏕᎸᎩ	-10.9304
ᏥᎾᏄᎪᏫᏏ	-10.9305
▁ᎠᏂᏤ	-10.9309
▁ᎤᏆ	-10.9312
▁ᎾᏛᏁᎰ	-10.9317
▁ᎡᏙ	-10.9327
ᏘᏃᎦ	-10.9328
ᏤᎴ	-10.9331
ᏁᏤᎸ	-10.9334
▁ᎤᏍᏆᎸᎯᏗ	-10.9336
▁ᏰᎵᎦ	-10.9345
▁ᎠᎪᎢ	-10.936
ᏚᏃᏴᎬ	-10.937
ᏓᏁᎸᎯ	-10.937
ᎸᏍᏗᏱ	-10.9375
ᎬᏓ	-10.9381
▁ᎢᏥᎭ	-10.9387
ᏒᎲᏍᏗ	-10.9394
▁ᎣᏤ	-10.9398
▁Ꮢ	-10.9403
▁ᎠᏫᏃ	-10.9406
▁ᎪᏢ	-10.9407
▁ᎠᏓᏲᏁ	-10.9408
ᏐᏁ	-10.9408
ᏐᏗ	-10.9416
▁ᎢᏗᎦ	-10.9419
ᎳᏗᏍᏗ	-10.9434
▁ᏣᏁᎩ	-10.9439
ᏂᎲ	-10.9441
▁ᏦᎢᎭ	-10.9451
▁ᎾᏯ	-10.9458
ᏲᎯᏎᏗᏱ	-10.946
ᏓᏎᎪᎩ	-10.9465
ᏓᏬᎯᎳ	-10.9468
ᏙᏂ	-10.9476
ᏩᏗᏒᎢ	-10.9487
▁ᎤᎵᏏᏅ	-10.9517
ᎩᎵ	-10.952
▁ᎤᎵᎢ	-10.9523
▁ᏆᎾ	-10.9529
ᏢᏅᎩ	-10.9536
ᎯᎮᏍᏗ	-10.9538
ᏍᏗᏍᎨ	-10.954
ᎪᎦ	-10.9542
▁ᏚᏓ	-10.9551
ᎨᎯᏓᏍᏗ	-10.9554
▁ᏫᏱ	-10.9557
ᎮᎾ	-10.9562
ᎪᎩ	-10.9562
ᎩᎨᏳᎯᏳ	-10.9568
ᏥᎦᏔᎲᎾ	-10.9568
ᏓᏁᏗᏱ	-10.9571
ᏍᏇᏚ	-10.9573
ᎲᏍᎨᎢ	-10.9574
▁ᏓᏌ	-10.9581
ᎾᏔ	-10.9591
ᏍᏕᎾ	-10.9599
▁ᎢᏲ	-10.96
ᎦᏕ	-10.9621
ᎾᏛᎦ	-10.9621
ᏤᏗ	-10.9627
▁ᎦᏘ	-10.9628
▁ᏙᏣ	-10.9632
ᏌᏕ	-10.9633
ᎵᏓᏍᏗᏱ	-10.9636
ᏴᏔᏁᎢ	-10.965
▁ᎯᏃ	-10.9651
▁ᎠᏂᏉ	-10.9662
▁ᎢᏥᏍᏆᏂᎪ	-10.9664
▁ᎤᏪᏅ	-10.9666
ᏥᎦᏔᎭ	-10.9666
ᎳᎩᏍᏗ	-10.9672
▁ᏰᏣ	-10.9679
▁ᏣᏓᏰ	-10.9683
▁ᏂᏚᏅ	-10.9695
▁ᏱᏣᏓ	-10.9707
ᏰᎸᏍᎬ	-10.9709
▁ᏓᎾᎵ	-10.9712
ᏦᎯ	-10.9717
ᏁᎰ	-10.9724
ᏌᏅ	-10.9726
ᎸᏅᎯ	-10.9727
ᏛᏁᎭ	-10.9733
▁ᎠᎾᏘ	-10.9742
ᎩᏏ	-10.9742
ᏅᏔ	-10.9743
ᏘᏅᏒᎩ	-10.9759
ᏤᎷᎯᏒ	-10.9766
▁ᎦᎶᏁᏛᏰᏃ	-10.9766
ᏡᎬ	-10.9772
▁ᎠᏏᏴᏫᏉ	-10.9774
▁ᏥᏕᏥ	-10.9793
ᎪᎳ	-10.9794
▁ᎬᎾᏬ	-10.9806
ᏰᏍᏗ	-10.9812
▁ᏱᏙᎩ	-10.9815
▁ᎤᏪᏯ	-10.9816
ᎵᏍᎪᎸᏙᏗᏱ	-10.9816
ᏛᏁ	-10.9816
▁ᏗᏍᏓ	-10.9824
ᏕᏅᎯ	-10.9829
ᏍᏗᏉ	-10.9833
ᎦᏬᏂᎯᏍᏗ	-10.984
ᏬᎢ	-10.9841
ᏅᏤᎢ	-10.9846
ᏛᏂᏏ	-10.9865
ᎦᏎᏍᏕᏍᏗ	-10.9873
ᏬᏣ	-10.9879
ᏑᏫᏓ	-10.9883
ᏍᏆᏂᎩᏗ	-10.9885
ᏎᎮᏍᏗ	-10.9891
▁ᏚᏂᏍᏚ	-10.9893
▁ᎠᏚᎢᏍ	-10.9897
▁ᏂᎦᏪ	-10.9898
▁ᏓᏥᏲ	-10.991
ᏂᏴᏛ	-10.9914
ᏁᎳᎩ	-10.9918
▁ᏥᏅ	-10.9925
ᎧᏯ	-10.9928
ᏕᎰ	-10.9932
ᏤᎦᏈᏃ	-10.9932
ᎪᏩᏘᏍᎬᎾ	-10.9933
ᏓᎾ	-10.9936
▁ᎠᏂᏧᏏᏃ	-10.994
▁ᏳᏓ	-10.9943
▁ᎠᎵᏥᏙ	-10.9944
ᎻᏂ	-10.9947
▁ᎤᏰᎸ	-10.9951
▁ᎩᏂ	-10.9958
ᏥᏁᏤᎸ	-10.9961
ᏯᏙ	-10.9973
ᏄᎪ	-10.9982
▁ᎤᏩᏗ	-10.9989
▁ᎦᎵᏦ	-10.9994
▁ᏂᏯ	-10.9995
▁ᏥᏍ	-10.9998
ᏙᎭ	-11.0003
ᏍᎦᎳᏁᎸ	-11.0003
ᎪᏎᎭ	-11.0014
ᎦᏅᏓᏗᏍᏙᏗ	-11.0017
▁ᏘᏅ	-11.0023
ᏞᎢ	-11.003
▁ᎠᎦᏓ	-11.0033
▁ᎦᎶᏗ	-11.0044
ᏛᏁᎯ	-11.0055
ᏯᏅᏗ	-11.0073
ᎵᏍᏕᎵᏍᎬ	-11.0075
▁ᏱᏂᎪ	-11.0077
ᏰᎢ	-11.009
▁ᏧᏂᏅ	-11.0096
▁ᏣᎫ	-11.0096
ᏍᏔᎾ	-11.0098
▁ᏓᏛ	-11.0106
▁ᎠᎩᏁ	-11.0106
▁ᎤᏓᏁ	-11.0118
ᎦᏔᏁᎢ	-11.0131
ᏂᎯ	-11.0134
▁ᎢᏣᏓᏅᏖ	-11.0136
ᏟᏐᏗᏱ	-11.0153
ᏕᏘᏱ	-11.0156
▁ᏂᎤ	-11.0167
ᏲᏍᎬ	-11.0169
ᏖᎢ	-11.0173
▁ᏚᏂᏁ	-11.0181
ᎦᏔᎮᏍᏗ	-11.0182
▁ᎢᏥᏍᎦᎾ	-11.0193
ᏁᏤᏗᏱ	-11.0195
▁ᎤᏅᏤ	-11.0196
ᏘᏄᎦ	-11.0196
▁ᎢᏗᏣ	-11.0198
ᎪᏕᏍᏗ	-11.02
ᏎᎮ	-11.0203
ᎪᎾᏛ	-11.0204
▁ᎠᏂᏍᎦᎢᎮ	-11.0205
ᏣᏛ	-11.0205
ᎵᎰ	-11.0214
▁ᎠᏎᎵ	-11.0218
▁ᎤᏂᏩ	-11.0221
▁ᏂᏚᏩ	-11.0229
▁ᎠᏂᏍᎦ	-11.0246
▁ᎠᏥᎸᏳ	-11.0248
ᎬᏩᎶᏓᏁ	-11.0252
ᏁᏤᎲ	-11.0253
ᎾᏄᎪᏫᏍᏗᏱ	-11.0256
▁ᎠᏲᎱ	-11.0265
ᏔᏲᏎᎭ	-11.0266
▁ᎤᏄ	-11.0268
▁ᏛᏆ	-11.0271
▁ᏧᏲ	-11.0274
ᏴᏛ	-11.0275
ᏚᎯ	-11.0278
▁ᎦᏬᏂ	-11.0279
▁ᎯᏥ	-11.0281
ᏅᏓᏛ	-11.0282
ᏇᏅᎯ	-11.0283
▁ᏗᏂᏅ	-11.0293
ᏄᏬᏍᏗ	-11.0297
ᎦᏄᎪᏫᏍᎦ	-11.0299
▁ᎤᏲᎢᏍᏗ	-11.0304
▁ᏕᏍ	-11.0306
ᎷᏥ	-11.0314
▁ᏙᎩᏂ	-11.0316
▁ᎤᏪᎵ	-11.0322
ᏁᎾ	-11.0322
ᏛᏗᏍᎩ	-11.0324
▁ᎤᏁᏙᎸ	-11.033
▁ᎠᏚᏓᎴᏍᏗ	-11.0336
▁ᎤᎾᏣᎢ	-11.0341
▁ᏤᏈᏛ	-11.0343
▁ᏗᎧᏃᎩ	-11.0343
ᏂᎵ	-11.0348
▁ᏫᏂ	-11.0349
▁ᏱᎬᎩ	-11.0355
▁ᏣᏤᏍᏙ	-11.0356
ᎨᎾ	-11.0359
▁ᏙᏓᎧ	-11.0371
ᏯᏗ	-11.0373
ᎬᎭ	-11.0373
▁ᏦᎩᏂ	-11.0377
▁ᎦᏬᏂᏍᎨ	-11.0386
ᏍᏆᎳ	-11.039
▁ᎤᏂᏰᎸᏎ	-11.0396
▁ᏥᏨ	-11.0398
ᏓᏍᏗᏱ	-11.0405
▁ᏫᏚᎧᎾᏁ	-11.0409
▁ᎦᏍᎩᏓᏍᎬ	-11.0409
▁ᎠᏥᏃᏁᎴ	-11.041
▁ᏙᎩᎸᏫᏍᏓᏁᎲ	-11.0411
▁ᎢᏛᏗᏍᎬ	-11.0414
▁ᎠᎾᏛᎩᏍᎬ	-11.0415
▁ᎠᎾᎵᎮᎵᎬ	-11.0416
▁ᏗᎩᏲ	-11.0419
▁ᎤᏃᎯᏳᏒ	-11.042
▁ᏕᎤᎷᎬ	-11.0421
▁ᏂᏓᏕᏘᏴᎯᏒ	-11.0422
▁ᎠᏂᎩᎵᏲᎬ	-11.0422
ᎾᏰᎯᏍᏗ	-11.0423
ᏟᏏᏍᎪ	-11.0423
ᎢᏏᎵ	-11.0423
ᎡᏝᏪᎯ	-11.0423
▁ᎤᏒᏂᎴ	-11.0427
▁ᏗᎾᏓᎪᎾᏗᏍᎬ	-11.0427
ᎠᎳᏂ	-11.0428
▁ᎯᏁᎬ	-11.0428
▁ᎠᏂᎧᎸ	-11.0428
▁ᎤᏃᎯᏳᏅ	-11.043
ᎠᏍᎦᏯ	-11.043
▁ᎤᏁᎷᏁ	-11.043
ᎾᏄᎪᏫᏎ	-11.0431
▁ᎠᎩᏍᏛᏗᏍᎬ	-11.0431
ᏴᏔᏂᎸ	-11.0433
▁ᎠᎬᏗᏍᎬ	-11.0433
▁ᎠᎾᏕᎲᏍᎬ	-11.0433
▁ᏦᎢᏉ	-11.0434
▁ᎤᏓᏙᎵᏍᏔᏅ	-11.0436
▁ᎤᏍᏗᏰᏔᏁ	-11.0436
▁ᎤᎾᏓᏙᎵᏍᏔᏅ	-11.0441
ᏆᎴ	-11.0441
▁ᎾᏆᎵᏍᏔᏅ	-11.0443
ᏄᏕᏘᏴᎲ	-11.0445
▁ᎪᏙ	-11.0446
▁ᎦᏓᏙᎵᏍᏗᏍᎬ	-11.0448
▁ᎤᏦᎯ	-11.0452
▁ᎠᏇᏅᏒ	-11.0453
▁ᎤᏂᏰᎸᏅ	-11.0455
▁ᏭᏂᎶᏒ	-11.0455
▁ᎤᏪᎧᏅ	-11.0456
▁ᏥᏃᎮᏍᎬ	-11.0458
▁ᏅᏓᎦᎵᏍᏙᏗᏍᎬ	-11.0458
▁ᎠᎾᏓᎪᎾᏗᏍᎬ	-11.046
▁ᎢᏗᏂ	-11.046
ᏈᎳ	-11.0461
▁ᏗᎦᏁᎸ	-11.0462
▁ᏧᎶᏒ	-11.0463
▁ᎠᏉᏪᎳᏅ	-11.0463
▁ᏨᏌ	-11.0465
▁ᏅᏗᎦᎵᏍᏙ	-11.0466
ᏓᏍᏕᎸᏗ	-11.0467
▁ᏧᏓᎴᏁ	-11.0468
ᎠᏁᎯ	-11.0468
▁ᏭᏓᎪᎾᏛ	-11.0469
▁ᎢᏯᏅᏁ	-11.047
▁ᏚᎪ	-11.0471
▁ᎤᏙᎯᏳᏁ	-11.0474
▁ᏧᎾᏛᏐᏅ	-11.0474
▁ᎢᏓᎵᎮᎵ	-11.0475
▁ᏗᎩᎾᏫ	-11.0476
▁ᎢᏳᎵᏍᏔᏂᏓᏍᏗ	-11.0479
ᎸᏙᏗ	-11.0479
ᏁᎵᏍᎬᎾ	-11.0479
ᏎᎪᎩᏍᏗ	-11.0479
▁ᏗᎪᏪᎳᏅ	-11.0481
ᏲᎯᎲ	-11.0481
▁ᎨᏥᏛᏙᏗ	-11.0481
ᏥᎾᏝᎥᎾ	-11.0481
▁ᏓᎦᏥᏯ	-11.0482
▁ᏕᏣᏓᏂᎸᏨ	-11.0483
▁ᏭᏂᎶᎯᏍᏗ	-11.0483
▁ᏂᎦᎵᏍᏔᏅ	-11.0483
▁ᏗᏥᎧᎿᏩᏛᏍᏗ	-11.0484
▁ᏗᏍᏆᏂᎪᏙᏗ	-11.0485
▁ᏣᏍᏆᏂᎪᏙᏗ	-11.0488
▁ᏭᎶᎯᏍᏗ	-11.0491
▁ᏗᎦᎵᏦ	-11.0492
▁ᎢᏳᏟᎶ	-11.0494
▁ᎠᏁᎵ	-11.0495
▁ᎤᏂᏃᎮᏗ	-11.0495
▁ᎤᎵᏂᎩᏗ	-11.0496
▁ᏩᎾᎢ	-11.0497
▁ᏗᏣᎸᏫᏍᏓᏁᏗ	-11.0497
▁ᏩᏥᎳ	-11.0498
ᏠᎾᏍᏛᎾ	-11.0499
▁ᎪᎵᎬ	-11.0499
▁ᎨᏨ	-11.05
ᎰᏢᏅᎭ	-11.05
ᏁᏔᏁ	-11.0501
es	-11.0501
ᏥᏁᎸᎯ	-11.0501
▁ᎤᏂᎸ	-11.0502
ᏦᎢ	-11.0502
dinot	-11.0505
▁ᎠᎰᎵᏆᎹ	-11.0505
▁ᎤᎧᏖᏃᎴ	-11.0505
▁ᎤᎬᏩᎳ	-11.0505
▁ᎱᏁᏅᏎ	-11.0505
▁ᎾᎵᏍᏓᏴᎲᏍᎬᎾ	-11.0505
▁ᏂᏥᎪᎸᎾ	-11.0505
▁ᏂᏥᏪᎠ	-11.0505
▁ᏕᏏᎶᏂᎦ	-11.0505
▁ᏗᎦᏃᏣᏝᏍᎩ	-11.0505
▁ᏗᎦᏌᏆᎸ	-11.0505
▁ᏧᎾᏍᏕᏥ	-11.0505
▁ᏧᏂᎳᎾᎢ	-11.0505
▁ᏬᎩᎶᏒᎩ	-11.0505
▁ᏭᎩᏨᏅ	-11.0505
▁ᏱᏕᏍᎬᏏ	-11.0505
▁ᎠᏳᎾᎦ	-11.0505
▁ᎤᏔᎳᏬᏎᎢ	-11.0505
▁ᏧᏩᏗᏔᏯ	-11.0505
▁ᏱᏅᏎᎦᎩ	-11.0505
▁ᎤᏓᏥᎾᏍ	-11.0505
▁ᎤᏔᎴᎦᏒ	-11.0505
▁ᎤᏩᏯᎨᎢ	-11.0505
▁ᏂᏣᏛᎿᏕᎨᏍᏗ	-11.0505
▁ᎤᏕᏯᏔᏁᎴ	-11.0505
▁ᏄᎾᏓᏅᏛᎾ	-11.0505
▁ᏗᎦᏩᏒᎩ	-11.0505
▁ᎤᏓᏩᏗᏍᏙᏛ	-11.0505
▁ᎾᏅᏛᏁᎰ	-11.0505
▁ᏅᏧᎵᏍᏙᏔᏁ	-11.0505
▁ᏍᎩᏁᎲᏏ	-11.0505
▁ᎠᎩᏍᏓᏩᏕᎨᏍᏗ	-11.0505
▁ᎠᎵᏰᎢᎶᎸᎭ	-11.0505
▁ᎢᏣᏛᏅᎢᏍᏙᎢ	-11.0505
▁ᎣᏍᏓᏓᏤᎵ	-11.0505
▁ᎤᏁᎳᏫᏎᎸ	-11.0505
▁ᎨᎢᎾᏂ	-11.0505
▁ᏗᏔᎳᏗᏍᏗᏱ	-11.0505
▁ᏥᏂᏥᏪᎭ	-11.0505
▁ᏗᏠᏍᎩ	-11.0505
▁ᎠᏓᏪᎵᎩᏍᎩ	-11.0505
▁ᏄᎾᏛᎾᏕᎬ	-11.0505
▁ᏫᏂᏨᎦ	-11.0505
▁ᎤᎬᏩᎴ	-11.0505
▁ᎤᏍᏔᏩᏛ	-11.0505
▁ᏙᏓᎫᎪᏓᏁᎵ	-11.0505
▁ᏅᏓᏣᏓᎴᏅᎯ	-11.0505
▁ᏗᎫᎪᏓᏁᎯ	-11.0505
▁ᏂᎪᎯᏳᎲᏍᎬᎾ	-11.0505
▁ᎢᎦᏪᏍᎩ	-11.0505
▁ᎥᎨᏒᎩ	-11.0505
ᏁᏉᏣᏖᏍᏗ	-11.0505
▁ᎢᎬᏩᎾᏛᏁᏗ	-11.0505
▁ᎤᎬᏩᎸ	-11.0505
▁ᎤᎵᏘᎾᎥ	-11.0505
▁ᏥᏕᏣᎪᎲᎩ	-11.0505
▁ᏅᏓᏥᏴᏁᎵ	-11.0505
▁ᏴᎦᏥᏛᏓ	-11.0505
▁ᏂᎬᏠᏍᎬᎾ	-11.0505
▁ᎠᎵᏛᏓ	-11.0505
▁ᎠᎨᏲᏅ	-11.0505
▁ᏣᏃᎮᎸᎩ	-11.0505
▁ᏍᎨᏫ	-11.0505
▁ᏱᏂᎦᏛᏁᎭ	-11.0505
▁ᏗᎪᏏᏏᏍᎩ	-11.0505
▁ᏤᎿᎠ	-11.0505
▁ᎥᏓᎷᎶᏗ	-11.0505
▁ᏕᎭᏓᏅᎡᎮᏍᏗ	-11.0505
▁ᏧᎾᎴᏐᏛ	-11.0505
▁ᏗᏂᎧᎿᏩᏕᎩ	-11.0505
▁ᏥᏨᏰᎳᏗᏙᎲᎩ	-11.0505
▁ᎤᏩᏃᏪ	-11.0506
▁ᏥᏚᎸᏫᏍᏓᏁᎭ	-11.0506
▁ᏕᎪᏢᏎᏍᏗ	-11.0506
▁ᏚᏜᏅᏛ	-11.0506
▁ᏂᏕᎤᏍᏕᏍᏗ	-11.0506
▁ᏔᏘᏂᏙᎯ	-11.0506
▁ᏅᏓᎬᏯᏛᏁᎵ	-11.0506
▁ᎤᎾᏗᎦᎴᏲᏨᎯ	-11.0506
▁ᏄᏍᎦᏅᏨᎾ	-11.0506
▁ᏂᎩᏴᏁᎸ	-11.0506
▁ᏕᎯᏁᏤᎮᏍᏗ	-11.0506
▁ᎰᏌᎾ	-11.0506
▁ᎤᎾᎵᏍᏔᏴᏗ	-11.0506
▁ᏂᎨᎵᏍᎬ	-11.0506
▁ᏗᎾᏂᏏᎲᏍᎩ	-11.0506
▁ᏗᏣᏓᎵᎢ	-11.0506
▁ᎠᎾᏛᏁᎵᏍᎩ	-11.0506
▁ᏕᏥᏙᎨᏍᏗ	-11.0506
▁ᏍᎩᏲᎮᏍᏗ	-11.0506
▁ᏗᏥᏲᎱᏒᎯ	-11.0506
▁ᎤᏄᏬᏍᏕᏍᏗ	-11.0506
▁ᏂᏪᏍᎬᎢ	-11.0506
ᏤᏬᎩ	-11.0506
ans	-11.0506
▁ᏂᏑᏪᏎᎴᎢ	-11.0506
ᎵᏍᎪᎸᏗᏍᎨᏍᏗ	-11.0506
▁ᏅᏓᏨᏁᎵ	-11.0506
▁ᏱᏄᏪᏒ	-11.0506
▁ᏗᏂᏲᎤᎵ	-11.0506
▁ᎤᏂᎾᏰᏎᎢ	-11.0506
▁ᎢᏣᎦᏌᏯᏍᏓ	-11.0506
▁ᏧᏯᏍᎦ	-11.0506
▁ᎤᏩᎾᏕ	-11.0506
▁ᎠᎩᏍᎦᏅᏥᏙᎸᎢ	-11.0507
▁ᎠᎾᏁᎸᏗᏍᎬ	-11.0507
▁ᎢᏳᏩᎦᏘ	-11.0507
▁ᏚᏌᎯᎸ	-11.0507
▁ᏂᏥᏍᎦᎢᎲᎾ	-11.0507
▁ᏚᏓᏂᎸᏨ	-11.0507
▁ᏧᎾᏘᏂᏙᎯ	-11.0507
▁ᏗᏣᏘᏂᏙᎯ	-11.0507
▁ᏂᎦᏪᏍᎪᎢ	-11.0507
▁ᎤᏁᎾᎢ	-11.0507
ᏙᎴᏇ	-11.0507
ay	-11.0507
▁ᎤᏃᏢᏔᏅᎩ	-11.0507
▁ᎨᎵᏌᏕ	-11.0507
▁ᎬᏩᎾᎦᏌᏯᏍᏗᏕᎩ	-11.0507
▁ᎨᎦᎫᏴᏓᏁᏗ	-11.0507
▁ᏚᏆᏛ	-11.0507
▁ᏙᏛᏛᏔᏂ	-11.0507
▁ᏗᎾᏓᎾᏌᎲᏍᎩ	-11.0507
▁ᎤᏛᏒ	-11.0507
▁ᎭᏓᏅᏓᏓ	-11.0507
▁ᏗᏕᏲᎲᏍᎩ	-11.0507
▁ᏧᏔᎾᎶ	-11.0507
▁ᏲᏥᎦᏔᎭ	-11.0508
▁ᎢᏨᏰᎳᏗᏙᎭ	-11.0508
▁ᏧᎳᏏᏕᏅ	-11.0508
▁ᎢᏣᏓᏅᏟ	-11.0508
▁ᎦᏙᎴᎣᏍ	-11.0508
▁ᎠᏂᎶᎻ	-11.0508
▁ᏂᎦᏚᏏᏁ	-11.0508
▁ᎤᏗᏌᏓᏛ	-11.0508
▁ᎠᎵᏍᎦᏁᏛ	-11.0508
▁ᎡᎭᎦᏔ	-11.0508
▁ᏳᏓᏬᎠ	-11.0508
▁ᎠᏂᏬᏂᏍᎩ	-11.0508
▁ᏂᏤᎲᎾ	-11.0508
▁ᎨᏥᏍᎦᎩ	-11.0508
ᎸᏂᏗᏍᎩ	-11.0508
▁ᎠᎩᏬᏂᎯᏍᏗᏱ	-11.0508
▁ᎾᏅᏁᎲ	-11.0508
▁ᎨᎦᎵᏍᎪᎸᏓᏁᎸᎯ	-11.0508
▁ᏩᎵᏰᎢᎶᎯᎭ	-11.0509
▁ᎠᏛᏂᏗᏍᏙᏗ	-11.0509
▁ᎢᏥᎪᏩᏘᏍᎨᏍᏗ	-11.0509
▁ᏣᏂᎧᎳ	-11.0509
▁ᏭᏓᏐᎴ	-11.0509
▁ᏓᎩᎸᏫᏍᏓᏁᎸ	-11.0509
▁ᏂᎦᎾᏰᏍᎬᎾ	-11.0509
▁ᎢᏣᏤᎵᎪᎯ	-11.0509
▁ᎢᏰᏨᏁᎸᎯ	-11.0509
▁ᎡᏣᏅᏏᏓᏍᏗ	-11.0509
▁ᎤᏓᏴᏛ	-11.0509
▁ᏧᏚᎪᏔᏅ	-11.0509
▁ᏓᏥᏍᏓᏱᏕᎵ	-11.0509
▁ᏤᏌᏂ	-11.0509
▁ᎤᏮᏙᏗᏱ	-11.051
▁Ꮰ	-11.051
▁ᎣᎾᏂ	-11.051
▁ᏂᏣᏓᏅᏛᎾ	-11.051
▁ᎤᎾᎵᏏᎾᎯᏍᏗ	-11.051
▁ᎬᎩᏁᏉᏤᏗᏱ	-11.051
▁ᏚᏕᏘᏴᏌᏗᏒ	-11.051
▁ᏂᏍᎦᏅᎾ	-11.051
▁ᏂᏣᏛᏁᎭ	-11.051
ᏓᏬᏅᏛ	-11.051
▁ᏓᎾᏤᎸ	-11.051
▁ᏣᏃᏍᎩᏒᎩ	-11.051
▁ᏯᏆᏚᎵᏍᎨ	-11.051
▁ᎤᏬᏯᏁᏒ	-11.051
▁ᏕᎬᏆ	-11.051
▁ᏗᎧᎿᏩᏕᎩ	-11.051
▁ᎠᎪᏎ	-11.051
▁ᎣᏩᏒ	-11.0511
▁ᎠᏇᏲᏅ	-11.0511
▁ᎤᏯᏖᎾ	-11.0511
▁ᎤᏔᏂᏗᎨ	-11.0511
▁ᏭᎪᎮ	-11.0511
▁ᎠᎩᏍᏕᎵᏍᎩ	-11.0511
▁ᏗᎩᏲᎯᏍᏗᏱ	-11.0511
▁ᏗᏂᎴᏂ	-11.0511
▁ᎤᏂᎬᎥᏍᎬ	-11.0511
▁ᏣᏓᏴᎳᏔᏍ	-11.0511
▁ᏭᏂᎷᏣ	-11.0511
▁ᎹᏓ	-11.0512
▁ᎠᎱᎵ	-11.0512
▁ᏧᏂᏴᏍᏕᏍᎩ	-11.0512
▁ᎢᏥᏩᏛᏗᏱ	-11.0512
▁ᏕᎤᏙᏍᏛ	-11.0512
▁ᎤᎾᏕᏘᏱ	-11.0512
▁ᎬᏩᏃᎮᏍᎩ	-11.0512
▁ᏙᏓᏰ	-11.0512
▁ᎡᏥᎾᏰᏍᎨᏍᏗ	-11.0512
▁ᏣᎢᏎᏍᏗ	-11.0512
▁ᎡᏤᎾ	-11.0512
▁ᏛᏓᎴᎲᏍᎬᎩ	-11.0512
▁ᎤᏂᏃᏁᏗᏱ	-11.0513
▁ᏁᎳᏚ	-11.0513
▁ᏚᎿᏍᏕᏢ	-11.0513
▁ᏱᏙᎨᏥ	-11.0513
▁ᏗᎦᏟᏓ	-11.0513
▁ᏚᏅᏍᏓᏕᎴ	-11.0513
▁ᏗᏣᎦᏴᎵᎨ	-11.0513
▁ᎠᎩᏃᎮᏍᎩ	-11.0513
▁ᏫᏥᎦᏘ	-11.0513
▁ᏗᏆᎵᎢ	-11.0513
ᏨᏁᏗ	-11.0513
▁ᎠᎾᏛᎬᎦ	-11.0514
ᎦᏘᎴᏅ	-11.0514
▁ᎤᏍᏗᎩᏳ	-11.0514
▁ᎪᏢᏍᎩ	-11.0514
▁ᎢᏏᎦ	-11.0514
▁ᏍᎩᏅᏏᏓᏍᏗ	-11.0514
▁ᏗᏲᏍᏙᏗ	-11.0514
ᎾᏌᎾᎩ	-11.0514
▁ᏏᏐᎢ	-11.0514
▁ᏥᏄᎵᏍᏔᏅ	-11.0514
ᏂᎬᎬ	-11.0515
▁ᎢᏥᎷᎩ	-11.0515
▁ᎢᏨᏃᏁᎭ	-11.0515
▁ᏗᎧᏃᎨᏂ	-11.0515
▁ᎡᎿᎢ	-11.0515
▁ᏣᏃᏎᎰᎢ	-11.0515
▁ᎦᏟᎲ	-11.0515
▁ᏭᏴᎮ	-11.0515
▁ᎪᏱᏅᏍᏗ	-11.0515
▁ᎡᏥᏍᏕᎸᏗᏱ	-11.0516
▁ᎢᏥᎦᏔᎲ	-11.0516
▁ᏲᏨᏗᏍᎨ	-11.0516
▁ᎢᏥᎬᏫᏳᎯ	-11.0516
ᏍᏓᏩᏛᏍᏗᏱ	-11.0516
▁ᎠᎵᏥᏙᎲᏍᎬ	-11.0516
▁ᎤᏂᏂᏴᏗᏱ	-11.0516
▁ᎠᏥᎸᎨᎳᏍᏗ	-11.0516
▁ᏂᎦᎡᏍᏗ	-11.0517
▁ᏂᏨᏴᏁᎭ	-11.0517
▁ᏗᏨᏲᎯᏎᏗᏱ	-11.0517
▁ᎤᏛᏓᏍᏓᏁᎴ	-11.0517
▁ᏓᎪᏄᎸ	-11.0517
▁ᎡᏚᏥ	-11.0517
▁ᎤᎾᏙᎴᎰᎯᏍᏗᏱ	-11.0517
▁ᎬᏁᏤᎭ	-11.0517
▁ᎠᏂᎦᏲᎵᏳ	-11.0517
▁ᏧᏬᎳ	-11.0517
▁ᎠᎩᏰᎸᎰ	-11.0517
▁ᏗᏑᏱ	-11.0518
ᎵᏛᏓᏁ	-11.0518
▁ᎤᏛᎪᏗ	-11.0518
▁ᏚᎵᏍᏚᎢᏎᎢ	-11.0518
▁ᎢᏥᎦᏴᎵᎨ	-11.0518
▁ᎦᏓᎷᎪᏗ	-11.0518
▁ᎬᎥᏏ	-11.0519
▁ᏚᎸᏫᏍᏓᏁᎮᏍᏗ	-11.0519
▁ᎤᎵᏖᎸᏅᎩ	-11.0519
▁ᏓᏦᎯᏍᏛ	-11.0519
▁ᎬᏩᏔᏲᏎᎸᎩ	-11.052
▁ᎠᏴᏓᏆᎶᏍᎩ	-11.052
▁ᏚᏘᏅᏒᎩ	-11.052
▁ᏍᎩᎷᏥᏏ	-11.0521
▁ᏭᏅᏥᎴ	-11.0521
▁ᏧᏕᏲᏅᎯ	-11.0521
▁ᎡᏣᎫᏴᎡᏗ	-11.0521
▁ᏗᏙᎴᏆᏍᏗ	-11.0521
▁ᏗᏣᏄᏬ	-11.0521
▁ᎦᎶᏐᏅᎭ	-11.0521
▁ᏍᏋ	-11.0522
▁ᎤᎾᏤ	-11.0522
▁ᎠᎾᏗᏍᎪ	-11.0522
▁ᏣᎾᎥᎢ	-11.0522
▁ᏂᎦᏥᏴᏁᎸᎭ	-11.0522
▁ᏓᎬᎩᎵ	-11.0522
▁ᎢᏥᎪᏩᏘᎭ	-11.0522
▁ᎣᏓᎵ	-11.0522
▁ᏗᎵᏒᏍᏗ	-11.0523
▁ᏭᏃᏁᎸᎩ	-11.0523
▁ᏧᎪᎸ	-11.0523
▁ᏍᎩᎥᏏ	-11.0524
▁ᏗᎦᏘᎴᎩ	-11.0524
▁ᏥᏂᎦᎵᏍᏗᎭ	-11.0524
▁ᏩᏍᏘ	-11.0524
▁ᏗᎦᎳᏫᎩ	-11.0525
▁ᏫᎨᏥᏯᏅᏛ	-11.0525
ᏰᎸᏍᎦ	-11.0525
▁ᏗᏂᏢᏗᏱ	-11.0525
▁ᏧᏂᏲᎱᎯᏍᏗᏱ	-11.0525
▁ᏅᎩᏦᏁ	-11.0526
▁ᎯᎰᎵ	-11.0526
▁ᏂᎨᏳᏎᏍᏗ	-11.0526
▁ᎠᏂᏍᏓᏩᏕᎩ	-11.0526
▁ᏅᎦ	-11.0526
▁ᎤᎾᎵᏃᎮᎴ	-11.0526
▁ᎦᏂᎳ	-11.0526
▁ᎠᏛᎩᏍᎨᏍᏗ	-11.0527
▁ᎾᏂᏪᏍᎨᏍᏗ	-11.0527
▁ᎤᎾᏓᏓᏍᎩ	-11.0527
▁ᎦᎸᏉᏗᏍᎨ	-11.0527
ᏨᎭ	-11.0528
▁ᎨᏥᏯᏅᏛ	-11.0528
ᏃᎯᏎᎲ	-11.0528
▁ᎤᎵᏃᎮᏔᏅᎢ	-11.0528
▁ᎠᎾᏓᏙᎵᏍᏗᏍᎬ	-11.0528
▁ᏕᎦᏅᏌᏛ	-11.0529
▁ᎢᏥᏔᏲ	-11.0529
▁ᏄᎾᎵᏍᏔᏅ	-11.053
▁ᎠᎩᏠᏫᏍ	-11.053
▁ᏥᏤᎭ	-11.0531
▁ᎤᏂᎨᏳᎯ	-11.0531
▁ᏗᏆᏓᏅᏛ	-11.0531
▁ᎡᏦᎢᏳᏒ	-11.0531
▁ᎠᏓᏙᎵᏍᏓᏁᎯ	-11.0531
▁ᎤᎧᎵᏨ	-11.0532
▁ᏄᎵᏂᎬᎬ	-11.0532
▁ᏄᎾᏓᎴ	-11.0533
▁ᎢᎨᏎᎢ	-11.0533
▁ᏫᏚᏂᏯᏅᎲ	-11.0534
ᏓᎸᏛ	-11.0534
▁ᎤᏍᏓᏲᏒ	-11.0535
▁ᏓᏰᏏ	-11.0535
ᏢᏔᏂ	-11.0535
▁ᎠᏩᎾᎦᎳᎯᏳ	-11.0536
▁ᎤᎾᏓᏅᏒᎩ	-11.0537
▁ᎾᏅᏁᎭ	-11.0537
▁ᎢᏥᎷᏤᏗᏱ	-11.0537
▁ᏰᎵᎦᏯ	-11.0537
▁ᏄᏩᏂᏌᏅ	-11.0538
ᏒᎾᏔᏅ	-11.0538
▁ᏣᏰᎯ	-11.0539
▁ᏕᎾᏓᎪᎲᏳ	-11.0539
▁ᏭᏂᏴᎸᎩ	-11.0539
▁ᎯᏍᎩᏍᎪᎯ	-11.054
▁ᏗᎦᏚᎲᏍᎩ	-11.054
▁ᎠᎪᏩᏘᏍᎬ	-11.054
▁ᎠᏂᎷᎩ	-11.054
▁ᎤᏕᎰᎯᏍᏗᏳ	-11.0541
▁ᎢᏯᏅᏁᎯ	-11.0541
▁ᏣᏓᏅᏖᏍᏗ	-11.0542
▁ᎾᎦᎸᎳᏗ	-11.0542
▁ᎯᎷᎦ	-11.0542
▁ᏯᏃᏉ	-11.0543
ᎷᎬ	-11.0543
▁ᏥᏍᎦᏅᏤᎸ	-11.0544
▁ᎤᏁᏙᎸᎯ	-11.0544
▁ᏣᏚᎵᏍᎪ	-11.0544
▁ᎦᏓᎥ	-11.0545
▁ᎬᏩᎪᎮᎢ	-11.0545
▁ᎿᏛᏁᎲ	-11.0545
ᏚᎸᏅᎥᏍᎬ	-11.0545
▁ᎤᏍᏉᎵᏱ	-11.0545
ᎹᏂ	-11.0545
▁ᎤᏓᏔᏅ	-11.0547
▁ᎤᏓᏅᏍᏗᏱ	-11.0547
▁ᎡᏈ	-11.0547
▁ᎣᏤᎯ	-11.0548
▁ᏚᎾᎴᏅᎩ	-11.0548
ᏅᏓᏛᎩ	-11.0548
▁ᎠᎦᏛᏅᎯ	-11.055
ᎣᏏᏉ	-11.055
▁ᏕᏣᎸᏫᏍᏓᏁᎲᎢ	-11.055
▁ᏓᎩᏏᎳᏛᎢ	-11.055
▁ᏚᏬᏢᏁᎢ	-11.055
▁ᏧᏑᏰᏛ	-11.055
▁ᎤᎾᎵᏎᎢ	-11.0551
▁ᏗᎬᏔᏅᎯ	-11.0551
▁ᎢᎦᎵᏍᏕᎸᏙᏗ	-11.0552
ᏁᏅᏍᏗᏱ	-11.0552
ᏂᏃᏁᎴ	-11.0552
▁ᎤᎳᏏᏕᏂ	-11.0553
▁ᎪᎵᏍᏗᏱ	-11.0553
▁ᎢᎨᏨᏁᏗ	-11.0554
▁ᏚᏂᎧᏁᎢ	-11.0554
▁ᎾᏆᏍᏗ	-11.0554
▁ᎠᏇᎷᏅ	-11.0558
▁ᎠᏯᏫᏍᎩ	-11.0558
▁ᏚᏪᎧᎲ	-11.0559
▁ᏓᏰᏂ	-11.0559
▁ᎤᏂᎦᎸ	-11.0559
▁ᎠᏂᏍᏆᏂᎪᏗᏍᎩ	-11.0561
▁ᎤᎸᏁᎢ	-11.0561
▁ᏧᏁᎶᏗ	-11.0561
▁ᎠᏇᏅᏒᎩ	-11.0561
▁ᏦᏍᏛ	-11.0562
▁ᏦᎴᏍᏗ	-11.0562
▁ᏴᎨᏨ	-11.0562
▁ᏂᏚᏂᏪᏎᎴᎢ	-11.0562
▁ᎤᏂᏰᎸᎭ	-11.0563
ᎿᎷᏒ	-11.0564
ᎦᏁᎳᏅᎯ	-11.0565
▁ᎤᏓᏅᏍᏗ	-11.0565
▁ᏪᎯ	-11.0566
▁ᏱᏍᏆ	-11.0566
▁ᎤᎵᏍᏙᏔᏅ	-11.0567
▁ᏕᎤᎸᏫᏍᏓᏁᎲᎢ	-11.0568
▁ᎲᏅᎢ	-11.0569
▁ᏓᎾᎵᏍᏓᏴᎲᏍᎬᎢ	-11.0569
▁ᏄᎵᏍᏓᏁᎸᎢ	-11.0569
▁ᏓᏘᏁᎲᎢ	-11.0569
▁ᏚᏂᎸᏫᏍᏓᏁᎮ	-11.0569
ᎧᎵᎢᏍᏗᏱ	-11.0569
▁ᎠᏓᎴᏒᎢ	-11.057
▁ᎤᎫᏴᎡᏗ	-11.057
▁ᎤᏁᏓᏍᏗᏱ	-11.057
▁ᏚᏓᏘᎿᎥᎢ	-11.057
▁ᏪᏙᎮ	-11.057
▁ᎤᏓᏅᎡᎴᎢ	-11.0571
▁ᎠᎧᏘ	-11.0571
▁ᏕᎦᏬᏁᏗᏍᎬᎩ	-11.0572
▁ᎨᎳᏍᏙᏗ	-11.0572
▁ᎤᏁᎷᎬᎩ	-11.0573
▁ᎠᏓᏁᏣᏍᏚᎶᎩ	-11.0573
▁ᎠᏰᎸᏒᎩ	-11.0574
ᏛᏗᏍᎪᎢ	-11.0575
▁ᎤᏚᎵᎭ	-11.0576
ᎦᏂᏌᎲ	-11.0577
▁ᎤᏬᎯᏳᏅᎩ	-11.0577
▁ᏧᎧ	-11.0578
▁ᎤᏂᏁᎢᏍᏔᏅ	-11.0578
ᎦᏌᎴ	-11.0578
▁ᏓᎻ	-11.0581
ᏆᏠ	-11.0582
▁ᎨᏍᏓ	-11.0582
ᏰᏲᎲᏍᎩ	-11.0585
ᏃᎯᏎᏗ	-11.0586
▁ᏗᏍᏓᏱ	-11.0587
▁ᎠᏂᏍᎦᎢᎮᎢ	-11.0588
▁ᏚᎾᏄᎪᏫᏎᎸ	-11.0588
▁ᎠᏁᎵᏍᎪ	-11.0592
ᏙᏱ	-11.0592
▁ᎤᎵᎮᎵᏨᎯ	-11.0593
ᏠᎯᏍᏓ	-11.0593
▁ᏥᏯᎥᎢ	-11.0593
▁ᎡᎶᏗᏏ	-11.0594
▁ᏑᏟᎶᏛᏉ	-11.0594
ᎨᏳᏅᎾ	-11.0594
▁ᏚᏂᏍᏘᏰᎬ	-11.0597
▁ᏂᏓᏛᏁᎲ	-11.0598
▁ᏥᎪᎥᎩ	-11.0601
▁ᏧᎴᎯᏐᏗ	-11.0602
▁ᏕᏨᏅ	-11.0603
▁ᏄᏕᏘᏴᎲ	-11.0603
▁ᎤᏒᏂᎴᎢ	-11.0605
▁ᎤᏃᏛ	-11.0607
▁ᏌᎾ	-11.0608
▁ᎤᏂᏂᏴᎮ	-11.0608
▁ᎠᎾᏗᏍᎬᎢ	-11.0609
▁ᎦᏓᏍᎬ	-11.061
▁ᎤᎾᏄᎪᏫᏏ	-11.061
▁ᏁᏨᏁᎸ	-11.061
▁ᏚᏂᏏᏂᏙᎸ	-11.061
▁ᎦᏰᏥᏐᏢ	-11.0611
▁ᏂᏕᏨᏁᎸ	-11.0611
ᏣᏉᎯ	-11.0613
▁ᏚᏯᏪ	-11.0614
▁ᏦᏨ	-11.0615
▁ᎨᏥᏚᎢᏍᏓᏁᎸ	-11.0618
ᏳᏓᎴᏏ	-11.0621
ᏓᏂᎧᎿᏩᏕ	-11.0621
▁ᏧᏂᏲ	-11.0621
▁ᏅᏔ	-11.0622
▁ᎤᏪᏴᎢ	-11.0624
▁ᎤᏰᎸᏅᎩ	-11.0624
ᏓᏙᎵᏍᏔᏂ	-11.0624
▁ᎵᏳ	-11.0625
ᏗᎦᎵᏍᏙᏗ	-11.0627
ᏙᎥᎯᏍᏗ	-11.0628
▁ᎤᏂᏅᏅ	-11.0629
▁ᎤᎾᏄᎪᏫᏎᎴᎢ	-11.063
▁ᎢᏍᎩ	-11.0631
▁ᎠᎴᏂᏍᎬ	-11.0633
▁ᎠᏁᎵᏍᎬᎩ	-11.0633
ᏁᎩᏎᎢ	-11.0634
ᏲᎵᎸ	-11.0637
ᏙᎲ	-11.0638
▁ᏂᎨᏎᎢ	-11.0638
▁ᎡᎵᏍᎬᎢ	-11.0639
ᏓᏁᎲ	-11.064
▁ᏓᏂᎧᏅᎢ	-11.064
▁ᎠᏂᏙᎾᎡᎢ	-11.0641
▁ᏓᏂᎳᏫᎥᎢ	-11.0641
▁ᎾᏋ	-11.0641
▁ᏂᏚᏪᏎᎸᎢ	-11.0641
ᏂᎷᏥ	-11.0643
▁ᎢᏣᏕᎶᏆ	-11.0643
▁ᏄᏛᏁᎸᎾ	-11.0645
▁ᎤᏛᎦ	-11.0648
▁ᎤᎩᏎ	-11.065
▁ᏭᏂᏴᎮ	-11.0653
▁ᎯᎩ	-11.0654
▁ᎡᎳᏪᏉ	-11.0655
▁ᏣᎩᏍᏗ	-11.0656
▁ᏗᎦᏙᏗ	-11.0659
▁ᏚᏲᎯᏎᎴ	-11.0663
▁ᏧᏬᎸᎢ	-11.0664
▁ᎾᏉᎯᏳ	-11.0664
▁ᎠᎦᏔᎯ	-11.0666
ᎦᏙᎥᏒᎯ	-11.0668
▁ᏥᏕᎭ	-11.0671
▁ᏄᎵᏍᏔᏁᎴ	-11.0672
▁ᏣᎪᏩᏘᏍᎪ	-11.0673
ᎳᏅᏛ	-11.0674
▁ᏥᏰ	-11.0675
▁ᎤᏍ	-11.0676
▁ᏄᏂᏪᏎᎸ	-11.0677
▁ᎠᏚᎢᏍᏛᎢ	-11.0678
ᏪᎳ	-11.0682
▁ᏟᏗ	-11.0685
ᎯᏉ	-11.0686
▁ᎤᎾᏓᏅᏖ	-11.0689
▁ᏩᎾᎢᏒ	-11.0689
▁ᎤᏂᏲᎭ	-11.0692
▁ᎤᏕᏗ	-11.0692
ᎦᏍᎦᏂᏗᏢ	-11.0696
ᏍᏕᎸ	-11.0698
▁ᏫᏯ	-11.0699
▁ᏗᎦᏘᏯ	-11.07
▁ᎦᏁᎲᎩ	-11.0701
▁ᎠᎾᎵᏥᏙᎲᏍ	-11.0701
▁ᎤᏢᏗ	-11.0702
▁ᎠᏂᏙᎾᎥᎩ	-11.0702
▁ᏣᏉᎩ	-11.0704
ᎴᏂᏓᏍᏗ	-11.0704
▁ᎣᎦᎵᎪ	-11.0705
ᏓᎴᏅᎯ	-11.0707
▁ᏚᏅᏎᎢ	-11.071
▁ᏱᏗᏓ	-11.0714
ᏗᏔᎯ	-11.0715
ᏔᎳᏬᎯᏍᏗ	-11.0715
▁ᏄᎾᏛᏁᎸᎢ	-11.0716
ᏆᎳ	-11.0717
▁ᏚᎾᎵ	-11.0721
ᏲᎦᏛᏅ	-11.0721
▁ᎤᏩᎨᏫᏎ	-11.0722
▁ᏪᏥ	-11.0723
ᏅᏓᏗᏍᎬ	-11.0723
▁ᎠᎩᏍᎨᏍᏗ	-11.0726
▁ᎧᏃᎮᏍᎬᎢ	-11.0726
ᏚᎪᏓᏁᏗ	-11.0728
▁ᎠᏍᏆᎸ	-11.0732
▁ᎠᏂᎵ	-11.0735
▁ᎦᏅᎬᎢ	-11.0735
▁ᎬᏩᎷᏤᎮ	-11.0737
▁ᎢᏧᏓᎴ	-11.0741
▁ᎤᏂᏄᎪᏨᏃ	-11.0745
ᏤᎯ	-11.0752
▁ᎤᎶᏗ	-11.0756
▁ᏇᎵ	-11.0756
▁ᎠᏗᏍᎨ	-11.0757
ᏃᎮᎮᎸ	-11.0758
ᏅᎡᎵ	-11.0758
ᎦᏍᏙᏗ	-11.0758
ᏍᏓᏁᎸᎯ	-11.0761
▁ᎤᏅᏏᏛ	-11.0762
ᏁᎵᏍᎬ	-11.0765
▁ᎤᎷᏤᎸ	-11.0765
▁ᏱᏙᎨ	-11.0766
▁ᎤᏪᎷᎬ	-11.0767
ᏥᏄᎪᏫᏍᏗ	-11.0768
ᏅᏗᏍᎪ	-11.0769
▁ᎧᏁ	-11.0769
▁ᎢᏥᏍᎦᏅᏨ	-11.0771
▁ᏮᏓᏲ	-11.0777
ᏆᏓ	-11.0779
▁ᏨᏍᎩᏃᎢ	-11.0787
▁ᏱᏗᏗ	-11.0787
▁ᎠᏆᎧᏛᎢ	-11.0787
▁ᎤᏁᎵᏍᏗ	-11.0788
▁ᎤᏪᎯ	-11.0789
▁ᎤᏂᏣᏖᏰᏃ	-11.0791
▁ᎤᏰᏤᎢ	-11.0794
ᏣᏘᏃᎵ	-11.0794
▁ᎤᏃᏢᏗ	-11.0795
▁ᏯᏛ	-11.0795
▁ᏥᎦᎶ	-11.0796
▁ᏫᏓᎦ	-11.08
▁ᎦᏁᎲᎢ	-11.0803
ᏓᏅᎯᏓ	-11.0806
▁ᎠᏰᏙᎳᏛᎢ	-11.0807
▁ᏚᎴᏅᎩ	-11.0808
ᏴᏍᏗᏱ	-11.0811
ᏅᎢᏍᏗᏱ	-11.0813
▁ᎤᏁᏅᏎᎢ	-11.0813
ᏥᎶᏍᏔᏅ	-11.0813
ᎩᎪᏩᏛᏗᏱ	-11.0813
ᏣᏛᏂᏏ	-11.0824
▁ᎢᏨᏴ	-11.0831
▁ᎦᎶᏍᎬ	-11.0831
ᎴᏫᏍᏔᎾ	-11.0832
▁ᎤᏬᎯᏳᏁ	-11.0834
▁ᏧᎳ	-11.0839
▁ᏗᎵ	-11.0842
▁ᎤᏴᏍᏗᏱ	-11.0843
▁ᏗᏦᎸ	-11.0844
ᎵᏂᎩᏛ	-11.0846
▁ᎦᏬᏂᏍᎬᎩ	-11.0846
ᏛᏅᎢᏍᏕ	-11.0848
ᎷᏤᎸᎩ	-11.0849
▁ᏓᏯ	-11.0852
▁ᎤᏁᏤᎸᎯ	-11.086
▁ᎤᎯᏍᏗᏱ	-11.086
▁ᏧᏪᏅᏒᎢ	-11.0861
▁ᎤᏃᏴᎬᎢ	-11.0862
▁ᏳᏂᏰᎸ	-11.0864
▁ᎢᏣᎵ	-11.0865
▁ᎤᏂᎲᎢ	-11.0866
▁ᏕᎨᎦᎸ	-11.0874
▁ᏳᎳ	-11.0878
ᏯᎩᏍᏗ	-11.0879
▁ᏚᏭᏢ	-11.088
▁ᎤᏕᏅᎢ	-11.0882
▁ᏕᎦᏁᎲ	-11.0882
▁ᎤᏃᏢ	-11.089
▁ᎦᎪᎨ	-11.0896
ᏛᏃ	-11.0902
▁ᎠᎦᏛᏅ	-11.0915
▁ᏚᎧᎿᏅᏃ	-11.0916
▁ᎢᎦᏛᏍᎩᏂ	-11.0916
▁ᎢᎩᏴᏁᏗ	-11.0916
ᏒᏍᏗ	-11.0916
▁ᏗᏓᎴᏂᏍᎬᎢ	-11.0917
▁ᎢᏳᎾᎵᏍᏔᏅ	-11.0917
▁ᎠᎢᏒᏃ	-11.0923
▁ᏗᎦᎦ	-11.0933
▁ᎨᏥᏁᏤᎸ	-11.0939
ᏍᎦᎳᏁ	-11.0943
▁ᏕᎨᎦᏛ	-11.0943
▁ᎦᏅᎦ	-11.0943
ᎵᏂᎩᏗᏳ	-11.0946
▁ᏩᏥ	-11.0948
▁ᎨᏆ	-11.0956
▁ᎢᏨᏯᎵᏥᏙᏁᎸ	-11.0957
▁ᎤᏂᏣᏘᏰᏃ	-11.0971
▁ᏚᏂᎩᏒ	-11.0972
▁ᎤᏕᏘᏴᏌᏗᏒᎢ	-11.0972
ᎠᏤ	-11.0973
▁ᏕᎤᏙᎥᎢ	-11.0973
▁ᎮᎵᏍᎬ	-11.0993
ᏴᎮ	-11.0998
▁ᎨᎥ	-11.1002
▁ᎤᎾᏓᏅᏛ	-11.1005
ᏨᎢ	-11.1005
▁ᏏᎻᏯᏂᏃ	-11.1007
▁ᎣᏂᎦ	-11.1008
ᎧᏔᎭ	-11.1008
▁ᎤᏲᎯ	-11.1009
ᏴᏙᏗᏱ	-11.101
▁ᎤᏙᏢᏒ	-11.1014
ᏌᎥ	-11.1014
▁ᎤᏂᏁᏨᏃ	-11.1015
ᏚᎧᎾᏅ	-11.1016
ᏴᎯᎮᏍᏗ	-11.1028
ᎳᏅ	-11.1031
ᏥᏯᏅᏗ	-11.1035
▁ᎤᎾᏓᏃᏴᎵᏍ	-11.104
▁ᏗᏍᏛ	-11.104
ᏳᏩᏅ	-11.104
ᏓᏛᏁᎮᏍᏗ	-11.1049
ᎦᏖᏃᎲ	-11.1054
ᏟᎶ	-11.1054
▁ᎤᏚᎵ	-11.1069
ᏥᏐᏅᏅ	-11.1074
ᏏᎸ	-11.1074
▁ᎠᏆᏓᏅᏖᎸ	-11.1074
▁ᏗᎦᎸᏫᏍᏓᏁᏗᏱ	-11.1083
ᏴᎢ	-11.1096
▁ᏱᏚᎾ	-11.1096
ᎪᎲᎩ	-11.1098
ᏲᎯᏎᎸᎯ	-11.1103
▁ᎤᏲᎱᏒᎩ	-11.1113
ᏥᏍᎦᏨᎯ	-11.1122
ᎸᏎ	-11.1123
ᎵᎸ	-11.1125
▁ᏓᏕᏲᎲᏍᎨ	-11.1126
ᏁᏟᏴᏛ	-11.1127
▁ᎤᏁᏗ	-11.1136
ᏍᏛᎩ	-11.1138
▁ᏥᏩ	-11.1142
▁ᎢᎩᏛ	-11.1148
▁ᎢᏳᏓᎵ	-11.1153
ᎪᏩᏘᏍᎪ	-11.1159
ᎰᏅ	-11.1161
ᏣᏓᏙᎵᏍᏗ	-11.1161
ᏏᏱ	-11.1162
ᏕᎭ	-11.1166
ᏣᎾᏄᎪᏫᏎᎸ	-11.1167
ᎲᏒ	-11.1173
▁ᎤᏃᎮᏗ	-11.1174
▁ᎦᏅᎢ	-11.1176
ᏕᎶᏆᏍᏗ	-11.1177
▁ᎠᎩᏢ	-11.1178
▁ᎤᎵᏏᎬᎢ	-11.1181
ᎾᎥᎢ	-11.1184
ᏤᎮ	-11.1184
▁ᏧᎾᏙ	-11.1187
ᎾᏰᏍᎨᏍᏗ	-11.1188
▁ᎠᏂᎪ	-11.1189
▁ᎦᎸᎳᏗᎨ	-11.1191
ᏔᏂᏓᏍᏗ	-11.1192
ᏍᎦᎾᎯᏳ	-11.1198
ᏄᏬ	-11.1198
▁ᎤᎾᏓᏅᏖᏗ	-11.1199
ᏩᏛᏗᏱ	-11.1202
▁ᏕᏣᏂᏴ	-11.1214
▁ᏓᏥᏩᏛᎯ	-11.1214
▁ᎣᏍᏕ	-11.122
▁ᏣᎵᏍᎦᏍᏙᏗ	-11.1229
ᎦᏓᎭ	-11.1231
▁ᏚᏂᎬ	-11.1233
▁ᎤᏪᎷ	-11.1238
ᏥᎶᏍᏗ	-11.124
▁ᎠᏐ	-11.124
▁ᎬᏓ	-11.1243
ᏛᎦᏁᎰᎢ	-11.1245
ᏒᏰᏃ	-11.1249
ᏂᏪᏏ	-11.1252
▁ᎢᏥᏁ	-11.1259
ᏅᏗᏱ	-11.1261
ᎩᏍᏙᏗ	-11.1282
▁ᏚᏩ	-11.1287
ᎲᏍᎬᎢ	-11.1295
ᏢᏈᏍᏗᏱ	-11.1296
▁ᏕᏥᎧ	-11.1299
ᎯᏰ	-11.1301
ᏛᏅᎯ	-11.1303
ᏂᎦ	-11.1311
ᏁᏪᏎᎢ	-11.1312
▁ᎢᏥᏴ	-11.1321
▁ᏦᎨ	-11.1334
ᎾᏓ	-11.1336
ᎨᏴ	-11.1345
ᏘᏍᎬ	-11.1347
▁ᎤᏂᏅᏁ	-11.1359
▁ᎤᏍᏕᎸᎲ	-11.1364
▁ᏧᏃᏢ	-11.1368
ᎪᏍᎬ	-11.1372
ᎦᏘᎴᎩ	-11.1388
ᎢᏣ	-11.1397
▁ᏧᏂᏰᎸ	-11.1398
ᏂᏏᏅᎯ	-11.1401
ᏗᏗᏱ	-11.1402
▁ᎤᎪᎲᎢ	-11.1413
▁ᎢᎭ	-11.1417
▁ᏗᎧᎾ	-11.1428
▁ᏕᏤ	-11.1431
▁ᏚᏲᎯᏎᎸ	-11.1432
▁ᏂᎦᏪᏎ	-11.1435
▁ᎤᏂᎷᏤᎴ	-11.1446
▁ᎪᎱ	-11.1447
▁ᏗᏅᏂ	-11.1454
ᎾᏕᏘᏴᏛ	-11.1454
ᏅᎯᏒ	-11.1466
▁ᏱᏙᏥ	-11.1467
ᏓᏁᎸᎩ	-11.1467
ᎧᎭ	-11.1473
ᏓᏯᏂᏍᎪ	-11.1475
▁ᎨᎾ	-11.148
ᏅᏒᎾ	-11.1499
ᏁᏤᎸᎭ	-11.1511
ᏲᎮᎢ	-11.1511
▁ᏗᏥᏲᎯᏍᏗ	-11.1512
▁ᏧᎾᏓᎴᏅ	-11.1515
ᏁᎩ	-11.1518
ᏃᎯᏍᏗ	-11.1521
ᎨᏳᎭ	-11.1525
ᎶᏃ	-11.1532
ᏅᏁᏗᏱ	-11.1542
ᏎᎴᎢ	-11.1546
ᎵᏙᎮ	-11.1548
▁ᎬᏛᎪ	-11.1556
▁ᏍᎩᏉ	-11.1556
ᎩᏍᏆᏂᎪᏔᏅ	-11.1557
ᏓᏁᎴ	-11.1558
ᏆᏟ	-11.1571
ᏧᎬ	-11.1572
▁ᎤᎦᏙᏍᏕ	-11.1572
ᎵᏦᏛ	-11.1575
▁ᎨᎪᏎ	-11.1583
▁ᎠᏍᏓᏱᏛ	-11.1587
▁ᎠᏂᏫᎾᎨ	-11.1588
ᎨᏩ	-11.1598
▁ᏫᏙ	-11.1603
ᏑᎶ	-11.1606
▁ᏱᏚᏳᎪ	-11.1609
▁ᏱᏅ	-11.161
▁ᏥᎶ	-11.1614
ᏓᏴᏎ	-11.1614
ᎾᎲ	-11.1622
ᎦᏛᏁ	-11.1629
ᎢᏍᏔᏅ	-11.1632
▁ᎨᏛ	-11.1641
ᏂᏏᏍᎨᏍᏗ	-11.1647
▁ᏦᎠ	-11.1653
▁ᎦᏙᎨᏃ	-11.1663
▁Ꮦ	-11.1663
▁ᏅᏩᎾᏓᎴᎢ	-11.1668
▁ᎡᏉ	-11.1671
ᎴᏙᏗ	-11.1675
▁ᎦᎶᎯᏍᏗᏳ	-11.1676
▁ᎢᏦᎵᏍ	-11.1678
▁ᎤᎾᏚᎵᏍᎨ	-11.168
ᏂᎩᏓ	-11.1681
ᏓᏅᏛᎵ	-11.1681
ᏣᎦᏌᏯᏍᏗᏕᎩ	-11.1682
▁ᎤᎮᏍᏗ	-11.1686
▁ᎢᏣᏓᏅᏛ	-11.1694
▁ᎠᎾᎵᎮᎵ	-11.1706
▁ᎤᎸᎢ	-11.1708
▁ᏱᏘ	-11.1712
ᏗᏍᎬᎩ	-11.1716
▁ᎠᏥᏅ	-11.1716
▁ᎧᏃ	-11.172
▁ᏍᎩᏍᏓᏩᏕ	-11.1721
ᏌᎳᏓᏅ	-11.1727
ᎧᎵᏎ	-11.1733
▁ᏫᏍᏗ	-11.1734
ᏩᏛᎯᏙ	-11.1736
ᏍᏓᏁᎸ	-11.1747
▁ᎦᏙᎦ	-11.1753
ᎵᏎ	-11.1768
▁ᎤᎾᎵᎪᏎ	-11.1772
ᏎᏃ	-11.1776
ᎪᏩᏘᏍᎬ	-11.1781
▁ᎠᏍᎪ	-11.1782
▁ᎡᏥᏁ	-11.1783
▁ᏕᎤᏲ	-11.1784
▁ᎤᏂᎧᎵ	-11.1785
▁ᏓᏘ	-11.1791
ᏛᎯᏍᏙᏗ	-11.1794
ᎵᏍᏓ	-11.18
▁ᎠᏉᎯᏳ	-11.18
▁ᎠᎦᏅ	-11.1802
▁ᏂᎦᏛᏉ	-11.1808
▁ᏙᎯᏱᏉ	-11.1811
ᏣᏉ	-11.1815
▁ᏥᏩᎾᎦ	-11.1816
ᏂᎦᏔᎲᎾ	-11.1826
▁ᏯᏇ	-11.1833
ᏓᏛᏁᏗ	-11.1841
▁ᎤᏬᏂᎯᏍᏗ	-11.1846
ᏏᏯ	-11.1851
ᏙᎴᎰᏒ	-11.1852
▁ᎠᏂᎪᏩᏘᏍᎨ	-11.1864
▁ᏨᏆ	-11.1865
ᏍᏆᏂᎪᏓᏁᏗ	-11.1866
▁ᎠᏆᏓᏅ	-11.1867
ᏥᏍᏔᏅ	-11.1872
▁ᏱᏅᏩᏍᏗ	-11.1877
▁ᎠᏆᏓᏅᏖ	-11.1884
ᏬᏁᏔᏅ	-11.1888
ᏬᏁᏙᏗ	-11.1894
ᏪᏏ	-11.1899
ᏲᏍᏔᏅ	-11.1903
ᏘᏍᎩ	-11.1904
ᏔᎴᏒ	-11.1914
ᎨᏎ	-11.1915
ᎴᏗᏱ	-11.1917
ᏥᎵ	-11.1922
ᏎᎵᏙᏗ	-11.1929
▁ᎢᏣᏓᏙᎵᏍᏗ	-11.1939
ᏁᎸᏗᏍᎬ	-11.1939
ᎵᏍᏕᎸ	-11.1944
ᏩᏛᎯ	-11.1948
▁ᏴᎦᏥ	-11.1951
▁ᎠᏍᏚ	-11.1951
▁ᏳᏲ	-11.1955
▁ᎤᎾᏓᏅ	-11.196
ᏅᏂ	-11.196
ᏄᎪᏨᎩ	-11.1962
▁ᏕᎦᏘ	-11.1964
ᏯᏅᎯ	-11.1967
ᏅᏓᏗᏍᎨᏍᏗ	-11.1975
ᏍᏕᎸᎯᏙᎯ	-11.1982
▁ᎥᏝᏍᎩᏂ	-11.1998
▁ᏴᏗ	-11.2
ᏍᏙᎢ	-11.2003
ᏩᏓ	-11.2011
ᏍᏓᏲ	-11.202
ᏚᎵᎭ	-11.2023
ᎧᏂᏍᎬ	-11.2025
ᎮᎵ	-11.2028
ᎶᏅ	-11.2042
▁ᎠᏰᎵᏉ	-11.2047
ᎵᏍᎩ	-11.2048
ᏁᎦ	-11.2049
ᏂᏪᏎ	-11.2052
▁ᎤᏄᎪᏫᏎ	-11.2054
▁ᎠᏍᏆ	-11.2055
ᏪᏎᎵ	-11.2059
▁ᎠᏎᏍᎩᏂ	-11.206
▁ᏳᎸ	-11.2065
ᏁᎶᏕᏍᏗ	-11.207
▁ᎤᏂᏩᏛ	-11.2076
ᏣᎷᏤᏗᏱ	-11.2084
▁ᏱᎬᏆ	-11.2107
ᏙᎵᎪ	-11.2109
ᎸᎮ	-11.2115
ᏓᎴᎲᎦ	-11.2116
▁ᎦᏪ	-11.2138
ᏔᏪᏙ	-11.214
ᏍᏆᏂᎪᏓ	-11.2142
ᎥᏍᎨᎢ	-11.2156
ᏲᏙᏗ	-11.2157
ᎵᎻ	-11.2164
▁ᎠᏂᎪᎵᏰᏍᎨ	-11.2169
ᎵᏍᏆᏙᎾ	-11.2178
ᏢᏁᎢ	-11.2185
ᎮᎸ	-11.2195
ᏦᏒ	-11.2201
▁ᎤᏂᏃ	-11.2201
▁ᎦᏲ	-11.2201
▁ᏯᏆᏓ	-11.2205
▁ᎠᎩᏁᎸ	-11.2219
ᏌᎲ	-11.2221
ᏥᏓ	-11.2226
▁ᎥᏝᏍᏗ	-11.2227
▁ᏥᏍᎦᎾ	-11.2227
▁ᎤᏩᏎ	-11.2228
ᏜᏗ	-11.2229
ᏉᎯ	-11.223
ᎷᎩᏍᎩ	-11.2231
ᏰᎬ	-11.2235
ᏓᏛᏁᎵ	-11.2235
▁ᏫᏯᏅ	-11.2237
ᏇᏓ	-11.2238
▁ᏣᏢ	-11.2242
▁ᎢᏥᏍᎦᏅ	-11.2249
▁ᎤᎩᏍᏗ	-11.2249
ᎲᏍᎨ	-11.2254
ᏓᏁᎢ	-11.2254
ᏛᏁᎰ	-11.2256
ᎴᏅᏓ	-11.2258
▁ᎩᎳᎢ	-11.2267
ᏓᏑᏴ	-11.2269
▁ᎬᏩᎵᎪᏁ	-11.2271
ᎪᎨ	-11.2274
▁ᎠᏑᏴ	-11.2293
ᎦᏛᎩ	-11.2297
▁ᎤᏲᏍᏔᏅ	-11.2305
▁ᏗᏕᎶᏆᏍ	-11.2306
▁ᎭᏓᏅᏖ	-11.2309
▁ᏕᎨᏣ	-11.2312
▁ᏙᎬ	-11.2314
▁ᏩᏂᎷ	-11.2316
ᎾᎵ	-11.2325
▁ᎠᎩᎨᏳᎯ	-11.2329
▁ᏓᏍᎩ	-11.233
▁ᎤᏩᏙ	-11.2333
ᎡᎲᎢ	-11.2336
ᎴᏅᎮ	-11.2339
▁ᎭᏓ	-11.234
ᏓᏙᎵᏍᏓᏏ	-11.2344
ᏑᎸᏓ	-11.2349
ᏍᏔᏅᎢ	-11.2352
▁ᎠᏂᎾ	-11.2354
ᎨᎯᏙᎸ	-11.2354
▁ᏄᏩᏁ	-11.2359
▁ᏳᏓᏑ	-11.2363
ᏲᏎᎸ	-11.2375
ᏪᏒ	-11.2375
ᎨᏥᏁᏗᏱ	-11.2377
ᏥᎾᏄᎪᏫᏎᎸ	-11.2378
ᏍᎪᏒ	-11.2379
ᎣᏁ	-11.238
▁ᏗᏍ	-11.24
ᎾᎡ	-11.2406
ᎵᏓ	-11.2409
ᏲᎮᏗ	-11.2417
ᎲᏍᏗᏱ	-11.2417
▁ᏓᎨ	-11.2419
▁ᏂᏥᏪᏎ	-11.2429
▁ᎠᏥᎸᏃ	-11.2434
▁ᎤᏍᏛ	-11.2436
▁ᏈᏂ	-11.2441
ᏂᏍᎨᏍᏗ	-11.2441
ᏚᎸᏅᏗ	-11.2442
ᎵᏬ	-11.2443
▁ᎦᏐ	-11.2444
ᏂᏢᏗᏱ	-11.2444
ᏕᎨ	-11.2449
▁ᏩᏆ	-11.2451
▁ᏬᎩ	-11.2455
ᏤᏪ	-11.2456
ᏍᎦᏯ	-11.2457
▁ᎾᏥᎸᏉ	-11.2462
ᏅᏩᏍᏗᏉ	-11.2465
ᏓᎨᏳᏗ	-11.2468
ᏥᏯᏅᏛ	-11.2472
ᎩᏛ	-11.2475
ᏲᎱᎯ	-11.2482
ᏘᏎᎢ	-11.2483
ᏍᏓᏩᏕᏏ	-11.2483
ᎪᏒ	-11.2483
ᎪᎵᏰᏍᎨᎢ	-11.2485
ᏣᏁ	-11.2486
▁ᏚᎵ	-11.2492
ᏓᏘᏂᏙᎯ	-11.2501
▁ᏚᎾᎵᎪ	-11.2507
▁ᏄᎵᏍ	-11.2508
ᏠᎠᎯ	-11.2514
ᏃᎮᏗ	-11.2525
▁ᎤᎷᏨᏃ	-11.2527
ᎳᏏᏕᏂ	-11.2528
▁ᎠᏆᏛ	-11.253
▁ᏳᏪ	-11.2531
ᏂᏱᏍᎨ	-11.2542
ᎴᏅᎲ	-11.2542
ᏙᎾ	-11.2542
▁ᎠᏂᏯᏫᏍᎩᏃ	-11.2543
ᏐᏢ	-11.2546
▁ᎠᏴᏉ	-11.255
ᏕᏣᏙ	-11.2569
ᏍᎦᏅᏨᎢ	-11.2569
ᏍᏛᏗ	-11.2571
▁ᎠᏂᎡ	-11.2581
▁ᏧᏅᏏ	-11.2588
ᏲᎱᎯᏍᏗ	-11.2593
ᎦᏓ	-11.2594
ᏓᏗᏍᏗ	-11.26
▁ᎠᎵᏥ	-11.2604
ᏛᏛᎲᏍᎦ	-11.2607
▁ᎠᏓᏍᏕᎵ	-11.2607
▁ᏂᏣᎵᏍᏓᏁ	-11.2609
▁ᎤᏐᏅᎢ	-11.2614
ᏒᎦᎸ	-11.262
ᏍᎪᎵ	-11.2628
ᏚᎩ	-11.2634
▁ᏳᏃᏴ	-11.2643
ᏨᏍᏗᏱ	-11.2643
ᏙᎦ	-11.2644
▁ᎥᏆ	-11.2645
▁ᎠᏍ	-11.2657
ᎮᎯ	-11.2661
ᏢᏔᏅᎯ	-11.2664
ᏚᎵᏍᎨ	-11.2675
ᎯᏍᏗᏍᎬ	-11.2676
ᎦᏉ	-11.268
ᏥᎦᏔ	-11.2687
▁ᏂᎦᏥᏴᏁ	-11.269
ᎸᏉᏓ	-11.2691
ᏫᏎᎢ	-11.2695
ᏎᎸᎢ	-11.2703
ᏄᎪᏫᏒᎯ	-11.2713
▁ᏅᏓᏳᏓᎴ	-11.2725
▁ᏗᎩᏍᏗ	-11.2732
▁ᏅᎵᏌᎵ	-11.2742
ᏘᏃᎯᏍᏗ	-11.2746
▁ᏅᏩ	-11.2747
ᏥᏲᏍᏙᏓᏁ	-11.2752
ᏲᎯᏏ	-11.2756
ᏍᏗᏂ	-11.2757
ᏍᏚᎩᏒ	-11.2759
▁ᎠᏕᎸᏃ	-11.2764
ᎶᎥ	-11.2764
ᎪᏩᏗᏍᎬ	-11.2766
ᏍᎬᎾᏉ	-11.2767
ᏣᎴᏛ	-11.2767
▁ᏱᏚᏓ	-11.2767
ᏃᏅᎯ	-11.2772
▁ᏯᎩᎪ	-11.2774
ᎦᎵᎰ	-11.2782
ᎦᎶ	-11.2788
ᏢᎭ	-11.2793
ᏴᏔᏅᎩ	-11.2795
ᎯᏛ	-11.2796
ᏚᏓᏲᏎ	-11.2796
ᏧᏔᏅ	-11.2799
ᏐᎾ	-11.2799
ᏍᏕᎢ	-11.2799
▁ᏁᏩᏔᎵ	-11.28
▁ᏯᎦᏓ	-11.2803
▁ᏚᏩᏛᎲ	-11.2803
ᏎᎰᎢ	-11.281
▁ᎯᏁᎩ	-11.2813
ᏏᏅᏍᏗ	-11.2815
ᏍᏆᎵᏍᎬ	-11.2815
▁ᏕᏥᏯ	-11.2817
ᎪᎰᏍ	-11.2825
ᏛᎦᏅ	-11.2839
ᎡᏃ	-11.2839
▁ᏘᏁ	-11.2839
▁ᎤᎾᎴᏅ	-11.2843
▁ᎠᎾᎵᏍᏓᏴᎲᏍᎬ	-11.2845
▁ᎬᏩᏃᎯᏳ	-11.2849
ᎾᏄᎪᏫᏒ	-11.2851
ᎪᎯᏳ	-11.2853
▁ᏕᎪᏢᏒ	-11.2855
ᎦᏌᏯᏍᏙᏗ	-11.2856
▁ᎦᎦ	-11.2861
ᏗᏢᏍᏙᏗ	-11.2864
ᏁᎢᏍᏗᏍᎬ	-11.2867
▁ᎤᏂᏩᏒ	-11.2871
ᎩᏍᏓ	-11.2874
▁ᎤᏢᎬ	-11.2882
ᎨᏳᎯ	-11.2882
▁ᎠᏥᏰᎸᎾᏁ	-11.2889
ᏥᎷᎩ	-11.289
ᏙᎴᎰᏎ	-11.289
ᏘᏓ	-11.2891
ᏍᏕᎵᏍᎪ	-11.2892
▁ᏓᏟᎶᏍᏗ	-11.2894
▁ᏑᏟᎶᏛ	-11.2895
▁ᏭᏭᏍ	-11.2895
ᏚᏲᏎ	-11.2899
▁ᏆᏏ	-11.2899
▁ᏱᏓᎾ	-11.2901
▁ᎦᏅᎪᎢ	-11.2902
ᎦᎸᎲᎩ	-11.2905
ᏗᏉ	-11.2906
▁ᏴᏓ	-11.2907
▁ᎤᏅᏂ	-11.291
▁ᏂᏓᏙᏓᏈᏒ	-11.291
▁ᎾᎬᏁᎴ	-11.291
▁ᎠᎧᎵ	-11.291
▁ᏂᏚᏍᏕ	-11.2913
ᎤᏨᏉᏗ	-11.2913
ᎢᏗᎦᏘ	-11.2914
ᏘᏅᏍᏔᏁᎢ	-11.2914
▁ᏚᏄᏩᎥ	-11.2916
ᎤᏂᎷᏤᎢ	-11.2916
▁ᎤᎾᏅᏁ	-11.2916
ᏒᎮᏱᏣ	-11.2917
▁ᎡᏌ	-11.2918
▁ᏕᏣᎸᏫᏍᏓᏁᎸ	-11.2918
ᎧᏃᎮᏛ	-11.2918
ᎢᏥᏈᏱ	-11.2918
▁ᎦᎵᎡᎵᎬ	-11.2919
ᎠᎬᏱ	-11.2919
▁ᎾᎩᏪᏒ	-11.2919
▁ᎤᏃᎯᏳᏁ	-11.292
ᎵᎪᎯ	-11.2923
▁ᎾᏂᏪᏍᎨ	-11.2924
▁ᏚᏓᏘᎿᎥ	-11.2924
▁ᏕᎤᎸᏫᏍᏓᏁᎲ	-11.2925
▁ᏚᏍᎫᏓᏛ	-11.2925
▁ᏄᎵᏍᏓᏁᎸ	-11.2925
▁ᎤᎵᏖᎸᏁ	-11.2925
ᏇᎵᏥ	-11.2925
ᏉᎡᏗ	-11.2926
▁ᎤᏔᏪᏙᏁ	-11.2926
▁ᎤᏎᎵ	-11.2926
▁ᏂᏣᏓᎨᏳᏒ	-11.2926
▁ᎤᏓᏙᎵᏍᏔᏁ	-11.2927
▁ᏚᏄᎪᏔᏅ	-11.2929
▁ᎤᏪᏍᎩᎸ	-11.2929
▁ᏱᏄᎵᏍᏔᏁ	-11.293
▁ᏚᏂᏢᎬ	-11.293
▁ᏧᎶᏎ	-11.293
▁ᎤᎴᏂᏙᎴ	-11.2931
▁ᎲᏅ	-11.2932
▁ᎢᏣᏚᎵᏍᎬ	-11.2932
▁ᏓᎾᎵᏍᏓᏴᎲᏍᎬ	-11.2932
▁ᎢᏥᏁᎬ	-11.2933
▁ᏫᏥᎦᏛ	-11.2935
▁ᎤᏓᏅᎡᎴ	-11.2935
▁ᏂᏚᏩᏁᎴ	-11.2936
▁ᏓᏅᏗᏍᎬ	-11.2936
ᎯᏢᎾ	-11.2938
ᏍᏓᏩᏛᏎ	-11.2939
▁ᎾᏂᎡ	-11.294
▁ᎤᏍᎩᏓᏒ	-11.294
▁ᎠᏥᏃᎮᏍᎬ	-11.294
▁ᎢᏳᎵᏍᏔᏅ	-11.294
▁ᎢᏨᏰᎳᏗᏙᎲ	-11.2941
▁ᎤᏍᏓᏱᏛ	-11.2941
ᎵᎨᏂ	-11.2945
▁ᎨᎬ	-11.2945
▁ᎤᏍᎦᎴ	-11.2948
ᏚᏓᏕᏫᏒ	-11.2948
▁ᎤᏑᎵᎪᏨ	-11.2948
▁ᎤᏮᏔᏅ	-11.2949
▁ᏚᏂᏲᎱᏒ	-11.295
▁ᎤᏓᏅᏁ	-11.2951
ᏍᏉᎵᏱ	-11.2951
▁ᏂᎦᎵᏍᏗ	-11.2952
▁ᎠᏄᎯᏍᏗᏍᎬ	-11.2953
ᎦᏘᏗᏍᏗᏱ	-11.2955
▁ᏥᏬᏂᏍᎬ	-11.2955
ᏍᎩᏓᏎᎢ	-11.2957
ᎵᏍᎪᎸᏗᏍᎬ	-11.2957
▁ᏚᎾᎴᏅ	-11.296
▁ᎤᏯᏅᎮ	-11.2961
▁ᏣᏁᏨ	-11.2961
▁ᎠᏆᎴᏅ	-11.2964
▁ᏪᏙ	-11.2964
ᎸᎥᏍᎬ	-11.2964
▁ᎣᎪᎯᏳ	-11.2964
ᎸᏍᎦ	-11.2964
▁ᎣᎦᏣᏅ	-11.2966
ᎾᎾᏛᏁᎰ	-11.2968
ᎩᏍᏓᏩᏕ	-11.2968
▁ᎦᏁᎮ	-11.2969
ᏙᏢᎾ	-11.297
▁ᏗᏘᏲ	-11.2971
ᏒᎵ	-11.2971
▁ᎤᏍᏓᏩᏛᏎ	-11.2972
▁ᏗᏘᏂᏙ	-11.2972
▁ᎤᏪᎧᎲ	-11.2974
ᎦᏔᎲᏍᎬ	-11.2977
ᏲᎵᎴ	-11.2977
ᏍᏕᎸᎲᎩ	-11.2978
ᏴᏤᏂ	-11.2978
▁ᏦᎩᎾᏫ	-11.2979
ᏓᏓᏍᎬ	-11.298
▁ᏱᏙᎬ	-11.298
▁ᏥᎪᏩᏛ	-11.298
ᏁᎵᏎᎢ	-11.298
ᎸᏉᏔᏂ	-11.2981
▁ᎡᎩᏍᏕᎸᏗ	-11.2981
▁ᎦᏅᏆᎶ	-11.2982
ᏒᎲᏍᎦ	-11.2982
▁ᎢᏳᏩᏂᏐᏗ	-11.2983
▁ᏗᎬᏩᎸᏌ	-11.2984
▁ᎠᏂᏛ	-11.2984
▁ᏧᏂᏒᏍᏗ	-11.2985
▁ᏣᏁᎮ	-11.2985
▁ᎢᏣᏓᏅᎦᎸ	-11.2986
▁ᎢᏨᏲᏎ	-11.2987
▁ᎤᎩᎵᏲᎢᏍᏗ	-11.2988
ᏩᏁᎦ	-11.2988
▁ᏂᎦᎵᏍᏔᏂ	-11.299
▁ᎤᏬᏢᏁ	-11.2992
▁ᏗᎧᏃᎨ	-11.2993
ᏍᏆᏂᎪᏗᏳ	-11.2994
ᏏᏔᏗᏍᏗ	-11.2995
▁ᏩᏚ	-11.2995
ᏠᎠᏒ	-11.2996
▁ᎢᏣᎵᏍᏓᏴᏗ	-11.2996
▁ᏗᎦᏤᎵ	-11.2998
▁ᎦᎷᏨ	-11.2998
ᏕᏲᏅᎯ	-11.2999
▁ᎠᏂᏍᏆᏂᎪᏗᏍ	-11.2999
ᏄᏬᎡᎢ	-11.3
ᏂᏁᏨ	-11.3
ᏓᏂᎵᎨ	-11.3001
▁ᎤᏂᏲᎴ	-11.3001
ᏃᎵᏤ	-11.3001
ᏚᏅᏏᏴ	-11.3002
ᏙᎴᏆᏍᏗ	-11.3002
▁ᎠᏛᎩᏍᎨ	-11.3002
▁ᏭᏓ	-11.3003
ᏁᏤᎮᏍᏗ	-11.3003
ᏦᏎᎭ	-11.3004
▁ᏥᏯᎥ	-11.3004
ᏓᏅᏓᏗᏍᏗᏍᎩ	-11.3004
▁ᎠᏓᎴᏒ	-11.3005
▁ᏱᎡᏦᎢᏳ	-11.3005
ᏓᎾᏕᏒᎲᏍᎪᎢ	-11.3005
▁ᎠᏁᏯᏔᎯ	-11.3005
▁ᎠᏂᎢᏏᎺᎵ	-11.3005
▁ᎠᏍᏕᏱᏛ	-11.3005
▁ᎢᏍᎪᏂᏗᏢ	-11.3005
▁ᎢᏯᏆᏕᏘᏴᏓ	-11.3005
▁ᎤᎾᏓᎪᎾᏙᏗ	-11.3005
▁ᎤᎾᏗᏍᎦᏢ	-11.3005
▁ᎤᏔᏲᎴ	-11.3005
▁ᎤᏩᎬᏘᎶᏓ	-11.3005
▁ᎤᏩᎾᏓᎴ	-11.3005
▁ᎥᏖᎣᎩ	-11.3005
▁ᏁᏥᏪᏎᎸᎭ	-11.3005
▁ᏂᎦᏗᎹᏏ	-11.3005
▁ᏂᏓᏁᏢᏛᎾ	-11.3005
▁ᏂᏗᎬᏩᏓᎴ	-11.3005
▁ᏂᏧᏪᏎ	-11.3005
▁ᏄᏃᎯᏳᏅᎾ	-11.3005
▁ᏒᏗᏩᏟ	-11.3005
▁ᏓᎱᏃᎲ	-11.3005
▁ᏓᎾᏦᎭᏱᎲ	-11.3005
▁ᏓᏂᎳᏍᏓᎳᏩᏗᏒᎢ	-11.3005
▁ᏓᏂᎶᏄᎮᏍ	-11.3005
▁ᏓᏊᎪᏔᏅ	-11.3005
▁ᏓᏟᏰᎵᏙ	-11.3005
▁ᏗᎾᎵᏦᎯᏛ	-11.3005
▁ᏗᏝᏗᏍᏗᏱ	-11.3005
▁ᏙᏛᎾᏓᏡᏔᏂ	-11.3005
▁ᏥᏂᏥᏪᎠ	-11.3005
▁ᏥᏓᎩᎸᏫᏍᏓᏁᎭ	-11.3005
▁ᏥᏕᎭᏘᏁᎭ	-11.3005
▁ᏧᏄᏩᎢ	-11.3005
▁ᏯᏙᎴᎰᏍᎦ	-11.3005
▁ᏱᏓᎴᏂᏙᎭ	-11.3005
▁ᏱᏣᏁᎢᏍᏔᏁᏍᏗ	-11.3005
▁ᏱᏫᏣᏴᎸ	-11.3005
▁ᎤᎩᏠᏫᏎ	-11.3005
▁ᎨᏥᎦᏘᏗᏍᏗ	-11.3005
▁ᎺᎮᎴᎵ	-11.3005
▁ᏂᏚᎾᏁᎶᏛᎾ	-11.3005
▁ᏄᏛᎿᏕᎬ	-11.3005
▁ᏆᎻᏈᎵᏱ	-11.3005
▁ᏓᎦᎫᏴᎯ	-11.3005
▁ᏚᏬᏏᏌᏁ	-11.3005
▁ᏥᎪᎵᏰᏍᎬ	-11.3005
▁ᏨᏓᏯᎢ	-11.3005
ᎵᏍᎨᏗᏴ	-11.3005
▁ᎠᎵᎮᎵᎪ	-11.3005
▁ᎤᏪᏟᏌᏁ	-11.3005
▁ᎹᎻᎵ	-11.3005
▁ᏁᏓᏈ	-11.3005
▁ᏙᏓᏥᏲᎱᏏ	-11.3005
▁ᏙᏗᎾᎵᏍᏓᏴᎲᏍᎬ	-11.3005
▁ᏛᎾᏛᎦᏂ	-11.3005
▁ᏮᏘᏯᏅᎯ	-11.3005
▁ᏳᎵᏃᎯᏰ	-11.3005
▁ᏓᏍᏗᏰᏗᏍᎬ	-11.3005
ᎩᏪᏎᎲᎩ	-11.3005
▁ᎡᎻᎳ	-11.3005
▁ᎢᎦᏗᏍᎦᎶᏗᏱ	-11.3005
▁ᎩᏅᎪᎢ	-11.3005
▁ᏁᎨᏒᎾ	-11.3005
▁ᏂᏨᏴᏁᎸ	-11.3005
▁ᏧᎾᏓᏂᎸᎢᏍᏗᏱ	-11.3005
▁ᏯᏎᎦᎩ	-11.3005
▁ᎠᏲᏓᏝᎲᎢ	-11.3005
▁ᏚᏂᎧᎮᏍᏗ	-11.3005
▁ᏚᏟᏂᏆᏅᏁ	-11.3005
▁ᏮᏘᎶᏏ	-11.3005
▁ᏯᎵᏖᎸᎮᏍᎬᎾ	-11.3005
ᎦᎭᎾᏅ	-11.3005
▁ᎢᏖᎳ	-11.3005
▁ᏂᏪᏎᎸᎭ	-11.3005
▁ᏓᏤᎵᏍᏛ	-11.3005
▁ᏕᎷᎨ	-11.3005
▁ᏬᎩᏅᏍᏔᏅᎩ	-11.3005
▁ᎢᎬᏩᏛᏛᏁ	-11.3005
▁ᏯᏓᏅᏍᎬᎾ	-11.3005
▁ᏥᏄᏩᏁᎸ	-11.3005
▁ᎤᏪᏯᎸᏅᎩ	-11.3005
▁ᎠᎦᏔᏛᏍᎩ	-11.3005
▁ᎤᏎᎦᏨᎯ	-11.3005
▁ᎪᎶᏁᏛ	-11.3005
▁ᎬᏩᏴᎸᎯ	-11.3005
▁ᏘᏰᎸᏂ	-11.3005
▁ᏚᎵᏃᎮᏔᏁᎢ	-11.3005
ᏬᏁᏗᏍᎪ	-11.3005
▁ᎬᏍᎦᎵ	-11.3005
▁ᏧᏘᏲ	-11.3005
▁ᏫᎬᏲᏪᎳᏏ	-11.3005
▁ᎡᏗᏂᏱ	-11.3005
▁ᏄᏍᏆᏂᎩᏛ	-11.3005
▁ᏛᏂᎾᏄᎪᏥ	-11.3005
▁ᎢᏦᎵᎩ	-11.3005
▁ᏣᏔᎳᏬᏍᎬ	-11.3005
▁ᎤᏂᏔᎳᏬᏍᎬᎢ	-11.3005
▁ᏁᏍᏗᏪᏎᎸᎭ	-11.3005
▁ᎢᏳᎾᏛᎾᏕᎩ	-11.3005
▁ᎤᎯᏐᏓᏁ	-11.3005
▁ᎤᏕᏒᏂᎸᎯ	-11.3005
▁ᎤᎾᎵᏃᎯᏴᎯ	-11.3005
▁ᏂᏦᎯᏳ	-11.3005
▁ᏓᏑᏫᏍᎬ	-11.3005
▁ᎠᏍᎫᏕᏒ	-11.3005
▁ᎠᏍᏙᏍᎩ	-11.3005
▁ᎤᎵᏌᎵᏓᏁ	-11.3005
▁ᏱᏗᏣᏰᎸᏁᎢ	-11.3005
▁ᎤᏩᏂᎦᏢ	-11.3005
▁ᎠᏙᏂᏍᎩ	-11.3005
▁ᎦᏄᎾᏓᎴᎩ	-11.3005
▁ᏗᏂᎬᏓᎨᏂ	-11.3005
▁ᎢᏣᏓᏟᏌ	-11.3005
▁ᏓᏥᏯᏓᏙᎵᏍᏓᏁᎵ	-11.3005
▁ᎣᎨᏙᎸ	-11.3005
▁ᏙᏛᎾᎴᏂ	-11.3005
▁ᏯᏂᎷᎬᎾ	-11.3005
▁ᏗᎾᏓᏲᏁᎯ	-11.3005
▁ᏧᎵᎦᎸᏓ	-11.3005
▁ᏂᏗᎨᏥᎾᏝᎥᎾ	-11.3005
▁ᏂᏦᎯᏳᎲᏍᎬᎾ	-11.3005
▁ᏗᎨᎦᏛᏅᎯ	-11.3005
▁ᏗᏐᏂ	-11.3005
ᏓᏫᏍᎦᎨ	-11.3005
▁ᎠᏂᎷᏨᎭ	-11.3005
▁ᎢᏣᏕᏗᏱ	-11.3005
▁ᎤᎬᏍᏕᎵ	-11.3005
▁ᎪᏢᏅᎥᏍᎩ	-11.3005
▁ᏌᎶᎻ	-11.3005
▁ᏓᏆᏓᏂᎸᎨᏍᏗ	-11.3005
▁ᏙᎩᎾᏦᏒ	-11.3005
▁ᎦᎵᏒᏍᏗᏍᎬ	-11.3005
▁ᏕᎫᏓᏛ	-11.3005
▁ᎢᎬᏂᎮᏍᏗ	-11.3005
ᎨᏅᏴ	-11.3005
▁ᏗᎦᎶᎩᏍᎩ	-11.3005
▁ᏗᎾᏓᏙᎵᏍᏓᏁᎯ	-11.3005
▁ᎤᏔᏲᎸ	-11.3005
▁ᎤᎾᎵᏍᏓᏴᏁᏃ	-11.3005
▁ᏂᏓᎾᏓ	-11.3005
▁ᏱᏨᏰᎵᏎᎭ	-11.3005
▁ᏗᏓᏂᏱᏍᎩ	-11.3005
▁ᎩᎵᏯᏗ	-11.3005
▁ᏓᏓᏂᏌᎲ	-11.3005
ᏧᎪᏓᏏ	-11.3005
▁ᏅᏓᏳᎵᏍᎪᎸᏔᏅᎯ	-11.3005
▁ᎢᏣᏄᏬᏍᏕᏍᏗ	-11.3005
▁ᏂᏕᏣᏛᏁᎮᏍᏗ	-11.3006
▁ᏍᎩᏯᏛᎦᏁᎸᎯ	-11.3006
▁ᎤᎿᎷᏎ	-11.3006
▁ᏄᎾᏓᏛᎩ	-11.3006
▁ᏙᏓᏳᏲᏏ	-11.3006
▁ᎤᏁᎢᎸᏗ	-11.3006
▁ᏍᎩᏯᏅᏓᏗᏍᎨᏍᏗ	-11.3006
▁ᎤᏓᏁᏟᏴᏍᏓᏁᎴ	-11.3006
▁ᎩᏂᏙᏓ	-11.3006
▁ᎡᏗᎸᏉᏓ	-11.3006
▁ᏕᎦᎧᎮᏍᏗ	-11.3006
▁ᏚᎾᎭᏄᏮ	-11.3006
▁ᎥᏇᎵᏎᎸ	-11.3006
ᎯᏣᏛᎦᏍᏓ	-11.3006
▁ᎠᎩᎵᏬᎢᏍᏗ	-11.3006
▁ᏂᏕᎦᎵᏍᏗᏍᎨ	-11.3006
▁ᎠᏛᎩᏍᎩ	-11.3006
▁ᎠᏥᏅᏩᏅᎯ	-11.3006
ᏔᎴᏐ	-11.3006
▁ᏅᏛᏂᏪᏏ	-11.3006
ᎬᏲᎵᎭ	-11.3006
▁ᏓᎬᏅᏏ	-11.3006
▁ᏗᎩᏂᏴᏗᏱ	-11.3006
▁ᏴᎨᏥᎪᏩᏛ	-11.3006
ᏯᏛᏁᎮᏍᏗ	-11.3006
▁ᏓᏂᏂᏓᏛ	-11.3006
▁ᏣᎵᏍᏓᏴᏗ	-11.3006
▁ᏗᎫᏓᏙᏗ	-11.3006
▁ᏧᎾᏓᏅᏬᏗᏱ	-11.3006
ran	-11.3006
▁ᏫᏄᎾᎵᏍᏓᏏ	-11.3006
▁ᏗᎦᏃᏙᏗᏱ	-11.3006
▁ᎠᏂᏁᏉᎨ	-11.3006
▁ᎠᏍᎦᏲᎯ	-11.3006
▁ᎬᏍᎦᏅᏤᎸ	-11.3006
▁ᎾᏆᏛᏁᎵᏙᎸ	-11.3006
▁ᏗᏗᏰᎸ	-11.3006
▁ᎤᏁᎵᏨ	-11.3006
▁ᏳᏲᎱᏎᎸ	-11.3006
▁ᎤᎸᏫᏒ	-11.3006
▁ᎬᏩᏂᏅᏫᏍᏔᏂᏙᎯ	-11.3006
▁ᏂᏨᏁᎮᏍᏗ	-11.3006
▁ᏧᎵᎩᏏ	-11.3006
▁ᎠᎾᏟᎲ	-11.3006
ᏓᏒᏍᏓ	-11.3006
ᎬᏩᏳᎪᏗ	-11.3006
ᏍᏓᏩᏗᏒᎩ	-11.3006
▁ᏕᎬᏩᏠᏎᎢ	-11.3006
▁ᎫᎭᎳ	-11.3006
▁ᏧᏭᏓᎴᏍᏗᏱ	-11.3007
▁ᏓᏍᏆᏚᎸ	-11.3007
▁ᎢᏥᎧᎵᏣ	-11.3007
▁ᎠᎾᏟᏃᎮᏍᎬ	-11.3007
▁ᏓᏅᏩ	-11.3007
▁ᏚᎩᏒᎩ	-11.3007
▁ᎤᏓᎾᏏᏅ	-11.3007
ᏠᏯᏍᏗᏍᎨᏍᏗ	-11.3007
▁ᎪᏢᏛᎩ	-11.3007
▁ᏧᏁᏅᏒ	-11.3007
▁ᎠᎩᏲᏏᏍᎬ	-11.3007
▁ᏚᏁᏅᏒ	-11.3007
▁ᏃᎦᏛᏅ	-11.3007
▁ᏗᎩᏣᏗ	-11.3007
▁ᏭᏓᏓᎩᏅᏎ	-11.3007
▁ᎢᏍᏗᏙᏓ	-11.3007
▁ᏫᏲᏪᎳᏏ	-11.3007
▁ᎡᎶᏂᎵ	-11.3007
▁ᏗᏂᎦᏘᎴᎩ	-11.3007
ᏏᏀᎥ	-11.3007
ᎫᏘᎶ	-11.3007
▁ᎠᏆᎵᏥᏙᏗᏱ	-11.3007
▁ᏱᏂᏓᎦᎵᏍᏔᏂ	-11.3007
▁ᎤᏓᏍᏛᏗᏍᏗ	-11.3007
▁ᏚᏙᏓᏈᏒ	-11.3007
▁ᏚᎵᎬᏩᏢ	-11.3007
▁ᏫᎦᎢᏒ	-11.3007
▁ᏭᏕᏁᎢ	-11.3007
▁ᏱᏄᏩᏁᎰ	-11.3007
▁ᎢᎬᏩᏍᏗᎭ	-11.3007
▁ᏕᏣᏓᎨᏳᏎᏍᏗ	-11.3007
ers	-11.3008
▁ᏱᏓᏲᎩ	-11.3008
▁ᎠᏓᏅᏖᎸ	-11.3008
ᎾᏞᎬ	-11.3008
▁ᎠᏓᎦᎵᏍᏓᏗᏍᎩ	-11.3008
▁ᏘᎹᏂ	-11.3008
▁ᏙᏓᎬᏁᎵ	-11.3008
▁ᏥᏕᏣᎸᏫᏍᏓᏁᎭ	-11.3008
▁ᎤᏪᎷᏅ	-11.3008
▁ᏕᏣᎧᎿᏩᏗᏙᎮᏍᏗ	-11.3008
ᏈᎪᎵ	-11.3008
▁ᏕᎦᎵᏦᏛ	-11.3008
▁ᎣᏣᎵᎡᎵᏤ	-11.3008
▁ᎤᏂᎧᎲ	-11.3008
▁ᏥᏍᎦᏅᎩ	-11.3008
▁ᎤᏅᏂᏍᏗᏱ	-11.3008
▁ᏗᎤᏁᏤ	-11.3008
▁ᎠᏂᏍᏆᏂᎪᏍᎨ	-11.3008
▁ᏚᎪᏄᎶᏎ	-11.3008
▁ᏌᎪᏗ	-11.3008
▁ᎢᏥᎩᎵᏲᎬᎢ	-11.3008
▁ᎬᏩᏂᏍᏓᏩᏗᏙᎯ	-11.3008
▁ᏧᏓᏅᏓᏗᏍᏙᏗᏱ	-11.3008
▁ᏧᏪᎷᏁ	-11.3008
▁ᏧᏅᎨᏫ	-11.3008
▁ᏗᏓᏙᏕᏍᏗᏍᎩ	-11.3008
▁ᏚᏃᎩᏎ	-11.3008
▁ᏗᏂᏙᎬ	-11.3008
▁ᏗᏜᏍᏔᏅᎯ	-11.3009
ᎵᏍᏘᏂᎸ	-11.3009
▁ᏗᎩᏙᏓ	-11.3009
▁ᎤᏂᏃᎮᏛ	-11.3009
▁ᏄᏂᎪᎸᎾ	-11.3009
▁ᎱᎷᏨ	-11.3009
▁ᏂᏗᏣᏓ	-11.3009
▁ᎠᎩᏲᎱᎯᏍᏗᏱ	-11.3009
▁ᏗᎬᏯᏠ	-11.3009
▁ᎤᎾᏓᏛᏅᎯ	-11.3009
▁ᎢᏣᎵᏍᏓᏴᏗᏍᎨᏍᏗ	-11.3009
ᏅᏓᏥᏪᏎᎵ	-11.3009
▁ᏓᎦᎾᏄᎪᏫᏏ	-11.3009
▁ᏣᎩᏯᎠ	-11.3009
▁ᎬᏬᎳᏕᏍᎬ	-11.3009
▁ᏗᏂᏁᎵᏛ	-11.3009
▁ᎠᏥᏂᏌᏅ	-11.3009
▁ᏂᏓᎾᏤ	-11.3009
▁ᎠᎵᏍᏆᏓ	-11.3009
▁ᏓᎬᎷᏤᎵ	-11.3009
▁ᎡᏣᏙᎵᎩ	-11.301
▁ᏍᎩᏲᏍᏓ	-11.301
▁ᎭᏠᎠᎯ	-11.301
▁ᎢᏥᎦᏛᏂᏙᎯᏉ	-11.301
▁ᏅᏯᏗᎦᎪᏗᏱ	-11.301
▁ᎦᎶᎪᏗ	-11.301
▁ᏱᎦᏬᏂᎭ	-11.301
▁ᎤᎾᏨᏓᎵ	-11.301
▁ᎣᎩᎵᏦᏩᏛ	-11.301
▁ᏗᏍᎩᏲᎯᏏ	-11.301
▁ᎠᎩᎩᎬ	-11.301
▁ᎤᏰᎶᎢᏍᏔ	-11.301
▁ᏦᏚᎯ	-11.301
▁ᏗᎨᏥᏲᎯᏎᎸᎯ	-11.301
▁ᏧᏬᏪᎳᏁ	-11.301
▁ᎠᏥᏂᏌᏁ	-11.301
▁ᎤᏣᏪᏐᎸᏍᏕ	-11.301
▁ᏅᏓᏳᎶᎯᏍᏗᏱ	-11.301
▁ᏁᏓᏂᎵ	-11.3011
▁ᏌᏆᏯ	-11.3011
▁ᎾᎩᎲᎾ	-11.3011
▁ᏧᎾᏂᏏᏗᏱ	-11.3011
ᎫᏓᎴᏍᎩ	-11.3011
▁ᏂᎦᏖᏍᏗ	-11.3011
ᏍᏕᎵ	-11.3011
▁ᏧᏙᏍᏙᏗ	-11.3011
ᏰᎸᎾ	-11.3011
▁ᎤᎩᏢ	-11.3011
▁ᏂᎨᏨᏁ	-11.3011
▁ᎨᏥᎩᎵᏲᎢᏍᏙᏗᏱ	-11.3011
▁ᏕᎧᏅ	-11.3011
▁ᎤᏗᏩᏒᎯ	-11.3012
▁ᏓᎶᎨ	-11.3012
▁ᏧᎦᏌᏬᎸ	-11.3012
▁ᎢᏓᎻ	-11.3012
ᎾᎵᏍᏓᏁᏗ	-11.3012
▁ᏧᏬᏪᎶᏗ	-11.3012
ᎦᎫᏍᏓᎥ	-11.3012
▁ᎠᎦᏙᎥᎯᏍᏙᏗ	-11.3012
▁ᏕᎰᏢᏅᎭ	-11.3012
ᏂᎸᎬᎾ	-11.3012
▁ᎪᎭᏗ	-11.3012
▁ᎯᏌᏙᏯ	-11.3012
▁ᎢᏣᏛᏁᎸᎯ	-11.3012
▁ᎤᎾᎵᏍᏓᏴᏁᎢ	-11.3012
▁ᏛᏂᎪᎯ	-11.3013
▁ᏱᏥᏯᎠ	-11.3013
▁ᎪᎵ	-11.3013
▁ᎤᎾᏓᏅᏓᏕᎢ	-11.3013
▁ᎠᏂᏏᎾᏌᏅ	-11.3013
▁ᎤᏯᏪᏐᎴ	-11.3013
▁ᎧᏃᎨᏂ	-11.3013
▁ᎤᏄᎩᏣᏁ	-11.3013
ᎾᏙᏓᏆᏍᏗ	-11.3013
▁ᎠᏓᏛᏗᏍᎩ	-11.3013
▁ᎢᏗᎬᏁᎸᎯ	-11.3013
▁ᏧᎾᏨᏍᏗᏱ	-11.3013
▁ᏳᏃᎵᏤ	-11.3013
▁ᎣᎩᏅᏏᏓᏍᏗ	-11.3013
▁ᏗᏥᏅᏏᏓᏍᏗ	-11.3013
▁ᎣᎩᎷᏤᎸ	-11.3013
▁ᏯᏕᎶᎰᏍ	-11.3014
▁ᎭᎦᏌᏯᏍᏓ	-11.3014
▁ᏗᏂᎾᏕᎩ	-11.3014
▁ᎠᏓᏴᏍᏔᎩᏍᎩ	-11.3014
▁ᎤᏁᏐᎠᏒᎩ	-11.3014
▁ᎬᏩᎾᏰᏍᎩ	-11.3014
▁ᎴᎹᎩ	-11.3014
▁ᎠᏥᎶᎥ	-11.3014
▁ᎦᏌᎴᏅ	-11.3014
▁ᏍᏊᏓᎳᎩ	-11.3014
ᏓᏅᏛᎳ	-11.3014
▁ᏣᏍᎦᎸᎩ	-11.3014
▁ᏂᏚᏂᏪᏎᎸᎩ	-11.3014
▁ᎰᎯᏳᎲᏍᎦ	-11.3014
▁ᏧᏄᎪᏔᏅ	-11.3014
▁ᏚᏭᏓᏔᏅᎩ	-11.3014
▁ᏚᏂᏚᎲ	-11.3014
▁ᎠᏗᏔᏍᎨᏍᏗ	-11.3015
▁ᏓᏕᏏ	-11.3015
▁ᎠᏍᏆᏂᎪᎯᏍᏗ	-11.3015
▁ᎤᎾᏗᏔᏍᏗ	-11.3015
▁ᎤᎵᏨᏓᏆᏛ	-11.3015
▁ᎠᏖᎵᏙᎩᎯ	-11.3015
▁ᏯᏆᏛᏁᎸ	-11.3015
▁ᏧᏂᏄᎪᏫᏍᏗᏱ	-11.3015
▁ᎤᏁᏍᏔᎳ	-11.3015
▁ᎢᏣᎵᏏᎾᎯᏍᏗ	-11.3015
▁ᎢᏥᏴᏍᏗᏱ	-11.3015
▁ᏕᎦᎶᏛ	-11.3016
▁ᎤᏩᏂᎸᎩ	-11.3016
▁ᎬᏩᏄᎯ	-11.3016
▁ᏗᏣᎵᏂᎩᏗᏳ	-11.3016
▁ᏣᏰᎸᏅ	-11.3016
▁ᎻᏗᏂᏱ	-11.3016
▁ᏫᏥᎶᎯ	-11.3016
ᎤᏁᏨ	-11.3016
ᏚᎧᎾᎾ	-11.3016
ᏪᏎᎸᎯ	-11.3016
▁ᏗᎵᏍᏚᎶ	-11.3016
▁ᎢᏥᏯᎥᎢ	-11.3016
ᏕᏯᏙᏗ	-11.3016
▁ᏱᎰᏣ	-11.3016
▁ᎤᎾᏛᏅᎢᏍᏔᏁ	-11.3016
▁ᏗᎧᎿ	-11.3016
▁ᏥᏥᏯᎠ	-11.3017
▁ᎢᏯᏋᏁᏗᏱ	-11.3017
▁ᎤᏓᎪᎵᏰᏗ	-11.3017
▁ᎬᎩᏁᏤᎸᎯ	-11.3017
▁ᎡᏥᎨᏳᎢ	-11.3017
▁ᎠᎩᏅᏏᏓᏍᏗ	-11.3018
▁ᎠᏂᎨᏳᏣ	-11.3018
▁ᎣᏥᏃᎮᏍᎩ	-11.3018
▁ᎤᏓᏅᎡᎸᎩ	-11.3018
ᏍᏔᏁᎰ	-11.3018
▁ᎤᎾᎵᏓᎩᏛ	-11.3018
▁ᎬᏩᏂᏴᏗᏱ	-11.3018
▁ᎤᏓᏅᏓᏕᎢ	-11.3018
▁ᏅᏧᏪᏎᎢ	-11.3018
▁ᎤᏙᏯᏅᎯᏛ	-11.3018
▁ᎤᏓᏱᎴᎢ	-11.3018
▁ᎤᏇᏓᏢ	-11.3019
▁ᏥᏄᎾᏍᏗ	-11.3019
▁ᎤᎾᏛᏅᎢᏍᏗ	-11.3019
▁ᏳᎨᏳᎭ	-11.3019
▁ᎤᏂᏍᏆᏂᎪᏔᏅ	-11.3019
▁ᏗᎦᏃᎸᏗᏍᎬ	-11.3019
▁ᎤᎾᏍᎪᏎ	-11.3019
▁ᏦᎨᏅᏒ	-11.3019
ᏍᏓᏱᏗᏍᏗᏱ	-11.3019
▁ᎤᏁᏍᏓ	-11.302
▁ᏧᎵᏏᎬ	-11.302
▁ᎦᎬᏩᏐᏢᏕᎢ	-11.302
▁ᏫᎤᎶᏎᎢ	-11.302
▁ᎤᏂᎾᏰᎯᏍᏗ	-11.302
▁ᎤᎾᏓᏍᏔᏴ	-11.302
▁ᏥᏥᎪᏩᏘᎭ	-11.302
▁ᏁᏪᏎᎴᎢ	-11.302
ᏩᏘᏍᎩ	-11.3021
ᏌᎩᏒ	-11.3021
▁ᏒᎦᎾᏲᎪ	-11.3021
▁ᎥᎦᏥᎪᎥᎩ	-11.3021
▁ᏧᎾᎵᏍᏓᏴᏗᏱ	-11.3021
▁ᏕᎩᎸᏫᏍᏓᏁᎲ	-11.3021
▁ᏅᏋᏁᎸ	-11.3021
▁ᏭᏩᏅᏓᏕ	-11.3021
▁ᎣᎦᎵᎪᏅ	-11.3021
▁ᎤᎧᎭᏲᏛ	-11.3021
▁ᎦᎸᏍᏙᏗ	-11.3021
▁ᏕᎦᏃᏣᎸ	-11.3021
▁ᎣᎦᏚᎵᏍᎬ	-11.3022
▁ᎤᏓᏅᎦᎸᏓ	-11.3022
▁ᏓᎩᏲᎯᏎᎸ	-11.3022
▁ᏗᎵᏍᎪᎸᏔᏅᎯ	-11.3022
▁ᎭᏙᎴᎰᎯ	-11.3022
▁ᎡᎦᏔ	-11.3022
▁ᏳᎷᏨ	-11.3022
▁ᎠᏗᏍᎦᎶᏗ	-11.3022
▁ᏚᏌᎳᏓᏅ	-11.3023
▁ᎠᎾᎦᎵᏍᎩ	-11.3023
ᏒᏁᎰ	-11.3023
▁ᎠᏁᎷᎲᏍᎨ	-11.3023
▁ᏥᏐᎯ	-11.3023
▁ᏓᏍᎩᏁᎵ	-11.3023
▁ᏱᏂᏣᏛᏁᎸ	-11.3023
▁ᎢᏥᎷᏨᎭ	-11.3023
▁ᏧᏄᎪᏙᏗᏱ	-11.3023
▁ᏂᎬᏩᏂᏪᏎ	-11.3023
▁ᎢᏣᏛᎪᏗᏱ	-11.3023
▁ᎢᏳᏂᏪᏍᏗᏱ	-11.3023
▁ᏧᏂᎷᏫᏍᏔᏁᏗ	-11.3023
▁ᏚᏲᎵᎸ	-11.3023
▁ᎤᎾᎵᏍᏓᏴᏅᎯ	-11.3023
▁ᎯᏥᏧᏣ	-11.3023
▁ᏚᏂᏲᏎ	-11.3023
▁ᏓᏞᏍᏗ	-11.3023
▁ᎠᎦᎫᏴᎡᏗ	-11.3023
▁ᎶᏔᏂ	-11.3024
▁ᏧᏏᎳᏛᏙᏗ	-11.3024
▁ᎠᏆᏡᏗᏍᎩ	-11.3024
▁ᏓᏥᎷᏥ	-11.3024
ᏗᎦᎴᏲᏤ	-11.3024
ᎦᎿᏩ	-11.3024
▁ᎠᏨᏏᏰᏗ	-11.3025
▁ᎾᎾᏛᏁᎮᏍᏗ	-11.3025
▁ᎢᏥᎦᏔᎰ	-11.3025
▁ᎤᏩᏇᏅᏔᏁ	-11.3025
▁ᏱᏣᏞ	-11.3025
▁ᏭᏘᏅᏍᏔᏁᎢ	-11.3026
▁ᎤᏓᎷᎸ	-11.3026
▁ᎠᏛᎯᏍᏗᏍᎩ	-11.3026
▁ᎠᏔᏲᎯᎮᏍᏗ	-11.3026
▁ᎤᏂᏰᏨ	-11.3026
▁ᎤᏪᏙᎵᏤᎢ	-11.3026
▁ᎤᏓᏴᎳᏔᏅ	-11.3026
▁ᎠᏲᎱᏍᎨᏍᏗ	-11.3026
▁ᏭᏴᏍᏗᏱ	-11.3026
▁ᎤᏁᎳᏗᏍᏗᏱ	-11.3027
▁ᎧᏃᏍᎦ	-11.3027
▁ᎦᎾᏄᎪᏥᎸᎭ	-11.3027
▁ᏥᏍᎦ	-11.3027
▁ᎤᏘᏅᏎ	-11.3027
▁ᎤᎬᏍᎪᎸᏁ	-11.3027
▁ᎡᏥᏁᎸ	-11.3028
▁ᏤᏏᏂ	-11.3028
▁ᏗᎦᎸ	-11.3028
▁ᎨᏥᏰᎸᎯ	-11.3028
▁ᏗᎦᎫᏍ	-11.3028
▁ᏥᎧᏍᎨᏂ	-11.3029
▁ᎢᏣᏙᎴᎰᎯ	-11.3029
▁ᎡᏥᎦᏔᎭ	-11.3029
▁ᏱᎾᏛᎦ	-11.3029
▁ᎠᏂᏐᏢᎢᏍᏗᏍᎩ	-11.3029
▁ᏚᏅᏩᏅᎩ	-11.3029
▁ᏫᏓᏆᎧᎾᏅᎩ	-11.3029
▁ᎤᏂᏁᎢᏍᏗᏱ	-11.303
▁ᏂᏕᎲᏁ	-11.303
▁ᎬᎭᏃ	-11.303
▁ᎤᏍᏔᎦ	-11.303
▁ᎤᎩᎵᏲᎢᏍᏗᏱ	-11.303
▁ᎤᎾᏓᏅᏍᏗᏱ	-11.303
▁ᏕᏛᏅ	-11.3031
▁ᏳᏪᎾ	-11.3031
▁ᎮᎮᏍᏗ	-11.3031
▁ᏚᏪᏐᏤ	-11.3031
▁ᎠᏤᎷᎯᏍᏗ	-11.3031
▁ᎯᏍᎩᏍᏆ	-11.3032
▁ᎾᏅᏁᎰ	-11.3032
▁ᎪᏍᏔᏴ	-11.3032
ᎠᏍᎦ	-11.3033
ᏐᏍᏙᏗ	-11.3033
▁ᎠᏆᏕᏗᏱ	-11.3033
▁ᎠᏥᎤᏍᏕᏎ	-11.3033
ᏌᎳᏙᏗᏱ	-11.3033
ᎾᏝᎥᎾ	-11.3034
▁ᎤᎾᏠᎾᏍᏛ	-11.3034
▁ᏚᎵᏰ	-11.3034
▁ᎤᏍᏆᏂᎩ	-11.3034
▁ᎠᏅ	-11.3035
▁ᎤᎾᏗᏔᏍᏗᏱ	-11.3035
▁ᎬᏩᏂᏴᎲᎩ	-11.3035
▁ᏣᎾᏗᎭ	-11.3035
ᏍᎩᏰᎵᏎᎮᏍᏗ	-11.3035
▁ᎤᎵᏌᎳᏓᏁ	-11.3036
▁ᎠᏂᏣᏗ	-11.3037
▁ᏔᏔ	-11.3037
▁ᏱᏓᏚ	-11.3037
▁ᎠᏲᏍᏙᏗ	-11.3037
▁ᏧᏍᏕᎸᏗᏱ	-11.3037
▁ᎠᏂᎦᏘᏴ	-11.3038
▁ᎢᎬᏴ	-11.3038
▁ᎠᏍᏓᏱᏗᏍᎩ	-11.3038
ᏦᎦᏓᎵ	-11.3038
▁ᎠᎩᏁᏤᎸᎩ	-11.3038
▁ᎩᎳᏊ	-11.3039
▁ᏗᏍᏕᎵᏍᎩ	-11.304
▁ᏗᎬᏩᏁᎶᏗ	-11.304
▁ᏣᎦᏙᎥᎯᏍᏗᏱ	-11.304
▁ᏧᏏᎳᏛᏗ	-11.3041
ᏓᏙᎵᏍᏓᏁᎭ	-11.3041
▁ᎠᎾᏓᏩᏛᎯᏙᎢ	-11.3041
▁ᎤᏅᏓᏗᏗᏒᎢ	-11.3041
▁ᏓᏓᏁᎳᏗᏒᎢ	-11.3041
▁ᏗᏆᏓᎴᏅᎢ	-11.3041
▁ᏚᏠᏒᏎᎢ	-11.3041
▁ᏚᏚᎪᏔᏅᎢ	-11.3041
▁ᎤᏓᏏᏁᎢ	-11.3041
▁ᎤᏂᏌᏛᏗ	-11.3041
▁ᏕᏣᏓᏘᎾᎥᎢ	-11.3041
▁ᏧᎾᏄᎪᏫᏎᎴᎢ	-11.3041
▁ᏳᏫᎦ	-11.3042
▁ᏓᎬᏩᎵ	-11.3042
▁ᏗᏒᏆᎶᏍᏗ	-11.3042
▁ᏣᏍᎦᎩ	-11.3042
▁ᏚᎾᏄᎪᏫᏎᎢ	-11.3042
▁ᎢᏣᏂᎩ	-11.3042
▁ᏧᏛᏒ	-11.3042
▁ᎠᏕᎸᏓᎶᏂᎨ	-11.3043
▁ᏙᏣᏓ	-11.3043
▁ᎤᏛᎦᏍᏔᏁᎢ	-11.3043
▁ᏗᎦᎵᏦᏛᎢ	-11.3043
ᏍᏓᏁᎭ	-11.3043
▁ᏚᎾᏓᏂᎸᏨ	-11.3043
▁ᏍᎩᎨᏳᎯᏳ	-11.3044
ᏅᏍᏔᏅᎯ	-11.3044
▁ᎧᏁᎨᎢ	-11.3045
▁ᎠᏂᎦᏔᎮᏍᏗ	-11.3045
▁ᎣᏤᎲᎢ	-11.3045
ᎧᎲᏍᏗᏱ	-11.3045
▁ᏣᏚᎵᎭ	-11.3045
▁ᏴᎦᎬ	-11.3045
▁ᎤᎵᏏᎾᎯᏍᏗ	-11.3046
▁ᎤᏂᏲᎸᎩ	-11.3046
▁ᎠᎩᏰᎯ	-11.3046
▁ᎤᏢᎦ	-11.3046
▁ᎣᎦᏓᏅᏔᏩᏕ	-11.3047
▁ᎠᏓᎾᏅ	-11.3047
▁ᏥᏃᎪᎢ	-11.3047
▁ᏂᎤᏍᏗ	-11.3047
▁ᎤᎾᏛᏓᏍᏛ	-11.3047
▁ᎠᏥᏯᏅᎲ	-11.3047
ᎬᎭᎷᏰᎢ	-11.3048
▁ᎠᏍᏆᏂᎪᏛ	-11.3048
▁ᎠᏍᎦᎢᎮᏰᏃ	-11.3048
▁ᎮᏙᎭ	-11.3049
▁ᏄᏁᎩᏴ	-11.3049
▁ᎾᏆᎵᏍᏓᏁᎸᎩ	-11.3049
ᏛᏂᏗᏍᏕᏍᏗ	-11.3049
▁ᏥᏚᏁᏤᎴ	-11.305
▁ᏕᎨᏥᏲ	-11.305
▁ᏳᏛᎦ	-11.305
ᏍᏆᏂᎪᏔᏅ	-11.305
▁ᎢᎬᏩᏅᏁ	-11.305
▁ᎠᏥᏍᏛᏗᏍᏙᏗ	-11.3051
▁ᎾᏂᎠ	-11.3051
ᏍᏚᎲᏍᎪ	-11.3051
▁ᎤᎾᏄᎪᎢᏍᏗᏱ	-11.3052
▁ᎤᏁᏉᎢᏍᏗᏱ	-11.3052
ᏄᏪᏎ	-11.3052
▁ᏕᏥᎳᏫᎩ	-11.3052
▁ᎠᎫᏤᎵ	-11.3053
▁ᎤᏁᏙᎴᎢ	-11.3053
▁ᏧᏍᎩᏃ	-11.3053
▁ᎠᏂᎵᎾ	-11.3054
▁ᎠᎩᎸᏙᏗ	-11.3054
▁ᎤᏪᏁ	-11.3054
▁ᏧᏅᎪᏤ	-11.3055
▁ᏧᏂᏍᏓ	-11.3055
▁ᎤᏁᎫ	-11.3055
▁ᎤᎾᎵᎪᎲ	-11.3055
▁ᏚᏑᏰᏒ	-11.3055
▁ᎤᎾᏛᎦ	-11.3056
▁ᎠᏓᏅᏙᎩᎯ	-11.3056
▁ᏯᎩᏰᎸᎭ	-11.3056
▁ᎠᏯᏫᏍ	-11.3056
▁ᏗᎻᎾ	-11.3057
▁ᏚᎾᏔᏅᎩ	-11.3058
ᎵᏍᏔᏅᎯ	-11.3058
ᎧᏁᏗ	-11.3058
ᎷᏤᎴᎢ	-11.3059
▁ᎤᏁᎸᏙᏗ	-11.3059
▁ᎨᏥᏍᏕᎸᏗᏱ	-11.3059
▁ᎪᎹᎵᏱ	-11.3059
▁ᎤᏂᎶᏐᏅ	-11.3059
▁ᏂᏚᏛᏁᎸ	-11.3059
▁ᎦᎵᎡᎵ	-11.3059
▁ᎠᏂᎦᏔᎯᏳ	-11.306
▁ᏗᏤᏅᏒ	-11.3061
ᎨᎮᎩ	-11.3061
▁ᏚᏂᏲᎱᏒᎩ	-11.3061
▁ᏕᏥᎧᏅ	-11.3061
▁ᎠᎾᏓᏅ	-11.3061
▁ᏂᎪᎯ	-11.3062
▁ᏄᏪᎡᎢ	-11.3063
▁ᏧᏪᎳ	-11.3063
▁ᎣᎦᏛᎦᏅᎯ	-11.3063
▁ᎣᎦᏣᏅᎩ	-11.3064
▁ᎣᏥᏬᏂᏍᎬ	-11.3064
▁ᎾᏆᏛᏅᎢ	-11.3065
▁ᎤᏔᎳᏬᏍᎬᎢ	-11.3065
▁ᎣᎦᏤᎵᎦ	-11.3065
▁ᏮᏓᏥ	-11.3065
▁ᏚᏪᏲᏁᎢ	-11.3065
▁ᎤᏪᏓᏍᏗᏱ	-11.3065
ᏅᏬᏒ	-11.3066
▁ᎤᏢᎬᎩ	-11.3066
▁ᎠᏫᎾᎨᏍᏗ	-11.3066
ᏲᏓᎬ	-11.3067
▁ᎩᏥ	-11.3067
▁ᎤᏍᎩᏓᏎᎢ	-11.3067
ᎦᏔᎿᎢ	-11.3067
▁ᎤᏂᎩᏌ	-11.3067
▁ᎮᏙᎲᎢ	-11.3068
▁ᎤᎧᎵᎢᏍᏗᏱ	-11.3068
▁ᎤᏂᏰᎸᏗ	-11.3068
▁ᎤᏂᏬᏂᏒ	-11.3068
▁ᎦᎵᏦᏅ	-11.3068
▁ᏅᏓᏍᎩ	-11.3069
ᎬᏂᏛ	-11.3069
▁ᏥᏧᏏ	-11.3069
▁ᎤᏛᏛᏅᎩ	-11.307
▁ᏳᏁᎭ	-11.307
▁ᏥᏤᎾ	-11.3071
▁ᎤᏰᎸᏒ	-11.3071
▁ᏧᏓᎴᏅᎢ	-11.3071
▁ᎠᏗᏅᏓ	-11.3072
▁ᎤᎾᏁᎶᏔᏅ	-11.3073
▁ᎡᏥᎦᏙᎥ	-11.3073
▁ᏧᏄᏬᏍᏗ	-11.3073
▁ᎠᏈ	-11.3074
▁ᏤᏙᎭ	-11.3074
ᏬᎥᎯ	-11.3074
▁ᎦᎷᎩ	-11.3075
▁ᏣᏠᎾᏍᏗ	-11.3075
▁ᎤᎵᏦ	-11.3075
ᏛᏛᎲᏍᎨᏍᏗ	-11.3076
▁ᎡᏓᏍᏗᏱ	-11.3076
▁ᏕᏓᏓᎪᎲᏳ	-11.3076
▁ᎠᏑᏫᏍ	-11.3077
▁ᎢᏓᎵᎮᎵᎩ	-11.3077
▁ᎤᏓᏙᎵᏍᏔᏅᎩ	-11.3077
▁ᎤᏃᎮᎸᎯ	-11.3077
▁ᎤᎵᏓᏍᏔᏅ	-11.3078
ᎳᏫ	-11.3078
▁ᎪᏢᏗᏱ	-11.3078
▁ᎢᎳᎻ	-11.3078
▁ᏭᎶᏒᏍᏛ	-11.3079
▁ᎢᏥᏍᏆᏂᎪᏙᏗᏱ	-11.3079
ᎩᎦᏘᏛ	-11.3079
ᏕᎨᏍᏗ	-11.308
▁ᏚᏭᎪᏔᏁᎢ	-11.308
ᏕᎭᏲ	-11.308
▁ᎤᏂᏴᎲᎩ	-11.3081
▁ᏱᎦᏔᎭ	-11.3082
ᎵᏍᎪᎸᏓᏁᎰ	-11.3085
▁ᎠᏁᎨ	-11.3085
▁ᎦᎵᏙᏗ	-11.3085
▁ᎩᎦᎨᏍᏛᏱ	-11.3086
▁ᎤᏂᏍᏆᏂᎪᏙᏗᏱ	-11.3086
▁ᎧᏃᎮᎭ	-11.3087
▁ᏧᏓᎵ	-11.3087
▁ᏓᏰᏙᎳᏛᎢ	-11.3088
▁ᎢᎨᎦ	-11.3088
▁ᎤᏰᎸᏒᎩ	-11.3088
▁ᎪᎵᎩ	-11.3088
▁ᏣᏁᏨᎢ	-11.3089
▁ᎤᏍᏓᏩᏛᏎᎢ	-11.3089
▁ᎤᎵᏖᎸᏁᎢ	-11.309
▁ᎢᏳᏅᏂ	-11.309
ᎳᏁᎸᎯ	-11.309
▁ᎢᏨᏁᏗᏱ	-11.3091
▁ᎤᏂᏄᎪᏤᏃ	-11.3092
▁ᏚᏪᏟᏌᏅ	-11.3092
ᎩᏍᎬᎢ	-11.3093
▁ᏗᏣᎵᎢ	-11.3093
▁ᎠᏥᏍᏕᎸᏗᏱ	-11.3094
▁ᎠᎵᎮᎵᏤᏗ	-11.3094
▁ᏗᏂᏁᎯ	-11.3095
▁ᏓᏘᏁᎲ	-11.3095
▁ᏬᏥ	-11.3095
▁ᎤᏍᎦᎴᎢ	-11.3096
▁ᏳᏛᎾ	-11.3096
▁ᏂᏓᏅ	-11.3096
ᏏᏙᎴ	-11.3096
▁ᎠᎩᎾᏫᏱ	-11.3096
ᏟᎶᏍᏔᏅ	-11.3097
▁ᏧᎶᏎᎢ	-11.3097
▁ᏕᏦᏕᏍᏗ	-11.3097
▁ᏱᏕᎬ	-11.3098
▁ᎨᎦᎵᏥᏙᏁ	-11.3102
▁ᎡᏓᏓᏙᎵᏍᏓᏁ	-11.3102
ᏙᏔᏅᎩ	-11.3102
▁ᎢᏥᏰᎸᎭ	-11.3103
▁ᎤᏲᏍᏔᏅᎯ	-11.3103
▁ᏴᎬᎾ	-11.3104
ᎯᏍᏔᏅ	-11.3104
▁ᎢᏯᏋᏁ	-11.3106
▁ᎤᏬᏢᏗᏱ	-11.3107
▁ᏇᎯ	-11.3108
▁ᎬᎨᏳ	-11.311
▁ᏥᏂᏣᏛᏁᎸ	-11.311
ᎦᎨᏗᏳ	-11.3111
▁ᏙᏌ	-11.3111
ᏨᏒᎩ	-11.3111
▁ᎠᏂᎦᏔᎭ	-11.3111
▁ᎤᏯᎠ	-11.3112
▁ᎢᏧᏍᏗ	-11.3112
ᎤᏅᏗ	-11.3112
▁ᏂᏓᏕᏘᏴᎯᏒᎢ	-11.3112
▁ᏗᎦᏁᎸᎢ	-11.3112
ᏛᏅᎢᏍᏗᏍᎨ	-11.3113
ᎾᏓᏡᎩ	-11.3113
▁ᎤᎾᏓᏅᏖᎸᎩ	-11.3114
▁ᎦᎾᏄᎪᏫᏍᎪ	-11.3114
▁ᏚᏂᎲᎢ	-11.3115
▁ᎤᏂᏍᏚ	-11.3115
▁ᏩᏌ	-11.3116
▁ᏓᏰᏙᎳᏛ	-11.3116
ᏥᎳᏫᏎᎲ	-11.3117
▁ᏚᏯᏍᏗ	-11.3117
▁ᏦᏕ	-11.3118
▁ᎤᏗᎴᎲᏍᎬ	-11.3118
ᎦᏙᏍᏙ	-11.3118
ᏌᎻ	-11.3118
▁ᏗᏆᏄᏬ	-11.3119
ᎪᎲᏍᎬ	-11.312
▁ᎤᏂᏅᏅᎢ	-11.3121
ᏍᎦᏅᎾ	-11.3121
ᎬᏗᎭ	-11.3122
ᎶᏘ	-11.3122
▁ᎢᏳᏲ	-11.3123
▁ᎣᏏᏉᏍᎪ	-11.3123
▁ᏆᎷ	-11.3126
▁ᏂᎨᏒ	-11.3126
▁ᎤᏬᏂᏒᎩ	-11.3128
▁ᎤᏁᏙᎸᎢ	-11.3128
▁ᎤᏛᏗᏱ	-11.3129
▁ᏑᏓᎨ	-11.3129
▁ᎤᏓᏰ	-11.3129
▁ᎤᏯᏅᎮᎢ	-11.3132
▁ᎤᏂᏁᏨᎯ	-11.3133
ᎵᏍᏓᏁᎸᎩ	-11.3133
ᏈᎦ	-11.3134
▁ᏑᎾᎴᎢᏳ	-11.3134
ᏗᎣᏈ	-11.3135
▁ᎠᎩᏇᏓᎸᎢ	-11.3136
▁ᏕᎦᏍᎩᎸᎢ	-11.3136
▁ᎤᎩᎸᏗ	-11.3136
▁ᏕᎦᎸᎢ	-11.3138
ᏩᏌᏙᏰ	-11.3139
▁ᏰᎮᏍᏗ	-11.3139
▁ᎾᎾᏛᏁᎲᎾ	-11.3139
▁ᏗᎹ	-11.314
▁ᎤᏚᏓᎳ	-11.3141
▁ᎢᏣᎵᎮᎵᎬᎢ	-11.3141
▁ᎠᏇᎵᏍᏗ	-11.3141
▁ᎤᏬᎯᏳᏒᎢ	-11.3141
▁ᎤᎶᏏ	-11.3142
▁ᏌᏉᎯᏳ	-11.3142
ᏯᏍᏛ	-11.3143
ᏩᏛᎮᎢ	-11.3143
▁ᎠᏁᎬ	-11.3143
▁ᎤᎩᎸᎩ	-11.3143
▁ᎠᏓᎶᏂᎨ	-11.3144
▁ᏄᏂᏪᏎᎴᎢ	-11.3144
▁ᎠᏟᏍᏕ	-11.3144
▁ᎤᎾᏚᎸ	-11.3145
▁ᎬᏩᏛᏛᏅᎩ	-11.3146
▁ᎮᎵ	-11.3146
▁ᎤᏬᎯᏨᏃ	-11.3147
▁ᎠᏔᎸ	-11.3147
▁ᎤᏕᎶᎰᎯᏍᏗ	-11.3148
ᎵᏍᎪᎸᏔ	-11.3149
▁ᎠᏆᏛᎦᏅᎯ	-11.3149
▁ᏧᎦᎴᏅ	-11.315
▁ᎠᎩᏍᎦᏅᏨᎢ	-11.3151
▁ᏫᏚᎷᏤᎴ	-11.3152
ᏎᎵᏔᏁ	-11.3152
ᏄᎪᏫᏒᎭ	-11.3154
ᏕᎸᎩ	-11.3154
ᏏᎳᏗ	-11.3155
▁ᎦᏆ	-11.3155
ᎤᏙᎯᏳᎭ	-11.3155
▁ᏱᏁ	-11.3156
ᏥᎸᏉᏔᏅᎯ	-11.3156
▁ᎨᏙ	-11.3158
▁ᎦᎢᏒᎢ	-11.3161
▁ᏓᎩᎸᏫᏍᏓᏁᎲᎢ	-11.3161
▁ᎣᎳ	-11.3161
▁ᎯᎦᏔᎲᎢ	-11.3162
ree	-11.3163
ᏓᏛᏁᎸ	-11.3163
ᏴᏅᎮ	-11.3164
▁ᏤᎦ	-11.3165
ᏑᎶᏗ	-11.3165
▁ᎦᏗᎭ	-11.3166
▁ᎦᏯᎸᎢ	-11.3166
ᏂᏴᏗᏱ	-11.3166
▁ᎤᎬᎭᎷᏴ	-11.3166
ᎾᎾᏛᏁᎭ	-11.3167
▁ᎤᏔᎷᎩᏍᎬ	-11.3167
▁ᏧᏄᏬᎢ	-11.3167
ᎩᏍᎨ	-11.317
ᏓᏢᎩ	-11.317
▁ᏣᏯ	-11.3171
▁ᎤᏍᏚᎢᏒᎩ	-11.3173
▁ᏓᎾᏗᏔᏍᎨ	-11.3175
▁ᎤᏦᏍᏔᏁ	-11.3175
ᎦᏅᏍᎨᏂ	-11.3175
▁ᎤᏂᏃᎮᎸᎩ	-11.3175
▁ᎾᏆᏛᏁᎸᎩ	-11.3176
▁ᎠᏆᎴᏂᏙᎸ	-11.3179
ᏍᎪᎯᏧᏈ	-11.318
▁ᎤᏁᎳᎩᏉ	-11.3181
▁ᏥᏂᎦᏪᏍᎪ	-11.3181
▁ᎤᎦᏔᎲᏒᎩ	-11.3182
▁ᏣᏍᏓ	-11.3183
ᏫᏏ	-11.3183
▁ᏚᎴᎯᏌᏅᎢ	-11.3184
▁ᏣᏓᏁᏗ	-11.3184
▁ᏗᏥᎦᏴᎵᎨᎢ	-11.3184
▁ᎠᏂᎦᏴᎵᎨᎢ	-11.3185
▁ᏧᎦᏴᎵᎨᎢ	-11.3185
▁ᎤᏰᎸᏎᎢ	-11.3187
ᏓᎢᏅᏒᎩ	-11.3187
ᏫᏒᏗ	-11.3188
ᏂᏅᎪᎠ	-11.3189
▁ᎢᏕᎲᎢ	-11.319
▁ᏩᎩᏴ	-11.319
▁ᎤᎾᏚᎵᏍᎬᎩ	-11.319
▁ᎢᏨᏰᎵᏎ	-11.3191
ᎵᎮ	-11.3192
▁ᎦᏄᎸᏒᎢ	-11.3193
▁ᎤᎾᏣ	-11.3194
▁ᎦᎶᏛ	-11.3195
▁ᎤᏂᎷᏨᎯ	-11.3196
▁ᏥᏂᏥ	-11.3197
▁ᎡᎪᎢ	-11.3198
▁ᎤᏬᎴᎢ	-11.3202
▁ᏧᏂᏥ	-11.3202
▁ᎠᎪᎵᏰᏍᎩ	-11.3202
ᎪᏢᏔᏅᎯ	-11.3202
▁ᎣᏁᎯ	-11.3202
▁ᎭᎳ	-11.3204
▁ᎢᏣᎦᏔᏅᏎ	-11.3204
▁ᎤᎵᏍᏆᏗᏍᏗᏱ	-11.3205
ᏓᎳᎩ	-11.3205
▁ᏗᎯᏍᏗᏱ	-11.3207
▁ᎬᏍᎦᎳ	-11.3207
ᏰᎸᏗᏱ	-11.3208
▁ᎢᎶ	-11.3209
ᎵᏂᎪᎯᏍᏗᏍᎩ	-11.321
▁ᎠᏂᏍᎦᎩ	-11.3211
ᎵᎮᎵᏍᏙᏗ	-11.3213
▁ᏥᏁᎸᎢ	-11.3213
▁ᏈᎵᎩᏱ	-11.3218
▁ᏓᏂᏃ	-11.3222
ᎵᎷᎬ	-11.3222
ᏓᏅᏖᏍᏗ	-11.3223
▁ᏭᎶ	-11.3224
ᏥᏉᎳ	-11.3225
▁ᏚᏂᏅᏨ	-11.3225
ᏏᏙ	-11.3225
ᏛᏓᏍᏓᏁᎵ	-11.3226
ᏢᏫᏍᏙᏗ	-11.3227
▁ᎤᎾᎵᏥᏙᏅ	-11.3227
▁ᎠᎼᎯ	-11.3228
ᏏᏙᎮ	-11.3231
▁ᎢᏯᏛᏁᏗᏱ	-11.3232
▁ᏧᏍᎪᎸ	-11.3232
▁ᏕᎦᏚᏩᏗᏒᎢ	-11.3232
▁ᎤᏰᎸᏅᎢ	-11.3233
ᏓᏎᎪᎩᏍᏗᏱ	-11.3234
▁ᏕᎮ	-11.3236
▁ᎤᏂᏁᎯ	-11.3237
▁ᎠᏲᏟᎨ	-11.3238
▁ᎤᎵᏍᏓᏴᏗᏱ	-11.324
▁ᎠᎦᎸ	-11.3243
▁ᎤᏣᏗ	-11.3243
ᏪᏛ	-11.3245
▁ᎬᎩᏍᏗ	-11.3247
▁ᏧᏁᏗ	-11.3249
ᏆᏂ	-11.325
▁ᏓᏰᏣ	-11.325
▁ᎢᏳᎾᎵᏍᏓᏁᏗᏱ	-11.3252
ᎩᎳᎾᎳᏗᏍ	-11.3253
ᏂᏍᏓᏩᏚᎦ	-11.3253
▁ᎣᎦᎾ	-11.3254
▁ᏙᏓᏥ	-11.3257
▁ᎠᎪᎲᏍᎬ	-11.3258
▁ᎬᏩᏍᏛᏗᏍ	-11.3258
ᏣᏓᏅᏛᎾ	-11.3265
ᎯᎠᎾ	-11.3268
ᏂᎨᏒᎾ	-11.3269
▁ᏧᏂᏲᎰ	-11.3273
ᎤᎬᏫᏳ	-11.3276
ᏄᏛᏗ	-11.3277
▁ᏧᏭᏓ	-11.328
▁ᎠᏯᎥᎢ	-11.328
▁ᎤᏜᏅᏛᎢ	-11.3281
▁ᎠᎪᎲ	-11.3283
▁ᎤᏗᏍᎦᏢ	-11.3285
▁ᏗᎦᎴᏴ	-11.3286
▁ᎤᏢᏨ	-11.3287
or	-11.3287
ᎨᏫᏍᏗ	-11.3288
▁ᎤᏂᏧᏈᏍ	-11.3289
ᏓᏁᎴᎢ	-11.3293
▁ᏗᏄᏬᏍᏗ	-11.3293
ᏌᏁᎢ	-11.3294
ᏂᎢᏛ	-11.3297
▁ᎠᏍᎦᏅᏨᎢ	-11.3299
ᏪᏒᎩ	-11.33
▁ᏆᎩ	-11.3302
ᏕᏗᏴ	-11.3307
▁ᏂᏕᎦᏪᏎ	-11.3309
ᏲᎯᏎᏗ	-11.3309
▁ᏳᎾᎵᎪ	-11.3311
▁ᎧᏃᎲᏍ	-11.3311
▁ᎠᏍᏆᏂᎪᏍᎨ	-11.3312
▁ᎤᎵᏍᏙᏗ	-11.3314
▁ᎤᎾᏓᏅᎦᎸ	-11.3315
ᏱᎵᏙᎸ	-11.332
▁ᏅᏩᏍᏗ	-11.3321
▁ᎤᏂᏍᏆᏂᎪᏎᏃ	-11.3321
▁ᏳᏰᎸᏁ	-11.3323
ᎩᎷᏫ	-11.3329
▁ᏧᎾᏄᏬᎢ	-11.333
ᏄᏍᏛ	-11.333
ᏓᏂᏙᎦ	-11.3331
▁ᏭᏏᎳᏛᏁ	-11.3331
ᎯᏐᏗ	-11.3332
▁ᎠᏌᏅ	-11.3334
ᏕᎸ	-11.3334
▁ᏃᎴᏍᏉ	-11.3337
ᎬᏁᏗ	-11.3338
▁ᏓᏍᏆᏂᎪᏗ	-11.3338
ᏟᏏᏍᎪᎢ	-11.3347
▁ᏏᏉ	-11.3348
ᏓᎢᏅᏎᎢ	-11.335
▁ᎨᏣᎵᎮᎵ	-11.335
ᏁᏉᎢᏍᏗᏱ	-11.335
▁ᏕᎤᎴ	-11.3351
ᏙᏙᏱ	-11.3351
ᎪᏯᏛ	-11.3353
▁ᏴᎾ	-11.3355
ᏛᎦᏁᎴ	-11.3356
ᏰᎮᏍᏗ	-11.3357
▁ᎦᎸᎢ	-11.3357
▁ᎠᏟ	-11.3357
▁ᎤᏇᏓᎸᎢ	-11.336
▁ᏫᏗᎩ	-11.3361
▁ᎤᎾᎥ	-11.3362
ᏍᏗᏍᎪ	-11.3369
ᏅᎬ	-11.337
ᏍᏔᏁᎴ	-11.337
▁ᏣᏓᏡᏗᏍᎪ	-11.3371
▁ᎥᎩᏂᏐᏗ	-11.3376
▁ᏧᏂᏗᏱ	-11.3378
▁ᎠᎩᎷᏤᎸ	-11.3378
▁ᎠᏂᏙᎾᎥᎢ	-11.338
ᏆᎧᎿᏅᎩ	-11.3381
▁ᎦᏥᏯᎵᏥᏙᏁ	-11.3383
ᏲᏍᏙᏓᏁᏗ	-11.3385
ᎸᏉᏙᎢ	-11.3387
▁ᏍᎩᎵ	-11.3388
▁ᎠᎩᎪᎵᏰ	-11.339
▁ᎦᎵᏣ	-11.3394
▁ᏕᎦᏛᎢ	-11.3394
ᏥᎩ	-11.3402
ᏂᏆᏘᎮᏍᏗ	-11.3402
▁ᎤᎵᏁᏨᎢ	-11.3403
▁ᏱᏂᎬᏂ	-11.3404
ᏥᏍᏛᏗᏍᏙᏗ	-11.3405
▁ᎠᏄᏬᏍᏗ	-11.3407
▁ᎨᎦᏎᎸ	-11.3409
▁ᏱᏓᏓ	-11.3413
ᎮᏗ	-11.3413
ᏓᏌᎳᏗᏍᎨᏍᏗ	-11.3415
ᏏᎳᏛᏙᏗ	-11.3417
ᏔᏍᏗ	-11.3418
ᎩᎸᏙᏗ	-11.3418
▁ᏓᏳᏓᎴᏅᎩ	-11.342
▁ᎠᏊ	-11.3425
ᏓᏅᏬᏗ	-11.3427
▁ᎤᏅᏏᏴᎢ	-11.3427
▁ᎤᎨᏓᎵᏴᎢ	-11.3427
▁ᏯᏥ	-11.3428
▁ᏭᏯᏅᎮᎢ	-11.3433
▁ᏧᏩᏔᏁ	-11.3438
ᏙᎯᏉ	-11.3438
ᏂᏅᏏᏓᏍᏗ	-11.3439
▁ᎠᏍᎦᏂᏍᎩᏂ	-11.3444
ᏓᏅᏘ	-11.3447
ᏃᎮᏍᎨᏍᏗ	-11.3447
▁ᎢᏨᏯᏅᏓᏗᏍ	-11.3449
▁ᎥᏍᎩᏃ	-11.345
ᎧᏁᎸᎾ	-11.3451
ᎾᏗᏅᏗ	-11.3452
▁ᎧᎳᏩᏗᏒᎢ	-11.3452
▁ᏗᎦᏚᎲᎢ	-11.3454
▁ᏃᎦᏍ	-11.3454
▁ᎤᏃᏴ	-11.3454
▁ᎤᎾᏞ	-11.3461
ᎾᏚᎦ	-11.3463
▁ᏂᏥᏍᎦᏅ	-11.3464
ᎾᏗᏅᏎ	-11.3466
▁ᏰᎮ	-11.3466
ᎪᎵᎬᎾ	-11.3467
ᎭᏢ	-11.3468
ᎴᏛ	-11.3477
▁ᏚᎾᏓᎸ	-11.3477
ᏍᎩᏯᏅᎡᎸ	-11.3481
ᏁᏉᏤᏗᏱ	-11.3485
ᏥᏛᎯ	-11.3486
ᎯᏰᏃ	-11.349
ᎵᎢᏍᏗ	-11.3491
ᎪᎲᏍᏔᏁ	-11.3497
▁ᏧᏂᏁ	-11.3499
▁ᎠᏂᏯᎥ	-11.3499
▁ᎣᏣᎵᏥᏙᎲᏍ	-11.35
ᏐᎯ	-11.35
▁ᏗᎦᎴ	-11.3501
▁ᎤᏛᏛ	-11.3506
▁ᎣᏓ	-11.3507
▁ᏧᏂᎦᏐᎠ	-11.3509
▁ᎤᎯᏍᏗ	-11.3512
▁ᏱᎦᎨᏎ	-11.3513
▁ᎬᏗᏍᎬᎩ	-11.3517
ᎸᏏ	-11.352
▁ᎢᏗᏓᏛᏁ	-11.3524
▁ᎤᎾᏙᏢ	-11.3525
▁ᎢᏳᏂᏨ	-11.3525
▁ᏉᏏ	-11.3525
▁ᏓᏓᎿᏩᏍᏛᎢ	-11.3526
ᏓᏁᎲᎩ	-11.3527
▁ᎢᎦᎦᏛᎢ	-11.3527
▁ᎠᏂᏃᎮᏍᎬᎢ	-11.3527
ᏄᎪᎨᏍᏗ	-11.3527
▁ᎤᎾᏟ	-11.3528
▁ᎥᎴ	-11.3529
▁ᏱᎦᎷ	-11.3531
ᏍᏓᏁᏗ	-11.3532
ᏖᏃᎯ	-11.3536
▁ᎤᏲᎴᏃ	-11.3537
▁ᎦᏛᎩ	-11.354
▁ᎤᏁᎴᎢ	-11.3542
ᏓᏂᏴ	-11.355
ᎷᏤᎸᎭ	-11.3552
▁ᎱᏂᎷ	-11.3567
ᏍᏛᏅᎯ	-11.357
▁ᏗᎦᎳ	-11.3574
ᎨᏳᏒ	-11.3574
▁ᏔᎳ	-11.3575
ᏰᏨ	-11.3576
▁ᎦᎶᏍᎨ	-11.358
ᏍᏗᏰᎬ	-11.3581
ᏍᏚᎩᏎ	-11.3585
ᎾᎷᏒ	-11.3587
ᏠᏱᎭ	-11.359
ᏅᏣᏛ	-11.3591
ᏨᏛ	-11.3594
▁ᎢᏥᏔᏲᎯ	-11.3596
ᏳᎶᏗ	-11.3597
ᏚᎲ	-11.3599
▁ᎤᏬᏒ	-11.3599
▁ᎤᎾᎵᎪᏒ	-11.3599
▁ᏕᎦᎸ	-11.3604
▁ᎤᏣᏙ	-11.3609
ᏂᎨᏂ	-11.3609
ᎪᏩᏗᎭ	-11.3611
ᏲᎤᎵ	-11.3615
ᏣᎵᎮᎵᎦ	-11.3622
ᏂᏪᎠ	-11.3622
ᎥᎭ	-11.3624
▁ᎬᏩᏕ	-11.3629
ᏛᏂᏗᏍᏗ	-11.3629
▁ᏴᏫᏯ	-11.3631
ᏓᏅᏖᏍᎨ	-11.3633
ᎩᏚᎢᏍᏓᏁᎸ	-11.3633
▁ᎤᏤᎵᎪ	-11.3635
ᏙᎭᏴ	-11.3636
ᏂᎦᏛ	-11.3639
▁ᎤᏤᎵᎦᏯ	-11.3648
▁ᏱᏂᎨ	-11.3649
▁ᎦᏥᏲ	-11.3657
ᎦᏔᎯᏳ	-11.3657
ᎦᏔᏙᎥ	-11.3657
▁ᏫᎬᏩᏴ	-11.3658
ᎦᎸᎢᏛ	-11.3659
▁ᏥᏫᎦ	-11.366
▁ᎬᏩᏃᎵᏍ	-11.3661
▁ᎠᎦᏔᎲᎩ	-11.3663
ᏃᏎᎭ	-11.3663
ᎯᏍᏗᏍᎪ	-11.3668
▁ᎣᏣᎵᏍᎦᏍᏙ	-11.3673
ᎾᏄᎪᏫᏎᎸᎯ	-11.3674
▁ᏭᏚ	-11.3676
ᏌᎡ	-11.3685
ᏓᏯ	-11.3687
ᎬᏁᎲ	-11.3689
▁ᎢᏣᏓᏄᏴ	-11.3692
ᎷᏥᎸ	-11.3694
▁ᎤᏣᏁ	-11.3697
ᏲᎯᏎᎴ	-11.3699
▁ᏬᎩᏂ	-11.3699
▁ᎠᏤᎸᏍ	-11.3701
ᎦᏙᎥᏒ	-11.3703
ᏓᎬᏩᏍᏓᏩᏛᏛ	-11.3705
▁ᎤᏙᎴᎰᏒᎩ	-11.3705
▁ᎤᎵᏍᏙ	-11.3708
▁ᎤᏂᎪᎲᎢ	-11.3708
▁ᏚᎧᎵ	-11.3709
ᏚᏓᎳᎡ	-11.3711
▁ᏴᎦᎦ	-11.3715
▁ᎠᏗᏍᎩ	-11.3718
▁ᏚᏪᎧᎮ	-11.3725
ᏓᏤᎵᏛ	-11.3729
▁ᏕᎨᎦᏬᏍ	-11.3732
▁ᎦᏙᏉ	-11.3734
▁ᎤᎾᏨᏎ	-11.3738
▁ᎯᎬ	-11.3739
▁ᎢᏤᏙᎯ	-11.3739
▁ᎣᎬᏙᏗ	-11.3744
ᏍᏉᏟ	-11.3744
▁ᎠᎡ	-11.3752
ᏪᏎᎮᏍᏗ	-11.3754
▁ᏧᎵᏰ	-11.3758
ᏯᏅᏓ	-11.3762
▁ᎤᏓᏣᎦᎸ	-11.3764
▁ᎠᏂᎦᏔᎲᎩ	-11.3765
ᎳᏍᏓ	-11.377
▁ᏂᎯᎾ	-11.3772
ᏍᎦᏅᏨᎯ	-11.3774
ᏲᎱᏍᎦ	-11.3776
ᏍᏆᏂᎪᏗᏍᎩ	-11.3776
ᎦᏍᎩᎶᎩ	-11.3777
▁ᎡᏣᏑᏰ	-11.3784
▁ᏴᏛ	-11.3793
▁ᎤᏂᏲᎮ	-11.3799
ᏛᎩᏍᎬ	-11.3801
▁ᏩᏴᏍᏗ	-11.3803
▁ᎣᎩᎭ	-11.3806
ᏃᎮᏍᎩ	-11.3813
▁ᎢᏨᏰ	-11.3815
▁ᏱᏭᏂ	-11.3817
ri	-11.3823
ᏥᏁᎰᎢ	-11.3824
▁ᏗᏰ	-11.3834
ᏗᏍᏙᏗ	-11.3835
▁ᎬᏩᎵ	-11.3837
▁ᏘᎩ	-11.3844
ᏑᏢ	-11.385
▁ᏣᏍᎦᏅᎪ	-11.385
▁ᎤᏂᏰᎸ	-11.3853
ᏏᎳᏕ	-11.386
ᎤᏙ	-11.3862
ᎦᏚᎩᏱ	-11.3862
▁ᎦᏂᏴᏗ	-11.3863
ᏄᎪᏫᏍᏗᏱ	-11.3863
ᏲᎮᎸ	-11.3868
ᏅᏅ	-11.3869
ᏉᎯᏳᎭ	-11.3871
▁ᎤᏚᎵᏍᎬᎢ	-11.3871
▁ᎦᎾᎸ	-11.3876
▁ᏥᏨᏲᏎ	-11.3879
ᏛᏗᏱ	-11.388
▁ᎢᏝ	-11.3881
ᎫᎢᏍ	-11.3882
ᎳᎭ	-11.3886
ᎯᎮ	-11.3889
ᏗᏍᏗᏱ	-11.3903
ᏴᎦ	-11.3908
▁ᎢᏥᏁᎸ	-11.3918
▁ᏚᎴᏁᏃ	-11.3923
▁ᎠᎾᏓᏅᏖ	-11.3927
▁ᎡᎳᏪᏱᏉ	-11.3928
ᎾᏄᎪᏫᏍᎦ	-11.3928
▁ᏗᏧᎬ	-11.393
▁ᏗᏣᎵ	-11.3932
▁ᏄᎾᏍᏛᎢ	-11.3934
ᏥᏌᎳᏙᏗ	-11.3938
▁ᎠᏑᏰ	-11.394
ᎵᏏᎾᎯᏍᏗ	-11.3941
▁ᎠᎪᎵᏰᏍᎬ	-11.396
ᏒᏉ	-11.3961
ᎨᏏ	-11.3968
ᏕᏏ	-11.397
▁ᏱᏂᎦ	-11.3972
ᏴᏁᏗᏱ	-11.3972
▁ᏱᏤ	-11.3981
ᏥᏰᎯ	-11.3983
ᏘᏲᎯ	-11.3987
▁ᏕᎬᏕ	-11.399
ᏲᎯᏎᎸ	-11.3995
▁ᏁᎵ	-11.4
ᏣᏛᏅᎢᏍᏓᏁ	-11.4002
▁ᏱᏥᏩᏛ	-11.4004
ᎸᏍᏙᏗᏱ	-11.4006
ᏪᎳᏅ	-11.4011
▁ᎤᎾᏑ	-11.4014
▁Ꮚ	-11.4016
▁ᎠᎩᏍᏆᏂᎪ	-11.402
▁ᏎᏗ	-11.4028
ᏒᏂᎸ	-11.4029
▁ᎤᏴᎸ	-11.403
▁ᏕᏧᎪ	-11.4036
▁ᎤᎵᏦᏔᏅ	-11.4037
ᏛᏁᎢ	-11.4037
ᏥᏯᏂᏍᎨᏍᏗ	-11.4038
ᏂᏯᏪᏨ	-11.4039
ᎾᏡᏗᏍᎬ	-11.4044
ᏙᏔᏁᎢ	-11.4061
▁ᏥᎦᏃ	-11.4068
▁ᏂᎬᎩ	-11.4069
ᎾᏌᎢ	-11.4069
ᏨᏍᏛ	-11.4072
ᎤᎾᏣᏁ	-11.4078
ᏁᏛ	-11.4081
▁ᏓᎧᎿᏩᏗ	-11.4082
ᏓᏑᏲ	-11.4084
ᏍᏗᏰᏔᏅᎩ	-11.4086
▁ᎠᎩᎾᎥ	-11.4092
▁ᎤᎾᏄᎪᏨ	-11.4097
ᏛᏅᎢᏍᏔᏅᎯ	-11.4103
ᏨᏁᎸ	-11.4107
▁ᏣᎦᎴ	-11.4112
▁ᏥᎠ	-11.4115
ᏲᏎᎮᏍᏗ	-11.4118
ᏂᏐᏗᏱ	-11.4123
▁ᏗᏂᏁ	-11.4125
▁ᎢᏦᎯᏳᎲᏍ	-11.4125
ᏣᎦᏎᏍᏕᏍᏗ	-11.4125
ᏲᏍᏓ	-11.4126
▁ᎢᏣᏠᏯᏍᏙᏗ	-11.4126
ᎾᎫᏴᏗ	-11.4128
▁ᎠᏓᏅᏍᎨ	-11.413
▁ᏂᎬᏪᏎ	-11.413
▁ᏓᏂᏁᎲ	-11.4134
ᏲᎮᎸᎩ	-11.4136
▁ᎣᎩᎾᎵ	-11.4138
ᏗᎹ	-11.414
▁ᎤᏲᏏᏍᎨ	-11.4144
ᏂᎦᎥ	-11.416
▁ᎬᏆᏓᏅ	-11.416
ᏙᏛ	-11.4161
ᏔᏍᎬ	-11.4162
▁ᏓᏳᏁ	-11.4164
ᏍᏓᏁᎵ	-11.4172
ᎦᎴᏔᏂ	-11.4172
ᏌᏛᎢ	-11.4176
▁ᏓᎴᎲᏍᎬ	-11.4177
ᏎᎯ	-11.418
ᎵᎪᏁᎸᎯ	-11.4182
▁ᎠᏂᎯ	-11.4185
ᎴᏫᏍᏔᏅ	-11.4191
▁ᏘᏂ	-11.4192
ᏓᏓᎸ	-11.4194
ᏃᎮᏍᎬ	-11.4196
▁ᎨᏥᏁᎸ	-11.4197
ᏃᏴᎵᏍᏗ	-11.4202
ᏅᏙ	-11.4204
ᏴᏙᏗ	-11.4206
▁ᏗᎧᎿᏩ	-11.4209
ᎵᏂ	-11.4229
ᏗᎤᏨᏎ	-11.4231
▁ᏭᏢ	-11.4233
ᏥᏁᎴ	-11.4242
▁ᎢᏥᎪᎵᏰ	-11.4243
ᎶᏙᏗ	-11.4243
▁ᎤᏓᎴ	-11.4246
ᎮᎸᎩ	-11.4252
▁ᎠᏓᎴ	-11.426
▁ᏯᎵ	-11.426
ᏍᏕᏓᎵᏴ	-11.4261
ᏎᎪᎩᏒ	-11.4261
▁ᎮᏙ	-11.4262
ᎵᏙᎲᎢ	-11.4264
▁ᏱᎦᏓ	-11.4269
ᏜᏏᏛᎡ	-11.427
▁ᏂᏚᏪ	-11.427
▁ᏧᏍᎪ	-11.4272
▁ᏣᏗ	-11.4272
ᎠᎩ	-11.4281
ᏅᏗᏍᎬ	-11.4282
ᏙᎥᎢ	-11.4284
ᏍᏆᏂᎪᏛ	-11.4286
ᎬᏩᏂᎪᏩᏛ	-11.4297
ᏅᏏ	-11.43
ᏍᎦᏍᏓᏁᏗᏱ	-11.4313
▁ᎠᏯᏦ	-11.4314
ᎾᏰᏍᎦ	-11.4326
ᏩᎯᏍᏔᏅᎯ	-11.4328
▁ᎤᏍᎩ	-11.4328
▁ᎤᏂᏏ	-11.4337
ᏓᏅᏙ	-11.4345
ᏚᎵᏍᎬᎢ	-11.4348
▁ᎤᎾᎴᏅᏗ	-11.435
ᏲᏎᎢ	-11.4352
▁ᏚᏂᎭ	-11.437
ᏚᎸᏌᏛ	-11.4373
ᎵᏍᏗᏍᎬ	-11.4377
ᏄᎶᏔᏅ	-11.4389
ᏓᎾᏅ	-11.439
ᏚᎢᏍᏓᏁ	-11.4396
ᎣᎢ	-11.44
ᎪᏩᏔ	-11.4401
▁ᏯᏂᎦᏔ	-11.4402
▁ᏫᏘ	-11.4405
ᎵᏥᏙᏁᎸ	-11.4409
▁ᎤᎸᏕ	-11.4412
▁ᏧᏪᎧᏁ	-11.4414
▁ᎤᎾᎵᏍ	-11.442
ᏳᎢ	-11.4426
▁--	-11.4431
ᏨᏓ	-11.4444
ᎳᏕᏗ	-11.4447
▁ᏫᎦᎾᏄᎪ	-11.4449
▁ᏯᎭ	-11.4449
ᏓᏂᏐᏗᏱ	-11.4456
ᏪᎢ	-11.4456
▁ᎤᏂᏍᏆᏛ	-11.4456
ᏫᏎᎸᎯ	-11.4458
▁ᏗᏯᏖ	-11.446
ᏍᎩᎲᏏ	-11.4461
▁ᏣᏙᎵ	-11.4462
ᎦᎹ	-11.4467
ᏍᎩᏃ	-11.447
ᎯᏏ	-11.447
▁ᎤᏢᏁ	-11.4484
ᏚᎵᏍᎬ	-11.4492
▁ᏥᏍᎩ	-11.4492
▁ᎾᏁ	-11.4494
▁ᎤᏁᎢ	-11.45
ᏲᎯᎮ	-11.4501
ᏲᎰᏎᏗ	-11.4505
ᏯᎡ	-11.4511
▁ᎤᎾᏂᏢ	-11.4512
▁ᏫᏕ	-11.4515
ᏲᎢᏳ	-11.4521
▁ᎦᏄᎪᎬ	-11.4531
▁ᎤᏂᎦ	-11.4532
ᏥᏲᎢᏎ	-11.4533
▁ᎠᏂᏩᏛ	-11.4533
ᏚᏓᎴ	-11.4538
ᏳᎵᏍᏙᏗ	-11.4545
▁ᏗᏂᎳ	-11.4577
ᎶᎯᏎᎸ	-11.4578
ᎦᎶᎯᏍᏗᏱ	-11.4581
ᏥᏂᎨᏂ	-11.4589
▁ᎢᎯᏯ	-11.4592
ᏃᎮᏗᏱ	-11.4593
▁ᏱᏥᏍᏆᏂᎪ	-11.4596
ᏔᏲᎯᎰ	-11.4602
ᎴᏗ	-11.461
ᎦᏘᎴᎦ	-11.4612
ᏥᏴᏔᏂ	-11.4615
ᏙᎲᎾ	-11.4622
ᏘᎷᎦ	-11.4622
ᏛᏎ	-11.4631
ᎦᎷᎬ	-11.4634
ᏂᏓ	-11.4637
ᎳᎩ	-11.464
▁ᏧᏪᏲ	-11.464
ᏂᏴᎲ	-11.4641
▁ᎤᏍᏓᏩᏗᏒ	-11.4645
▁ᎤᏑᏰ	-11.4645
▁ᎠᎨᏳ	-11.4646
ᏓᏲ	-11.4648
▁ᎠᏆᏗ	-11.4653
▁ᎢᎦᏛᏉ	-11.4655
ᏓᏅᏔ	-11.4662
▁ᎦᏂᎵ	-11.4662
ᏥᏪᏏ	-11.4663
▁ᎠᎳ	-11.4664
▁ᎢᏨᏁᎸ	-11.4665
ᏝᎥ	-11.4682
▁ᏱᎦᏰ	-11.4683
▁ᏯᏉ	-11.469
ᎻᎦ	-11.4698
▁ᏣᎢᏒ	-11.4701
ᏩᎾᎦᎳᎯᏳ	-11.4701
ᏰᎵᏏ	-11.4705
ᏂᎩᏍᏔᏁ	-11.4705
▁ᎤᎾᏣᏅ	-11.4706
ᏛᏅᎢᏍᏙᏗ	-11.4708
▁ᏗᏣᏓᎨᏳ	-11.4708
▁ᎣᏤᎵ	-11.4713
ᏂᏍᎦᎩ	-11.4721
ᏩᏛᎲᎾ	-11.4721
ᏴᎳᏒ	-11.4722
ᏤᎳ	-11.4732
▁ᎨᏥᏅ	-11.4734
ᏂᏆᏘᎭ	-11.4739
▁ᎤᎪᏅ	-11.474
ᎦᎵᏍᏙᏗᎭ	-11.4741
da	-11.4745
ᏫᏍ	-11.4749
ᏥᏩᎯᏍᏔᏅᎯ	-11.4749
▁ᏰᏙᎮ	-11.4751
ᎦᏌᏯᏍᏗᏍ	-11.4751
ᏴᎳ	-11.4752
ᏌᏬᎸ	-11.4754
▁ᎠᎩᏍᎩ	-11.4754
▁ᎫᏓ	-11.4754
▁ᎤᎫᏴ	-11.4761
ᏫᏗ	-11.4763
ᎤᏟ	-11.4769
▁ᎣᎩᏃᎮ	-11.4773
▁ᎭᎵᏍᏓᏴ	-11.4775
▁ᏗᏥᏴ	-11.4775
▁ᏭᎷᏤᎸ	-11.478
ᎦᎵᏍᏓ	-11.4781
ᎦᏔᎰᎢ	-11.4792
ᎯᏴᎩ	-11.4803
▁ᎤᎨᏳ	-11.4809
▁ᎤᏂᎧᎵᏨ	-11.4812
ᎯᏍᏓᏁᎸ	-11.4817
ᏇᏗ	-11.4819
ᏘᏃᎸᎩ	-11.4824
ᎢᏒ	-11.4828
▁ᎤᏂᏁᏤ	-11.4829
ᏍᏓᏴᏗ	-11.4842
ᏲᎲᏍᎬ	-11.4847
ᏥᏁᎪᎢ	-11.4849
▁ᎠᎱ	-11.4854
ᏨᏁᏍᏗ	-11.4859
ᎾᏛᎩᏍᎪ	-11.4864
▁ᏖᎾ	-11.4881
ᎤᏨᏎ	-11.4884
▁ᏂᏚᏂ	-11.4891
ᎵᏍᏓᏴᏙᏗᏱ	-11.4892
ᎵᏙᎸᎢ	-11.4893
ᎩᏐᏅ	-11.4894
ᏝᏅ	-11.491
ᎨᎯᏒ	-11.4911
ᏘᏂᏒ	-11.4915
ᎧᏃᏗ	-11.4915
ᏕᎪ	-11.4918
ᎦᏘᏲ	-11.4923
ᎦᏙᏍᏔᏁᎢ	-11.4925
ᎸᏫᏍᏓᏁᎰᎢ	-11.4928
ᏐᏢᎢᏍᏙᏗᏱ	-11.493
ᎷᏤᏗ	-11.493
▁ᎤᏛᏛᏁᎢ	-11.4931
▁ᎣᎩᏴ	-11.4931
ᎦᏲᎵᏳ	-11.4933
▁ᏭᏴ	-11.494
ᎪᏩᏘᏍᎨᏍᏗ	-11.4943
▁ᎢᎩᎧ	-11.4945
ᏣᎵᏍᏗᎭ	-11.4946
ᏛᏁᎴᎢ	-11.4956
▁ᎠᏂᎸ	-11.4959
ᎡᎪᎢ	-11.4963
▁ᏕᎦᎾ	-11.4968
ᏁᎲᎾ	-11.4971
▁ᎤᎿᎸ	-11.4978
ᏲᎮᎴᎢ	-11.4982
▁ᏳᎾᏅ	-11.4986
▁ᎢᎾᎨᏉ	-11.4993
ᏁᏍᎨᏍᎩ	-11.4996
ᏃᏁᎵ	-11.5001
▁ᎠᏐᏢᎢᏍᏙᏗ	-11.5006
ᏛᏁᎸ	-11.5016
ᏅᏍᏔᏁᎢ	-11.5018
▁ᎠᏨ	-11.502
ᏓᏓᏱ	-11.503
ᎸᏅ	-11.5032
ᎴᏔᏂ	-11.5034
ᏰᎸᏎ	-11.5034
▁ᎤᏢᎨ	-11.5039
▁ᎦᏥᏁᏗ	-11.504
▁ᏧᎾᏚᎪᏓᏁᏗ	-11.5046
▁ᎤᏂᏇᏓ	-11.5055
ᏱᎴ	-11.5057
ᎢᎲ	-11.5062
ᏈᏓ	-11.5064
▁ᎤᎪᎳ	-11.5065
ᎵᏍᎪᎸᏓᏁᎸ	-11.5066
▁ᎡᏥᎸ	-11.5067
ᏓᏥᎶ	-11.5068
ᏍᏓᏁᎮ	-11.5075
▁ᏗᏯ	-11.5077
ᏩᏯ	-11.5081
▁ᎠᏎᎪᎩᏍ	-11.5098
ᏩᏂᎦᎸ	-11.5103
ᏴᏓᏆᎶᎥᎩ	-11.5111
▁ᎤᎾᎵᏍᎩ	-11.5123
ᏎᎵᏛ	-11.5124
ᏴᏍᏕᏍ	-11.5126
▁ᏕᎤᏅ	-11.5127
▁ᏱᏂᎦᎵᏍ	-11.513
▁ᎠᏆᏕ	-11.5131
ᎪᏢᏙᏗ	-11.5136
ᏛᎪᏗ	-11.5143
ᎾᏛᏁᎭ	-11.5148
ᏓᏉ	-11.5151
▁ᏕᎦᏓ	-11.5155
ᎵᏍᎪᎢ	-11.5163
▁ᎤᏙᎯᏳᏗ	-11.5165
▁ᏅᏓᏣ	-11.5174
▁ᎢᏥᎨᏳ	-11.5177
▁ᎭᎸ	-11.5179
▁ᏧᏓᏴᎳ	-11.518
▁ᎤᏙᏯᏅᎯᏕ	-11.5185
ᏗᏩᏛᎯ	-11.5185
ᏢᏈ	-11.5185
ᎶᏍᎬ	-11.5187
ᏗᏎᎢ	-11.5187
ᎵᎥᏂᎸ	-11.5188
ᏔᏲᏎᎮ	-11.5194
ᎦᏧ	-11.5198
ᎪᎥᎯ	-11.5199
▁ᏭᏂᏴ	-11.5204
ᎡᎰ	-11.521
ᎯᎠᏃ	-11.5211
ᎦᎵᏍᎪ	-11.5213
▁ᎦᎾᏰ	-11.5218
ᎪᏔᏅ	-11.5219
ᏐᏅᎢᏍᏔᏅᎯ	-11.5241
▁ᎡᎬ	-11.5242
ᏍᏗᏰᏔᏁ	-11.5242
ᏚᎶ	-11.5243
ᏱᏢᏗ	-11.5253
ᏓᏕᏲᎲᏍᎨᏍᏗ	-11.5255
ᎩᏍᏕᎸᏗᏱ	-11.5257
ᎲᏍᎪ	-11.5262
▁ᎤᏂᎷᏤᏃ	-11.5271
▁ᎤᏂᎾᏗᏅ	-11.5277
▁ᏗᎦᏓᎨᏳᎯ	-11.5277
▁ᏚᎾᏠᎯᏍ	-11.5277
ᎯᏍᏔᏁ	-11.5279
ᏅᏌ	-11.5279
▁ᏔᎴ	-11.5281
le	-11.5285
ᏴᏗᏱ	-11.5293
▁ᎤᎾᎪᎸ	-11.5297
▁ᎡᏥᎾᏰ	-11.5304
▁ᏥᏯᏓᏙᎵᏍᏓᏁ	-11.5307
▁ᎦᎷᎶ	-11.5307
ᏰᎵᎯᏍᏗ	-11.5314
▁ᏥᏭ	-11.5325
ᎦᎸᎢ	-11.5336
ᎲᎯ	-11.5338
▁ᏓᎩᏯ	-11.534
▁ᎠᏓᏂ	-11.5341
▁ᏗᎪᏪᎶ	-11.5344
▁ᎨᏥᏯᏅᏗ	-11.5351
ᎳᏅᏓᏕ	-11.5351
▁ᎤᎴᏗ	-11.5352
ᏁᏟᏴᏒ	-11.5354
ᏂᎨᏥᏪᏎᎴ	-11.5356
ᏣᎦᎸ	-11.5357
ᏈᏴᎡ	-11.5363
ᎵᏍᏆᏗ	-11.5363
ᎵᏏᏂ	-11.5375
ᎴᎲ	-11.5379
▁ᏗᎦᎵ	-11.5379
▁ᏫᎷᏥ	-11.5384
▁ᏱᎦᏥ	-11.5386
ᏓᏅᏛᎢ	-11.5389
ia	-11.5395
ᏅᏁ	-11.5397
ᏚᏩᏂᎦᎸ	-11.5404
ᏔᏲᎯᎲ	-11.5407
▁ᎦᎳᏅᏛ	-11.5409
ᎶᏔᏅ	-11.542
▁ᏓᏅ	-11.5427
ᏓᏍᎩ	-11.5437
▁ᎠᎩᏃᎮ	-11.544
ᎦᏔᎲᏍᏗᏱ	-11.544
ᏍᎦᏅᏤᎮᏍᏗ	-11.5442
ᏤᎴᏍᏗ	-11.5443
▁ᎤᏤᏪ	-11.5449
ᏪᏥ	-11.5451
ᏓᏅᏓᏗᏍᏔᏅ	-11.5458
▁ᏆᏂ	-11.546
▁ᎬᏩᏁ	-11.546
▁ᏧᏭᎪ	-11.5461
▁ᏔᎫᏴ	-11.5462
ᏫᏍᎪ	-11.5463
ᏍᏚᎢᏍᏗ	-11.5465
▁ᎣᏂᎩ	-11.5465
▁ᏫᏄ	-11.5472
▁ᎤᏣᏘᏂᏉ	-11.5472
ᏗᏒᏍᏗᏱ	-11.5474
▁ᏩᎪᏩᏛ	-11.5474
ᏅᏙᏗ	-11.5478
ᎾᏛᏁᎰᎢ	-11.5482
ᎩᏳ	-11.5482
▁ᎢᏥᏰ	-11.5484
ᎿᎢᏳ	-11.5487
ᎵᎮᎵᏍᏗᏱ	-11.5488
ᎨᏥᎾᏌᎢ	-11.5494
ᏣᎪᏩᏛᏗᏱ	-11.5495
ᎲᏍᏗ	-11.5495
▁ᎤᏬᎯᏳᎯ	-11.5498
▁ᏚᏂᎨ	-11.5504
ᎵᏍᎦᎸ	-11.5506
ᏥᏅᎵ	-11.5517
▁ᎤᏪᎧᏁ	-11.5517
ᏲᎰᏒ	-11.5522
▁ᎦᏙᎩ	-11.5523
ᎾᏫᏛᎮ	-11.5524
▁ᏧᏓᎴᏅ	-11.5527
▁ᏓᎭ	-11.5528
ᎪᏍᏓᏯ	-11.5539
▁ᏭᏗᏅ	-11.5546
ᎵᏍᎨᏍᏗ	-11.5548
ᎦᎾᏅᎪ	-11.5549
ᏥᏍᏕᎵᏍᎬ	-11.5549
ᏥᎪᏩᏗᎭ	-11.5555
▁ᎠᏥᎪ	-11.5561
ᏂᏳ	-11.5561
ᏘᏌ	-11.5568
▁ᎤᏂᏯ	-11.5568
ᏫᏍᎪᎢ	-11.5568
▁ᏦᎯᏍ	-11.557
ᎧᎲᎦ	-11.5573
▁ᎨᎯ	-11.5578
ᏍᏓᏩᏕᏅ	-11.5581
ᏅᏛᎾ	-11.5588
▁ᏅᏩᏓᎴᎢ	-11.559
▁ᎢᏯᎾᏛᏁ	-11.5593
▁ᎠᏓᏰ	-11.5598
▁ᎤᏝ	-11.5604
▁ᎤᏅᎢᏍᏗ	-11.5605
▁ᎦᏇᏅ	-11.5608
ᏆᏤᎵ	-11.5611
ᎯᏍᏙᏗᏱ	-11.5611
▁ᎢᏳᎯ	-11.5615
▁ᎠᏂᎴ	-11.5621
ᎪᎥ	-11.5622
ᏥᏃᎯᏎᎸ	-11.5624
ᏑᏯᎩ	-11.5625
▁ᎤᏁᏉᏤ	-11.563
ᎬᏩᎶᏗ	-11.5644
ᎿᎥᎾ	-11.565
ᎾᏣᎥ	-11.5653
ᏓᏨᏯᏍᏗ	-11.5653
ᎡᎮᏍᏗ	-11.5653
ᏛᏅᎢᏍᏔᏅᎩ	-11.566
ᎾᏗᏍᎪᎢ	-11.5661
▁ᎠᎦᏞ	-11.5668
▁ᏫᎬᎩ	-11.5668
ᎪᎵᏰᏍᎨᏍᏗ	-11.5669
ᏍᏘᏰ	-11.5669
ᏌᏙ	-11.567
ᏩᏘᏍᎨᏍᏗ	-11.5672
▁ᎦᏴ	-11.5676
ᏅᏬᏗ	-11.5677
ᏃᎯᎮ	-11.568
ᎪᎵᏰᏍᎪᎢ	-11.5683
▁ᎠᏂᎷ	-11.5684
▁ᎤᏂᏥᎸ	-11.569
ᏲᏢᎾᏁ	-11.5691
ᏗᎵᏍᎪᎸᏙᏗ	-11.5695
ᏏᏔᏗ	-11.5697
▁ᎤᎾᏗᏓ	-11.5698
ᎯᎰᎢ	-11.5698
▁ᎢᏳᎵᏍᏓᏁ	-11.5699
▁ᏭᏕ	-11.57
ᎵᏍᏓᏴ	-11.5705
ᏂᏙᎲᎢ	-11.5707
▁ᏓᎾᏓᏅ	-11.571
ᏥᏅᏍᏗ	-11.5716
ᏂᏣᏔ	-11.572
ᏓᏅᏘᏐ	-11.5721
ᎥᏍᎬᎢ	-11.5723
ᎦᎸᏉᏗᏳ	-11.5725
ᏂᏙᎲ	-11.5725
▁ᏙᏛᏂ	-11.5726
ᏓᏓᎴᏓ	-11.5727
ᎾᏝᎠ	-11.5729
as	-11.574
▁ᏗᏍᎩᏯ	-11.574
ᎨᏎᏍᏗ	-11.574
▁ᏛᏣ	-11.5747
▁ᎠᏌᎹᏗ	-11.5748
▁ᏨᏙᏗ	-11.5749
▁ᏯᏰ	-11.5753
ᏙᏥᏩᏛᎲᎩ	-11.5758
ᎵᏍᎪᎸᏔᏅᎯ	-11.5761
ᏘᏅ	-11.5764
ᏯᏅᎲᎭ	-11.5769
ᎾᎻ	-11.5773
ᏏᏁᎩ	-11.5777
▁ᏓᎾᏛ	-11.5778
ᏍᏘᏰᎬᎢ	-11.5785
▁ᏗᏣᎶ	-11.5793
▁ᏩᏗ	-11.5807
▁ᏯᎦ	-11.5809
▁ᏱᏚᏁ	-11.5812
▁ᏕᏣᎵ	-11.5815
▁ᏴᎦᏰ	-11.5816
▁ᎤᏔᎶ	-11.5818
▁ᎠᏫᏒ	-11.5819
▁ᎠᏩ	-11.5823
ᏍᎦᏍᎪ	-11.5831
ᎠᏂ	-11.5835
ᏯᏫᏍᎨᏍᏗ	-11.5836
▁ᎢᎤᏁᏅ	-11.5844
▁ᎢᏥᎨᏳᎯ	-11.5846
▁ᏙᏓᏓ	-11.5851
▁ᏓᎴᏅ	-11.5856
ᏍᏈᏗ	-11.5857
ᎤᏙᏓ	-11.5858
ᏩᏛᎯᎵ	-11.5859
▁ᏗᎩᎦᎨ	-11.586
ᏍᏓᏩᏛᏛ	-11.5862
▁ᎠᎾᏁᎷᎩ	-11.5865
ᏅᎲᎭ	-11.5867
ᎣᎵ	-11.5868
ᏁᏣ	-11.5872
▁ᏱᏛ	-11.5877
ᏥᎾᏝᎢ	-11.5882
ᎳᏗᏓᏍᏗᏱ	-11.5888
ᎸᏁ	-11.5889
ᎷᏤᎵ	-11.5899
ᏃᏴᎵᏍ	-11.5908
▁ᎫᏢ	-11.5908
ᏐᏴᎢ	-11.5909
ᏂᏂᏌᏁᎢ	-11.591
▁ᎠᏴᎩ	-11.5911
▁ᏥᏚᎾ	-11.5911
ᎩᎳᏩ	-11.5913
ᎳᏍᏙᏗ	-11.5914
ᎶᎨᏒᎢ	-11.5914
ᏏᏅ	-11.5915
▁ᎤᏂᎭ	-11.5922
▁ᏧᏭ	-11.5923
ᎦᏗᏔ	-11.5935
▁ᎾᎾᎵᏍ	-11.5935
▁ᎢᏣᏛ	-11.5939
▁ᎤᏚᏒ	-11.5941
▁ᏕᎦᏁ	-11.5945
▁ᏱᏨᏯ	-11.5946
▁ᎤᏁᏙ	-11.5957
ᏘᏁᎪ	-11.5957
▁ᎠᏆᏚ	-11.5958
ᏁᎨ	-11.5959
ᏏᏍᎨ	-11.5966
ᎦᏌᏯᏍᏗᏕᎩ	-11.5973
ᎵᎥᏂᎴ	-11.5974
ᏤᎰ	-11.5974
▁ᏧᏂᏯ	-11.5981
ᏓᏁᎲᎢ	-11.5982
ᏂᎷᏣ	-11.5993
▁ᏨᏔᏅ	-11.5995
▁ᏓᎧ	-11.5996
▁ᏕᏨᏯ	-11.5998
▁ᎦᏥᏃᏍ	-11.5999
ᏒᏂᏍᏗᏱ	-11.6
ᎾᏣᎡᎢ	-11.6004
ᏲᏞᎯ	-11.6007
▁ᎤᎵᏘ	-11.601
ᏓᎴᏍᎨᏍᏗ	-11.6011
▁ᏗᎧᏃᎮ	-11.6021
▁ᏤᎳ	-11.6022
▁ᏛᎬ	-11.6027
▁ᎦᏄ	-11.6028
▁ᎠᏏᎾᏌᏅ	-11.6032
▁ᎠᏆᏓᏅᏔ	-11.6034
ᏕᏍᎩ	-11.604
▁ᏗᎪᏱ	-11.6041
▁ᎠᏩᏔ	-11.6042
ᏍᏔᏴ	-11.6043
▁ᎭᎦᏔ	-11.6044
ᎩᎸᏗ	-11.6045
▁ᎠᏗᏔᏍ	-11.6052
▁ᏥᏅᏗᎦᎵᏍᏙᏗ	-11.6058
ᏚᏓ	-11.6063
▁ᏙᏓᎦᏥ	-11.6064
ᎯᏳᎲᎦ	-11.6065
▁ᎤᏂᏁᏗ	-11.6065
ᎧᎿ	-11.6069
▁ᎯᏍᏆ	-11.6077
ᎾᏩᏛ	-11.608
▁ᎣᎩᏙ	-11.6082
ᏅᏓᏗᏍᏗᏱ	-11.6083
ᏎᎲ	-11.6088
ᎩᏰᏃ	-11.6092
ᏓᏡᏗᏍᎪᎢ	-11.6093
▁ᏧᏢᏫ	-11.6093
▁ᏱᏣᏁ	-11.61
ᏂᎾᏰᏍᎬ	-11.6103
▁ᏗᎦᏰ	-11.6103
▁ᎦᏣᏄᎵ	-11.6104
▁ᏓᏍᏆ	-11.6108
ᎿᏬ	-11.611
▁ᎠᎩᏰ	-11.6112
ᎩᎷᎯᏍᏗᏱ	-11.6115
▁ᏕᏣᏓᏠ	-11.6116
▁ᏂᏨᏪᏎ	-11.6116
ᎵᏰᎢᎶ	-11.6117
▁ᎡᏦ	-11.6122
▁ᎤᎾᏓᏟᏌ	-11.6124
ᏲᎲᏍᎩ	-11.6125
▁ᏦᏍᎪ	-11.613
ᎾᏕᎶᏆᏍᏗ	-11.6135
ᏖᎸᎮᏍᎬ	-11.614
▁ᏗᎻ	-11.6146
ᏗᏅᏗ	-11.6146
▁ᎤᏔᎷᎩᏍ	-11.615
▁ᎣᏨᏗ	-11.6152
▁ᎤᏍᏆᏃᏴ	-11.6152
ᏝᏁᎢ	-11.6154
▁ᏚᏂᏣ	-11.6154
▁ᎠᏥᎸᏉᏙᏗ	-11.6157
ᏣᏯ	-11.6159
ᎮᏗᏱ	-11.6163
▁ᏣᏲ	-11.6164
▁ᏱᏄ	-11.6168
ᎾᏓᏗᏍᎪ	-11.6168
ᏓᏓ	-11.6168
▁ᏍᎩᏲᏎ	-11.6169
▁ᎤᏬᏢᏅᏅ	-11.6172
▁ᏱᏓᏆ	-11.6175
▁ᎤᏬᎯᏨ	-11.6176
▁ᏅᏩᏍᏕ	-11.6182
ᎸᏉᏛ	-11.6186
ᎵᏍᏔᏁᎢ	-11.6186
▁ᎠᎾᏗᏒᎯ	-11.6186
ᎴᏂᏓᏍᏗᏱ	-11.6189
ᎵᏱᎶᎸ	-11.6193
ᎨᎳᏍᏙᏗ	-11.6196
ᏩᎯᏍᏗ	-11.6198
ᏲᎲᏍᎨᏍᏗ	-11.6198
▁ᎾᏆᎵᏍᏓᏁᎸ	-11.6199
ᎦᏓᏅᏓᏗ	-11.6203
ᏁᏤᎴᎢ	-11.6204
ᏗᎧ	-11.6206
ᎧᎭᏲᏔ	-11.6207
Ꮊ	-11.6207
▁ᏱᏩ	-11.6207
ᏍᎦᏰᎬᏍᏔ	-11.6209
ᎬᏗᏍᎨᎢ	-11.6212
▁ᏥᏂᎦᎵᏍᏗ	-11.6213
ᏍᏔᏁᏍᏗ	-11.6213
ᏩᏍᎦ	-11.6214
ᎺᎵ	-11.6215
▁ᎢᏓᏙᎴᎰᎯ	-11.6218
▁ᏱᏓᏥ	-11.6221
ᏨᏯ	-11.6221
ᏓᎦᎶᏐᏂ	-11.6221
ᏯᏅᎡᎵ	-11.6223
ᏗᎨᎴ	-11.6224
ᎰᏂ	-11.6229
ᏍᏔᏅᎾ	-11.6229
ᎮᎵᎠᏍᎪ	-11.6229
▁ᏗᏌ	-11.6229
ᎦᎵᎡᎵ	-11.6232
▁ᏂᏕᎦ	-11.6233
ᎦᏔᎲᎩ	-11.6235
▁ᎦᎸᏉᏗᏳᏰᏃ	-11.6238
ᎵᏬᏤ	-11.6239
ᏕᏓᏓᎪᎲᏳ	-11.624
ᎩᎦᎨᏍᏛᏱ	-11.624
ᏲᎢᏎᎴ	-11.6241
ᎠᏡᏗᏍᎩ	-11.6243
▁ᎤᏂᎶᏎ	-11.6243
▁ᎤᏅᏍᎦᎴ	-11.6243
▁ᎤᎵᏍᎪᎸᏔᏁ	-11.6243
▁ᎠᎩᎪᏁᎸ	-11.6243
▁ᏚᏂᎧᎲ	-11.6243
ᏗᎦᎪᏗᏱ	-11.6243
▁ᎤᏓᏙᏎᎴ	-11.6244
▁ᏓᎾᏓᏅᏖᏍᎬ	-11.6244
ᏚᏪᎧᏁᎢ	-11.6245
▁ᎠᎵᎬ	-11.6245
▁ᏳᏂᎪᎮ	-11.6245
ᎦᎾᏄᎪᏫᏍᎪ	-11.6247
▁ᎢᏨᏬᏁᏔᏅ	-11.6247
ᏓᎩᎸᏫᏍᏓᏁᎲ	-11.6247
▁ᎢᎬᏬ	-11.6248
▁ᏩᏂᎦᏛ	-11.6248
▁ᏫᏚᏳᎪᏛ	-11.6249
ᏡᏔᏅ	-11.6249
ᎪᎵᏰᏍᎬᎢ	-11.625
ᎠᎳᏑᎶ	-11.625
ᎤᏬᏚᏨ	-11.625
ᎤᏓᏅᏒ	-11.625
ᏣᏄᏏ	-11.6251
ᏧᏂᎸᏫᏍᏓᏁᎯ	-11.6251
ᎬᏂᏳᏉ	-11.6252
▁ᎢᏣᏓᏁᏟᏴᏏᏒ	-11.6252
▁ᏥᎦᎷᎪ	-11.6253
▁ᎠᎾᎢᏎ	-11.6253
ᏧᏙᎢᏛ	-11.6253
▁ᎠᏋᏔᏅ	-11.6253
▁ᏚᏂᏂᏴᎮ	-11.6254
ᏧᏪᏥ	-11.6255
▁ᎠᏐᏢᎢᏍᏗᏍᎬ	-11.6255
▁ᎠᏂᎦᏔᎮ	-11.6256
▁ᎤᏔᎳᏬᏍᎬ	-11.6256
ᏗᏂᎦᏘᏯ	-11.6256
▁ᎤᏂᏂᎬᏎᎲ	-11.6257
ᎡᎳᏂ	-11.6257
ᎣᏏᏉᏍᎪ	-11.6257
▁ᏚᏪᎧᏁᎴ	-11.6257
▁ᏂᏚᏂᏪᏎᎴ	-11.6258
ᎪᏪᎴ	-11.6258
▁ᏕᏣᎸᏫᏍᏓᏁᎲ	-11.6258
▁ᏣᎾᏗ	-11.6259
ᎤᏔᎷᎩᏍᎩ	-11.6259
▁ᏥᏄᎵᏍᏔᏁ	-11.626
▁ᏓᎩᏏᎳᏛ	-11.6261
▁ᎤᎾᎦᏙᏍᏕ	-11.6261
▁ᏗᏦᏢ	-11.6261
▁ᏓᎫ	-11.6262
▁ᎤᏁᎸᏔᏁ	-11.6262
ᏂᏨᏁᏍᏗ	-11.6263
ᎠᏎᏗ	-11.6263
▁ᏚᏠᏱᎴ	-11.6263
▁ᏄᏕᏘᏴᎮ	-11.6263
ᎪᏪᎵ	-11.6264
ᎪᏪᎸᎢ	-11.6264
▁ᏂᎨᎬᏁᎸ	-11.6265
▁ᎬᏩᏍᏓ	-11.6265
ᎵᏍᏙᏔᏅ	-11.6265
ᎵᏍᎪᎸᏓᏁᏗ	-11.6266
ᎠᎨᏴ	-11.6267
▁ᏚᏫᏞᏫᏒ	-11.6267
▁ᎠᏟᏍᏛ	-11.6267
▁ᏂᎬᏩᏪᏎᎴ	-11.6268
ᏂᏍᏚᏁ	-11.6269
▁ᎢᏥᎪᎲ	-11.6269
ᏥᏅᏬᏗ	-11.6269
▁ᏕᎫᎪᏓᏁ	-11.627
ᏣᏁᎳ	-11.6272
ᎦᎵᏉᎩ	-11.6272
ᎣᎯᏍᏙᏗ	-11.6273
▁ᏧᏯ	-11.6273
ᎤᏛᏁᎢ	-11.6275
▁ᎠᎵᏍᏓᏴᎲᏍᎬ	-11.6275
ᎾᏗᏔᏍᏗ	-11.6275
▁ᎤᏂᏚᎲ	-11.6275
▁ᏪᎮ	-11.6276
▁ᏥᏍᏚᏂᎩᏍᏗ	-11.6277
▁ᏕᏥᎳᏫ	-11.6278
▁ᏚᏂᎧᏁ	-11.6278
▁ᎾᏆᏛᏅ	-11.6279
ᏂᏬᏂ	-11.628
▁ᎤᏂᏇᏓᎸ	-11.628
▁ᎦᏃᎪ	-11.6281
▁ᏚᏬᏢᏁ	-11.6281
ᏥᎸᏉᏔᏅ	-11.6282
▁ᎠᏒᏛ	-11.6282
▁ᏩᎩᎶᏒ	-11.6282
ᎦᏪᏍᎬᎩ	-11.6282
▁ᎤᏁᎲ	-11.6283
▁ᏓᏂᏙᎬ	-11.6283
▁ᏚᏪᏲᏁ	-11.6283
▁ᏥᏄᏪᏒ	-11.6283
▁ᏚᏂᎳᏫᏨ	-11.6283
▁ᏓᎩᎪᎲ	-11.6284
ᎩᏌ	-11.6284
ᎬᏂᎨᏒ	-11.6286
▁ᎤᏮ	-11.6286
ᏗᎧᎿᏩᏛᏍᏗ	-11.6287
ᎯᏙᎲ	-11.6287
ᏅᎪᏨ	-11.6288
▁ᏣᏅ	-11.6289
ᏲᏂ	-11.629
▁ᎤᏃᎯᏳᏗ	-11.629
ᏁᎢᏍᏔᏁ	-11.629
▁ᎤᏁᎢᏍᏔᏁ	-11.6291
ᏓᏙᎵᏍᏗᎭ	-11.6291
ᏂᎪᎵᏰᎥ	-11.6291
▁ᎠᏛᏍᎨ	-11.6291
▁ᏧᎾᏓᏡ	-11.6292
ᎦᏓᎡᎢ	-11.6293
ᏯᏫᏍᏗ	-11.6293
ᎯᏄᎪᎢ	-11.6293
▁ᎤᎾᏠᏤ	-11.6293
▁ᎠᏧ	-11.6294
ᏪᏎᎢ	-11.6294
▁ᎤᏁᎵᏒ	-11.6295
▁ᏗᏂᎳᏫ	-11.6296
ᎩᏓᏟ	-11.6297
▁ᏫᎬᏆ	-11.6297
ᎫᏈ	-11.6297
▁ᎢᎦᎯ	-11.6298
ᏲᎱᏎ	-11.6298
ᎦᏍᎦᏂ	-11.6298
▁ᏭᏂᏴᎸ	-11.6299
▁ᏂᏣᎵᏍᏔᏅ	-11.6299
▁ᏭᏂᏃᏁ	-11.6299
ᎶᏄᎮᏗᏱ	-11.6299
ᏂᏐᏢᎢᏍᏙᏗ	-11.63
▁ᏛᏥ	-11.6301
ᏀᎢ	-11.6302
ᏁᏍᏓᎳ	-11.6302
▁ᏄᏅᏁᎴ	-11.6302
ᏍᏓᏁᎴ	-11.6303
▁ᎠᏉᎸ	-11.6303
ᏲᎱᏒᎯ	-11.6304
ᏏᏓᏍᏗ	-11.6305
ᏅᏨᎩ	-11.6305
▁ᏱᏚᎸᏫᏍᏓᏁ	-11.6306
ᎹᎵ	-11.6306
ᏆᏕ	-11.6307
▁ᏗᎬᏩᏁᎶ	-11.6307
▁ᎦᎾᏄᎪᏥᎸ	-11.6308
▁ᏱᏥᎪᏩᏘ	-11.6309
ᏟᏌ	-11.6309
ᏘᏳ	-11.6309
ᏂᏪᏍᎬ	-11.6309
ᎡᏆ	-11.6309
▁ᎤᎾᏘᏅᏍᏗ	-11.631
▁ᏱᏣᏚᎵ	-11.631
▁ᏧᏳᎪ	-11.631
▁ᎡᎩᏁᎸ	-11.631
▁ᎾᏎᎵ	-11.6311
ᏃᎯᏰ	-11.6311
ᏪᎳᏅᎯ	-11.6312
▁ᏭᏂᎷᎯᏍᏗ	-11.6313
ᎠᏆᏚᎵ	-11.6313
▁ᎢᏳᏂᏪᏍᏗ	-11.6313
▁ᏧᏄᎪᏙᏗ	-11.6313
▁ᎠᏆᎵᎮᎵᏍᏗ	-11.6314
▁ᎤᎾᏓᏡ	-11.6314
▁ᎢᏣᏓᏤᎵ	-11.6314
▁ᎢᏳᏪᏅᏍ	-11.6314
▁ᏗᎨᏥᎢᏍᏗ	-11.6315
▁ᏫᏨᎷᏤᏗ	-11.6315
▁ᏇᏗᏂ	-11.6315
▁ᎣᎦᎵᏍᏓᏴᏗ	-11.6316
ᎸᎢᏍᏗ	-11.6316
▁ᏥᏄᎵᏍᏔ	-11.6316
▁ᎤᎾᏄᎪᏫᏍᏗ	-11.6317
▁ᏗᎦᎳᏫᎢᏍᏗ	-11.6317
ᏁᎶᏙ	-11.6317
ᏩᏙᎯᏯᏛ	-11.6317
▁ᏗᎩᎸᏫᏍᏓᏁᏗ	-11.6317
▁ᎠᏰᏙᎳ	-11.6318
ᏯᏘᏃᎮᎸ	-11.6318
▁ᏧᏍᏆᏅ	-11.6318
▁ᎠᏥᏙᎵᏍᏗ	-11.6318
ᎨᏳᏣ	-11.632
▁ᎢᏳᎾᎵᏍᏙᏗ	-11.632
ᏲᎦᏛᏁᏗ	-11.6321
ᏈᏱ	-11.6321
ᏍᏚᎢᏎ	-11.6321
ᏣᎳᏁ	-11.6322
▁ᎠᏍᎦᎢᎮ	-11.6322
▁ᎢᏣᏛᎦᏅ	-11.6322
▁ᏚᎸᏫᏍᏓᏁᎮ	-11.6322
ᏡᎦ	-11.6323
▁ᎠᏫᎾᎨ	-11.6323
ᎴᎲᎦ	-11.6323
▁ᎠᏍᏆᎸᎲ	-11.6323
ᏃᎮᎮᎴ	-11.6326
▁ᎨᏣᎵ	-11.6326
ᎨᏅᏕ	-11.6326
ᎴᎬ	-11.6327
ᎿᏍᏕᏢ	-11.6327
▁ᎠᏂᎩᎵᏲ	-11.6328
ᎾᏛᏗᏱ	-11.6328
ᏄᏩᎢᏴ	-11.6329
▁ᎾᏆᎵᏍᏔᏁ	-11.6329
▁ᏕᎾᏓᎪ	-11.6329
ᎵᏍᏓᏴᎾᏁᏗ	-11.6329
▁ᎢᏣᏛᎪᏗ	-11.633
ᏁᏓᏥᏛ	-11.633
ᎧᎿᏩᏗᏓ	-11.633
▁ᏄᏟᏂᎬ	-11.6331
ᏝᏪᎯ	-11.6331
ᏜᏏᏛᎡᎲᎾ	-11.6332
ᎣᏍᏛ	-11.6332
▁ᎮᎲ	-11.6332
ᎨᏢᏔᏅᎭ	-11.6333
ᎦᏛᏂᏙᎯᏉ	-11.6333
ᎵᏍᏔᏁᏍᏗ	-11.6333
ᏅᏍᏓᏕᎴ	-11.6333
ᏅᎵᏰᏓ	-11.6333
in	-11.6334
ᏗᏌᏓᏕ	-11.6334
ᏣᎵᎡᎵᏤᏗ	-11.6334
▁ᏕᎬᎦᎿᏩᏗᏙ	-11.6335
ᎪᏅᏍᏓᎵ	-11.6335
ᏓᏲᎵᏍᏗ	-11.6336
ᎤᏍᏕᏎᎸᎯ	-11.6337
ᎵᏏᎾᎯᏍᏛᎾ	-11.6337
▁ᎤᏓᏴᏎ	-11.6337
▁ᏩᎾᎦᎳ	-11.6337
ᎭᏄᏩ	-11.6338
aire	-11.6338
ichael	-11.6338
reland	-11.6338
ᎦᏨᏩᏍᏙᏗᏱ	-11.6338
ᎶᏄᎲᎵ	-11.6338
ᏂᏍᏋᎦ	-11.6338
ᏍᏕᎵᏌᏕᏒᎭ	-11.6338
ᏓᏂᏲᎰᏍᎪ	-11.6338
ᏓᏅᏖᏔᏂ	-11.6338
ᏓᏓᎾᏁᎶᏂᎨ	-11.6338
ᏔᏕᎶᎰᏏ	-11.6338
ᏚᎸᎡᎸᎩ	-11.6338
ᏩᏛᎱᎦ	-11.6338
▁ᎠᎩᏲᎱᏏᏗ	-11.6338
▁ᎠᎾᎵᏍᏓᏴᏂᏙᎮ	-11.6338
▁ᎠᏂᏯᏙᎯᎯ	-11.6338
▁ᎠᏍᏈᏅ	-11.6338
▁ᎠᏥᏂᏌᎲ	-11.6338
▁ᎡᏣᏁᎳᏁᎸ	-11.6338
▁ᎢᎡᏍᏕᎵᏌᏕ	-11.6338
▁ᎢᏍᏙᏎᎸᎭ	-11.6338
▁ᎢᏨᏰᎳᏗᏙᎸ	-11.6338
▁ᎢᏰᎬᏁᎸᎯ	-11.6338
▁ᎤᎦᏑᎲᎢ	-11.6338
▁ᎤᎳᏍᏚᏒ	-11.6338
▁ᎤᎾᏓᏄᏴᏗ	-11.6338
▁ᎤᎾᏓᏙᎵᏍᏓᏁᎴ	-11.6338
▁ᎤᏁᏄᎳᏍᏔᏁᎢ	-11.6338
▁ᎤᏂᏔᎳᏬᏒᎩ	-11.6338
▁ᎤᏄᏖᏎ	-11.6338
▁ᎤᏍᎫᏓᏁᎦᎸ	-11.6338
▁ᎤᏭᏓᎸᏤ	-11.6338
▁ᎦᏖᏌᏗ	-11.6338
▁ᎨᏤᎳᏗᏙᎮᏍᏗ	-11.6338
▁ᎬᏩᏄᎸᏗ	-11.6338
▁ᎬᏩᏓᏡᏫᏍᏔᏅᎩ	-11.6338
▁ᎬᏬᏍᏔᏅᎯ	-11.6338
▁ᎭᏓᎦᏖᏙᎢᏍᎨᏍᏗ	-11.6338
▁ᎮᏏᎦᏯ	-11.6338
▁ᏂᎠᏂᏪᎭ	-11.6338
▁ᏂᎦᎸᏉᏗᏍᎬᎾ	-11.6338
▁ᏂᎧᏪᏍᎬᎩ	-11.6338
▁ᏂᏓᏓᏂᎸᎬᎾ	-11.6338
▁ᏂᏗᎦᎵᏍᏔᏂ	-11.6338
▁ᏂᏥᏪᏍᎪᎢ	-11.6338
▁ᏄᎾᏓᏁᏟᏴᏎᎢ	-11.6338
▁ᏄᏂᎦᏙᎥᏒᎾ	-11.6338
▁ᏅᏓᎨᏥᏅᏏᏛ	-11.6338
▁ᏅᏓᏍᏛᏴᏁᎵ	-11.6338
▁ᏅᏩᏍᏗᏗᏎᏍᏗᏉ	-11.6338
▁ᏈᏯᏏᏱᏆ	-11.6338
▁ᏍᏆᏎᎵᏓᏁᎸᎢ	-11.6338
▁ᏍᏆᏎᎵᏓᏏ	-11.6338
▁ᏐᎣᏁᎵᏁ	-11.6338
▁ᏑᎧᏔ	-11.6338
▁ᏓᎪᏄᎶᏏᏙᎮᏍᏗ	-11.6338
▁ᏓᎵᏖᎸᏂᏙᎮᏍᏗ	-11.6338
▁ᏓᎾᏦᏍᎬ	-11.6338
▁ᏓᏂᏍᏔᏲᎯᎲ	-11.6338
▁ᏓᏂᏏᎳᏛᎥᏍᎨ	-11.6338
▁ᏓᏆᏚᏫᏍᏔᏅᎩ	-11.6338
▁ᏓᏓᏬᏍᏗᏍᎬᎩ	-11.6338
▁ᏓᏛᎯᏍᏓᏁᎮᏍᏗ	-11.6338
▁ᏔᏓᏅᏗᏍᏓ	-11.6338
▁ᏕᎤᎸᏫᏍᏓᏁᎸ	-11.6338
▁ᏕᎦᎶᎴᎬᎢ	-11.6338
▁ᏕᏥᏅᎪᎥᏗᏍᎨᏍᏗ	-11.6338
▁ᏕᏥᏅᏫᏍᎨᏍᏗ	-11.6338
▁ᏕᏦᏢᎯᏏ	-11.6338
▁ᏗᎩᎸᏫᏍᏓᏁᎯ	-11.6338
▁ᏗᎩᏄᎪᏨ	-11.6338
▁ᏗᏓᏙᏪᏙᎥ	-11.6338
▁ᏙᏓᏳᎸᏫᏍᏓᏁᎵ	-11.6338
▁ᏙᏗᏂᏁᎸᎢ	-11.6338
▁ᏚᎧᏙᏍᏕ	-11.6338
▁ᏚᎾᏁᏢᏔᏅᏒᎢ	-11.6338
▁ᏚᎾᏠᏱᎴᎢ	-11.6338
▁ᏚᏂᏖᎸᏁ	-11.6338
▁ᏚᏃᏣᎶᏤ	-11.6338
▁ᏚᏢᏫᏎᎴ	-11.6338
▁ᏠᏆᎹ	-11.6338
▁ᏣᏍᏕᏅᏨ	-11.6338
▁ᏣᏗᏫᏍᏓ	-11.6338
▁ᏧᎦᏎᏍᏗᏕᎩ	-11.6338
▁ᏧᏃᏕᏍᏗᏍᎩ	-11.6338
▁ᏫᏙᏓᏨᏯ	-11.6338
▁ᏫᏴᎨᏥᎷᎩ	-11.6338
▁ᏭᏭᏓᎸ	-11.6338
▁ᏮᏓᎦᎶᏏ	-11.6338
▁ᏯᏓᏬᏍᎨᏍᏗ	-11.6338
▁ᏱᏄᎵᏍᏔᏃ	-11.6338
▁ᏱᏙᎬᏩᎸᏫᏍᏓᏏ	-11.6338
▁ᏱᏚᏓᏌᏝᎮᏍᏗ	-11.6338
▁ᏱᏚᏛᏓᏍᏓᏁᎴᎢ	-11.6338
▁ᏱᏚᏪᏘᎸ	-11.6338
▁ᏱᏨᏲᏪᎳᏁᎭ	-11.6338
▁ᏳᎾᏛᏅᎢᏍᏗ	-11.6338
▁ᏳᏍᎦᏅᏨ	-11.6338
▁ᏴᎬᏂᎷᎩ	-11.6338
ᎵᏰᏑᏍᏚᏬ	-11.6338
ᏍᏇᎵᏰᏗ	-11.6338
ᏓᎾᏫᏛᏗ	-11.6338
▁ᎠᏂᎫᏌᏩᎩ	-11.6338
▁ᎢᏍᏉᏎᎭ	-11.6338
▁ᎤᏦᏔᎮ	-11.6338
▁ᏂᏓᎷᎸᎥᏍᎬᎾ	-11.6338
▁ᏂᏚᎿᏍᏕᏢᎾ	-11.6338
▁ᏗᎩᎧᏁᎸᎯ	-11.6338
▁ᏙᏓᎨᏥᏲᎯᏎᎵ	-11.6338
▁ᏙᏧᏁᏅᏒ	-11.6338
▁ᏩᏂᎦᏖᎢ	-11.6338
ᏥᏍᎩᏅᏛᎯ	-11.6338
ᏬᎯᎵᏴᏍᏓᏁ	-11.6338
▁ᎠᎦᏘᏗᏍᏙᏗ	-11.6338
▁ᎠᎾᏓᏌᎩᏙᎲ	-11.6338
▁ᎤᏓᏏᏂᏕᏅ	-11.6338
▁ᎤᏙᎴᎱ	-11.6338
▁ᎵᏆᏗᎻ	-11.6338
▁ᏍᎩᏯᏅᏓᏗᏍᎬᎢ	-11.6338
▁ᏍᎩᏲᎢᏳᎲᎦ	-11.6338
▁ᏓᎦᏓᏅᏏ	-11.6338
▁ᏓᏍᏆᎸᎮᎬᎢ	-11.6338
▁ᏦᎧᏔᏂ	-11.6338
▁ᏨᏓᎬᏯᏎᎮᎵ	-11.6338
▁ᏭᏪᏙᎴᎢ	-11.6338
▁ᏱᏄᏓᎠ	-11.6338
ᎯᎬᏍᎪᎸᎥᏍᎨᏍᏗ	-11.6338
ᏤᏲᎲᏍᎦ	-11.6338
▁ᎠᎻᏗᏏ	-11.6338
▁ᎠᎾᏓᎩᎡᎯ	-11.6338
▁ᎢᏨᏂᏌᏛ	-11.6338
▁ᎢᏯᏂᏪᏍᎩ	-11.6338
▁ᎤᏂᏍᏛᏛᎯ	-11.6338
▁ᎤᏃᎱᎦᏅ	-11.6338
▁ᎤᏉᏔᏗ	-11.6338
▁ᎤᏖᎸᏁ	-11.6338
▁ᎪᎸᏌᏛᏗ	-11.6338
▁ᏂᏚᎾᏑᎴᎲᎾ	-11.6338
▁ᏅᏗᏛᏁᎵᏒ	-11.6338
▁ᏇᏣᏱᏗ	-11.6338
▁ᏌᎷᏱ	-11.6338
▁ᏍᎩᎨᏳᎭᏧ	-11.6338
▁ᏓᎬᏯᎫᏴᎡᎵ	-11.6338
▁ᏗᎦᎸᏉᏔᏅᎯ	-11.6338
▁ᏗᏂᎭᏲᎯ	-11.6338
▁ᏗᏂᏏᎲᏍᎩ	-11.6338
▁ᏗᏲᎳᏅᎯ	-11.6338
▁ᏙᏛᏂᏲᎯᏎᎵ	-11.6338
▁ᏣᏂᎦᏴᎵ	-11.6338
▁ᏦᎩᎦᏴᎵᎨᎢ	-11.6338
▁ᏱᏄᏩᏁᎸ	-11.6338
▁ᎠᎩᏔᎳᏬᏍᎬ	-11.6338
▁ᎠᎾᎵᏙᎩᏯᏍᎩ	-11.6338
▁ᎣᎦᏛᏅᎢᏍᏗ	-11.6338
▁ᎤᎵᏍᎦᏎ	-11.6338
▁ᎤᏲᏏᏌᏁᎢ	-11.6338
▁ᎬᏩᎵᏃᎮᏔᏁ	-11.6338
▁ᏍᏇᎵᏎᏗᏱ	-11.6338
▁ᏚᏂᏐᏨ	-11.6338
▁ᏚᏟᎶᏍᏓᏁᎸᎩ	-11.6338
▁ᏥᏫᏗᎨᎦᏘᏅᏍᏔᏁ	-11.6338
▁ᏯᏂᎷᎩ	-11.6338
ᏗᎩᏴᎩ	-11.6338
▁Co	-11.6338
▁ᎡᎵᏍᏓᎦ	-11.6338
▁ᎢᏨᏁᏤᎸᎢ	-11.6338
▁ᎤᏁᎳᎥᎯ	-11.6338
▁ᎤᏩᎢᏎᎸᎯ	-11.6338
▁ᎾᏂᏴᎬᎾ	-11.6338
▁ᏄᎪᎸᎾ	-11.6338
▁ᏅᏓᏲᏣᏛᏁᎵ	-11.6338
▁ᏚᏬᏑᎴ	-11.6338
▁ᏧᏂᏍᏚᏗ	-11.6338
▁ᏩᏓᏁᏟᏴᏍᏓ	-11.6338
▁ᎠᏂᏇᎵᏏ	-11.6338
▁ᎤᏓᏁᏟᏴᏍᏔᏁᎴ	-11.6338
▁ᏂᏚᎾᎵᏂᎬᎬ	-11.6338
▁ᏄᎵᏍᏔᏂᏙᎴ	-11.6338
▁ᏕᏓᎧᏂᏍᎬ	-11.6338
▁ᏥᏅᏓᎦᎵᏍᏔᏂ	-11.6338
▁ᏥᏓᎾᏕᏲᎲᏍ	-11.6338
▁ᎤᏕᏯᏔᏁᎸ	-11.6338
▁ᏄᎵᏍᏚᎸᎾ	-11.6338
▁ᏩᎦᏘᏅᏍᏙᏗᏱ	-11.6338
▁ᎠᎩᎳᏫᏍᏗᏱ	-11.6338
▁ᎠᏆᏙᎴᎰᎯᏍᏗᏱ	-11.6338
▁ᎠᏥᏅᏩᏅᎢ	-11.6338
▁ᎤᎾᎵᏛᏔᏅ	-11.6338
▁ᎤᏆᎶᎦ	-11.6338
▁ᏈᏥᏱ	-11.6338
▁ᏕᎱᏓ	-11.6338
▁ᏚᏰᎵᎯᏍᏔᏁ	-11.6338
▁ᏦᏓᎻ	-11.6338
▁ᏫᎷᏨᎭ	-11.6338
▁ᏮᏓᎦᏙᎴᎣᏏ	-11.6338
▁ᏴᎨᏦᎯᏳᎲᎦ	-11.6338
▁ᎣᏌᏯ	-11.6338
▁ᎤᎾᏕᏯᏔᏁᎴᎢ	-11.6338
▁ᎤᎾᏗᏒᎸ	-11.6338
▁ᎻᎴᎳ	-11.6338
▁ᏓᎾᏗᏔᏍᏗᏍᎨ	-11.6338
▁ᏗᏂᏍᏔᏲᎯ	-11.6338
▁ᏥᎨᏳᎠ	-11.6338
per	-11.6338
▁ᎠᎫᏴᎡᏗᏱ	-11.6338
▁ᎤᏚᏣᎳᏅᎩ	-11.6338
▁ᏙᏓᏰᏣᏬᏍᏔᏂ	-11.6338
▁ᏚᎵᏘᎾᎥ	-11.6338
▁ᏚᏂᎵᏬᏨᎩ	-11.6338
▁ᏥᏚᏃᎱᎦᏁ	-11.6338
▁ᎠᏓᏍᏕᎸᏓ	-11.6338
▁ᎡᏦᎯᏳᎲᏍ	-11.6338
▁ᏓᎦᏥᏁᏉᎢ	-11.6338
▁ᏓᏱᏓᎵ	-11.6338
▁ᏣᎷᎯᏍᏗᏱ	-11.6338
▁ᏧᎳᏏᏗᏱ	-11.6338
ᎩᏲᎱᏎᎲᎩ	-11.6338
ᏬᏁᏓ	-11.6338
▁ᎠᏂᏃᏟᏙ	-11.6338
▁ᎤᎦᏖᏃ	-11.6338
▁ᎤᎾᏣᏪᏐᎸᏍᏙᏗᏱ	-11.6338
▁ᎦᏨᏩᏍᏔᏅᎯ	-11.6338
▁ᎬᏩᎪᎵᏰᏍᎬ	-11.6338
▁ᏂᏙᏓᎦᏪᏎᎵ	-11.6338
▁ᏓᏤᏅᎡᎵ	-11.6338
▁ᏕᎦᏆᏛ	-11.6338
▁ᏕᎯᏯᏁᎶᏕᏍᏗ	-11.6338
▁ᏥᏂᏴᏁᎭ	-11.6338
▁ᎤᏬᎦᏒ	-11.6338
▁ᏬᎩᏃᎸᎩ	-11.6338
▁ᎾᏂᎦᏔᎾᎥᎾ	-11.6338
▁ᏗᎾᎵᏍᏓᏴᏂ	-11.6338
ᏍᏚᎢᎡᎸ	-11.6338
▁ᎠᎵᏍᏕᎵᏍᎬ	-11.6338
▁ᏗᎬᏩᎾᏛᎪᏙᏗ	-11.6338
▁ᏙᎦᏠᏒᎩ	-11.6338
▁ᎤᎾᏕᎶᏆᏍᏗᏱ	-11.6338
▁ᎻᏗᏯᏂ	-11.6338
▁ᏄᏂᏍᎦᏅᏨᎾ	-11.6338
▁ᏛᏓᎸᎢ	-11.6338
▁ᏯᏥᏯᏝ	-11.6338
ᏓᎴᏴᏗᏍᎩ	-11.6338
ᏓᏓᎴᏔᏂ	-11.6338
▁ᎢᏥᎪᎵᏰᎥᎭ	-11.6338
▁ᎤᎾᏦᏍᏔᏁ	-11.6338
▁ᏂᏨᎾᏛ	-11.6338
▁ᏱᏅᏓᎦᎵᏍᏙᏓ	-11.6338
ᎱᏢᏔᏅᎭ	-11.6338
▁ᏛᏥᎷᏥ	-11.6338
▁ᏒᎦᏙᎯ	-11.6338
ᏙᏥᎵᏦᏛᎦ	-11.6338
▁ᎠᎵᏃᎮᏗᏍᎬᎢ	-11.6338
▁ᎠᏂᏁᎢᏍᏗᏍᎩ	-11.6338
▁ᎤᎾᏘᏍᏙᏗᏱ	-11.6338
▁ᎤᏎᎵᏓᏁᎴᏃ	-11.6338
▁ᏂᏙᏓᎬᏁᎵ	-11.6338
▁ᏅᏓᏨᏴᏁᎵ	-11.6338
▁ᏗᎾᏓᏙᏕᏍᏗᏍᎩ	-11.6338
▁ᎠᏰᎴᎩ	-11.6339
▁ᎦᏴᏓᏗ	-11.6339
▁ᏕᎦᏕᏲᎲᏍᎬ	-11.6339
▁ᏕᎧᏃᎮᏍᎬ	-11.6339
▁ᏚᎳᏫᏛ	-11.6339
ᎩᎵᏲᏥᏙᎸᎢ	-11.6339
▁ᎤᏅᏘᏛ	-11.6339
▁ᎤᏍᏆᎷᎪ	-11.6339
▁ᎤᏙᏣᎸᎢ	-11.6339
▁ᎾᎾᏓᏛᏍᎬᎾ	-11.6339
▁ᎣᏥᏯᎥ	-11.6339
▁ᎤᏓᏦᎯᏯ	-11.6339
▁ᏗᏧᎪᏗᏍᎩ	-11.6339
▁ᎯᏯᏛᎥᎦ	-11.6339
▁ᏙᎩᎾᏗᏔᎲ	-11.6339
▁ᎦᏅᏃᏫ	-11.6339
▁ᏧᏃᏑᎴᏗ	-11.6339
ᏲᎱᎯᏎᎴᎢ	-11.6339
▁ᎦᏢᏍᎩ	-11.6339
▁ᏄᎾᏙᏓᏈᏒ	-11.6339
▁ᎤᎾᏓᏓᏍᎩᏌᎲ	-11.6339
▁ᎦᏃᎱᎩᏍᎨ	-11.6339
▁ᏅᏗᎦᏪ	-11.6339
▁ᎠᏂᏂᎩᎸ	-11.6339
▁ᎠᏍᏚᎢᏛ	-11.6339
▁ᎤᎦᏛᎴᎯᏍᏗᏱ	-11.6339
▁ᏗᎬᏩᏂᏯᎢ	-11.6339
▁ᏛᎵᏛᏔᏂ	-11.6339
▁ᏄᎵᏌ	-11.6339
▁ᎠᏐᏢᎢᏍᏗᏍᎨᏍᏗ	-11.6339
▁ᎤᏍᏘᏰᎩ	-11.6339
▁ᎤᏟᏃᎮᏔᏁᎢ	-11.6339
▁ᏄᏂᏧᏈᏍᏕᏍᏗ	-11.6339
▁ᏛᎬᏯᏘᏃ	-11.6339
▁ᎠᎵᏱᎵᏒᎢ	-11.6339
▁ᎠᏃᏢᏅᎥᏍᎩ	-11.6339
▁ᏧᎾᏛᏒᎯ	-11.6339
ᎫᎪᏓᏁᏗ	-11.6339
ᏑᎶᏨᎯ	-11.6339
▁ᎠᎾᎵᏍᎩᏍᎬ	-11.6339
▁ᎤᎾᎵᏍᏓᏴᏃᏅ	-11.6339
▁ᏥᏄᎾᏍᏛᎢ	-11.6339
ᏨᏯᏛᏛᏂ	-11.6339
▁ᎦᎨᏥᏐᏢ	-11.6339
ᎿᎸᏍᏗᏍᎨᏍᏗ	-11.6339
ᏕᏯᏔᏁᎭ	-11.6339
ᏣᏓᏅᎡᎸ	-11.6339
▁ᏃᎩᏪᏒᎩ	-11.6339
▁ᏓᏳᏂᏄᎪᏨᎩ	-11.6339
▁ᎤᏗᏛᎲᎩ	-11.6339
▁ᏂᎨᏣᏛᏁᎮᏍᏗ	-11.6339
▁ᏧᎾᏓᏟᏴᏗ	-11.6339
▁ᏗᎵᏰ	-11.6339
▁ᏙᎩᏃᏢ	-11.6339
▁ᎠᎩᏔᏕᎩᏍᎬ	-11.6339
▁ᏙᏘᏲᎢ	-11.6339
▁ᏚᏥᎸᏒ	-11.6339
▁ᏫᏄᏒ	-11.6339
▁ᎢᏣᏛᎿᏕᎩ	-11.6339
▁ᎾᏆᎵᏍᏓᏁᎵᏕᎬ	-11.6339
▁ᏚᎾᎵᏯᏍᏚ	-11.6339
▁ᏣᎦᏥᎶᏍᏔᏅ	-11.6339
▁ᏧᎧᏃᏗᏱ	-11.6339
ᎬᏣᏝᏅ	-11.6339
▁ᏂᎦᎷᎶᎬᎾ	-11.6339
▁ᏚᎵᏥᏙᏁᎴᎢ	-11.6339
▁ᏥᏂᎦᏛᏁᎭ	-11.6339
▁ᎠᎩᏟᏲ	-11.6339
▁ᏅᏓᏥᏯᏛᏁᎵ	-11.6339
▁ᎢᏥᎪᏙᏍᎨᏍᏗ	-11.6339
▁ᏰᏦᏎᎮᏍᏗ	-11.6339
▁ᏚᏄᏮ	-11.6339
▁ᎠᏉᎵᏨ	-11.6339
▁ᎤᏄᏬᎥᎯ	-11.6339
▁ᎡᏣᏁᏍᎨᎲᎯ	-11.6339
▁ᏂᎦᎵᏍᏔᏂᏙᎮᏍᏗ	-11.6339
▁ᏗᎩᎪᎶᎯ	-11.6339
▁ᏗᏥᏅᏍᎨᏂ	-11.6339
▁ᏧᏁᎩᏳ	-11.6339
▁ᏄᏓᏅᏛᎾ	-11.6339
▁ᎠᏃᏢᏍᎬ	-11.6339
▁ᎤᏍᎦᎢᏓ	-11.6339
▁ᎢᏥᎾᏫ	-11.6339
▁ᎠᎵᏍᏆᏛᎭ	-11.6339
▁ᎡᏣᎵᎡᎵᏤᎮᏍᏗ	-11.6339
ᎳᏫᏎᎮᏍᏗ	-11.6339
ᏧᎾᏚᎩᏎ	-11.6339
▁ᎠᏆᎵᏂᎬᎬᎢ	-11.6339
▁ᏫᎷᎩ	-11.6339
▁ᎢᏨᏯᏅᏓᏗᏍᏗᏍᎬᎢ	-11.6339
▁ᎢᏏᎳᎻ	-11.6339
▁ᎾᏐᏂ	-11.6339
▁ᎾᏓᏛᏁᎲᎢ	-11.6339
ᎾᎪᏄᎸ	-11.6339
▁ᎨᎩᏍᎦᎩ	-11.6339
▁ᎹᏈᎳ	-11.6339
▁ᎤᏂᎾᏰᏒᎩ	-11.6339
▁ᏂᏕᎦᏅᎯᏒᎩ	-11.6339
▁ᎢᏣᏛᎩᏍᎨᏍᏗ	-11.6339
ᎩᎵᏲᎨᏍᏗ	-11.6339
ᎳᏫᏎᏗ	-11.6339
▁ᎤᏁᏢᏔᏅᏒᎢ	-11.6339
▁ᏄᏲᎱᏒᎩ	-11.6339
▁ᏗᏓᎪᏗᏍᎩ	-11.6339
ᏍᎦᎳᏤ	-11.6339
▁ᏱᏩᏍᏔ	-11.6339
▁ᏛᎩᏲᎵ	-11.6339
ᎬᏲᏎᏗ	-11.6339
ᏢᏥᏰᏍ	-11.6339
▁ᏥᏓᏓᏂᎸᎪᎢ	-11.6339
▁ᎠᎵᏱᎶᎸᎭ	-11.6339
▁ᏙᎨᏥ	-11.6339
▁ᏫᏨᏲᎵ	-11.6339
▁ᎠᏆᏁᎳᏫᏎ	-11.6339
▁ᎾᏂᎦᏔᎿᎥᎾ	-11.6339
▁ᎤᎧᎵᏦᏅ	-11.6339
ᎳᏍᏕᎵᏴᏌ	-11.6339
▁ᏒᎯᏰ	-11.6339
▁ᏱᏓᏂᏁᏟᏴ	-11.6339
▁ᎤᏪᏣᏄ	-11.6339
▁ᎠᎨᎾᏂ	-11.6339
▁ᏧᏲᏍᏔᏅᎯ	-11.6339
▁ᏬᏥᎦᏛ	-11.6339
▁ᎢᏳᎾᎵᏍᏔᏁᏗ	-11.6339
▁ᎤᏗᎦᎵᏍᏙᏗᏍᎨ	-11.6339
▁ᏧᎾᎳᏏᏕᏄᎶᏗ	-11.6339
▁ᎠᎩᏬᏂ	-11.6339
▁ᎤᎾᏁᎳᏛ	-11.6339
▁ᏕᎱᎪ	-11.6339
▁ᏫᏚᎾᏘᏃᎮᎸᎩ	-11.6339
ᏲᎱᏒᎾ	-11.6339
▁ᏅᏓᏳᏪᏒᎩ	-11.6339
▁ᏳᏍᏆᎸ	-11.6339
▁ᎠᏍᏆᎾᎸ	-11.6339
▁ᏧᎾᎳᏏᏕᏅ	-11.6339
▁ᏭᏪᏙᎸ	-11.6339
▁ᎠᏆᏛᏛᏅ	-11.6339
ᎩᏍᏚᎲᎩ	-11.6339
▁ᏂᏗᏨᎦ	-11.6339
▁ᎢᎪᎯᏳᏒ	-11.6339
▁ᏣᎪᏎᎰᎢ	-11.6339
▁ᏂᏥᏲᎯᏍᏗᏍᎬᎾ	-11.6339
▁ᎠᎾᏕᎲᏍᎨ	-11.6339
▁ᎤᏃᏴᎳᏒ	-11.6339
▁ᎤᏅᏫᏍᏗᏍᎩ	-11.6339
▁ᏄᎵᏁᏨ	-11.6339
▁ᏅᏧᏪᏎᎴᎢ	-11.6339
ᏍᏇᏲᎲᎦ	-11.6339
▁ᎠᎪᏩᏘᏍᎩ	-11.634
▁ᏁᏙᎲᎾ	-11.634
▁ᏍᎩᏯᏛᏓᏍᏓᏏ	-11.634
ᏩᎵ	-11.634
ᎵᎯᎮᎢ	-11.634
▁ᏏᏗᎻ	-11.634
▁ᏚᏂᏲᏏᏍᎬ	-11.634
▁ᎢᎩᏇᏓᎸ	-11.634
▁ᏚᏂᎦᏘᎸᏎ	-11.634
ᏥᏯᏫᏍᎬ	-11.634
▁ᎠᏂᏲᎵᎮ	-11.634
▁ᎢᏣᏓᏅᏓᏓ	-11.634
▁ᎤᏗᎴᎲᏍᎨᎢ	-11.634
▁ᎤᏙᎵᏍᏙ	-11.634
▁ᎠᏆᏛᏐᏅᎯ	-11.634
ᏟᎶᏍᏔᏂ	-11.634
▁ᎠᎢᏗᏢ	-11.634
▁ᏄᎸᏉᏔᏅᎾ	-11.634
▁ᏚᏬᎥᎩ	-11.634
▁ᎢᎨᏓᏍᏗᏱ	-11.634
▁ᏗᎾᏓᎯᎯ	-11.634
ᏣᎦᏎᏍᏓ	-11.634
▁ᏧᏓᏅᎵᏰᏓ	-11.634
▁ᎤᎵᏒᏍᏔᏁᎢ	-11.634
▁ᏓᏥᎾᏄᎪᏫᏎᎵ	-11.634
▁ᎠᏓᏅᏬᎯᏍᏗᏍᎩ	-11.634
ᎭᏄᏫ	-11.634
▁ᎢᏨᏁᏤᎭ	-11.634
▁ᎬᏩᏛᎡᎴᏍᏗ	-11.634
▁ᎤᎦᏌᏛᎢ	-11.634
▁ᎤᏠᎩ	-11.634
▁ᏓᏳᏠᎠᏒᎩ	-11.634
▁ᏚᏂᏎᎪᎩᏎ	-11.634
▁ᎠᏎᎵᏛᏍᎬ	-11.634
▁ᎣᏣᏓᏅᏟ	-11.634
▁ᏫᏚᏂᏴᏍᏗᏱ	-11.634
▁ᎤᎯᏌᏛ	-11.634
▁ᎠᎾᏓᎸᏉᏗᏍᎩ	-11.634
▁ᎠᎩᏁᏉᏤ	-11.634
▁ᏕᎤᏲᎯᏎᎴᎢ	-11.634
▁ᎠᏍᏙᏓ	-11.634
▁ᏳᏂᏃᎮᎸ	-11.634
▁ᎢᏨᏲᎵᎦ	-11.634
▁ᏦᏥᏰᎸ	-11.634
▁ᎠᏓᏓᏱᎮᏍᏗ	-11.634
▁ᎾᎾᎵᏍᏗᎭ	-11.634
▁ᏕᎦᎦᏙᏍᏛ	-11.634
▁ᎠᏁᏦ	-11.634
ᏯᏓᏂᎸᏥ	-11.634
▁ᎥᏆᏬᏍᏙᏗ	-11.634
▁ᏭᏗᏢᏍᏔᏅ	-11.634
▁ᎢᏥᏲᎮᏍᏗ	-11.634
▁ᎢᏥᏁᎢᏍᏗᏱ	-11.634
▁ᎤᎾᎵᏍᏔᏴᏅ	-11.634
▁ᏳᏥᏍᎪᎸ	-11.634
ᏨᏉᏛᎾ	-11.634
▁ᎥᎩᏂᎵ	-11.634
▁ᏱᎦᏂᏆᏘᎭ	-11.634
ᎬᏑᎶᏙᏗ	-11.634
▁ᏫᎬᎷᏤᏗᏱ	-11.634
▁ᏚᎾᏂᏏᏁᎢ	-11.634
▁ᏗᎪᏏᏐᏗ	-11.634
▁ᎠᏉᎯᏳᎲᏍᎨᏍᏗ	-11.634
▁ᏳᏓᏅᏒ	-11.634
▁ᎤᎾᏁᎶᏔᏁ	-11.634
▁ᎣᎦᏂᎩᏒᎩ	-11.634
▁ᎤᏂᏲᎢᏎᎸᎯ	-11.634
▁ᏫᏚᎵᏍᏘᏂᎸ	-11.634
▁ᏚᏂᎳᏫᏦᎴ	-11.634
ᏦᎣᏍᏙᏗ	-11.634
▁ᎢᏣᏗᏔᏍᎨᏍᏗ	-11.634
▁ᏓᏆᎭᏄᏮ	-11.634
▁ᏫᏍᎩᏩᎯᏏ	-11.634
▁ᎤᏛᎸᎮ	-11.634
▁ᏙᏂᏍᎩ	-11.634
ᎵᏍᏓᏁᎵᏕᎬ	-11.634
▁ᎦᎾᏜᎢ	-11.634
▁ᏅᏓᏳᎾᏄᎪᎢᏍᏗ	-11.634
ost	-11.6341
▁ᏓᏰᏥᎪᎢ	-11.6341
▁ᎠᎦᏘᏅᏍᏗᏱ	-11.6341
▁ᏌᎳᏓᏱᎵ	-11.6341
ᏕᎰᏍᎬᎾ	-11.6341
▁ᏓᏘᎭᏁᎲ	-11.6341
▁ᏓᏳᏗᏩᏏ	-11.6341
▁ᎢᏍᎩᎪᏩᏘᏍᎨᏍᏗ	-11.6341
▁ᎤᎾᎦᏙᏍᏛ	-11.6341
▁ᏫᏓᏂᎷᎦ	-11.6341
▁ᏓᏉᏙᎥ	-11.6341
er	-11.6341
▁ᏐᏆᎵ	-11.6341
▁ᏌᏗᏏ	-11.6341
▁ᏧᏟᏴ	-11.6341
▁ᎢᏨᏍᏓᏩᏕᏅ	-11.6341
▁ᏙᏓᏲᏣ	-11.6341
▁ᏧᎾᎭᎾᏬ	-11.6341
▁ᎤᏓᏬᎡ	-11.6341
▁ᏅᏛᎴᏅᏛ	-11.6341
ᏢᏈᏍᎦ	-11.6341
ᏗᎨᏥᏰᎪᎢ	-11.6341
▁ᏫᏗᏍᎩᏯᏅᏏ	-11.6341
▁ᎡᏥᎸᏉᏗᏍᎨᏍᏗ	-11.6341
▁ᏝᏬ	-11.6341
▁ᎤᏂᎦᎾᏍᏓ	-11.6341
▁ᎣᎦᏁᎳᎩ	-11.6341
ᎶᏄᎮᎸᎩ	-11.6341
ᎠᎩᎷᏨ	-11.6341
▁ᎠᏓᏅᏖᏍᎩ	-11.6341
▁ᎤᎵᏏᏂᏕᎾ	-11.6341
ᎨᎲᏒᎩ	-11.6341
▁ᎢᏳᎾᏓᎵ	-11.6341
▁ᏱᏍᎩᎪᏩᏘᏍᎨᏍᏗ	-11.6341
▁ᎢᏓᎢᏎᏍᏗ	-11.6341
▁ᎢᏣᏓᏄᎸᏗ	-11.6341
▁ᎢᎨᎳᏗᏙᎭ	-11.6341
▁ᎤᏪᎧᎮ	-11.6341
ᏃᏪᎳᏁ	-11.6341
▁ᎫᏘᏍᎬ	-11.6341
▁ᎢᎤᏂᎷᏨ	-11.6341
▁ᎤᎾᏓᏅᎡᎸᎩ	-11.6341
▁ᎡᎳᏆᏘ	-11.6341
▁ᏙᏥᏲᎦ	-11.6341
▁ᏕᏣᏏᎳᏛ	-11.6341
▁ᎠᏉᎯᏳᎲᏍᎩ	-11.6341
▁ᎣᎩᎾᏟᏃᎮᎸ	-11.6341
▁ᎣᏦᎯᏳᎲᏍᎦ	-11.6342
▁ᏥᏥᏃᎮᎭ	-11.6342
▁ᎢᏰᏨᏁᏗᏱ	-11.6342
▁ᎠᏆᏎᎵᏙᏔᏅ	-11.6342
▁ᏱᏂᎬᏩᏍᏗᏉ	-11.6342
▁ᎠᏇᏙᏅ	-11.6342
▁ᏚᏰᎵᏏᏙᎴᎢ	-11.6342
▁ᏚᏍᏕᎸᎯᎸ	-11.6342
▁ᏱᏍᎩᏃᎯᏎ	-11.6342
▁ᏗᏤᎵᏏ	-11.6342
▁ᎤᏩᏃᏫᏍ	-11.6342
▁ᏴᏗᏓᎴᎲᏍᎦ	-11.6342
▁ᏭᏂᎧᏁ	-11.6342
▁ᏕᏥᏁᏤᎮᏍᏗ	-11.6342
▁ᏚᏂᏐᏈ	-11.6342
▁ᎤᎵᏍᏚᎸᎩ	-11.6342
▁ᏗᎫᎪᏗᏱ	-11.6342
▁ᏕᏣᎸᏫᏍᏓᏁᎮᏍᏗ	-11.6342
▁ᎢᏗᏜ	-11.6342
▁ᏓᎾᎴᎯᏌᏅ	-11.6342
▁ᏌᎵᎹ	-11.6342
▁ᏚᎾᏠᏱᎸᎩ	-11.6342
▁ᎤᎩᎴᏍᏗ	-11.6342
▁ᎠᏆᏣᏅᏓᏕ	-11.6342
▁ᎭᎵᏍᏓᏴᎲᎦ	-11.6342
▁ᎡᏣᏓᏅᏛᎵ	-11.6342
▁ᎢᎪᎯᏳᏅ	-11.6342
▁ᏗᎬᏩᏂᎾᏝᎢ	-11.6342
▁ᎠᎬᏂᏗᏳ	-11.6342
▁ᏕᏣᏓᏅᏖᏍᏗ	-11.6342
▁ᎤᏍᏆᏄ	-11.6342
▁ᎤᏓᏅᎵᏰᏓ	-11.6342
▁ᏴᎨᏤ	-11.6342
▁ᏂᏥᎾᏰᏍᎬᎾ	-11.6342
▁ᎠᏅᏍᎬᎢ	-11.6342
▁ᎢᎫᏓᎴᏍᏗᏱ	-11.6342
▁ᎢᎬᏴᏁᏗᏱ	-11.6342
ᏓᏚᎪᏓᏁᎭ	-11.6342
ᏗᏔᏍᏔᏁ	-11.6342
▁ᏥᏗᎧᎸᎪ	-11.6342
▁ᏯᏬᏅ	-11.6343
▁ᎦᏓᏙᎵᏍᏗᏍᎨᏍᏗ	-11.6343
▁ᏖᏒ	-11.6343
▁ᏗᏂᏂᏙᎯ	-11.6343
▁ᏭᎦᏔᎲᏍᏔᏅ	-11.6343
▁ᎠᏔᏍᎩᏍ	-11.6343
▁ᎠᎾᏙᎴᎰᏍᎨᏍᏗ	-11.6343
▁ᏕᏣᏓᎨᏳᏒ	-11.6343
▁ᏗᎦᎾᎯᏍᏙᏗ	-11.6343
▁ᏥᎨᎳᏗᏙᎮ	-11.6343
▁ᏚᏂᏃᎸᎩ	-11.6343
▁ᎢᏥᏫᏅ	-11.6343
▁ᏥᎾᏂᎥ	-11.6343
▁ᎤᏃᏒᏅ	-11.6343
▁ᏩᏎᎯ	-11.6343
ᏍᎦᏞᎢ	-11.6343
▁ᏂᏍᎩᏴᏁᎸ	-11.6343
ᏍᏕᏓᎵᏴᏌ	-11.6343
▁ᏚᏍᏚᏤ	-11.6343
▁ᎤᏂᏏᏁᎢ	-11.6343
▁ᏭᎵᏰᎢᎶᎸ	-11.6343
▁ᎢᏗᎬᏓ	-11.6343
▁ᎢᏨᏅᎵ	-11.6343
▁ᏧᏪᏲᏅᎯ	-11.6343
▁ᎤᏁᏍᎨᎴ	-11.6343
▁ᏕᏨᏰ	-11.6343
▁ᏧᏕᏲᏗᏱ	-11.6343
ᎵᏴᏌ	-11.6343
ᏳᎪᏛᎾ	-11.6343
▁ᎨᏣᎵᏍᏕᎸᏙᏗ	-11.6343
ᏲᎲ	-11.6343
▁ᎢᏥᏂᎬᏎᎲᎢ	-11.6343
▁ᏍᎩᏯᏓᏅᏏ	-11.6343
ᎩᎩᎡᎵ	-11.6343
▁ᏓᏳᏍᏕᎸᎯ	-11.6343
▁ᎤᏤᏥᏍᏗ	-11.6343
▁ᎦᏁᏐᎠᏍᎬ	-11.6343
▁ᏅᏩᏛᏁᏍᏗ	-11.6343
▁ᏍᏆᏕᏁᎸ	-11.6343
▁ᎢᏨᏲᎢᏳ	-11.6343
▁ᎠᏕᏄ	-11.6343
▁ᎠᏕᎰᎯᏍᏗ	-11.6343
▁ᎢᏳᏥᎶᏓ	-11.6343
ᏓᏄᏴᏛᎾ	-11.6343
▁ᏫᏨᏲᏪᎳᏁᏗᏱ	-11.6343
▁ᏗᏣᏠᏱᎸᎩ	-11.6344
▁ᎤᏂᏯᏙᎴ	-11.6344
▁ᏚᏅᏫᏍᏔᏅ	-11.6344
▁ᎹᏚ	-11.6344
▁ᏧᏓᎴᏅᏔᏅᎯ	-11.6344
▁ᏄᎾᏍᏕᏍᏗ	-11.6344
▁ᎠᎦᏬᎥ	-11.6344
▁ᏕᎦᎶᏍᎬ	-11.6344
ᏴᎳᏎᎢ	-11.6344
▁ᏄᏓᎨᏒ	-11.6344
▁ᎠᏯᎣᎢ	-11.6344
▁ᎠᎾᎵᏍᏔᏴᎲᏍᎬ	-11.6344
▁ᎢᏲᎦᏛᏁᏗᏱ	-11.6344
▁ᏤᏥᎤᏍᏕᏎᏗᏱ	-11.6344
▁ᏱᏓᎨᏏ	-11.6344
▁ᎣᏣᏓᏙᎵᏍᏓᏁ	-11.6344
▁ᎯᏅᎦᎸ	-11.6344
▁ᎢᏕᎮᏍᏗ	-11.6344
▁ᏧᎾᏁᎳᏗᏍᏗᏱ	-11.6344
▁ᏥᏄᏪᏎᎴᎢ	-11.6344
▁ᏋᏗᏱ	-11.6344
▁ᎤᎾᏓᏙᎵᏍᏗ	-11.6344
▁ᎦᏁᎵᏛ	-11.6344
▁ᎯᏁᏒᎭ	-11.6344
ᎦᏎᏍᏔᏅ	-11.6345
ᏙᎰᏎ	-11.6345
▁ᏛᎨᏥ	-11.6345
▁ᏯᏆᏛᎦ	-11.6345
▁ᏱᏙᎦᏰ	-11.6345
▁ᎢᏨᏯᏛᏁᏗᏱ	-11.6345
▁ᏂᎦᏁᎲᎾ	-11.6345
ᏕᎰᎯᏍᏙᏗᏱ	-11.6345
▁ᎢᏤᎳᏗᏙᎭ	-11.6345
▁ᎠᎾᏔᏍᎩᏍᎩ	-11.6345
▁ᎢᎤᎷᏤ	-11.6345
ᎥᏍᎩᏱᎩ	-11.6345
▁ᎤᏓᏅᏓᏛᎩ	-11.6345
▁ᎢᏥᎷᎨᏍᏗ	-11.6345
▁ᎠᏝᎲ	-11.6345
▁ᎢᏣᏓᏯᏫᏍᎨᏍᏗ	-11.6345
▁ᏍᎩᏯᏘᏃᎮᎸᎭ	-11.6345
▁ᏣᎾᏓᎾᏏᏂᏙᎭ	-11.6345
▁ᏥᎦᎷᎯᏍᏗᎭ	-11.6345
▁ᎢᏳᏪᏍᏘ	-11.6345
ᎫᏴ	-11.6345
▁ᏂᏥᏪᏒᎭ	-11.6345
▁ᏗᎦᏅᏍᏙᏗ	-11.6345
▁ᏱᏣᏰᎸᏅ	-11.6345
▁ᏳᏲᏤᎢ	-11.6345
▁ᎤᏂᏑᎵᎪᏤ	-11.6345
▁ᏅᏓᏳᏄᎪᏨᎯ	-11.6345
▁ᎾᎾᏓᏁᏟᏴᏏᏒ	-11.6346
ᎶᏅᎮᎸ	-11.6346
▁ᎾᏥᏪᏎᎸ	-11.6346
▁ᏱᏦᎵᎦ	-11.6346
▁ᎢᏣᏣᏪᏐᎸᏍᏓ	-11.6346
▁ᏗᎦᏚᏗᏱ	-11.6346
▁ᎢᏳᏩᎪᏗ	-11.6346
▁ᎤᏩᎦᏘ	-11.6346
▁ᏓᏂᎾᏌᏛ	-11.6346
▁ᎯᏫᏅ	-11.6346
▁ᏗᎨᎪᏍ	-11.6346
▁ᎠᏂᎵᏫ	-11.6346
▁ᏕᏨᏁᏍᏗ	-11.6346
▁ᎬᎩᎷᏤᏗᏱ	-11.6346
▁ᏱᎾᏥᎸᏉᏙ	-11.6346
ᏎᏒᎮ	-11.6346
▁ᏥᏯᎵᎪᏁᎯ	-11.6346
ᏠᎯᏍᏗᏱ	-11.6346
▁ᏗᏑᏫᏍᎩ	-11.6346
▁ᏍᎩᏂᏌᏅᎭ	-11.6346
▁ᏗᏋᏅ	-11.6346
▁ᎠᏥᏌᎳᏓᏅ	-11.6346
▁ᎤᏓᏅᏘᏌᏅ	-11.6346
ᏓᏐᎴ	-11.6346
st	-11.6346
▁ᎠᎩᏁᎢᏍᏗᏱ	-11.6346
▁ᎦᎸᎳ	-11.6346
▁ᎡᏙᏙᏱ	-11.6347
▁ᎢᏨᎥᏏ	-11.6347
▁ᎠᏯᏖᏂ	-11.6347
▁ᏍᎩᏩᎯ	-11.6347
▁ᎡᏥᏯᎡᏍᏗ	-11.6347
▁ᎢᏦᎯᏳᏅ	-11.6347
▁ᎨᏥᏁᎢᏍᏗᏍᎬ	-11.6347
▁ᏦᏥᎦᏔᎭ	-11.6347
▁ᎤᏰᏥᏍᎩ	-11.6347
▁ᏗᏣᏚᏙ	-11.6347
▁ᎡᏦᎢᏳᏗᏱ	-11.6347
▁ᎬᏩᏂᏴᎮᎢ	-11.6347
ᏄᎵᏍᏓᏁᎴ	-11.6347
▁ᎤᏂᏴᏔᏂᎯᏍᏗᏱ	-11.6347
▁ᏚᏂᎵᏦᏛ	-11.6347
▁ᏗᏂᏃᎩᏍᎩ	-11.6347
▁ᏥᎦᏁᎭ	-11.6347
▁ᏥᏰᎸᎥ	-11.6347
▁ᎭᎴᎲᎦ	-11.6347
▁ᏫᎯᎶᎯ	-11.6347
▁ᏚᏃᎸᏎᎢ	-11.6347
▁ᏱᏥᏩᏘᎭ	-11.6347
▁ᎢᏨᎪᏩᏛᏗᏱ	-11.6347
▁ᎤᎾᏓᏅᏔᏩᏕ	-11.6347
▁ᏥᏚᏙᎠ	-11.6347
▁ᏂᎪᎵᎬᎾ	-11.6347
▁ᎢᏨᎷᏤᏗᏱ	-11.6347
▁ᏕᏨᏗᏍᎨᏍᏗ	-11.6347
▁ᎤᏓᎵᏁᎯᏕ	-11.6348
▁ᎤᏬᎯᏳᎯᏍᏛ	-11.6348
▁ᏕᎨᏥᎵᎥᏂ	-11.6348
▁ᏚᏃᎯᏳ	-11.6348
▁ᎠᏆᏙᎴᎰᏒ	-11.6348
▁ᎰᎯᏳᎲᎦ	-11.6348
ᏯᏓᏅᏏ	-11.6348
▁ᎥᎩᏍᏕᎸᏗᏱ	-11.6348
▁ᏕᏥᎸᏉᏕᏍᏗ	-11.6348
▁ᎠᎦᎸᏥ	-11.6348
▁ᎠᎫᏣ	-11.6348
▁ᏱᎦᏕᎣᏍᎦ	-11.6348
▁ᏯᏲᎱᎯ	-11.6348
▁ᎤᎵᏍᏆᏙᏅ	-11.6348
▁ᏱᎾᏛᏁᎮ	-11.6348
▁ᎢᏯᏆᎵᏍᏓᏁᏗ	-11.6348
▁ᏣᏍᏉᏂᎪᏗ	-11.6348
▁ᎤᏂᏲᏍᏙᏗᏱ	-11.6348
▁ᎦᏓᏆᏟ	-11.6348
ᏠᏱᎸᎩ	-11.6348
▁ᏚᏰᎵᏒ	-11.6349
▁ᎯᏲᏍᏗᏍᎩ	-11.6349
▁ᎠᎾᎵᏍᏓᏴᎲᏍᎩ	-11.6349
▁ᎤᏍᏆᎸᎯᏗᏒᎩ	-11.6349
▁ᏧᏂᎦᏯᎷᏗ	-11.6349
▁ᎠᎩᎾᏄᎪᏫᏎᎸᎩ	-11.6349
▁ᎠᎩᎸᏗᏍᎩ	-11.6349
ᎪᎲᏍᏔᏂ	-11.6349
▁ᎨᎪᏢᏅᎯ	-11.6349
▁ᏓᏆᎴᎸ	-11.6349
▁ᎦᎶᏐᏅ	-11.6349
▁ᎠᎾᏓᏁᏟᏴᏏᏒ	-11.6349
▁ᎤᎾᏓᏙᎵᏍᏙᏗᏱ	-11.6349
▁ᏩᏲᎯ	-11.6349
▁ᎢᏥᎷᏤᏗ	-11.6349
▁ᎭᏓᏙᎵᏍᏗᏍᎬ	-11.6349
▁ᎬᏩᏍᏚᎢᏍᏗ	-11.6349
▁ᏧᏩᎿ	-11.6349
▁ᎣᏣᎢᏒ	-11.6349
▁ᏚᎾᎵᏂᎬᎬ	-11.6349
▁ᏧᏓᏂᎸᎢᏍᏗᏳ	-11.6349
▁ᏣᏓᏅᏖᏗᏱ	-11.6349
▁ᎤᏓᏴᏒᎩ	-11.6349
▁ᏥᎦᏡᎦ	-11.635
▁ᏫᏄᏩᏁᎴ	-11.635
▁ᏥᎦᏘᏏᏗᏢ	-11.635
▁ᏧᏂᏲᎱᎯᏍᏗ	-11.635
▁ᎤᎧᏲᏓ	-11.635
▁ᎤᎵᏍᏛᏧᏅ	-11.635
▁ᎤᎱᏍᏕᏎᎴ	-11.635
▁ᎤᎵᏍᎫᏮ	-11.635
▁ᎤᎵᏬᎢᏍᏗ	-11.635
▁ᎤᏯᏍᏚᏎᎢ	-11.635
▁ᏧᎾᏓᎵ	-11.635
▁ᎨᏥᏛᎦ	-11.635
▁ᏂᎬᏩᏍᏛ	-11.635
▁ᏭᏕᎵᎨ	-11.635
ᎱᏩ	-11.635
ᏅᏮᎦ	-11.635
▁ᎠᎩᏁᎫ	-11.635
▁ᎠᏆᏎᎵᏔᏅ	-11.635
▁ᏅᏛᏁᎵ	-11.635
▁ᎢᏣᏓᏅᏓᏗᏍᏗᏱ	-11.635
▁ᎠᎵᏍᏓᏴᎲᏍᎩ	-11.635
▁ᎤᏅᎦᎳᎲ	-11.635
ᏑᏩ	-11.635
▁ᎢᏣᏗᏔᏍᏗᏱ	-11.635
▁ᏣᏴᏍᏗ	-11.635
▁ᎤᎿᏬᎡ	-11.635
▁ᎾᏆᎵᏍᏔᏁᎸ	-11.635
▁ᎠᏱᏍᎨᏍᏗ	-11.635
▁ᏥᏂᎬᏁᎭ	-11.635
▁ᎠᎩᏁᎢᏍᏔᏅ	-11.635
▁ᎤᏟᎶᎥᎩ	-11.635
▁ᎪᎵᎦᏓ	-11.635
▁ᏥᏁᏣᏛᏁ	-11.635
▁ᏥᎦᏘᏯ	-11.6351
ᏂᎶᏌ	-11.6351
▁ᎡᎩᏩ	-11.6351
▁ᏄᏛᏁᎵᏙᎸ	-11.6351
▁ᎠᎾᎵᎲᎢ	-11.6351
▁ᎠᎶᎻ	-11.6351
▁ᎢᏣᎴᏂᏓᏍᏗᏱ	-11.6351
▁ᏭᏗᏅᏎ	-11.6351
▁ᏙᏛᎠᎴ	-11.6351
▁ᏚᏄᎪᏫᏎ	-11.6351
▁ᎤᏰᏣ	-11.6351
▁ᏓᏍᏕᎵᏍᎬᎩ	-11.6351
▁ᏥᏧ	-11.6351
▁ᎣᎦᏅᏅᎩ	-11.6351
▁ᎹᏌ	-11.6351
▁ᏗᎦᏁᎶ	-11.6351
ᎤᏰᎸᏗ	-11.6351
▁ᏄᏛᏁᎳ	-11.6351
▁ᏤᏣᏛᏅᎩ	-11.6352
▁ᎯᏃᎮᏍᎩ	-11.6352
▁ᎢᏤᏙᎮᏍᏗ	-11.6352
▁ᎤᎾᏓᏄᎸᏗ	-11.6352
▁ᎤᏂᎷᎯᏍᏗ	-11.6352
ᏥᏲᎤᎯ	-11.6352
ᏯᏠᎢᏍᏓᏁᎵ	-11.6352
ᏥᏍᎦᎢᎭ	-11.6352
▁ᏳᏩᏛᎮᎢ	-11.6352
ᏋᎨᏫ	-11.6352
▁ᎤᎭᏄᏮ	-11.6352
▁ᏧᎭᎾᏬ	-11.6352
▁ᏳᏪᎵᏎ	-11.6352
ᏂᎦᏛᏁᎰᎢ	-11.6353
ᏍᏚᎢᏏ	-11.6353
▁ᎥᏘᏍᎩ	-11.6353
▁ᎠᏆᏦ	-11.6353
▁ᏧᏪᏲᎲᏍᎩ	-11.6353
▁ᎢᏳᎾᏕᏘᏴᏛ	-11.6353
ᏰᏫᏒ	-11.6353
▁ᎤᏗᏩᏒᎩ	-11.6353
▁ᎢᎬᏩᏂᎩᏍᏔᏁ	-11.6353
▁ᎦᏃᏙᏗ	-11.6353
▁ᏓᎪᏩᏘᏍᎬ	-11.6353
ᎩᏩᏛᎲᎩ	-11.6353
▁ᏚᎭᏁᎦᎸ	-11.6354
▁ᎠᏆᏢᏈᏍᏗᏱ	-11.6354
▁ᎠᏓᎦᏘᏕᎯ	-11.6354
▁ᏧᎬᏩᏟ	-11.6354
▁ᎤᏍᏆᎸᎮ	-11.6354
▁ᏗᏓᏘᏍᏗ	-11.6354
ᏧᎧᎸᏨ	-11.6354
▁ᎠᏛᏁᎮᏍᏗ	-11.6354
▁ᏱᏦᎯᏳᎲᎦ	-11.6354
ᎴᎳᏛᏅ	-11.6354
▁ᎢᏥᎦᏔᎯᏳ	-11.6354
▁ᏚᏍᏚᎢᏎ	-11.6354
▁ᎠᎵᏍᎩᏍᏗ	-11.6354
▁ᏫᏚᎧᎾᏅ	-11.6354
▁ᎠᏥᎸᎨᎳᏍᏙᏗ	-11.6354
▁ᎢᏯᎩᏪᏍᏗᏱ	-11.6354
▁ᏗᎾᏟ	-11.6354
▁ᎠᏆᏍᎦᏱ	-11.6354
▁ᎠᏓᏬᏍᏗᏱ	-11.6354
▁ᎤᏂᎪᎵᏰᏗᏱ	-11.6354
▁ᎣᎾᏫᏱ	-11.6354
▁ᏣᏱᎵᏙᎯ	-11.6354
ᏣᏘᏃᎸᎭ	-11.6355
▁ᏧᏪᏙᎵᏍᏗᏱ	-11.6355
▁ᎢᎩᏍᏕᎵᎭ	-11.6355
▁ᏫᏗᎦᏘ	-11.6355
▁ᎦᏓᏫᏔᏅ	-11.6355
ᏕᏙᎲᎩ	-11.6355
▁ᏗᎦᏘᏍᏗ	-11.6355
▁ᎢᏥᏙᎾ	-11.6355
▁ᎭᏅᏓᏓ	-11.6356
▁ᏫᎾᏛᎦ	-11.6356
▁ᎠᏂᎪᏩᏘᏍᎩ	-11.6356
▁ᏱᏄᎾᏍᏗ	-11.6356
ᏬᏍᎪᎢ	-11.6356
▁ᏧᏴᎴ	-11.6356
▁ᏥᏚᎦᏒᏍᏙ	-11.6356
▁ᏧᏌᎨ	-11.6356
▁ᎻᏌ	-11.6356
▁ᏫᏥᏤᎢ	-11.6356
▁ᏭᎷᎯᏍᏗ	-11.6356
▁ᎦᏐᏂ	-11.6356
▁ᏔᎷ	-11.6356
▁ᏭᎳᏛ	-11.6357
ᏏᏏᏍᎩ	-11.6357
ᎦᎧᎲᏍᎨᏍᏗ	-11.6357
▁ᎢᏣᏙᎴᎰᎯᏍᏗᏱ	-11.6357
ᎵᏯᎻ	-11.6357
▁ᎠᏂᏍᎦᏰᎬᏍᏔ	-11.6357
ᏁᏢᏙᏗᏱ	-11.6357
▁ᎢᏣᏓᏅᏙ	-11.6357
▁ᎯᎦᏔᎮᏍᏗ	-11.6357
▁ᎾᏑᎵᎪᎬᎾ	-11.6357
▁ᏥᏕᏙᎭ	-11.6357
▁ᏧᏄᎪᏤᎢ	-11.6358
▁ᎡᏤᏲᏅᎢ	-11.6358
▁ᎢᏨᏁᎢᏍᏗᏍᎬᎢ	-11.6358
▁ᎬᏁᏤᎲᎢ	-11.6358
▁ᏚᏃᏪᎸᎢ	-11.6358
▁ᏚᏪᏣᎦᎸᎮᎢ	-11.6358
▁ᏧᎾᏄᎪᏤᎢ	-11.6358
▁ᏧᏁᏢᏔᏅᏒᎢ	-11.6358
▁ᎤᎾᏓᏁᏟᏴᏒᏒᎢ	-11.6358
▁ᎤᏓᏅᏔᏕᎢ	-11.6358
▁ᏄᏍᏗᏕᎬᎢ	-11.6358
▁ᏓᎪᏄᎴᎢ	-11.6358
▁ᎢᏣᏛᎩᏍᎬᎢ	-11.6358
▁ᎠᎦᏬᎡᎢ	-11.6358
▁ᎤᎾᏁᏢᏔᏅᏒᎢ	-11.6358
▁ᎧᏄᎦ	-11.6358
▁ᏱᏥᏩᏘᏍᎪᎢ	-11.6358
ᏓᏨᎾᏄᎪᏫᏎᎵ	-11.6358
▁ᏧᏂᎶᏒ	-11.6358
ᏍᏓᏩᏕᎪᎢ	-11.6359
▁ᎧᏁᏉᏥᏎ	-11.6359
▁ᏕᎬᏩᏘᏃᎮᎴᎢ	-11.6359
▁ᏄᏪᎵᏍ	-11.6359
▁ᏂᎦᏪᎠ	-11.6359
▁ᎬᏃᏓ	-11.6359
▁ᎤᎬᎥᏍᎬ	-11.6359
ᏓᎵᏅᏟ	-11.6359
ᏕᏁᎵ	-11.6359
▁ᎨᏣᏓᏑᏴ	-11.6359
▁ᏕᎭᏕᏲᎲᏍᎬᎢ	-11.6359
▁ᏓᎾᎵᏍᏓᏴᎲᏍᎨᎢ	-11.6359
▁ᏗᏣᏏᎳᏛᏗ	-11.6359
▁ᎤᏂᏁᎢᏍᏗ	-11.6359
▁ᏧᎦᏙᏍᏙᏗ	-11.6359
▁ᏱᏚᎾᏓ	-11.6359
▁ᏫᎤᏂᎶᏎᎢ	-11.636
ᏋᏕᏨ	-11.636
▁ᎬᏩᎨᏳᎯ	-11.636
▁ᏗᏣᎵᏂᎪᎯᏍᏙᏗᏱ	-11.636
▁ᏕᎯᏬᏁᏗᏍᎬ	-11.636
▁ᏚᏄᏬᎡᎢ	-11.636
▁ᏝᏬᏚ	-11.636
▁ᎯᎶᏁᎥᎭ	-11.636
▁ᎤᎸᏁ	-11.636
ᏖᏍᎬᎢ	-11.636
▁ᏫᏂᎬᎦ	-11.636
▁ᏩᏥᎳᎨ	-11.636
▁ᏄᏟᏂᎬᎬ	-11.636
▁ᎤᏌᎨ	-11.636
▁ᏭᏅᎪᏤ	-11.636
▁ᎠᎩᏃᎮᏍᎬᎢ	-11.636
▁ᎤᏴᏨ	-11.636
▁ᎤᏚᎢᏍᏓᏁᎸ	-11.6361
▁ᎤᎾᏓᏅᏍᏗ	-11.6361
▁ᏚᏂᎵᏬᏤᎢ	-11.6361
▁ᏧᏂᏣᏔ	-11.6361
ᏍᏔᏩᏕ	-11.6361
▁ᏚᏂᏴᎲ	-11.6361
▁ᏚᏅᏩᏁᎢ	-11.6361
▁ᏅᏛᎾᎵᏍᏔᏂ	-11.6361
▁ᏅᏓᎦᏛᏁᎵ	-11.6361
▁ᏨᏗᎦᏚᎭ	-11.6361
▁ᏭᏙᎯᏳᎲ	-11.6361
▁ᎤᎾᏁᎳᏗᏍᏗᏱ	-11.6361
▁ᏍᎩᏍᏕᎳ	-11.6361
▁ᏓᎪᏪᎳᏂ	-11.6361
▁ᎠᎻᎳᎻ	-11.6361
▁ᎦᎳᎨᏰ	-11.6361
▁ᎤᏂᏛᏗᏍᎩ	-11.6362
▁ᏓᏂᎧᎿᏩᏗ	-11.6362
▁ᎤᏗᎦᎵᏍᏙᏗᏍᎨᏍᏗ	-11.6362
▁ᏃᎦᏛᏁᎸ	-11.6362
▁ᎢᏳᏩᏁᏗ	-11.6362
▁ᎭᎵᏘ	-11.6362
▁ᎠᏓᏏᏎ	-11.6362
▁ᎤᏩᏓᎴ	-11.6362
▁ᎢᎦᎵᏍᏓᏁᏗ	-11.6362
ᎧᎲᏍᎩ	-11.6362
▁ᏓᏰᏥᏁᎵ	-11.6362
▁ᏗᏩᎾᎨ	-11.6362
▁ᏣᏫᏎᎢ	-11.6362
ᎪᏪᎸᎾ	-11.6362
▁ᎦᎷᎨᏍᏗ	-11.6362
▁ᏍᎩᏁᏥ	-11.6362
▁ᎤᏰᎾᎥ	-11.6362
▁ᎠᏆᏓᏅᏖᏙᏗ	-11.6362
▁ᎤᏓᏙᎵᏣᏘ	-11.6363
▁ᎠᎬᏔᏅᏛ	-11.6363
▁ᏱᎦᏗᎭ	-11.6363
▁ᏧᏂᎷᏤᎸ	-11.6363
▁ᎢᎳᏍᏓ	-11.6363
▁ᏚᏅᏴ	-11.6363
▁ᏱᏥᏁᎦ	-11.6363
▁ᎤᏴᎴᎢ	-11.6364
▁ᏳᎵᏬᏨ	-11.6364
▁ᎤᎾᎳᏍᏓᎡᏗ	-11.6364
▁ᏱᏅᏗᎦᎵᏍᏙᏗᏍᎨᏍᏗ	-11.6364
▁ᎠᏓᏍᏕᎵᏍᎩ	-11.6364
▁ᏱᏂᏙ	-11.6364
▁ᏓᏕᏲ	-11.6364
▁ᎨᏥᏃᎮᏍᎬᎢ	-11.6364
▁ᎢᏳᏅᏁᎯ	-11.6364
▁ᎢᏳᏏᏗ	-11.6364
▁ᎤᎦᏔᏔᏁᎢ	-11.6364
▁ᎦᎵᏦᏩᏛ	-11.6364
▁ᏱᎾᏰᏍᎨᏍᏗ	-11.6364
▁ᏗᎨᏥᏰᎯ	-11.6364
▁ᏅᎩᏗᏂᏅᏌᏗ	-11.6365
▁ᎣᎦᎵᏍᏓᏴᏗᏱ	-11.6365
▁ᎠᏂᎪᏩᏗᏍᎬ	-11.6365
▁ᎤᎪᎵᏰᏗᏱ	-11.6365
▁ᎠᏆᏤᎵᎪᎯ	-11.6365
▁ᎤᏗᏍᎦᎶᏗ	-11.6365
▁ᏫᏚᏩ	-11.6365
▁ᎤᏂᎿᎥᎢ	-11.6365
▁ᏂᏯᏛᏂᏏ	-11.6365
ᎾᏍᏆᎶᏍ	-11.6365
▁ᎤᏗᎴᎬ	-11.6365
▁ᎤᏂᎧᎭᏲ	-11.6366
ᏍᏆᏃᏴᎪ	-11.6366
▁ᎠᏲᏍᏗᏍᎪ	-11.6366
▁ᎦᎬᏙᏗ	-11.6366
ᎵᎲᏲᎵ	-11.6366
▁ᎤᏰᎸᏐᎢ	-11.6366
▁ᎡᏤᎵᏎ	-11.6366
▁ᏂᏚᏂᎨᏳᏒ	-11.6366
▁ᎠᏆᏅᏛ	-11.6366
▁ᏓᎫᏩ	-11.6366
ᏍᏚᎢᎡᎴ	-11.6366
ᏚᏁᎢ	-11.6366
ᏓᏁᏏ	-11.6366
▁ᏥᎦᏙ	-11.6366
▁ᎤᏍᏗᎩᎨ	-11.6367
▁ᎬᏩᏂᏍᎦᎩ	-11.6367
▁ᏯᏃᎯᏳᎲ	-11.6367
▁ᎹᎳ	-11.6367
▁ᏗᎦᏅᎬ	-11.6367
ᏄᏬᎥᎭ	-11.6367
▁ᎠᏴᏓᏆᎶᏍᎬ	-11.6367
▁ᎣᏥᏃᎮᎭ	-11.6367
▁ᎠᎵᏰᎢᎶᎦ	-11.6367
▁ᎠᎭᎾᏬ	-11.6367
ᎦᏂᏍᎬ	-11.6367
▁ᎢᏗᎹ	-11.6367
▁ᎠᏂᏃᎲᏍᎨ	-11.6367
▁ᎢᏣᎵᏂᎬᏁ	-11.6367
▁ᎠᏣᎳᎩ	-11.6367
▁ᎢᎶᏂ	-11.6367
▁ᏚᏂᏂᏴᎲ	-11.6368
▁ᎨᏥᏙᎵᏍᏗ	-11.6368
▁ᎬᏩᏕᎰᎯᏍ	-11.6368
ᏛᏅᎢᏍᏓᏁᏗᏱ	-11.6368
▁ᏙᏓᏨ	-11.6368
▁ᏙᏛᏁᎵ	-11.6368
▁ᎠᏯᏛᎥ	-11.6368
▁ᎣᎩᎪᎲᎯ	-11.6368
▁ᎡᎵᎻ	-11.6368
ᏴᎳᏏ	-11.6368
▁ᏥᏚᎾᏚ	-11.6368
ᏛᎦᏅᎢ	-11.6368
▁ᎠᏒᏛᏓ	-11.6368
▁ᏓᏐᏴᎢ	-11.6369
▁ᎠᎾᎵᏥᏙᎲᏍᎦ	-11.6369
▁ᎠᏃᏎᎮ	-11.6369
ᏮᏕᏨ	-11.6369
▁ᎦᏃᏟ	-11.6369
▁ᏗᏣᏘᏄᎦ	-11.6369
▁ᎤᏬᎯᏤ	-11.6369
ᎠᏗᏒ	-11.6369
ᏗᎦᏔᏫᎢᏍᏗᏱ	-11.6369
▁ᎤᏬᏍᎩᎵ	-11.6369
▁ᎤᏲᎱᏏᏕᎾ	-11.6369
ᏅᎬᏛ	-11.6369
▁ᎡᏥᏲᎭ	-11.6369
▁ᏗᏍᏆᏂᎪᏗᏍᎩ	-11.6369
▁ᎤᎧᎭᏲ	-11.6369
ᏅᏨᎾ	-11.6369
▁ᏚᏯᏙᎮᎴ	-11.6369
▁ᎤᎵᏛᏔᏁᎢ	-11.637
ᏱᎵᏕᎲᎢ	-11.637
▁ᎠᏍᏆᎸᎲᎭ	-11.637
▁ᏧᏌᎴᏅ	-11.637
▁ᎤᏣᎢᏒ	-11.637
▁ᎠᏆᎵᎮᎵᏍᏗᏱ	-11.637
▁ᎠᏆᎵᎮᎵᏨᎩ	-11.6371
▁ᎨᎪᏣᎴᏛ	-11.6371
▁ᏣᏂᏃᎮᎭ	-11.6371
ᏅᎥᏏ	-11.6371
▁ᏫᎦᎶᏍᎬ	-11.6371
▁ᏚᎪᏓᏁᎯ	-11.6371
▁ᎠᏛᏃ	-11.6371
ᏐᏲ	-11.6371
▁ᏖᏒᎭ	-11.6371
▁ᎤᎵᏦᏔᏁᎢ	-11.6372
▁ᏱᏣᏚᎵᎭ	-11.6372
ᎦᏓᎴᏅᎯ	-11.6372
▁ᏳᏰᎸᏅ	-11.6372
▁ᎤᏩᏂᎴᎢ	-11.6372
▁ᏚᏙᎡᏍᏗ	-11.6372
▁ᏚᎾᏓᏡᎬ	-11.6373
▁ᏚᏯᏅᎮᎢ	-11.6373
▁ᏱᎨᏩ	-11.6373
▁ᎠᏲᏍᎩ	-11.6373
▁ᏓᏃᏎᎰ	-11.6373
▁ᏫᏥᎶᎢ	-11.6373
▁ᏳᏇᏗ	-11.6373
ᎶᎩᎯ	-11.6374
▁ᎤᎸᏓᎸᎥᏍᎩ	-11.6374
▁ᏍᎩᏁᎮᏍᏗ	-11.6374
▁ᏗᎧᏃᎩᏓ	-11.6374
▁ᏄᎾᎵᏍᏔᏁᎲ	-11.6374
▁ᎤᎾᏤᎸᎯ	-11.6374
▁ᏕᎨᏥᏂ	-11.6374
▁ᎠᏂᏔᏲᎯᎮᏍᏗ	-11.6374
▁ᏣᏁᏤᏗᏱ	-11.6374
▁ᎤᏒᎦᎸᎩ	-11.6374
▁ᎤᎸᏖᎴ	-11.6374
▁ᏑᏥᎶ	-11.6375
ᏰᏗᎭ	-11.6375
▁ᎦᎧᎮ	-11.6375
▁ᏦᎩᎾᏫᏱ	-11.6375
ᎵᏂᎪᎯᏍᏙᏗᏱ	-11.6375
▁ᏓᎩᎧᎭ	-11.6375
ᏯᏛᎩᎭ	-11.6375
ᏂᏜ	-11.6375
▁ᎤᏍᏚᏅ	-11.6375
ᏅᏓᎨᏨᏁᎵ	-11.6375
ᎧᏔᏁ	-11.6375
ᎵᏍᏓᏁᎵᏒ	-11.6376
▁ᏣᏛᏁᎸ	-11.6376
ᏛᏂᎸᏉᏔᏂ	-11.6376
▁ᎬᏁᏤᎸᎢ	-11.6376
▁ᎪᎶ	-11.6377
▁ᎤᎾᎵᏍᏓᏴᏅᎩ	-11.6377
▁ᎠᏯᏨᏗ	-11.6377
▁ᏗᎪᏍᏓᏯ	-11.6377
▁ᏧᎵᏠᏯᏍ	-11.6377
▁ᎢᏣᏓᏁᎮᏍᏗ	-11.6377
▁ᏙᏨᏗᏍ	-11.6377
▁ᏕᎦᎵ	-11.6378
▁ᏗᎦᏥᏯ	-11.6378
▁ᎠᏅᏬᎳᏕᏍ	-11.6378
ᏏᏔᏗᏍᏗᏱ	-11.6378
▁ᎤᏂᏍᎦᎢᏍᏗ	-11.6379
▁ᎤᎵᏍᎪᎸᏓᏁᎸᎩ	-11.6379
▁ᎤᏂᏴᎲ	-11.6379
▁ᏱᏅᏗᎦᎵᏍᏙᏗᏍᎨ	-11.6379
▁ᏥᎨᎲ	-11.6379
▁ᏄᏃᎯ	-11.6379
▁ᎢᏨᏃᏁᎸᎯ	-11.6379
▁ᏧᏂᏒᏍᏗᏱ	-11.6379
ᏓᏕᎵᏎ	-11.6379
▁ᏄᏦ	-11.6379
▁ᎤᎾᏎᎸ	-11.6379
▁ᎤᏍᏚᏞ	-11.638
▁ᎬᏩᏡᏗᏍᎬᎢ	-11.638
▁ᎡᎳᎻ	-11.638
▁ᎦᏬᏂᏍᏗ	-11.638
ᏅᏅᎢ	-11.638
▁ᎣᏥᏁᎦ	-11.638
▁ᏧᏓᏂᎸᎢᏍᏗ	-11.638
ᎦᎪᎯᏳᏗ	-11.638
▁ᎦᏰᏣ	-11.6381
ᏗᎨᎳᏍᏙᏗ	-11.6381
ᏟᏂᎬᏁᎰ	-11.6381
ᏕᎰᏏ	-11.6381
ᏓᏙᎵᏣᏘᏳ	-11.6381
ᏨᏌ	-11.6381
ᎷᎨᏍᏗ	-11.6381
▁ᏣᏚᎵ	-11.6381
ᏥᏰᎸᏂ	-11.6381
▁ᎤᎾᏓᏅᏖᏛ	-11.6381
ᏣᎦᏔᎲᏛ	-11.6382
ᏙᏓᏆᏛ	-11.6382
ᎥᏍᎪᎢ	-11.6382
▁ᎻᎵ	-11.6382
▁ᎾᏂᏪᎭ	-11.6382
▁ᎢᏣᏓᏅᏓᏛ	-11.6382
▁ᎠᏆᏕᏗ	-11.6383
▁ᏕᏥᎨᏳᏒ	-11.6383
▁ᎡᎩᏍᏕᎸᏗᏱ	-11.6384
▁ᎤᏂᏂᎩᏛ	-11.6384
▁ᎤᎾᏚᎸᏅᏗ	-11.6384
▁ᎦᏢᏗ	-11.6384
▁ᎡᏥᏯᏅᎲ	-11.6384
▁ᏣᏣᏪᏐᎸᏍᏙᏗ	-11.6384
▁ᏚᎾᏙ	-11.6384
▁ᏣᏰᎸᏗ	-11.6384
▁ᏓᏁᎶᏛᎩ	-11.6385
▁ᎩᎦᎨᎠᏗᏔᏍᏗ	-11.6385
▁ᎤᏍᏆᏗᏍᏗᏱ	-11.6385
▁ᏳᏬ	-11.6386
▁ᎤᏄᎸᏅ	-11.6386
▁ᏄᎵᏍᏓᏁᎲ	-11.6386
▁ᎤᏂᏲᎸᎯ	-11.6386
ᎵᏍᏓᏴᏁᎢ	-11.6386
▁ᏍᏔᎵ	-11.6386
▁ᎠᏓᏁᎳ	-11.6387
▁ᎤᎦᏌᏯᏍᏗᏕᎩ	-11.6387
▁ᏗᎤᎷᏨ	-11.6387
▁ᎨᏥᏛᏙᏗᏱ	-11.6387
▁ᎤᎵᏏᎲᏎ	-11.6387
ᎵᏍᏙᏗᏱ	-11.6387
ᏆᎧᎿᏅ	-11.6387
ᏕᎶᏆᎡ	-11.6387
ᏓᏁᎲᎾ	-11.6387
▁ᏣᎷᏨ	-11.6387
▁ᏱᎾᎩ	-11.6387
▁ᎤᏁᎷᏅ	-11.6388
▁ᎤᎾᏏᏁ	-11.6388
▁ᎪᏪᎳᏅ	-11.6388
▁ᎣᎩᏍᎦᏅᏨᎢ	-11.6388
▁ᎤᏩᎾᏬᏒ	-11.6388
▁ᏥᏓᎩᏂᏴ	-11.6388
ᎨᎦᏛᏅᎢᏍᏓᏁᎸ	-11.6388
▁ᏕᎦᏯᎸ	-11.6388
▁ᏓᏂᏐ	-11.6389
▁ᎤᏓᏅᏖᏗᏍᎨᎢ	-11.6389
▁ᎤᎾᏨᏏ	-11.6389
▁ᏗᏗᏙᏗ	-11.6389
▁ᎠᏂᎶᏍᎬ	-11.6389
▁ᎪᎯᏍᏗᏍᎩ	-11.6389
▁ᏚᏁᏒ	-11.6389
▁ᎤᏅᎪᏨ	-11.6389
▁ᎠᎾᏙᎴᎰ	-11.6389
▁ᎢᏳᏂᏁᎫᏥ	-11.639
▁ᎤᎵᎦᎵᏴ	-11.639
▁ᏄᏓᏛᏁᎴ	-11.639
▁ᎤᎩᏓᏟ	-11.639
▁ᏂᏣᎵᏍᏓᏁᎲᎢ	-11.6391
▁ᏄᏓᏪᏎᎴ	-11.6391
▁ᎤᎾᏓᏴᎳᏛ	-11.6391
▁ᏄᎾᏛᎿᏕᎬᎢ	-11.6391
▁ᏕᎦᎸᏫᏍᏓᏁᎸᎢ	-11.6391
▁ᏥᏮᎦᏙᎢ	-11.6391
ᏓᏅᏫᏍᎩ	-11.6391
ᏱᎵᏓᏍᏗᏱ	-11.6391
▁ᎤᏬᏁᏔᏅᎢ	-11.6391
▁ᎤᏁᎳᏫᏎᎲᎢ	-11.6391
▁ᎠᏩᏘᏍᎪᎢ	-11.6391
▁ᏨᏓᎸᎢ	-11.6391
▁ᏭᏓᎾᏫᏛᎮ	-11.6391
▁ᎤᏗᏔᎮᎢ	-11.6392
▁ᏗᎪᏢᏙᏗ	-11.6392
▁ᎠᏌᏍᏛ	-11.6392
▁ᏭᏩᎦᏘᏗᏒᎢ	-11.6393
▁ᏗᏣᎸᏫᏍᏓᏁᏗᏱ	-11.6393
▁ᏧᎶᎯᏍᏗ	-11.6393
ᏲᎯᏍᏗᏱ	-11.6393
▁ᎠᏴᏈᏛ	-11.6393
ᏌᏛᏅᎩ	-11.6394
▁ᏂᎨᏐᎢ	-11.6394
▁ᎠᎵᏌᎳᏗᏍᎬ	-11.6394
▁ᎢᏍᏛᏯ	-11.6395
▁ᎠᏥᏍᏙᏗ	-11.6395
▁ᎤᏩᏛᏛ	-11.6395
▁ᎠᏓᎴᏂᏍᎩ	-11.6395
▁ᏥᏄᏍᏙ	-11.6396
ᏰᎩ	-11.6396
▁ᎢᏣᎵᎪᎯ	-11.6396
▁ᏇᏓᏁᎳᎻᏱ	-11.6396
▁ᏧᏂᎧᎿᏩᏛᏍᏗᏱ	-11.6396
▁ᎣᏥᏬᏂ	-11.6396
▁ᎢᏣᎢᏒᎢ	-11.6396
▁ᎦᏥᎪᎥ	-11.6396
▁ᎤᏲᎰᏒ	-11.6397
▁ᎠᏓᎨᏗᏱ	-11.6397
ᏙᎯᏳᎲᎦ	-11.6397
▁ᏂᏣᎵᏍᏔᏅᎩ	-11.6397
▁ᏚᏂᎳᏫᏨᎩ	-11.6397
▁ᎤᏁᎵᏒᎩ	-11.6397
ᏏᏕᏅ	-11.6397
▁ᎠᎩᏰᎸᏗᏱ	-11.6397
▁ᏤᏆᏂ	-11.6398
▁ᏥᏄᏪᏒᎩ	-11.6398
▁ᎧᏁᎦ	-11.6399
▁ᎤᏓᏅᏖᏗᏍᎬ	-11.6399
ᏯᏛᏂᏏ	-11.6399
▁ᏓᎩᎪᎲᎩ	-11.6399
ᏌᏙᎭ	-11.6399
▁ᎤᏓᎢᏅ	-11.6399
▁ᎤᎾᎵᏖᎸᏅᎩ	-11.6399
▁ᎠᎾᏗᎭ	-11.64
▁ᎴᏈ	-11.6401
▁ᏴᏛᎾ	-11.6401
▁ᏱᏂᏣᎵᏍᏓᏁ	-11.6401
▁ᏚᏬᏁᏔᏁᎢ	-11.6401
▁ᏓᏍᏔᏅᏅ	-11.6402
▁ᎠᎦᎸᎢᏛ	-11.6402
▁ᎬᏩᏂᎪᏩᏛᏗ	-11.6402
▁ᎢᏣᏓᎳ	-11.6402
▁ᏥᏍᏓᏱ	-11.6402
▁ᏤᏅᏍᏗᏱ	-11.6403
▁ᎬᏩᎾᏝᎢ	-11.6403
▁ᎭᏗᏛ	-11.6403
▁ᏳᏁᏐ	-11.6404
▁ᎬᏬᏎᎸᎩ	-11.6404
ᎧᎪ	-11.6404
ᎦᎴᏂᏙᎭ	-11.6405
▁ᏕᎩᎸᏫᏍᏓᏁᎸ	-11.6405
▁ᏗᏓᎾᏅ	-11.6405
▁ᏂᏗᎬ	-11.6405
ᎭᏁᎦᎸ	-11.6405
ᏍᏆᏗᏍᏗᏍᎩ	-11.6405
▁ᎤᏞᎩ	-11.6405
ᏍᏙᏗᏍᎨ	-11.6406
▁ᏍᎩᏃᎯᏏ	-11.6406
▁ᏂᏣᏛᏁᎲᎾ	-11.6406
▁ᏍᎩᏯᏅᏛ	-11.6406
▁ᏫᏚᎧᎿᏅ	-11.6406
▁ᏭᏍᏆ	-11.6406
ᎪᎲᎯ	-11.6406
▁ᎤᎾᏓᏅᎦᎸᏛ	-11.6406
▁ᏫᏚᎾᎧᎿᏅ	-11.6406
▁ᎤᏍᏚᎩᏎ	-11.6407
▁ᏚᏰᎵᎯᏍᏔᏅ	-11.6407
▁ᏕᎫᎪᏗᏍᎬ	-11.6407
▁ᎠᏔᎴ	-11.6407
▁ᏚᎸᏫᏍᏓᏁᎰᎢ	-11.6407
▁ᎨᏥᏰᎸᎢ	-11.6407
▁ᎤᎾᎷᏒ	-11.6407
ᏰᎢᎸᏍᏗᏱ	-11.6407
▁ᏥᏫᎾ	-11.6408
▁ᎤᏂᎪᏁ	-11.6408
ᏰᎢᎵᏙᎲᎢ	-11.6408
▁ᏫᏚᏠᏎ	-11.6408
▁ᏗᏁ	-11.641
▁ᎤᏂᏔᏲᏎᎴ	-11.641
ᏱᎵᏙᎯ	-11.6411
▁ᎤᏂᏲᎰᎢ	-11.6411
▁ᎤᏓᏓᏍᎬ	-11.6411
ᎪᎲᏍᏔᏅ	-11.6411
▁ᎤᏍᎫᏕ	-11.6411
ᏘᎭᏁ	-11.6412
▁ᏕᎨᏥᏰ	-11.6412
▁ᏱᏙᎨᏗ	-11.6412
ᏁᏙᎮ	-11.6413
▁ᏳᏚᎵᏍᎬᎾ	-11.6413
▁ᎤᏛᏗᏕᎨ	-11.6413
▁ᎰᎵᏈ	-11.6413
▁ᏗᎪᏪᎳᏅᎯ	-11.6414
▁ᎠᎩᏍᏚ	-11.6414
▁ᏥᏣᏓ	-11.6414
ᏪᏒᏛ	-11.6415
▁ᏭᏂᎦᏐᎠ	-11.6415
▁ᏚᏟᎶᏍᏓᏁᎴᎢ	-11.6415
▁ᎤᏅᏓᏛ	-11.6416
▁ᎤᏃᏴᎩ	-11.6416
▁ᎤᎾᎵᏍᎪᎸᏔᏅᎯ	-11.6416
▁ᏑᎠ	-11.6417
▁ᎡᏥᏍᎦᏅᏤ	-11.6417
▁ᎠᏂᎷᎬ	-11.6417
▁ᏱᏮ	-11.6417
ᎷᎳ	-11.6417
ᏴᎲ	-11.6417
▁ᏗᏓᎨ	-11.6418
▁ᏕᏥᎵᎷ	-11.6419
▁ᎡᏣᏙ	-11.6419
▁ᏲᎩᎾ	-11.6419
▁ᏩᎩᎶᏒᎩ	-11.642
▁ᎢᏳᏪᏍᏗᏱ	-11.642
▁ᏱᏍᎩᏃᏁᎴ	-11.642
▁ᎢᎵᎻ	-11.642
▁ᎤᎦᏘᏗᏍᏗᏱ	-11.6421
ᏠᎠᏒᎩ	-11.6421
▁ᎤᏍᏆᎸᎭ	-11.6421
▁ᏂᏥᏃᎯ	-11.6421
▁ᎤᎾᏁᎶᏔᏅᎩ	-11.6421
▁ᏓᏂᏍᎦᎢ	-11.6422
▁ᎢᏣᎨᏳᏅ	-11.6422
▁ᎤᏮᏔᏅᎩ	-11.6422
▁ᏕᏚ	-11.6422
▁ᎠᎩᏰᏨ	-11.6423
▁ᎧᏁᏉᎨᎢ	-11.6423
▁ᎢᏣᏛᏓᏍᏗᏍ	-11.6423
ᏝᏅᎯ	-11.6424
▁ᏥᏫᎯ	-11.6424
▁ᎠᏯᎡᎢ	-11.6424
▁ᏧᎦᎿᏁ	-11.6424
▁ᏕᎨᎶ	-11.6424
▁ᎪᏙᎯ	-11.6425
ᏍᎬᏰᏃ	-11.6425
▁ᎤᏍᏗᏰᎬ	-11.6426
▁ᎠᎾᎢᏎᎢ	-11.6426
▁ᎤᏂᏄᎪᎢᏍᏗ	-11.6426
▁ᏱᏂᎬᎦ	-11.6426
▁ᏳᏰᎸᎭ	-11.6427
▁ᎠᏂᏁᏉᏍ	-11.6427
ᏫᏂᏴ	-11.6427
▁ᎤᏃᏢᏅᎯ	-11.6427
ᏘᏁᎪᎢ	-11.6427
▁ᎣᏥᎩᎵᏲᎬ	-11.6427
▁ᎤᏁᎢᏍᏔᏁᎢ	-11.6427
ᏍᎩᎳᏛ	-11.6427
ᏚᎾᏚᏫᏍᏔᏁᎢ	-11.6427
▁ᎢᏧᏓ	-11.6428
▁ᎤᏍᏆᏂᎪᏔᏅ	-11.6428
ᏛᎿ	-11.6428
▁ᎢᏣᏓᏁᏟᏴᏏᏒᎢ	-11.6428
ᎩᏠᏫᏍ	-11.6428
▁ᎠᎾᏓᏅᏖᎵᏙ	-11.6429
▁ᏥᏄᎵᏍᏔᏁᎢ	-11.6429
▁ᎠᏂᎫ	-11.6429
▁ᎤᏘᏃᎴᎢ	-11.6429
▁ᎤᏪᎲᎢ	-11.6429
ᏂᏐᏗ	-11.643
▁ᎮᏙᎲ	-11.643
▁ᎠᏂᏲᎯᎲ	-11.643
▁ᎤᎵᏠᏯᏍᏛ	-11.643
▁ᏥᎦᎷᎪᎢ	-11.643
▁ᎤᎾᏖ	-11.6432
▁ᎤᏁᏉᏤᎢ	-11.6432
▁ᎤᏪᏘᏁᎢ	-11.6432
ᎶᏒᏍᏙᏗᏱ	-11.6432
▁ᏫᎲᎦ	-11.6432
▁ᏓᏂᏅᎬ	-11.6433
▁ᏳᏬᎵᏤ	-11.6433
▁ᎭᎧ	-11.6434
▁ᎠᏥᏁᏗᏱ	-11.6434
▁ᏒᏍᎦ	-11.6434
▁ᏂᎦᏅᏅ	-11.6434
▁ᎾᎾᏛᏁᎮ	-11.6435
▁ᎠᏟᏂᎬᏁ	-11.6435
▁ᏫᏚᏯ	-11.6436
ᏗᎦᎵᏍᏙᏗᎭ	-11.6436
▁ᎠᏐᏢᎢᏍᏗᏍᎬᎢ	-11.6436
▁ᎤᎾᎵᏍᎪᎸᏔᏅ	-11.6436
▁ᏥᏅᏗᎦᎵᏍᏙᏗᏍᎨ	-11.6437
▁ᎤᏁᎸᏔᏁᎢ	-11.6437
ᏯᏅᎮᎢ	-11.6437
▁ᏄᏅᏁᎴᎢ	-11.6437
▁ᎠᏂᏱᏙ	-11.6437
▁ᎤᏪᎷᎩ	-11.6438
▁ᎠᏍᎧ	-11.6438
▁ᏧᏂᏁᏗᏱ	-11.6438
▁ᏤᎪᎢ	-11.6438
▁ᎦᎶᏐᎲᏍ	-11.6439
ᏂᏙᎸᎯ	-11.6439
▁ᏗᏁᎶᏗ	-11.6441
▁ᎤᏅᏕᏨ	-11.6441
▁ᎠᏂᎱ	-11.6441
▁ᏗᎪᏒ	-11.6441
▁ᎠᏍᏆᎵ	-11.6441
▁ᎠᎾᎵᏥᏙᎲᏍᎩ	-11.6442
▁ᏣᏍᏆᏂᎪᏙᏗᏱ	-11.6442
▁ᎤᏍᏆᎳ	-11.6443
ᎦᎷᎩ	-11.6444
▁ᎠᎿᎥᎢ	-11.6445
▁ᏧᎪᏄᎶ	-11.6445
ᎧᏒᎢ	-11.6445
▁ᎤᏂᏲᏍᏔᏁ	-11.6445
▁ᏫᎬᏍᏗ	-11.6445
▁ᏱᎪᎯᏳᎲ	-11.6445
▁ᏚᏆᎵ	-11.6446
▁ᏕᎪᏢᏒᎩ	-11.6446
▁ᎤᎾᏏᏅ	-11.6446
▁ᎤᎦᎾᏬᏍᎬ	-11.6446
▁ᎾᎬᏁᎸᎭ	-11.6447
▁ᎤᏂᏃᎴ	-11.6447
▁ᏥᏂᎦᎵᏍᏗᏍᎪ	-11.6448
▁ᏗᏄᎪᏗᏍᎩᏱ	-11.6448
ᏰᎵᏎᏗ	-11.6449
▁ᏚᏅᏒᎩ	-11.6449
▁ᏚᏲᏍᏔᏅ	-11.6449
▁ᏄᎾᎵᏍᏓᏁᎲ	-11.645
ᏗᏔᎲᎭ	-11.645
▁ᎤᏲᎱᎯᏎᎸᎯ	-11.645
▁ᎣᏣᏓ	-11.645
▁ᎮᎲᎢ	-11.645
▁ᎢᏥᎩᎬ	-11.6451
▁ᎬᏩᎯᏍᏗᏱ	-11.6451
ᏢᏔᎮ	-11.6451
ᏥᏅᎦᎸᎡ	-11.6451
ᏞᏒ	-11.6452
▁ᏂᏓᏅᏁᎲ	-11.6452
ᏣᏘᏃᎯᎮᏍᏗ	-11.6453
ᏇᏓᏍᏗ	-11.6453
ᎤᏂᏃᏕᏅ	-11.6455
▁ᏗᎦᏐᎯ	-11.6455
▁ᎠᏒᎨᏍᏗ	-11.6455
▁ᎡᏣᏛᎦᏁᎸ	-11.6456
▁ᎯᏴᎭ	-11.6456
ᏑᏢᏛ	-11.6457
▁ᏱᏅᏩᏍᏗᏗ	-11.6457
ᏕᎬᏲᎯᏏ	-11.6457
▁ᎤᏓᏅᏙᎩᎯ	-11.6457
ᏢᏔᎲ	-11.6458
▁ᎠᎵᏍᏓᏴᎲᏍᎬᎢ	-11.6458
▁ᎤᎾᎵᏖᎸᏅ	-11.6458
▁ᏫᎦᎾᏄᎪᎢ	-11.6458
▁ᏗᏌᏂ	-11.6459
▁ᏕᎯᏁ	-11.6459
▁ᎤᏅᏎᏍᏗ	-11.6459
▁ᏍᏆᏛᎦᏁ	-11.6459
▁ᎤᎷᏤᎸᎯ	-11.646
▁ᎢᏲᎩ	-11.646
▁ᏚᏂᏢᎬᎢ	-11.646
▁ᏕᏣᎸᏫᏍᏓᏁᎸᎢ	-11.646
▁ᎠᏄᎯᏍᏗᏍᎬᎢ	-11.646
▁ᏚᏍᎫᏓᏛᎢ	-11.646
▁ᏓᏅᏗᏍᎬᎢ	-11.646
▁ᏚᏄᎪᏔᏅᎢ	-11.6461
▁ᎤᏃᎯᏳᏁᎢ	-11.6461
▁ᎯᎲᎦ	-11.6461
ᏒᏗᏱ	-11.6461
▁ᏥᏙᏓᎦ	-11.6463
▁ᎠᏯᎡᏍᏗ	-11.6463
▁ᏧᎪᏩᏛᏗ	-11.6464
▁ᏛᏨ	-11.6464
▁ᎤᎾᏟᎶᎥ	-11.6464
▁ᏧᏴᏫ	-11.6465
▁ᎢᎦᏅᎯᏛ	-11.6465
▁ᎦᏓᏅᏖᏍᎪ	-11.6465
▁ᏚᏟᎶᏍᏓᏁᎴᏃ	-11.6465
▁ᎪᎪ	-11.6465
ᏥᏯᏁᎶᏗ	-11.6466
▁ᎤᏓᎴᏅᎯ	-11.6466
ᎵᏍᏓᏴᎾᏁᏗᏱ	-11.6467
▁ᎤᎾᎵᎪᏒᎢ	-11.6468
▁ᎠᏛᏍᎨᎢ	-11.6468
ᎵᏂᏆᏅᏁ	-11.6469
▁ᏧᎾᏄᏬᏍᏗ	-11.6469
▁ᎤᏢᎬᎢ	-11.6469
▁ᎢᎬᏩᏁᏗᏱ	-11.6469
ᎨᏠᎮ	-11.647
▁ᎢᏳᏩᏁᎸ	-11.647
▁ᎤᏬᏛ	-11.647
▁ᎠᏥᎢᏍᏗᏱ	-11.647
▁ᎤᎾᎵᏗᎩ	-11.647
ᎾᏍᏉ	-11.6471
ᎳᏗᏍᎨᎢ	-11.6471
▁ᏱᎦᎷᎩ	-11.6472
ᏚᏓᎸ	-11.6473
▁ᎠᎾᏗ	-11.6473
▁ᎤᏥᏍᏛ	-11.6474
▁ᎢᏣᎵᎪ	-11.6474
▁ᎠᏁᏙᎮᏍᏗ	-11.6474
▁ᎠᏆᎫᏴ	-11.6475
▁ᏳᏲᎰ	-11.6476
ᏯᎷᎦ	-11.6477
▁ᏁᏨᏁ	-11.6477
ᏒᎲᏍᏗᏱ	-11.6478
ᏂᏩᏛᎮ	-11.6479
▁ᏓᏕᏲᎲᏍᎨᎢ	-11.6479
▁ᏄᏅᏁᎸᎩ	-11.648
▁ᎤᏩᏴᏒ	-11.648
▁ᏓᏰᏍ	-11.648
▁ᎢᏳᏍᏗᏓᏂ	-11.6481
ᏍᏔᏁᏗ	-11.6481
▁ᎤᏍᏕᏓᎵᏴ	-11.6482
▁ᏥᏯᎠ	-11.6482
ᏙᏳ	-11.6483
▁ᏱᎬᏅ	-11.6483
▁ᎣᎩᎦᎵᏍᏓᏗᏍ	-11.6484
▁ᏯᏆᏚᎵᎭ	-11.6484
▁ᎠᏯᏙᎵ	-11.6484
▁ᏧᏂᎷᏤ	-11.6484
▁ᏗᎦᏅᏆᎶ	-11.6484
▁ᏥᎸᏉᏗ	-11.6484
▁ᎤᏬᏱ	-11.6485
▁ᎢᎬᏩᎷᏤᎴ	-11.6485
ᎸᏉᏔᏅᎩ	-11.6485
ᏐᏅᏤᎸᎩ	-11.6485
ᎭᎵᏙᎩ	-11.6485
ᏓᏏᏒ	-11.6486
▁ᏗᎧᏃᎩᏍᏗᏱ	-11.6486
▁ᎤᏪᎴ	-11.6487
ᏓᏨᏁᎵ	-11.6488
▁ᏕᎨᏥᏅᏩ	-11.6488
ᏲᏅᎵ	-11.6489
▁ᏭᏯᏅᎲᎩ	-11.6489
▁ᎠᎩᏁᎸᎯ	-11.6489
▁ᏣᎦᏛ	-11.649
ᏓᏡᏗᎭ	-11.6491
▁ᎢᏣᏓᏅᏛᎢ	-11.6491
▁ᎤᏓᏅᏁᎢ	-11.6491
ᎦᏥᏲᏎᎸ	-11.6491
▁ᎤᏍᎩᏓᏒᎢ	-11.6493
▁ᏤᏥᏃ	-11.6494
▁ᏤᏙᎰ	-11.6494
▁ᎨᏥᎸ	-11.6494
▁ᎤᏓᏙ	-11.6495
▁ᎢᏤᎮᏍᏗ	-11.6495
▁ᎠᎾᏕᎲᏍᎬᎢ	-11.6495
▁ᎠᎩᏂᎬᏎᎲ	-11.6495
▁ᎬᏣ	-11.6495
▁ᎤᏃᎯᏳᏒᎢ	-11.6495
▁ᎣᎯᏍᏗ	-11.6495
▁ᏚᎾᏦᏎ	-11.6495
ᏓᏁᎸᎭ	-11.6496
ᏴᏎᎸᎩ	-11.6496
▁ᏧᏬᏢᏁ	-11.6498
▁ᎤᏃᎮᎸᎩ	-11.6498
▁ᏚᏪᎧᏁᎢ	-11.6499
ᏃᎮᎵ	-11.6499
▁ᎠᎩᏍᏛᏗᏍᎬᎢ	-11.65
▁ᎠᏲᏍᏗᏍᎬ	-11.65
▁ᏂᎦᏪᏏ	-11.65
▁ᏓᏥᏁ	-11.6501
ᎵᏥᏙᏁᎲᎢ	-11.6501
▁ᏧᏩᏒ	-11.6501
▁ᏂᏥᏴ	-11.6502
▁ᏤᎮᏍᏗ	-11.6502
▁ᏗᎦᎷᏫᏍᏔᏁ	-11.6502
▁ᏧᏔᏂ	-11.6503
▁ᏣᏂᏅᎩ	-11.6503
▁ᎠᎾᎵᏍᏓᏴᏗᏍᎬ	-11.6503
▁ᏥᎪᏩᏘᎭ	-11.6504
▁ᎠᏥᎦᏘᏗᏍᏗᏱ	-11.6504
ᏦᏩ	-11.6504
ᎧᎿᏩᏛᎡ	-11.6505
ᎧᎭᏲ	-11.6505
ᎿᏬᏍᏗ	-11.6505
▁ᏓᏍᏓ	-11.6506
ᎩᏩᏛᏗᏱ	-11.6507
▁ᏧᏍᎦ	-11.6507
▁ᏓᏂᏁᎵ	-11.6507
▁ᎦᏌᎴ	-11.6508
▁ᎤᎵᏍᏕᎸ	-11.6508
▁ᏥᏚᏲᏎ	-11.6508
ᏂᏱᏍᎩ	-11.6508
ᎵᏍᏙᏔᏁ	-11.6508
ᏂᏕᏅ	-11.6509
ᎭᏯᎸ	-11.6509
ᎧᏁᏍᏗ	-11.651
▁ᏓᏲᎩ	-11.651
▁ᎡᎯᏍᏗᏳ	-11.651
▁ᎠᏂᎩᎵᏲᎬᎢ	-11.651
▁ᏂᎦᎵᏍᏙ	-11.6511
▁ᏥᏄᏛᏁᎴ	-11.6511
▁ᏱᎯᎦᏔᎮ	-11.6512
ᏓᏬᏍᏙᏗ	-11.6512
▁ᎥᏘ	-11.6512
▁ᎤᎪᎵᏰᏗ	-11.6513
ᎫᏴᎡᎸ	-11.6515
▁ᎠᎩᏩᏛᎲᎩ	-11.6515
▁ᎵᏓ	-11.6516
▁ᏕᏣᎴ	-11.6517
ᎨᎬᏁᎵ	-11.6517
▁ᎤᏓᏴᏍᏗᏱ	-11.6518
▁ᏗᎦᎵᏍᏙᏗ	-11.6518
ᏓᏦᏍᎬ	-11.6519
ᏣᏛᎩᎭ	-11.6519
▁ᎤᏂᎾᏗᏅᏎ	-11.652
▁ᎠᏞ	-11.652
ᎦᏎᏍᏙ	-11.6521
ᏲᏍᏗᏍᎩ	-11.6521
ᏔᏁᎸᎯ	-11.6524
▁ᎠᎫᏬᏰ	-11.6525
▁ᏐᎭ	-11.6525
▁ᏚᎷᎬᎢ	-11.6525
▁ᏂᏪᏏ	-11.6525
▁ᏫᏚᎷᏤᎸ	-11.6525
▁ᎤᏔᏲᏎᎸᎩ	-11.6525
▁ᏥᏍᎩᏯ	-11.6526
ᏍᏢᏂᏍᏔᏅ	-11.6527
ᎤᏏ	-11.6527
▁ᎤᎾᏤᎵᎪ	-11.6527
ᎾᏋᏁᎸ	-11.6528
▁ᏧᏂᎬ	-11.653
▁ᎠᏓᏪᎵᎩᏍᎬᎢ	-11.653
ᏥᏂ	-11.6531
▁ᎤᏁᎷᎬᎢ	-11.6531
▁ᎤᎵᏦᏛᎢ	-11.6532
▁ᎦᏓᎥᎢ	-11.6532
▁ᎡᎭᏏ	-11.6532
▁ᎢᏳᏩᎬ	-11.6532
▁ᎤᏂᏖᎸᏅ	-11.6532
▁ᏣᏓᏅᏘ	-11.6533
▁ᎡᏗᎨᏳᎢ	-11.6533
▁ᏚᏇ	-11.6534
ᏓᏂᏱ	-11.6534
▁ᏱᏔ	-11.6534
ᏗᎬᏩᎧᏃᏗ	-11.6534
▁ᏪᏙᎲ	-11.6536
▁ᎤᎳᏏ	-11.6537
▁ᏂᎦᎵᏍᏗᏍᎪᎢ	-11.6537
ᏤᎵᎯᏍᎪ	-11.6537
▁ᎾᎾᏛᏁᎭ	-11.6537
▁ᎪᎯᏳᏙᏗ	-11.6537
ᎾᏰᎯᏍᏛ	-11.6538
▁ᎤᏰᎯᏍᎩᏂ	-11.6538
▁ᏚᎸᏌᏓ	-11.6538
▁ᏓᏂᏢ	-11.6538
▁ᎦᎷᏥ	-11.6539
ᎦᎵᏍᏓᏛ	-11.6539
▁ᏗᎧᎵᎢ	-11.6539
▁ᏱᏄᏍᏕᎢ	-11.654
▁ᏱᏝ	-11.654
▁ᎢᏥᏁᏗᏱ	-11.6541
▁ᏣᎯᏍᏗᏱ	-11.6542
▁ᏚᏓᏓᎴᏔᏁ	-11.6543
ᏤᏯᏙᏤᎮᏍᏗ	-11.6544
▁ᏱᏥᎦᏔᎮᎢ	-11.6544
▁ᎤᏂᎯᏍᏗ	-11.6544
▁ᏚᏘᏃᎴ	-11.6545
▁ᏓᏓᎯ	-11.6545
▁ᎪᏢᏒᎩ	-11.6545
▁ᏂᏙᏔᏘ	-11.6546
▁ᏅᏩᏓ	-11.6547
ᏱᎩᎵ	-11.6547
ᏪᎵᏏ	-11.6548
▁ᎤᏍᏗᏰ	-11.655
ᎰᎯᏍᏗ	-11.655
▁ᏄᏩᏁᎲ	-11.6551
▁ᎤᏁᎳᏛ	-11.6551
▁ᎣᏨᏗᏍᎬ	-11.6553
▁ᎠᏓᎴᏂᏍ	-11.6553
▁ᎤᏂᏬᏂᎯᏍᏗᏱ	-11.6554
▁ᏥᏂᎩ	-11.6554
ᎧᏁᎬ	-11.6556
▁ᎠᏆᏚᎸᎲ	-11.6557
▁ᎠᏆᏓᏤᎵᎦ	-11.6557
▁ᎦᏛᎬᎦ	-11.6557
ᏂᏍᏗᎭ	-11.6558
▁ᏄᏬᏚᏒ	-11.6558
▁ᎠᏥᏁᎸᎯ	-11.6558
▁ᏗᎦᏲᏥ	-11.6559
▁ᎨᏛᎢ	-11.6561
▁ᎠᎩᏌ	-11.6563
▁ᎤᎾᏓᏙᎵᏍᏔᏁ	-11.6563
▁ᏍᏆᎳ	-11.6564
ᏍᏓᏩᏗᏙ	-11.6566
▁ᏙᏓᏆᏍᎬᎢ	-11.6566
▁ᏥᏃᎮᏍᎬᎢ	-11.6567
▁ᏂᎦᏔᎲᎾ	-11.6568
▁ᏱᏚᏩᏛᎮ	-11.6568
ᎳᏑᎳ	-11.6568
▁ᎤᏂᏃᏁᎴ	-11.6568
ᎾᏕᎨ	-11.6568
▁ᎨᏌ	-11.6569
ᎷᎸᏁ	-11.6569
▁ᏃᏥᎥ	-11.657
ᏁᎳᏕᎢ	-11.6571
ᏍᏔᏲᏍᏙᏗ	-11.6573
ᏂᏓᏅᏁᎰ	-11.6574
ᏌᏙᏯ	-11.6576
ᎵᏉᎩ	-11.6577
▁ᏂᏚᏩᏁ	-11.6579
▁ᏂᏍᏛ	-11.6581
▁ᏗᎬᏅ	-11.6582
▁ᏚᏂᏰᎵᏒ	-11.6582
ᏛᎲᏃ	-11.6583
ᏯᎦᏎᏍᏗ	-11.6584
▁ᏅᏂ	-11.6585
▁ᏙᎦᏠᎯᏍ	-11.6585
ᏟᏃᎮᏔᏁ	-11.6586
▁ᏍᎩᏯᏕᎶᏆᎡ	-11.6587
▁ᎠᎩᏁᏨᎩ	-11.6589
▁ᎠᏥᎪᎵᏰᎥ	-11.6589
ᏯᎪ	-11.659
ᎫᏴᎲᎾ	-11.6591
▁ᏕᎭᏘᏁ	-11.6592
▁ᎬᏩᏂᏃᎮᏗ	-11.6594
▁ᎤᎶᎯᏍᏗᏱ	-11.6595
▁ᏂᎬᏁᎰ	-11.6595
ᎬᏎ	-11.6595
▁ᏱᎾᎾᏛᏁᎰ	-11.6595
▁ᏂᏣᏛᏁᎰ	-11.6596
▁ᎤᎾᏂᎩᏍᏗ	-11.6597
▁ᎬᏩᎾᏓᏅᎡ	-11.6597
▁ᎯᎦᏘ	-11.6598
▁ᏂᏣᏪᏎᎸ	-11.6598
▁ᎤᏃᎭ	-11.6599
ᏍᏛᏗᏍᏗ	-11.66
▁ᏗᎦᏅᏬᎢ	-11.6601
▁ᏫᎬᏪᎧᏁ	-11.6602
▁ᎯᎩᏍᎪ	-11.6602
ᎪᏛᎢ	-11.6603
ᏅᏍᎬᎾ	-11.6603
▁ᏂᎦᏛᏁᎰᎢ	-11.6603
ᎣᎸ	-11.6605
▁ᎦᎴᏂᏙᎲ	-11.6606
▁ᏁᎵᏍᎬᎾ	-11.6606
▁ᎤᏩᏌᏆ	-11.6607
▁ᎤᏁᏉᎡ	-11.6608
▁ᎤᏅᏁᎢ	-11.6608
ᏥᏍᏢ	-11.6609
▁ᎤᎧᎭ	-11.661
▁ᎤᏩᏛᎲᎩ	-11.661
▁ᏓᏳᏪ	-11.6611
▁ᏱᏚᏩᏛᎲ	-11.6611
▁ᏧᎬᏩᎴ	-11.6612
ᏓᏇ	-11.6613
▁ᎤᎾᏌ	-11.6614
ᎾᏓᏙᎵᏍᏗᏍᎪᎢ	-11.6616
▁ᏤᎲᎢ	-11.6617
ᏯᏛᎦᏁᎵ	-11.6619
ᎬᏇᎯᏍᏗᎭ	-11.662
▁ᎤᏥᏯ	-11.6622
ᏚᏓᏴᎳᏛ	-11.6622
ᏪᏌᏆᎴ	-11.6623
▁ᏯᏃᎵ	-11.6623
▁ᏧᏁᎯ	-11.6624
▁ᏫᎬᏩᏂᏴ	-11.6624
ᏲᏍᏗᏍᎨᏍᏗ	-11.6625
▁ᏧᏂᏴ	-11.6625
▁ᏂᏨᏪᏎᎸ	-11.6627
▁ᎦᏁᎵᏒ	-11.6627
ᏕᏲᎲ	-11.6627
▁ᏯᎩᏍᏆᎸᎡ	-11.6628
▁ᏧᎾᏙᏅ	-11.6629
▁ᎤᏂᏄᎸᏅ	-11.663
▁ᎤᎵᏦᎯ	-11.663
▁ᏁᏩᏔᎵᏃ	-11.663
ᏛᏗᏍᎨᏍᏗ	-11.663
▁ᎤᏚᎢᏍᏔᏅᎢ	-11.6632
▁ᏚᎾᏘᏃᎸ	-11.6632
ᏁᏟᏴᏍᏔᏁ	-11.6632
▁ᎠᎦᏯ	-11.6632
▁ᎤᎾᎵᎮᎵᏤᎢ	-11.6633
ᎥᏍᎦ	-11.6634
ᎠᏴ	-11.6634
▁ᎤᏩᏓ	-11.6634
▁ᎢᏥᎦᎵᏍᏓᏗᏍ	-11.6635
▁ᎢᏳᏩᏁ	-11.6636
▁ᎤᎵᏘᏎ	-11.6636
ᏰᏍᏔᏁᎢ	-11.6636
ᎵᏔᏕ	-11.6637
▁ᏕᎤᎴᏔᏅᎢ	-11.6637
ᏤᏍᏙᎩᎯ	-11.6637
ᎦᏙᏍᏙᏗ	-11.6638
▁ᏱᏕᏍᏗ	-11.6638
▁ᏄᏂᏪᏒᎢ	-11.6639
ᏓᏁᎰᎢ	-11.6639
▁ᏂᎦᎵᏍᏗᏍᎨᎢ	-11.664
▁ᎣᎩᏰᎸ	-11.664
▁ᏍᎩᏅᎦᎸ	-11.6641
▁ᏂᎦᏛᏅᎢ	-11.6641
ᏍᏚᎶᏙᏗ	-11.6642
▁ᏘᎦᎵᏍᏙ	-11.6644
▁ᏙᎦᏘᏁ	-11.6645
▁ᏫᏓᏗ	-11.6645
ᏓᏅᏓᏗᏍᏔᏅᎯ	-11.6645
▁ᏱᏍᎩᏯ	-11.6646
▁ᎤᎷᏤᏗ	-11.6647
▁ᎤᏕᏒᏅ	-11.6649
ᏓᏅᏔᏩᏕᎬ	-11.6651
▁ᎪᏱ	-11.6651
▁ᏓᏄ	-11.6652
ᏨᏁᎰ	-11.6653
▁ᏱᏅᎨᏣ	-11.6653
▁ᎤᏍᏕᎸᏗ	-11.6656
ᏦᎯᏳᎲᎦ	-11.6656
▁ᎤᎶᏒᎢ	-11.6658
ᏚᏳᎯᏛ	-11.6658
▁ᎤᏰᏥ	-11.666
ᎴᏎᎢ	-11.666
▁ᎠᎧ	-11.6661
ᏓᏴᏍᏗ	-11.6661
▁ᎳᏏ	-11.6662
▁ᏂᎦᏥᏴᏁᎸ	-11.6663
▁ᎨᏥᏍᏗ	-11.6663
▁ᎢᎦᏛᏁᏗ	-11.6666
▁ᏓᏘᏁ	-11.6666
▁ᏴᎬᏩ	-11.6666
▁ᎤᎿᎸᏤ	-11.6666
▁ᎠᏉᎯᏳᏅ	-11.6667
ᏌᏕᎢ	-11.6668
▁ᎤᎾᏗᏔᎲ	-11.6668
▁ᎤᎾᏓᏅᏖᏔᏁ	-11.6669
▁ᎦᎸᎥ	-11.667
▁ᎦᎳᎩ	-11.6671
▁ᎤᏁᎵᏎᎢ	-11.6674
ᎾᎥᎾ	-11.6674
▁ᎤᏂᏩᏛᎲ	-11.6675
▁ᏕᎨᏲᎲᏍᎨ	-11.6675
▁ᎢᎬᏩᎵᏍᏓᏁ	-11.6677
ᏔᎷᎩᏍᎬ	-11.6678
▁ᏤᎵ	-11.6681
ᏂᎨᏒ	-11.6684
▁ᎤᏂᎾᏝᎾᎥ	-11.6685
▁ᏱᏗᏍᎩ	-11.6685
▁ᎠᏲᎵᏃ	-11.6685
ᏣᏛᏁᎮᏍᏗ	-11.6686
▁ᎠᏢᏛ	-11.6687
▁ᎠᏂᎦᎵ	-11.6687
▁ᏚᎸᏫᏍᏓᏁᎸᎩ	-11.6687
▁ᏱᏧ	-11.6689
ᏍᏗᏰ	-11.6689
▁ᏥᎶᏃ	-11.6691
▁ᎦᎨᏣ	-11.6692
▁ᏚᏑᎦ	-11.6694
ᏓᏂᎸᏤ	-11.6696
▁ᏱᎾᏅ	-11.6698
▁ᏘᏲ	-11.67
▁ᎢᏥᏪᏍ	-11.6701
ᏥᏰᎸᎾᏁᎰᎢ	-11.6701
ᎪᎮ	-11.6704
ᎮᏙᎮ	-11.6705
▁ᎠᏂᏁᎩ	-11.6705
▁ᏗᏥᏰᎸᎢ	-11.6706
▁ᎾᏆᎵᏍᏓᏁ	-11.6706
ᎾᏬᏍᏔᏁᎢ	-11.6709
ᏝᏁ	-11.6709
▁ᎬᎳ	-11.6712
▁ᏧᏲᎰ	-11.6713
ᏯᏂᏍᎬᎢ	-11.6713
ᏔᏛ	-11.6714
ᎪᏪᎶᏗ	-11.6714
▁ᎠᏗᏔᏍᏗᏱ	-11.6715
▁ᎦᏰᏌᏛᎢ	-11.6715
▁ᎠᏎᏍᏗ	-11.6718
▁ᏓᏲᏣ	-11.672
ᏰᎶᎴ	-11.672
▁ᎢᏓᏓ	-11.6723
ᏉᏎᏗ	-11.6725
▁ᎤᏪᎶ	-11.6725
▁ᎡᏙᎰ	-11.6726
ᏓᏙᎵᎨᏍᏗ	-11.6728
▁ᏚᏬᏎᎴ	-11.6728
ᏥᏍᏓᏱᏕᎸ	-11.6729
ᏂᏏᏅᎩ	-11.6729
▁ᎡᏥᎷᏤᎸ	-11.673
ᏇᎵᏎ	-11.6731
▁ᎤᏪᎵᏒ	-11.6731
▁ᎠᏓᏅᏖᏍᎨᎢ	-11.6733
ᏥᏏ	-11.6735
ᎸᏒ	-11.6735
ᏛᏂᎲ	-11.6738
ᏛᏙᏗᏱ	-11.6738
ᏲᎱᏍᎬ	-11.6739
▁ᏚᎸᏌᏛᎢ	-11.6743
▁ᎢᏳᏓ	-11.6744
▁ᏣᎬᎩ	-11.6745
▁ᎠᏁᎵᏍᎨᎢ	-11.6745
▁ᎤᏂᏍᎫᏕᏒ	-11.6747
▁ᏳᏂᎬ	-11.6747
▁ᎢᏣᏓᏑᏴ	-11.6747
▁ᏲᎪ	-11.6748
ᎪᎰᏍᎬ	-11.6752
ᎠᎩᏲᏏ	-11.6753
▁ᎤᏂᏁᏨᎢ	-11.6755
▁ᏧᏙᏢ	-11.6755
▁ᏗᎬᏩᏂᏐᏢ	-11.6756
▁ᎠᏚ	-11.6757
ᏱᏉᏍᎩᏂ	-11.676
ᏑᏯᎩᏍᏗ	-11.6766
▁ᏕᎰ	-11.6769
ᏯᏛᏅ	-11.6771
ᏘᏍᎬᎾ	-11.6772
ᏑᏰᏎ	-11.6773
ᏍᏆᏛᎯ	-11.6774
▁ᏳᏔᎳᏬ	-11.6776
ᏏᏲ	-11.6777
ᏓᏛᏁᎭ	-11.6778
▁ᎠᎪᏎᎴ	-11.6779
▁ᏗᎬᏩᏁ	-11.6779
▁ᎤᏂᏁᎸ	-11.678
▁ᏒᏟ	-11.6783
▁ᎤᏛᏗ	-11.6784
▁ᏳᏯ	-11.6786
ᏍᎩᏘ	-11.6787
▁ᎠᏯᎠ	-11.6788
▁ᎣᎩᎸᏉᏗ	-11.6789
ᎬᏍᎪᎸᏅᎢ	-11.679
ᏙᏓᏋ	-11.6791
ᎾᏟᏃᎮᎸ	-11.6793
ᎵᏩᏛᎡᎲᎢ	-11.6793
ᏓᏅᏛ	-11.6796
▁ᏚᏲᎴ	-11.6797
▁ᏂᎦᎷᎬ	-11.6797
▁ᏛᎾᎢ	-11.6799
▁ᏧᏁᏨᏃ	-11.6801
ᎩᏎᎢ	-11.6804
ᏣᏙᎴᎰᎯᏍᏗᏱ	-11.6805
▁ᎠᏁᏙᎮᎢ	-11.6805
▁ᏚᏑᏰᏎ	-11.6806
ᏱᏐ	-11.6808
ᏨᏗᏍᎨᏍᏗ	-11.681
▁ᎤᏂᎷᏤᎭ	-11.681
ᎵᏃᎮᏗᏍᎨᏍᏗ	-11.6814
▁ᎠᎵᏍᎪᎸᏙᏗᏱ	-11.6814
▁ᎢᏨᏁ	-11.6817
ᏅᏍᏙᏗᏱ	-11.6819
ᏲᎢ	-11.6819
ᏓᎦᎵᏍᏙᏓ	-11.6821
ᏅᎾᏉ	-11.6822
ᎬᏙᏗ	-11.6823
▁ᎭᏕᎶᎰ	-11.6823
ᏍᏓᏱᏕ	-11.6828
▁ᏂᎦᏪᏒ	-11.6832
▁ᏳᎾᏚᎵᏍ	-11.6835
ᏲᏒ	-11.6842
▁ᏥᏂᎦᏪᏍᎬ	-11.6844
ᏍᏔᏁᎯ	-11.6844
▁ᏧᎾᏓᏕ	-11.6844
ᎨᎵ	-11.6845
ᎵᎦᎵᏴ	-11.6852
▁ᏄᏛᎾᏕ	-11.6852
ᏙᎴᎰᎯᏍᏙᏗ	-11.6854
▁ᎦᎵᎭ	-11.6855
▁ᎤᏚᎵᏍᎨᎢ	-11.6858
▁ᎤᏲᏨᎩ	-11.6858
▁ᏗᏑᏫ	-11.6859
ᎧᎯᏴᎩ	-11.686
▁ᏩᏥᏯᏅ	-11.6861
▁ᎣᎬᏔᏅ	-11.6862
▁ᎦᏙᎥ	-11.6863
▁ᏕᏦ	-11.6864
▁ᎢᏨᏗᏍᎪ	-11.6867
ᏩᏗᏍᎬ	-11.6868
▁ᏚᏕᏲᏅ	-11.6871
ᎫᏓᎸ	-11.6872
ᏗᏎ	-11.6872
▁ᏛᎵ	-11.6873
ᏐᏢᎢᏍᏗᎭ	-11.6874
ᏄᏪᏎᎢ	-11.6879
▁ᎢᏫ	-11.688
ᎪᏫᏎ	-11.6881
▁ᎤᎾᎵᏍᎦᏍᏙ	-11.6881
▁ᏲᎨ	-11.6885
ᏩᎾᎨ	-11.6885
ᏚᏅᏁᎴ	-11.6885
▁ᎠᎪᏢᏅ	-11.6887
▁ᎠᏍᎪᏒ	-11.689
ᎳᎨᏯᏛ	-11.689
▁ᎤᎦᏘᏗᏍ	-11.6891
▁ᎦᏛᎢ	-11.6892
▁ᎣᏣᏓᏙᎵᏍᏗᏍ	-11.6894
ᏥᏃᎲᏏ	-11.6894
▁ᎠᏆᎩᎸ	-11.6902
ᎾᏓᏡᎬ	-11.6904
▁ᏍᎩᎾᎾᏂ	-11.6906
▁ᎠᎩᏍᏆᏛ	-11.6907
▁ᏚᏂᏯᏪ	-11.6907
▁ᏩᎩᎶᎯ	-11.6911
ᎢᏎᏗ	-11.6912
ᏃᎸᏔᏅᎩ	-11.6913
▁ᎦᏰᏗ	-11.6913
▁ᎬᎩᎸᏉᏗ	-11.6916
ᏁᏤᎸᎩ	-11.6918
ᏗᎦᏚᎲ	-11.6928
▁ᎤᏕᏯ	-11.6929
▁ᏕᏥᎾ	-11.6933
▁ᏱᏗᎩ	-11.6934
ᏥᏯᎵᏍᎪᎸᏓᏁ	-11.6934
▁ᏂᎠ	-11.6936
ᎦᏚᏢ	-11.6941
ᎩᎷᏨᎩ	-11.6943
ᏴᏍᎪᏳᏁ	-11.6945
▁ᏓᏍᏆᎵᏍ	-11.6946
ᏎᎲᎢ	-11.6946
▁ᎠᏆᏚᎵᏍᎬᎢ	-11.6947
ᏕᎪᏢᎾ	-11.6951
ᏆᎶ	-11.6952
▁ᎠᏂᎳᎨᏴ	-11.6953
▁ᏘᎪ	-11.6954
▁ᎤᏞ	-11.6957
ᎵᏑᏫᏓ	-11.696
▁ᏥᎩᏁᎸ	-11.6964
ᎪᏢᏁᎢ	-11.6967
▁ᎤᏍᎪᏍᏗ	-11.6969
ᎣᏐᏅ	-11.6969
▁ᎣᏥᏁ	-11.6971
ᏁᏟᏴᏎ	-11.6972
ᎸᏔᏅᎯ	-11.6973
▁ᏧᏂᏙ	-11.6974
▁ᏗᏂᏂᎨ	-11.6975
▁ᏣᎾᎢ	-11.6976
ᏓᎴᏍᏗ	-11.6977
ᎾᎵᎩᏛ	-11.6981
▁ᏦᏥᏩᎾᎦᎳ	-11.6983
ᎾᎵᏙᎩᏯ	-11.6983
▁ᎠᏥᏰ	-11.6986
▁ᏚᎾᏗᏩᏍᎨ	-11.6991
ᏯᏂᏍᎬ	-11.6993
▁ᎬᏩᏓᏅᏘ	-11.6998
▁ᏚᏂᏅᏁ	-11.7
▁ᏯᎩᏍᏕᎵ	-11.7
ᎬᎾᏬᏙᏗᏱ	-11.7004
▁ᏗᎨᎩ	-11.7004
▁ᎠᏍᏓᏲ	-11.7006
▁ᏙᏍᎩ	-11.7007
▁ᏳᏃᎯᏳ	-11.7007
ᎦᎵᏯ	-11.7008
▁ᎤᎾᏛᏓᏍ	-11.7008
▁ᏂᏍᎩ	-11.7009
▁ᏙᏥᏩᏛᎲ	-11.7012
▁ᏂᎤᏪᏎ	-11.7012
▁ᏍᏊ	-11.7013
▁ᎤᏫᏒ	-11.7014
▁ᎠᏍᏓᏱᏗᏍᏗ	-11.7014
▁ᎢᏨᏃᏁᎸ	-11.7025
ᏂᏆᏘᎸ	-11.7025
▁ᏫᏥᎷᏤᎸ	-11.7027
ᏯᏂᏍᎨᏍᏗ	-11.7029
▁ᎤᏙᏩᏗᏍ	-11.7029
ᏙᎳᏅ	-11.7032
▁ᏣᏚᎳ	-11.7033
ᏗᎦᎸᏉᏗ	-11.7034
▁ᏧᏩᏅ	-11.7036
ᎡᏥᏍᏓᏩᏕᎩ	-11.704
▁ᎠᎪᎵᏰᏍᎨ	-11.7041
▁ᎢᏳᎾᏛᏁᎸ	-11.7041
ᏚᏓᎸᏙ	-11.7042
▁ᏂᏗᎩ	-11.7042
ᏤᎸᎩ	-11.7043
▁ᎠᎾᏓᏱ	-11.7044
ᎫᏴᎡᎮᏍᏗ	-11.7045
ᎿᏕᎬ	-11.7048
▁ᏓᏂᏃᎩᏍ	-11.705
ᏒᏍᏗᏱ	-11.705
▁ᎤᏴᏔᏁ	-11.7051
ᏩᏔᎰ	-11.7052
ᏂᎬᎬᎢ	-11.7057
▁ᏂᏨᏃᏁ	-11.7059
▁ᎬᎩᏰᎸ	-11.706
▁ᎤᏩᏒᎯ	-11.706
ᏯᎩᏍᎪ	-11.706
▁ᎤᏰᎶ	-11.7061
▁ᏚᏄ	-11.7062
ᎫᏴᏗᏱ	-11.7063
ᏓᏁᏘ	-11.7064
▁ᎦᎵᏥᏙᎲᏍ	-11.7068
▁ᎤᎴᏅᏔᏅ	-11.7069
ᏐᏍᏔᏅ	-11.707
ᏯᏔᎲ	-11.707
▁ᏧᎾᎦ	-11.7071
▁ᎷᎦ	-11.7072
ᏪᏅᏎ	-11.7074
ᎵᏖᎸᏂᎴ	-11.7077
▁ᏚᎾᏓᏅ	-11.708
▁ᏙᏓᎦᏅ	-11.7081
ᎪᏪᎸ	-11.7083
ᏅᎦᎸᎮᎢ	-11.7087
▁ᎤᏲᎮᏍᏗ	-11.7091
ᏆᏒᎦᎸ	-11.7091
▁ᏓᏂᎾ	-11.7091
▁ᏗᏣᏓᏅᏙᎩ	-11.7092
ᎦᏔᎿᎥᎾ	-11.7096
ᎴᏍᏗᏱ	-11.7101
ᏴᏍᎪᎢ	-11.7101
▁ᎬᎵ	-11.7105
ᏆᏗᏅᏛ	-11.7107
ᏒᏓᏅ	-11.7109
ᏍᎦᎢᎮ	-11.7111
▁ᎤᏬᏢᎾᏁ	-11.7118
▁ᎤᏲᏉᏍᎩᏂ	-11.712
ᏪᏣ	-11.7122
▁ᎢᏥᎦ	-11.7124
ᎯᏥᎨ	-11.7124
ᎬᏍᎦᎸ	-11.7125
▁ᎤᏅᏗᏱ	-11.7127
▁ᏱᏗᏥᏳᎪᏓᏁ	-11.7128
ᏔᏛᎩ	-11.7128
▁ᎦᎪᏗᏱ	-11.713
▁ᎤᎵᏂ	-11.713
ᏥᏍᏈ	-11.7131
ᏰᏗ	-11.7134
▁ᏚᎾᎵᏂᎪ	-11.7135
ᏗᏍᎦᎳᏁ	-11.7136
▁ᎠᏂᎲᏍᎨ	-11.7139
▁ᏧᏂᎭ	-11.7144
ᎾᏏᏗ	-11.7151
ᎾᎵᏖᎸᏂ	-11.7153
ᎵᎨ	-11.7156
▁ᎠᏂᏟ	-11.7158
ᎫᏴᎲ	-11.7161
▁ᎢᏣᎴ	-11.7163
▁ᎠᏛᏁᎵᏍ	-11.7163
ᎦᏙᎥᎯᏍᏗ	-11.7164
ᏚᏛᏛᏅᎩ	-11.7169
ᎬᎾᏉ	-11.7169
▁ᎤᏁᏅᎢᏍᏗ	-11.7175
ᎪᎸᏏ	-11.7177
ᏲᏞᏒ	-11.7182
▁ᎤᎶᏒᏍᏓᏁ	-11.719
▁ᎠᏢᏈᏍᏗ	-11.7191
ᏟᏫᏛᏗ	-11.7191
ᎵᎥᏂ	-11.7196
ᏂᏴᎭ	-11.7199
▁ᏛᎠ	-11.7199
▁ᏓᏂᏱ	-11.72
▁ᎤᏩᏛ	-11.7202
ᎩᎬ	-11.7203
▁ᏱᏄᏅᏁ	-11.7206
ᎨᏰᎢ	-11.7207
▁ᏯᏆᏓᏅᏓᏗᏍ	-11.7208
▁ᎠᏍᏚᎩ	-11.7209
▁ᏗᎬᏂ	-11.7217
▁ᎤᏍᏕᎸᎮ	-11.7225
ᏛᏎᎢ	-11.7228
▁ᏄᏩᎾ	-11.7231
▁ᎤᏓᏂᏴ	-11.7232
▁ᎦᏥᏔᏲᏎ	-11.7236
▁ᎬᏩᏂᎾᏄᎪᏫᏒ	-11.7237
ᎫᏤᎵ	-11.7238
▁ᎣᎩᏂᏙ	-11.7239
▁ᏱᏕᏣ	-11.7241
▁ᏗᎲᎢ	-11.7242
ᏙᎰᎢ	-11.7245
ᏛᏓᏍᏓᏁᏗᏱ	-11.7247
ᏬᎦ	-11.7255
ᎧᎾᏂ	-11.7256
▁ᏚᎩᏎ	-11.7256
ᎾᏣᏪᏐᎸᏍᏙᏗ	-11.726
▁ᎠᏓᎩᎡ	-11.7262
▁ᏣᏍᏆᏂᎪ	-11.7262
ᎵᏎᎯ	-11.7263
▁ᏗᏤᎷ	-11.7264
ᏂᏴᎲᎩ	-11.7269
▁ᏫᏚᏂᏲᎯᏎ	-11.7274
▁ᎢᏨᏴᏁ	-11.7274
ᏥᎪᎵᏰᏗᏱ	-11.7275
ᏫᏱ	-11.7279
▁ᎠᏥᏴ	-11.7282
▁ᎡᏥᏃᏁ	-11.7283
▁ᏗᎦᎬ	-11.7283
▁ᏕᏥᏁ	-11.7284
ᎥᏍᎬᎾ	-11.7294
▁ᏓᎾᏁᎶ	-11.7296
▁ᏂᎦᎵᏍᏗᏍᎬᎢ	-11.7296
▁ᎤᏬᏘ	-11.7297
▁ᎠᏆᎵᏃᎮᏔᏅ	-11.7303
ᏫᏒᎯ	-11.7305
ᎪᏗᏱ	-11.7305
▁ᎤᏪᏅᎡ	-11.7314
ᏩᏘᎭ	-11.7317
ᏅᏎᏃ	-11.7317
ᏂᏍᎩᏴᎦ	-11.7318
ᏩᏛᎡᏗᏱ	-11.7319
ᎾᏗᏅᏒᎩ	-11.7321
▁ᏚᏅᏅ	-11.7323
ᏂᏎ	-11.7329
▁ᏧᏪᏰ	-11.733
▁ᎠᏂᎧᎵ	-11.7331
ᏒᏁ	-11.7334
ᏔᏂᎴ	-11.7336
ᏚᏙᎥ	-11.7338
▁ᎤᏂᎦᏙᎥᎯᏍᏗ	-11.7339
▁ᎨᏣᎪᏩᏛᏗ	-11.7341
ᏎᎦ	-11.7344
ᏲᎸᎩ	-11.7346
▁ᏗᎦᎴᏅ	-11.7347
▁ᎤᏑᎸ	-11.735
▁ᎢᏏ	-11.7355
▁ᏧᏐ	-11.7358
ᏥᎦᏖᏃᎭ	-11.7364
ᎦᏔᏂᎴ	-11.7366
▁ᏣᏓᏅᏖ	-11.7367
▁ᎠᎩᏰᎸᏒ	-11.7369
ᏥᏂᏐᏗᏱ	-11.7369
▁ᏓᏚ	-11.7371
▁ᎨᏥᏯᏅ	-11.7373
ᏯᏅᎯᎸ	-11.7374
ᏅᏍᏓᏕ	-11.7374
ᏍᏓᎦᏴᎯᏓ	-11.7375
ᏕᎶᏆᎥ	-11.7375
▁ᏧᎾᏁ	-11.7377
ᏓᏦᎲ	-11.7378
ᏱᏍᎪᎢ	-11.7382
▁ᎢᎸᏍᎩᏉ	-11.7382
▁ᎪᏍᏗ	-11.7383
ᏥᏚᎢᏍᏓᏁᎸ	-11.7385
ᏍᏆᏗᏍᏗᏱ	-11.7386
ᎫᏴᎡᏗ	-11.7387
ᏒᎲ	-11.739
ᎷᏤᎰᎢ	-11.7393
ᎶᏄᎮᏍᎩ	-11.7395
ᏰᏙᎳᏛᏅ	-11.7395
ᏂᏴᏙᏗ	-11.7397
▁ᎠᎩᏩᏒ	-11.7397
▁ᎬᏍᎬ	-11.7405
▁ᏚᎪᎲᏃ	-11.7406
▁ᏓᏂᎯᏯᏍ	-11.7408
▁ᏧᎾᏓᎯᏍᏗ	-11.7412
ᎫᏍᏛᏗ	-11.7415
ᏍᎪᎳ	-11.7415
▁ᎬᏩᏍᏆᏗᏍ	-11.7419
ᎾᏓᏨᏯᏍ	-11.7421
ᎧᎵᎢᏍᏔᏅ	-11.7424
ᏳᎲᏍᎩ	-11.7425
▁ᏥᏅᏏᏓᏍᏗᏃ	-11.7425
▁ᏥᏳᎯᏃ	-11.7426
▁ᎤᏲᎴᎢ	-11.743
▁ᏭᏖᎳ	-11.7432
▁ᎤᏲᎰᏎ	-11.7436
ᏯᏙᎮᎮᏍᏗ	-11.7437
ᏍᎪᎸᏨ	-11.744
ᏲᎱᏎᎸᎯ	-11.7441
ᎦᏟ	-11.7445
▁ᏳᏗᏔ	-11.7451
▁ᏙᏓᏥᏃᎩ	-11.7453
ᏭᎪ	-11.7454
▁ᎤᎾᏕᏯᏙᏗ	-11.7457
ᏓᏁᏟᏴᏒ	-11.7458
▁ᎤᏂᏟᏌᏅ	-11.746
ᏲᎲᎩ	-11.7462
ᎵᏃᎮᏔᏅᎩ	-11.7464
ᎸᏫᏍᏓᏁᎸᎯ	-11.7464
▁ᎡᏥᎩᎵᏲᎢᏍᏗᏍ	-11.7466
▁ᏍᏆᏛᏓᏍᏓ	-11.7471
▁ᎤᎾᎵᏍᏓᏴ	-11.7472
▁ᏗᏥᏁᎸ	-11.7479
ᏄᏬᎥ	-11.7486
▁ᏯᏓ	-11.7492
▁ᏱᏂᏨᏁ	-11.7499
▁ᎧᏅᏂᏍᎩᏉ	-11.7503
▁ᎢᏣᏙᎴᎰ	-11.7504
▁ᎤᎵᏍᏙᏰ	-11.7506
ᎷᎪ	-11.7507
ᏐᏈᎵ	-11.7507
ᎧᏲᏗ	-11.7511
▁ᎠᏓᏔᎶᎯ	-11.7515
ᏟᎶᏍᏗ	-11.7516
▁ᎢᏣᏪᏍᏗ	-11.7517
▁ᏧᏃᎯᏳᏗ	-11.7525
ᎾᏓᏛᏁᎭ	-11.7525
▁ᏙᎤᏁᏅ	-11.7525
▁ᎡᏥᏍᏕᎸ	-11.7526
ᏂᏯᏫᏍᎬ	-11.7526
ᎧᎿᏩᏗᏙᎮᏍᏗ	-11.7528
▁ᎠᎴᏂᏓᏍᏗ	-11.7536
ᏥᏁᎢᏍᏗᏍᎬ	-11.7537
▁ᎤᏍᏓ	-11.7539
ᎸᏨ	-11.7541
ᏯᏘᏃᎯᏏ	-11.7543
ᎶᎨ	-11.7543
ᎩᎵᏲᎢᏍᏗᏍᎬᎢ	-11.7546
▁ᎤᏛᎯᏍᏗ	-11.755
ᏨᏁᏗᏱ	-11.7554
ᎯᏯᏍᏗ	-11.7562
▁ᎤᎵᎬᏚ	-11.7569
▁ᏆᏙ	-11.7585
ᎾᏓᏛᏁᏗᏱ	-11.7586
ᏂᎥ	-11.7592
ᎳᏑᎸ	-11.7598
ᏲᎱᏍ	-11.7604
▁ᏏᎻ	-11.7606
▁ᏒᏃ	-11.7611
ᏥᎷᏤᎸ	-11.7613
ᎦᎴᏍᏗ	-11.7613
▁ᎨᏦᎯᏳᏗ	-11.7614
▁ᎤᎾᏙᎴᎰᏒᏃ	-11.7615
▁ᎦᏙᎬᎢ	-11.7621
ᎦᎵᏍᏓᏗᏍᏗᏱ	-11.7622
▁ᎢᏨᎪ	-11.7629
▁ᎠᏲᎪ	-11.7632
▁ᎠᏆᏓᏅᏘ	-11.7633
ᎯᏙᎸ	-11.7634
ᏓᏅᏖᎭ	-11.7643
▁ᏏᏂ	-11.7646
▁ᏒᏕ	-11.7651
ᏍᏔᏯ	-11.7654
▁ᎠᏎᏛ	-11.7656
ᎮᎸᎯ	-11.766
ᎶᏁᎥ	-11.7664
▁ᎭᎵᏍ	-11.7667
▁ᏘᏅᎵ	-11.767
ᏥᎾᏌᎢ	-11.7672
ᏅᎡᎯ	-11.7674
ᏤᎶᎯ	-11.7676
▁ᏄᎨᏳᏎ	-11.768
ᏤᏙᎭ	-11.7683
ᏙᏯᏅᎯᏕᎢ	-11.7684
ᎲᏍᏔᏅ	-11.7688
ᏒᎨ	-11.7689
ᏂᏅᏫᏍᏗᏍᎩ	-11.7689
ᏘᏅᏍᏗᏱ	-11.7699
▁ᎤᎵᏘᏒ	-11.7702
ᎫᏓᎴ	-11.771
ᎮᎭ	-11.7714
▁ᎣᎨ	-11.7715
▁ᎠᏍᏚᎢᏍ	-11.7719
▁ᎠᎩᏛ	-11.7719
▁ᎣᎩᏃ	-11.7721
ᏗᎦᏄᎪᎪ	-11.7724
ᎬᏔᏅᎯ	-11.7724
ᎩᏁᏥ	-11.7748
ᎦᏥᏯᏓᏙᎵᏍᏓᏁᎭ	-11.775
ᏣᏛᎦᏁᎸ	-11.7753
▁ᎢᏳᎵᏍᏔᏁ	-11.7758
ᎪᏗᏍᎩ	-11.7759
▁ᎤᏪᎵᏎᎢ	-11.7761
▁ᎦᏰᎪ	-11.7763
▁ᎧᎾ	-11.7764
ᏈᏃ	-11.7765
▁ᎦᏂᎩ	-11.7767
ᏍᏕᏓᎵᏴᏍ	-11.777
▁ᏗᏣᏛ	-11.7772
ᎯᎦᏔᎭᏍᎪ	-11.7772
ᏥᎵᎥᏂᎵ	-11.7773
ᎦᏔᏂᎸ	-11.7777
ᏍᏓᏩᏗᏙᎭ	-11.7778
▁ᏔᎵᏉ	-11.7779
ᏐᏗᏱ	-11.7781
▁ᎦᏙᎨᎢ	-11.7783
ᎦᎵᏍᏙᏗᏍᎨᏍᏗ	-11.7783
▁ᎤᏂᎩ	-11.7784
▁ᎠᏍᎦᏰᎬᏍ	-11.7794
ᏏᏙᎸ	-11.7794
ᏥᏴᎩ	-11.7798
ᏕᏙᏛ	-11.78
▁ᎠᎾᏡᏗ	-11.7801
ᏢᎾ	-11.7805
ᏣᏓᏅᏔ	-11.7806
▁ᎢᏍᏗᎪ	-11.7806
ᏂᎦᎸ	-11.781
▁ᏚᏃᏒ	-11.781
▁ᎦᎸᏅ	-11.7815
▁ᎣᏥᏅ	-11.7817
ᎸᎾᏉ	-11.7818
ᏰᎸᏅ	-11.7823
▁ᎠᏙᎴᎰ	-11.7829
ᎾᎵᏍᏓᏴᏗ	-11.7831
▁ᏣᏂᎧᏔᎮ	-11.7831
p	-11.7832
ᎾᏓᏂᎸᏤ	-11.784
▁ᏚᏏᎳᏛᎢ	-11.7844
ᏥᏬᏁᏔᏅ	-11.7845
▁ᎦᏕᎶᎣᏍ	-11.7846
▁ᎣᏂᏍᎩᏂ	-11.785
ᎵᏁᏌ	-11.7852
ᎪᎸ	-11.7858
▁ᏥᏕᎲ	-11.7861
ᏩᏂᏌᏁ	-11.7862
▁ᎯᏃᎮᏍᎬ	-11.7867
ᏂᏴᏍᏗ	-11.7868
▁ᏂᎬᏅᎩ	-11.787
▁ᎯᏍᏚ	-11.7875
ᏛᏁᎰᎢ	-11.7882
ᎷᏏ	-11.7883
ᏂᏎᎢ	-11.7885
▁ᎤᏪᎳᏗᏍ	-11.7886
ᎷᏤᎲ	-11.7888
▁ᎤᏱᎶ	-11.7895
▁ᎠᏆᏍᏗ	-11.7896
▁ᎤᏂᏔᏲ	-11.7897
ᏴᏍᏕᏍᏗ	-11.7899
ᏂᏏᏁ	-11.79
▁ᎧᏁᏉᎨ	-11.7903
ᏅᏍᏔ	-11.7906
ᎵᏍᎪᎸᏓᏁ	-11.7907
ᏥᏯᏅᎲ	-11.7908
▁ᎠᎩᎬ	-11.7909
ᏂᎦᎵᏍᏓ	-11.7909
▁ᏧᏬᏢ	-11.7911
▁ᎤᏂᏐ	-11.7913
ᏍᏓᎡ	-11.7914
▁ᎤᏐ	-11.7919
▁ᏕᎩᏂᏴ	-11.7926
ᏓᎦ	-11.7937
ᎾᏰᏍᎬᎢ	-11.7943
▁ᏧᏂᏍ	-11.7943
ᏥᏫ	-11.7945
▁ᏂᏥᎦᏔ	-11.7945
ᏅᏫᏍᏗᏍᎨ	-11.7951
▁ᎤᏓᎵᏓᏍ	-11.7955
ᏰᎸᎰ	-11.796
ᎾᎦᏔᎲ	-11.7964
ᏏᎾᏍᏛ	-11.7964
▁ᏍᏆᏂ	-11.7966
▁ᎤᎷᏨᎢ	-11.7966
ᏓᏙᎵᏍᏙᏗᏱ	-11.797
▁ᏓᎩᎧ	-11.7974
ᏥᏍᎪᎵ	-11.7974
▁ᏂᎬᏴ	-11.7984
ᎭᏂᏍᏔᏅ	-11.7984
ᎯᏎᎴ	-11.7988
ᏬᎡ	-11.7988
▁ᏓᏆᎴ	-11.7994
▁ᏧᏬᏚ	-11.7994
ᏕᏨᎩ	-11.7995
▁ᎢᏤᎵ	-11.8
ᎩᏙᎵᏍᏗᏱ	-11.8002
ᎬᏂᏐᏗᏱ	-11.8003
ᎴᏅᏗᏱ	-11.8005
▁ᎤᎾᎴᏗ	-11.8006
ᏯᎪᎦ	-11.801
▁ᎤᎨᎢ	-11.8011
ᏘᏍᏓᏁᎯ	-11.8013
ᏯᏨ	-11.8014
▁ᏓᏁᎶᏛ	-11.8015
▁ᏚᏂᏲᏒ	-11.8015
▁ᏫᏓᎾ	-11.8031
ᎦᎶᏙᏗ	-11.8034
▁ᏫᎦᏅ	-11.8034
ᏍᏚᏣ	-11.8036
ᎧᎮ	-11.8036
ᏔᎶ	-11.8041
▁ᏓᎪᏩᏘᏍᎨ	-11.8046
▁ᎤᏔᏕᎩᏍᎨ	-11.805
ᎵᏎᏗ	-11.805
▁ᏧᎾᏁᎳ	-11.805
▁ᎬᏯᏛᏁ	-11.8055
▁ᎤᎵᏃᎯᏰ	-11.8056
▁ᎾᏗᏍ	-11.8057
▁ᎤᏤᎸᏅ	-11.8057
ns	-11.8059
▁ᎢᏍᎪ	-11.806
ᏰᎵᏎᎭ	-11.807
▁ᏂᏚᎾ	-11.807
ᏕᏔᏅᎯ	-11.8071
▁ᏅᎬ	-11.8072
▁ᏛᎾᎵᏍᏓᏴ	-11.8075
▁ᎢᏍᏓᏛ	-11.8081
▁ᎬᏩᏯᎢ	-11.8081
▁ᏚᎦᏙᏍᏔᏁ	-11.8082
ᎦᏡᏓ	-11.8089
▁ᎦᏓᏬ	-11.8091
ᎿᎸ	-11.8095
ᏍᎩᏰᏲᎲ	-11.8102
ᏫᏍᏔᏁ	-11.8104
▁ᎠᎵᏍᎩ	-11.8107
ᏔᏲᏎᎸ	-11.8108
▁ᎬᏬᎯᏳᎲᏍᎨ	-11.8113
ᏗᏍ	-11.8116
▁ᎤᏍᎦᏍᏓᏁ	-11.8117
ᏆᏓᎾᏰᏍ	-11.8119
▁ᏭᎪᎲ	-11.8125
▁ᏓᏂᏃᎮ	-11.8128
ᎳᏍᏛ	-11.8132
ᏓᏁᎮᎢ	-11.8135
▁ᎤᏃᎮ	-11.8136
ᎦᏑᏰᏛ	-11.8137
▁ᏚᏪᏯ	-11.8139
▁ᏥᏯᏙᎵ	-11.8143
ᏰᏅ	-11.8144
▁ᎬᏩᏲ	-11.8151
ᎾᏓᏂᎸᏨ	-11.8154
ᏂᏌᏙᏴ	-11.8158
▁ᎢᏤᎵᏎ	-11.8161
▁ᏓᏥᏃ	-11.8169
▁ᎤᏂᎦᏯᎷ	-11.8173
ᏑᏱ	-11.8173
ᎵᏲ	-11.8174
▁ᏧᎾᎵ	-11.818
▁ᏍᏆᏓᏅ	-11.8181
ᎸᏫᏍᏓᏁᎴ	-11.8183
ᎯᏎᎸᎢ	-11.8186
▁ᏱᏓᎩᏯ	-11.8194
▁ᎤᏂᏁᏎ	-11.8195
ᎧᎸᎩ	-11.8195
▁ᎤᏂᏣ	-11.8199
▁ᏚᏏᏔᏕ	-11.8203
ᏁᎳᏗᏍᎨ	-11.8203
▁ᎠᎪᎵᏰᏍᎪ	-11.8204
▁ᎡᏣᎵ	-11.8213
▁ᎠᏓᏯᏅ	-11.8228
▁ᏚᏒᏁ	-11.8228
ᎾᏲᎪ	-11.823
ᎾᎩᏪᏒ	-11.8231
▁ᎨᏦᎯᏳ	-11.8232
ᎩᏂᎬᎦ	-11.8233
▁ᎤᏍᏆᏂᎪ	-11.8233
ᏎᎩ	-11.8246
▁ᎢᏥᏰᎸᏒ	-11.8249
▁ᏯᏍᎦᎢᎮ	-11.8251
▁ᎤᏬᏎ	-11.8254
▁ᎬᏩᏛᏓᏍᏓᏁ	-11.8257
ᎯᏎᎸᎯ	-11.8264
▁ᏧᎪᎲ	-11.8266
ᎢᏍᏓᏁᏗᏱ	-11.8267
▁ᎤᎾᎵᏍᎪᎸᏙᏗ	-11.8268
▁ᎢᏍᏆ	-11.8272
ᏙᎴᎢ	-11.8273
ᎦᎵᏴ	-11.8274
▁ᏭᏂᏴᏍᏗ	-11.8277
▁ᏱᏥᏲ	-11.8282
ᏤᏅ	-11.8287
ᎫᏍᏛ	-11.8288
ᎧᏘ	-11.829
ᎵᏲᎩ	-11.8296
▁ᏗᏓᎴᎲᏍᎨ	-11.83
▁ᏴᏫᏍᎩᏂ	-11.83
ᎨᏙᎰ	-11.8303
▁ᎤᎾᏦᏗ	-11.8307
ᏏᏌᏅ	-11.8309
▁ᏓᏰᏥ	-11.8312
ᎸᏍᏔᏅ	-11.8312
▁ᎠᏥᎪᏗ	-11.8312
ᏣᎶᏁ	-11.8314
ᎾᏉᎯ	-11.8322
ᏣᏃᏁᎵ	-11.8326
▁ᏚᏂᏅ	-11.8331
ᏓᎴᎲᏍᎩ	-11.834
ᏓᏰᏅ	-11.8341
▁ᏙᏤ	-11.8343
▁ᏛᎭ	-11.8354
ᏣᏅ	-11.8356
ᏓᏅᎦᎸ	-11.8365
ᎩᎸᏔᏁ	-11.8369
ᏎᎪᎩ	-11.837
ᏪᎸ	-11.8372
ᎵᎴ	-11.8372
ᏬᏂᎯᏍᏗᏱ	-11.838
ᏆᏅᏔ	-11.8381
▁ᏂᎨᏥ	-11.8382
ᏉᏑᎴ	-11.8383
▁ᎠᎾᏅ	-11.8384
ᏨᎦ	-11.8386
▁ᎥᎩᏁᎸ	-11.839
▁ᏗᏕ	-11.8391
▁ᏥᏲ	-11.8395
ᎳᏅᏓᏕᎸ	-11.84
▁ᏱᏚᏂᎸᏫᏍᏓᏁ	-11.8402
ᎴᏫᏍᏗᏍᎨ	-11.8403
ᎸᏃᏘᎭ	-11.8404
▁ᎥᎬᏩ	-11.8411
ᎵᎮᎵᏥ	-11.8412
ᏅᎦᎵᏍᎬᎢ	-11.8412
ᎸᎥᏍᎩ	-11.8414
▁ᏥᏓᎾ	-11.8419
ᏂᏟ	-11.8423
▁ᎤᎧᏙᏍ	-11.8425
ᏔᎳᏬ	-11.8428
ᏥᎩᏍᏗ	-11.8431
ᏟᏌᏅᎩ	-11.8434
▁ᏱᏂᏣᏛ	-11.8434
▁ᎤᎵᎮᎵᏤᎸ	-11.8441
ᏍᎦᏃᎸ	-11.8441
▁ᏧᏅᏙᏗ	-11.8442
▁ᎬᏆᏕ	-11.8444
▁ᎧᏁᎢᏍ	-11.8448
▁ᎠᎾᏛᎩ	-11.8451
ᏛᎦᏁᏗᏱ	-11.8457
ᎦᏢᏈ	-11.8458
▁ᏳᏝ	-11.8458
ᎵᏍᏓᏴᎲᏍᎨᎢ	-11.8463
ᎾᎴᏫᏍᏔᏁ	-11.8469
▁ᏗᏂᏲᎵᏉ	-11.8472
ᏒᎦᎳ	-11.8473
ᏝᎴ	-11.8474
ᏥᏯᏬᎥ	-11.8478
▁ᎤᏬᏪᎳ	-11.8483
▁ᏙᏓᏥᏯ	-11.8485
▁ᎠᎩᎷᏤᏗ	-11.8488
▁ᎬᏯᏛᏁᎸ	-11.8495
ᏗᏔᏍᏗᏱ	-11.8497
▁ᏧᏂᏁᏤ	-11.8497
▁ᎤᏛᏓᏍ	-11.8499
▁ᎤᏪᏙᎵᏨ	-11.85
ᎬᏁᏗᏱ	-11.8515
ᏓᎪᏩᏘᎭ	-11.8515
▁ᎡᏣᏚ	-11.8518
▁ᏙᏛᏃ	-11.852
▁ᏥᏅᏩᏍᏗ	-11.8523
ᏯᏛᏗ	-11.8524
▁ᏗᎦᎨ	-11.8525
ᏌᎾ	-11.8526
ᎯᏓᏍᏗᏱ	-11.8528
ᎾᏚᎵᏍᎨᏍᏗ	-11.853
ᎵᏍᏔᏴᎲᏍᎬ	-11.8537
ᏲᏍᏙᏗ	-11.8546
▁ᎤᏂᏯᎸ	-11.855
▁ᎤᏁᎳᏗᏍᏗ	-11.855
ᎯᏍᏗᏍᎩ	-11.8553
ᏂᏍᏚᎩ	-11.8557
ᎩᎧᏏ	-11.8558
ᏍᎩᏲᏎᎭ	-11.8559
▁ᎠᏓᎾᏏᏂ	-11.8559
▁ᎬᎩᏯ	-11.8564
ᏩᏉ	-11.8568
▁ᎲᏂ	-11.8574
ᏥᏰᎵᏒ	-11.8574
ᎫᏱᏍᎨᏍᏗ	-11.8577
▁ᏕᎶ	-11.858
ᏛᏁᎵᏍᎩ	-11.8582
ᏍᎪᎸᏓᏏ	-11.8587
▁ᏂᎬᏅᎢ	-11.8587
ᎾᏄᎪᎨᏍᏗ	-11.8588
ᏍᎩᎦᏔᎭ	-11.8593
ᏆᏂᏏ	-11.8596
ᏃᏁᎸᎯ	-11.8598
ᏥᏃᏍᏛ	-11.8604
ᎬᏩᎪᎲ	-11.8605
▁ᏗᎦᏍᎩᎶ	-11.8607
ᏕᏋᎯᏍᏗ	-11.8608
ᎾᎿ	-11.8613
▁ᎦᎧᎲ	-11.8615
▁ᏚᏙᏪ	-11.8623
ᏣᏲᎭ	-11.8626
▁ᏚᏙᎥᎩ	-11.8632
▁ᎠᎹᏉ	-11.8632
ᎵᏎᎭ	-11.8632
ᏓᏂᎸᎨᏍᏗ	-11.8634
ᎦᏄᎪᎬᎢ	-11.8637
ᎦᏥᏴ	-11.864
ᏪᏙᎵᏨᎩ	-11.8643
ᎾᏓᏅᏖᎸ	-11.8649
ᎵᏨ	-11.8653
ᎵᏍᏚᎶ	-11.8664
▁ᎤᎵᏠᏯᏍ	-11.8665
▁ᎦᏗᏔ	-11.8668
▁ᏚᏪᎧ	-11.8669
▁ᏄᏧᏈᏍ	-11.8671
▁ᏣᏛᏗ	-11.8673
▁ᎤᏂᏲᎰᏎ	-11.8675
ᏫᎨᏙᎲ	-11.8677
▁ᎠᏥᏍᏚ	-11.8682
ᎮᏍᎬᎾ	-11.8684
▁ᎠᏂᎾᎷᏍ	-11.8686
ᎨᏓᎵ	-11.8688
▁ᎠᎩᏩᏛᏗ	-11.87
ᎩᎡᎴ	-11.87
ᏅᏎᎢ	-11.8701
▁ᏴᎦᏥᏍᎦ	-11.8709
▁ᎯᏩᏛ	-11.8716
▁ᏂᎬᏂᏏ	-11.872
▁ᎤᎵᏍᎪᎸᏙᏗ	-11.8723
ᏘᏂᏙᎯ	-11.8724
▁ᏯᏂᏁ	-11.8725
▁ᏳᏴ	-11.8725
ᏛᏓᎴᎲᏍᎩ	-11.8734
ᏃᎭᏝ	-11.8741
▁ᎨᏣᏁᎢᏍᏗ	-11.8742
ᎸᏉᏗᏍᎨᏍᏗ	-11.8745
▁ᎢᏥᎧᎵᎢ	-11.8746
ᎵᏍᏓᏁᏗ	-11.875
▁ᏩᏂ	-11.8752
ᎩᏠ	-11.8756
▁ᏚᎸᏫᏍᏓᏁ	-11.8763
▁ᏕᎦᏂᏱᏍ	-11.8764
ᎾᏄᎪᎬ	-11.8765
ᏣᏓᏱᎸ	-11.8775
▁ᎠᎾᎵᏥᏙᏂᏙ	-11.8782
ᏄᎪᏫᏍᎦ	-11.8782
▁ᎲᎾ	-11.8792
ᏓᏬᎠ	-11.8811
ᏓᏁᎵ	-11.8812
ᏓᏅᏓᏗᏍᏗᏱ	-11.8812
▁ᎨᏥᏰᎸ	-11.8813
ᏄᎪᏤ	-11.8817
ᏎᏛ	-11.8833
ᏠᏯ	-11.8836
ᎦᏙᏍᏕᎢ	-11.884
ᏙᏢᏒᎢ	-11.8843
ᎡᎾ	-11.8854
ᏂᏚᏪᏎᎸᎩ	-11.8857
ᎦᏛᎴᎯ	-11.8862
▁ᎨᏥᏁ	-11.8863
▁ᎦᏁᏟᏴ	-11.8868
ᎾᏰᎯ	-11.8871
ᏥᏓᏍᏗ	-11.8877
ᎦᎸᏓ	-11.8884
ᏰᎲᎾ	-11.8888
ᏆᏕᏘᏴᎲ	-11.8891
ᎦᏔᎲᎢ	-11.8898
ᏟᏴᎭ	-11.8902
▁ᎤᏛᏂᏗ	-11.8908
▁ᏨᏛ	-11.8908
▁ᏧᏍᏆᏂᎪᏙᏗ	-11.8911
ᏱᎵᏙᎭ	-11.8919
▁ᎠᎵᏍᎪ	-11.8922
ᏕᏙᎭ	-11.8923
ᏙᎨᏍᏗ	-11.8924
ᏑᎵᎪᎬ	-11.8928
▁ᎤᎪᎮᏃ	-11.8929
▁ᎠᎩᏁᏤ	-11.8931
▁ᏄᏪᎡ	-11.8947
ᏄᎮᎵ	-11.8947
▁ᎦᎾᏍ	-11.8949
ᏂᏩᏛᎲ	-11.8961
▁ᎯᏃᏁᎸ	-11.8972
▁ᏥᏚᏄᎪ	-11.8976
ᏂᏍᎪ	-11.8977
ᏁᏙᎯ	-11.8979
ᎧᎾᏅ	-11.8989
▁ᏓᏰᎵ	-11.8995
▁ᎠᏓᏙᎵᏍ	-11.8998
▁ᏓᏥᎶᏍ	-11.9001
ᎷᎬᎾ	-11.9011
▁ᏚᏃᏴ	-11.9013
ᎨᎮ	-11.9015
▁ᎢᏣᎫᏱᏍ	-11.9021
ᎭᏉ	-11.9023
▁ᎠᎸᎯ	-11.9024
ᏕᏃ	-11.9033
▁ᎢᎦᏓᏅᏓᏗᏍᏗ	-11.9051
ᎦᏘᏰᎢ	-11.9052
ᎵᏍᎪᎸᏓᏁᎸᎩ	-11.9059
ᏛᏓᏍᏔᏂ	-11.9065
ᎧᏁᏥ	-11.9072
▁ᏧᏳ	-11.9075
▁ᎡᎶᎯᏉ	-11.9085
▁ᏕᎬᎩ	-11.9086
ᏂᏍᏘᏰᎬ	-11.9089
ᏲᎩ	-11.909
ᏣᏢ	-11.9095
▁ᏓᎬᏯ	-11.9097
ᏯᏑᏰᏛ	-11.9099
▁ᎬᏴ	-11.91
▁ᎠᏔ	-11.9108
ᎧᎿᏩᏛᏍᏗ	-11.9117
▁ᏛᎪ	-11.9131
ᏓᎴᎲᏍᎨ	-11.9134
▁ᎯᏍᏕᎸᏗ	-11.9135
ᏂᎭ	-11.9137
▁ᏣᏄᏬ	-11.914
▁ᎢᏤᏓᏍᏗ	-11.9148
▁ᎢᏤᏲ	-11.9158
ᏖᏆᎶ	-11.9173
▁ᎠᏂᎶᏏᏙ	-11.9174
ᏗᏒᏅ	-11.9181
ᏁᎵᏙᎸ	-11.9186
ᎦᏰᏃ	-11.9191
▁ᎤᏂᏁᎦ	-11.9196
ᏂᏔᏲᎴ	-11.9201
▁ᏧᎵᏍᏚ	-11.9206
ᎦᏃᏥ	-11.9208
▁ᎤᏂᏍᏘᏰ	-11.9208
▁ᎬᏔᏅ	-11.9229
ᏥᏁᏤᎸᎯ	-11.923
▁ᏥᏂᏨ	-11.9241
▁ᏧᎫᏴ	-11.9243
ᏤᎵᎦᏯ	-11.9249
ᎧᎾᏩᏗᏙ	-11.9249
ᎩᎡᏗ	-11.925
ᎡᎮ	-11.9251
▁ᏕᏧᎪᏗᏍ	-11.9258
ᏧᏣ	-11.9258
▁ᏴᏓᎦ	-11.9259
ᎾᎦᏔᎲᏍᎬ	-11.9263
▁ᎨᎪ	-11.9275
ᏦᏱ	-11.9279
ᏓᏑᏴᎢ	-11.9285
ᏞᏤ	-11.9285
▁ᎤᏍᏆᎸᏗ	-11.9286
ᏓᎨᏛ	-11.9287
pi	-11.9288
ᏯᏖᏃ	-11.9297
ᏎᎵᏙ	-11.9298
ᏴᎭᎦ	-11.9298
▁ᏞᎦᏉ	-11.9298
ᏣᏁᎵ	-11.9298
ᏃᎯᏏ	-11.9304
ᏛᏛᏅᎩ	-11.9306
▁ᏣᏕ	-11.9317
ᏲᎦᏘ	-11.9317
ᎾᏁᏍᎨᏗ	-11.9325
ᏓᏥᎩᏏ	-11.9327
▁ᎠᎧᏔ	-11.9332
▁ᎤᏂᏲᎯᏍᏔ	-11.9334
ᎵᏙᎮᏍᏗ	-11.9334
▁ᎬᏭᎯᏍᏗᏍ	-11.9341
ᏥᏩᏛᏓ	-11.9344
ᏨᏉ	-11.9348
▁ᎢᏥᎪᏩᏛ	-11.9349
▁ᏓᎦᏂ	-11.9349
▁ᏯᎦᎵ	-11.9361
ᏗᏤᎾ	-11.9362
ᎵᏗ	-11.9366
▁ᏥᎨᏣ	-11.9369
ᎾᏯ	-11.937
ᎵᎥᏂᎵ	-11.9378
ᏓᏂᎸᎦ	-11.9378
ᎷᎯᏍᏓᏁ	-11.9381
ᏓᎴᏅᏓ	-11.9398
ᏏᎾᏏ	-11.9405
ᎡᎲ	-11.941
▁ᎤᏁᎳᏗᏍ	-11.9411
ᎪᎸᏒ	-11.9411
▁ᏧᎾᏓᏁᎳ	-11.9416
ᏂᏲ	-11.9417
▁ᎤᏓᎾ	-11.9417
ᎾᏕᎪ	-11.9419
ᎪᏎᎮᏍᏗ	-11.942
ᎵᏂᎪᎯᏍᏓ	-11.9427
ᏩᏘᏍᎬ	-11.9432
ᏩᏁᎲ	-11.9432
▁ᏗᏆᏓ	-11.9436
ᏑᎴᏗ	-11.9438
ᏃᏴᎬ	-11.9444
▁ᏗᎦᎶᎯᏍᏗ	-11.9448
▁ᎠᎩᏁᎵᏍ	-11.9453
ᏩᎯᏎᎴᎢ	-11.9457
▁ᏳᎾᏗᏅ	-11.9458
ᎶᏂ	-11.9462
▁ᏓᏂᏅ	-11.9466
ᎬᏩᏂ	-11.9466
ᎶᏍᎨᏍᏗ	-11.9467
ᏁᎵᏍᎨ	-11.9473
▁ᎤᏂᎶᎯᏍᏗ	-11.9475
ᎦᏘᏰᏍᏗ	-11.9475
ᏭᎾ	-11.9484
▁ᎠᏂᎦᏗ	-11.9487
ᎦᏘᏯ	-11.9488
ᏆᎵᏍᎪᎸᏓᏁ	-11.9489
▁ᎢᏥᎦᎵ	-11.949
▁ᏥᏯᏓᏅᏖᏍ	-11.95
ᏩᏐ	-11.9513
▁ᎣᏆ	-11.9517
▁ᎤᎵᏏ	-11.9524
▁ᏧᏂᎸᏫᏍᏓᏁ	-11.9525
ᎳᏑᎶ	-11.9533
ᎴᎦ	-11.9539
ᏬᎥᎢ	-11.9543
ᎧᏅᎩ	-11.9546
▁ᎤᏒᎴ	-11.9547
▁ᎠᎦᏘᏃᎮ	-11.9549
ᏥᎪᎥ	-11.955
▁ᎢᏣᏍᏗ	-11.9555
ᎩᏂᏆᏘᎯ	-11.9555
ᏴᏢ	-11.9557
ᏑᏰᏒᎢ	-11.9562
ᏣᏛᏁᎵ	-11.9567
ᎾᏗᏅ	-11.957
ᏓᏅᏒᎭ	-11.9585
ᎦᎵᏱ	-11.9585
ᏰᎸᎾᏁᏗ	-11.9587
ᏓᏙᎵᏍᏓᏁᎮᏍᏗ	-11.9589
ᏩᏕᎨ	-11.9594
▁ᏝᏰ	-11.9598
▁ᏳᏔᏲᏎ	-11.9601
ᏒᏗᏍᎬ	-11.9602
ᏦᎯᏳᎲᏍᎦ	-11.9605
▁ᏳᎾᏚᎵ	-11.9606
▁ᏱᏥᏲᏍ	-11.9612
ᏕᏘᏴᏛ	-11.9616
▁ᎠᏂᏯᏫᏍ	-11.9622
ᏗᏕᎬᎢ	-11.9623
ᏯᎦᏔᏂ	-11.963
ᏂᎰ	-11.9637
▁ᎠᎩᏁᏤᎸ	-11.9641
ᎫᏏ	-11.9642
ᏘᏃᎯᏏ	-11.9647
ᏍᎦᏅᎪᎢ	-11.9648
▁ᎾᎦ	-11.9649
ᏖᎳᏗ	-11.9657
ᎩᎵᏲᎢᏍᏙᏗᏱ	-11.9659
▁ᏧᏃᎯᏳ	-11.9666
▁ᏫᏓᏯᏂᏍ	-11.9672
ᏯᎩᏍᎬ	-11.9673
ᏗᏫᏎᏗ	-11.9675
ᏍᏛᏗᏍᎬᎢ	-11.9675
ᏐᏯᏍᏗ	-11.968
ᏓᏅᎡᏗᏱ	-11.9687
ᏓᎤᎦ	-11.9688
ᏐᎸ	-11.969
▁ᏧᏬᏎ	-11.9692
ᎵᎪᏔᏅ	-11.9695
ᎧᎳ	-11.9695
ᏛᏔᏁ	-11.9699
ᏂᎩᏏ	-11.9701
ᏏᏃᎴ	-11.9702
ᎭᎷᎨ	-11.9704
ᏂᎪᎯᏍᏗᏍᎨᏍᏗ	-11.9711
ᎵᏖᎸᎲᏍᎦ	-11.972
ᏩᏛᎡᎮ	-11.9721
ᏂᏯᏍᏗ	-11.9722
ᏪᏍᏗᏱ	-11.9726
ᎸᏅᎩ	-11.9727
▁ᎠᏂᎦᏔ	-11.9731
ᎼᏏ	-11.9734
ᏓᎩᏅ	-11.9735
ᏓᏟᏴ	-11.9737
▁ᏥᎦᎳ	-11.9743
▁ᏳᏂᏁ	-11.9744
▁ᏧᎶ	-11.9746
ᏪᎶ	-11.975
ᎨᏳᏒᎾ	-11.975
ᏁᎵᏍᎪ	-11.9752
ᎵᏍᏔᏁᏗ	-11.9752
▁ᎤᎴᎾ	-11.9753
ᎳᏃ	-11.9757
▁ᏱᎨᎦ	-11.976
ᏠᏎ	-11.9761
▁ᎠᏂᎶᏍᎨ	-11.9762
▁ᏂᏕᎤᏍ	-11.9764
ᏬᏯᏁᏎᎢ	-11.9765
▁ᎠᏂᏃᎯ	-11.9767
ᏕᏯᏙᏓ	-11.9769
ᏣᏅᏔ	-11.977
ᏡᏗᎭ	-11.9776
▁ᎦᎾᏄᎪᏫᏎ	-11.9778
ᏙᎻ	-11.9779
ᏍᏆᏗᏍᏗ	-11.9785
▁ᏚᏛ	-11.9789
▁ᎠᎩᏯ	-11.9791
▁ᎢᎾᎯ	-11.9792
ᎴᎲᏍᎬᎩ	-11.9792
▁ᎣᎦᎵᏍᏔᏴ	-11.9793
▁ᏕᎦᏥ	-11.9794
ᎵᏍᏔᏴᎾ	-11.9796
ᏗᏓᎴᎲᏍᎪᎢ	-11.9803
ᎯᏍᏗᏍᎨᏍᏗ	-11.9804
▁ᏱᏣᏛᏓᏍᏔ	-11.981
ᏈᏴ	-11.9811
ᏂᎶᏒᎯ	-11.9816
ᏗᏥᏂᏴ	-11.9817
ᏤᎲᎾ	-11.9818
▁ᎤᎵᏍᏚ	-11.9819
ᏄᏙᎬ	-11.9819
▁ᏂᏚᎾᏓ	-11.982
ᎵᎪᎲ	-11.9821
▁ᎠᎿᏬ	-11.9825
▁ᏂᏙᏓ	-11.9831
ᏄᏣ	-11.9833
ᏂᎪᏩᏛ	-11.9834
ᏘᏒᎴᎢ	-11.9835
ᏲᏍᏙᏓᏁᎸᎩ	-11.9858
▁ᏚᎵᏍᏚ	-11.986
▁ᎤᎵᏍᏔᏁ	-11.9862
ᏍᏆᏂᎪᏙᏗ	-11.9864
▁ᎤᏓᏦ	-11.9869
ᎾᏗᎾ	-11.9872
ᏱᏙ	-11.9874
ᎪᎯᏳᏗᏱ	-11.9876
▁ᎥᎠᎩ	-11.9877
▁ᏅᏓᏳᏂ	-11.9881
▁ᏫᏚᏃᏁ	-11.9883
ᏕᏯᏙᏗᎭ	-11.9889
ᎮᎴᎢ	-11.9889
ᏂᏩᏛᎯᏙ	-11.9889
ᎶᏒᎯ	-11.9889
ᏛᏓᏍᏔᏅ	-11.9899
ᏲᏏᏍᎨᎢ	-11.9907
ᏗᎦᏔᎭ	-11.9914
▁ᏘᏏ	-11.9923
ᏖᏆᎶᎯ	-11.9925
ᏍᏓᎥ	-11.9927
▁ᏗᏠᎯᏍ	-11.9937
lo	-11.9937
▁ᎣᏍᏕᏙ	-11.9939
ᏢᏔ	-11.9942
▁ᎠᎯᏯ	-11.9943
ᎴᏉ	-11.9947
▁ᎠᏍᏆᏂᎪᏗᏍ	-11.9953
▁ᏣᏓᏅᎦᎸ	-11.9956
ᏗᏍᎦᎳ	-11.996
ᏯᎦᎿᏅ	-11.9972
▁ᏣᏁᏤ	-11.9975
ᏄᎪᎬᎢ	-11.9981
ᎠᏰᎸ	-11.9985
ᎵᏍᏙ	-11.9985
ᏣᏪᏐᎸᏍᏙᏗ	-11.9992
▁ᎬᏩᎾᏓ	-11.9999
▁ᏫᏥᏂ	-12.0002
▁ᏓᏳᎾ	-12.0005
ᏂᏲᎸ	-12.0006
ᏥᏳ	-12.0007
▁ᎢᏥᎶᏁ	-12.0014
▁ᎬᏩᎸᏉᏗ	-12.0015
▁ᏕᏣᎸ	-12.0018
▁ᎬᏩᏂᎩᎵᏲᎢᏍ	-12.0019
ᏃᎩᏍᏔᏂ	-12.0022
ᏂᏍᏙᏗᏱ	-12.0028
ᏚᎾᏛ	-12.0029
ᏌᎴᏓ	-12.0033
ᎦᏘᏰ	-12.0036
ᏥᎸᎯ	-12.0044
ᏓᏔᎶᎯᏍᏗ	-12.0045
ᏚᏓᎳ	-12.0046
ᎪᏩᏘᏍᎪᎢ	-12.0051
ᎮᎵᏍᎬᏉ	-12.0052
▁ᎠᎩᎵᏓᏍ	-12.0067
▁ᏣᏍᏕᎸ	-12.0068
ᎯᎶᎥ	-12.0071
ᎵᏏᏅᏓ	-12.0079
ᏰᎸᏁ	-12.0083
ᏯᏊ	-12.0084
▁ᏗᏥᏲᎯ	-12.0084
▁ᏗᎦᏔ	-12.0086
ᏮᎩ	-12.0091
ᎶᎸᎯ	-12.0091
ᏣᏓᏑᏯ	-12.0092
▁ᏥᏃᎮ	-12.0093
▁ᏧᏂᎸᏉᏗ	-12.0093
ᏂᏬᏂᎭ	-12.0096
▁ᎥᎬ	-12.0098
ᏓᏒᏂ	-12.01
ᎾᎴᏗ	-12.0105
ᏩᏘᏍᎪ	-12.0112
▁ᏛᎤ	-12.0118
ᏍᏕᎸᎡᏗᏱ	-12.0118
▁ᎤᎵᎪ	-12.0121
ᏅᏖ	-12.0122
▁ᏳᏙ	-12.0123
▁ᎠᏢᏈᏍ	-12.0126
ᏥᏲᎵᎭ	-12.013
▁ᏂᏍᎩᏴ	-12.0132
▁ᎡᏦᎢᏳ	-12.0133
▁ᎢᏕᏙ	-12.0134
▁ᏝᏉ	-12.0141
ᎵᎥᏂᎸᎩ	-12.0146
▁ᏱᎪᎯ	-12.0151
ᏩᏛᏔᏅ	-12.0152
ᎩᏂᏴᏎᏍᏗ	-12.0152
▁ᏧᏢᏗ	-12.0154
ᏟᏴᏗ	-12.0157
ᏰᎸᏒᎩ	-12.0157
ᏣᎦᎸᎮ	-12.0161
ᏍᏚᎮᎢ	-12.0163
ᏔᎲᎾ	-12.0168
ᏩᏗᏒ	-12.0176
▁ᏙᏍᏗ	-12.0178
▁ᎠᎩᏍᏕᎸᏗ	-12.0178
ᏣᎧᏂᏍᎬ	-12.0184
▁ᏚᎦᏔ	-12.0184
ᎸᏫᏍᏓᏁᎭ	-12.0186
▁ᎤᏂᏍᎪᎸ	-12.0189
ᏢᏗᏍᎨ	-12.019
▁ᎦᎳ	-12.0192
ᏘᏍᎨ	-12.0197
▁ᎤᏩᏙᏗ	-12.02
▁ᏓᏥᏯᏛ	-12.0204
ᎸᎲ	-12.0205
ᏥᏍᎦᏅᏤᎸ	-12.0218
▁ᎢᏥᏯᏅ	-12.0218
la	-12.0221
▁ᎤᏃᎯᎸ	-12.0227
ᏲᎯᏎᎴᎢ	-12.0227
ᏙᎯᏳᎮ	-12.0229
▁ᏥᎪᏩᏘ	-12.0233
ᎾᏓᏛᏁᎮᏍᏗ	-12.0236
ᏄᏂ	-12.0237
▁ᏯᏆᏓᏅᏔ	-12.024
▁ᎢᏳᎾᏛᏁ	-12.024
ᏈᎵ	-12.0244
▁ᎠᎩᎷ	-12.0247
ᏂᏲᎯᏍᏙᏗ	-12.0247
▁ᎤᏕᏘ	-12.0251
ᎧᎿᏅᎩ	-12.0258
ᏗᏙᎵᎩ	-12.0264
▁ᏫᏗᎨ	-12.0264
▁ᎠᎩᏍᎦ	-12.0265
ᏓᏥᏩᏛᎯᏃ	-12.0275
▁ᏗᎷ	-12.0277
ᎸᏅᎭ	-12.0287
ᎦᏖᏃᎭ	-12.0291
▁ᏧᏓᏅᏖ	-12.0292
▁ᏧᏔ	-12.0294
ᏍᎩᎳ	-12.0298
ᏗᏅᏎ	-12.0298
▁ᏕᏥᎸᏫᏍᏓᏁ	-12.0302
▁ᏚᎧᏁ	-12.0302
ᎩᎵᏲᎬᎢ	-12.0306
▁ᏓᏂᏁ	-12.0306
ᏣᏅᏓᏗᏍ	-12.0307
▁ᎤᏃᎯ	-12.0314
▁ᎤᏏᎳᏛ	-12.0314
▁ᎠᏦ	-12.0319
ᏓᏂᎸᎪᎢ	-12.0322
ᎵᏍᎪᎸᏓᏁᎴ	-12.033
ᎾᏙᎴᏆᏍᎬ	-12.0331
ᏌᎳᏙᏗ	-12.0331
ᎩᎸᏉᏔᏅ	-12.0332
▁ᎠᏔᏲᎯ	-12.0335
ᏄᎪᏥ	-12.0337
ᎵᎮᎵᏨᎯ	-12.0338
ᏪᎵ	-12.0338
ᏂᏗᏍᏗ	-12.0338
▁ᎤᏍᏆᎸᎡ	-12.0339
ᎳᏍᏓᎸ	-12.0341
▁ᎤᎾᏕᎰ	-12.0341
▁ᎤᎴᏫᏍ	-12.0342
▁ᏕᎯᏯ	-12.0342
ᏒᎸᎩ	-12.0343
ᏘᏍᎪ	-12.0345
ᎦᏘᏗ	-12.0352
▁ᎤᏥᏍᏓ	-12.0356
▁ᎠᎵᏖᎸᎮᏍ	-12.0357
▁ᎠᏁᏍᎨ	-12.0361
ᏦᎯᏳᏅ	-12.0363
ᎦᏌᏯᏍᏗ	-12.0367
ᏂᎪᏩᏘᏍᎨᎢ	-12.0367
ᏕᎲᎦ	-12.0371
▁ᎠᏑᏰᏍ	-12.0375
ᎸᎪᏫᏍ	-12.0378
▁ᎣᎩᏍᏛᏗᏍ	-12.0386
▁ᎬᏩᏍᎦ	-12.0387
▁Ꮬ	-12.0387
▁ᏚᏂᏚ	-12.039
ᎪᏩ	-12.0396
ᏓᏪᎵᎩᏍ	-12.0396
ᏲᎵᎦ	-12.04
ᎤᏅᏎ	-12.0401
ᏂᎩᏒᎩ	-12.0401
ᏓᏅᎵᏰ	-12.0405
▁ᎠᎩᎾᏄᎪᏫᏍᏗ	-12.0406
▁ᎠᏂᎦᏖᏃ	-12.0406
ᎯᏴᏁᎸ	-12.0411
▁ᎡᏥᏄᎪ	-12.0412
ᎢᎦᏚᎩ	-12.042
▁ᏛᏛ	-12.042
▁ᎢᏤᏯᏔ	-12.0421
▁ᎾᏋᏁ	-12.0423
ᏥᏲᎭ	-12.0423
ᏓᏙᎵᏍᏓᏁᎯ	-12.0424
▁ᎠᏡᏗᏍ	-12.0425
ᏩᏛᏛ	-12.0425
▁ᎣᎩᏍᏛᏗᏍᏗ	-12.0426
▁ᏓᎨᏥ	-12.0428
ᎸᎡᎴ	-12.043
▁ᏥᎧᏁᎢᏍᏗ	-12.0431
▁ᎩᎦᎨᏃ	-12.0438
▁ᏓᏂᎳᏫ	-12.0442
ᏓᏘᎾᎥ	-12.0442
ᏍᏛᏗᏍᏗᏱ	-12.0443
ᎠᏧ	-12.0446
ᏥᏬᏁᏙᏗ	-12.0449
ᏂᎨᏴ	-12.045
ᏰᎵᏒ	-12.045
▁ᏕᎪᏢ	-12.0455
▁ᏥᏂᏣᎵᏍ	-12.0456
ᏆᏙ	-12.0456
▁ᎢᏯᎦ	-12.0463
▁ᎢᏳᏅᏁ	-12.0467
ᎦᏯᎷᏗ	-12.0471
ᎶᏍᎪ	-12.0473
ᏨᏍᏗ	-12.0473
ᏁᎢᏍᏓ	-12.0476
▁ᏧᏭᏓᎴ	-12.0477
ᏓᏍᎦᎨᏍᏗ	-12.0486
▁ᏕᏍᎩᏯ	-12.0486
▁ᎢᏯᏥ	-12.0487
▁ᎬᏩᏍᏕᎸᎯᏙ	-12.0492
ᏂᏍᏔᏅ	-12.0493
ᎷᏨᎯ	-12.0493
▁ᏧᎴᏗ	-12.0498
ᏓᎾᏌᎲᏍᎩ	-12.0499
ᎵᏍᏓᏴᎲᏍᎬᎢ	-12.0511
ᏫᏒᏅ	-12.0511
ᏴᏅ	-12.0512
----	-12.0513
▁ᏯᏂᎸᏉ	-12.0516
ᎦᏓᎡ	-12.0517
▁ᎤᎪᎯ	-12.0526
▁ᎠᎩᏍᎬ	-12.0531
ᏙᎵᏍᏗᏱ	-12.0532
ᏥᏍᎬ	-12.0536
ᎦᏅᎾ	-12.0541
▁ᏩᏂᏴ	-12.0547
ᏓᏛᎢ	-12.0549
▁ᎤᏏᏔᏕ	-12.0551
ᏛᏗᏕᎬ	-12.0552
▁ᎬᏩᏯᏫ	-12.0555
▁ᏥᏫᎬ	-12.0559
▁ᎯᏰ	-12.0559
▁ᎤᏓᎪᎾᏛ	-12.0562
ᎴᎲᏍᎦ	-12.0568
▁ᎠᏂᏃᎮᎵᏙ	-12.0569
ᏍᏆᏓᏃ	-12.0572
ᏳᏨ	-12.0576
ᏑᎦᎸ	-12.0583
ᏒᎦᎶᏗ	-12.0586
▁ᎤᎵᏖᎸᏂ	-12.0587
ᎬᏩᏛᏗ	-12.059
ᏓᏖᎸᎮᏍ	-12.0593
ᏩᏘᏃ	-12.0598
▁ᎦᎸᏉᏗᏳᏍᎩᏂ	-12.0603
▁ᎢᏨᏯᎵᏥᏙᏁ	-12.0603
▁ᏓᎧᎿᏩᏗᏙᎮ	-12.0605
ᏂᏆᏘᎲ	-12.0608
▁ᏩᏓ	-12.0608
ᏌᏙᏰ	-12.0613
ᎦᎵᏍᎨᎢ	-12.0618
▁ᎡᏣᎵᏍᎪᎸᏓᏁ	-12.0619
ᏪᏎ	-12.062
ᎯᏐ	-12.0629
ᏁᎢᏍᏓᏁᎭ	-12.0632
ᏍᏚᏟ	-12.0638
ᎵᏂᎬᎬ	-12.0641
ᏲᏍᏙᏓ	-12.0642
▁ᏳᏕᎶᎰ	-12.0642
▁ᏧᎾᏁᏍᎨ	-12.0643
ᏯᏅᎮ	-12.0646
▁ᎬᏩᏂᎩ	-12.0649
ᎱᏁ	-12.065
▁ᏚᎾᏕ	-12.065
ᏄᎪᏫᏎ	-12.0651
▁ᎢᏨᏲᏪᎳᏁ	-12.0652
ᏳᏩᏂ	-12.0654
▁ᎢᎦᏚᏓᎴᏍ	-12.0655
ᏏᏔᏕᎢ	-12.0656
ᎶᎩ	-12.0656
▁ᎢᏙᎯᏳᎲᏍ	-12.0656
ᎦᎵᏍᏓᏗᏍᎩ	-12.0658
ᏂᎨᏳᎯ	-12.0658
ᏣᏛᎦᏁ	-12.066
▁ᏓᏗ	-12.0662
ᎶᎢᏍᏗᏱ	-12.0662
▁ᎠᏛᎵ	-12.0674
ᎵᏌᎳᏓᏅᎩ	-12.0677
ᎦᏔᎲᏒᎩ	-12.0679
▁ᏥᎾᏆ	-12.068
ᎠᏯᎨ	-12.0685
ᎪᏢᎭ	-12.0687
ᏂᎶᏍᎨᏍᏗ	-12.0687
▁ᎦᎵᏗ	-12.0688
ᏋᏁᎸᎩ	-12.0691
ᎵᎪᏁᎸᎩ	-12.0697
ᎴᏒ	-12.0699
▁ᎤᏂᏲᎵ	-12.0701
▁ᏧᎷᏤ	-12.0701
ᎶᏍᎦ	-12.0702
ᏍᏔᏁᎲ	-12.0702
▁ᎠᎩᏫ	-12.0709
▁ᏥᏅᏒ	-12.0712
ᏕᏍᏔ	-12.0721
ᏓᏬᎢ	-12.0724
ᏓᏍᏕᏓᎵᏴᏍᎩ	-12.073
ᏜᏍᏛ	-12.0731
▁ᎤᏂᏁᏉ	-12.0734
▁ᎫᏔ	-12.0734
ᏣᎷᏤᎵ	-12.0735
▁ᎾᏲ	-12.0736
▁ᏱᏂᎬᏩ	-12.0736
ᏚᏂ	-12.0737
▁ᏧᏢ	-12.0738
ᏘᏃᎮᏗᏱ	-12.0741
▁ᏣᏕᎲᏍ	-12.0741
▁ᎪᏒ	-12.0742
ᏃᎮᎴᎢ	-12.0742
ᎾᏕᏏ	-12.0743
ᏓᎷᎸ	-12.0743
▁ᏓᎦᏢ	-12.0747
ᏍᏆᎶ	-12.0752
▁ᏚᎾᏁᎶ	-12.0752
ᏐᏢᏗᎭ	-12.0753
▁ᏄᎾᏓ	-12.0757
▁ᏧᏚᎢᏍᏓᏁ	-12.0757
▁ᎯᏅᏁ	-12.0762
▁ᎢᏣᏠᏯᏍ	-12.0763
ᏬᏯ	-12.0765
ᏍᎪᏎ	-12.0766
▁ᏗᎦᏄ	-12.0768
ᏂᎰᎢ	-12.0768
ᏥᏍᏕᎸᏗᏱ	-12.077
▁ᏗᏧᎪᏓ	-12.0773
ᏂᏴᎩ	-12.0773
▁ᎢᎠᏓ	-12.0774
ᏯᏓᏱ	-12.0775
ᏯᎴ	-12.0778
ᏕᎰᏍᎨᏍᏗ	-12.0781
ᏅᏩᏅ	-12.0784
ᎬᏩᏟ	-12.0785
ᎩᎳᎾᎳ	-12.0798
ᏅᏍᎪᎢ	-12.08
ᏓᏣ	-12.0803
ᎾᏝᎾᎥᎢ	-12.0808
▁ᎤᎾᎵᏍᏗ	-12.0809
▁ᏗᎾᏓᏅᏟᏉ	-12.081
▁ᎾᏂᏪ	-12.0811
▁ᏂᎨᏣ	-12.0814
ᎱᏍᏕᏎᎸ	-12.0816
ᎵᏂᎪᎯᏍᏔᏅ	-12.0819
ᎵᏃᎮᏙᏗᏱ	-12.0822
▁ᎠᎩᎶ	-12.0824
ᏅᏓᏗᏍᎪ	-12.0825
ᏣᏓᏅᎦᎸᏛ	-12.0825
ᎾᏁᎴ	-12.0826
ᏥᏍᏕᎸ	-12.0829
ᏍᏉᏟᎢ	-12.0831
ᏓᎷᏯᏛ	-12.0834
ᏑᏰᏎᎢ	-12.0838
ᏃᏍᎩᏛ	-12.0839
ᏥᏅᏁᏗ	-12.0842
▁ᎾᎾᏛᏁ	-12.0844
ᏍᏆᎵᏎ	-12.0844
▁ᏛᎾᏓ	-12.0848
▁ᏕᎦᏥᏯ	-12.0852
▁ᎤᎾᏘᏲ	-12.086
ᏉᏗᏍᎬ	-12.086
ᏲᏤᎢ	-12.0864
▁ᎠᎵᎮᎵᏍ	-12.0865
ᏑᎴᏍᏗ	-12.0867
▁ᎢᎫ	-12.0873
ᏕᏍᏗᏍᎨᏍᏗ	-12.0874
▁ᏱᎦᏅ	-12.0875
▁ᎠᎾᎵᏍᏓᏴᏗᏍ	-12.0882
▁ᎤᎦᏌ	-12.0883
ᎦᏔᎾᎢ	-12.0885
▁ᎢᏧᎳᎭᏉ	-12.0886
ᏅᎢᏍᏗ	-12.0891
ᏟᎶᎡᎸ	-12.0893
ᏓᏰᎨᏍᏗ	-12.0896
ᏏᏅᎯ	-12.0898
ᏟᏍᏔᏁ	-12.0898
▁ᎤᏂᏄᎸ	-12.09
ᏌᏛᎥᏍᎬ	-12.0902
ᏗᏔᎲᎩ	-12.0902
ᎬᏂᏍᏗ	-12.0903
ᏍᎩᏓᏒᎢ	-12.0905
▁ᎡᏥᎾᏰᏍ	-12.0905
ᏂᏒᎩ	-12.0906
ᎦᎷᏯ	-12.0912
ᏒᎴᎢ	-12.0912
ᏁᎵᏒᎢ	-12.0914
▁ᏧᏥᏍ	-12.0916
ᎵᏍᏗᏍᎨᏍᏗ	-12.0917
▁ᎠᏆᏛᎦ	-12.0919
▁ᏦᎸ	-12.0921
▁ᎤᎦᏛᎾ	-12.0925
ᏂᎴᎢ	-12.0927
ᎯᏍᏓᏁᎯ	-12.093
▁ᏗᏓᎾ	-12.0933
ᏓᏙᎵᏍᏔᏁᎢ	-12.0936
▁ᏚᏓᏂᎸᏤ	-12.0939
▁ᎤᏂᏍᎦ	-12.0939
ᏯᏛᏁᎵ	-12.0945
▁ᏍᎩᏯᏕᎶᏆ	-12.0946
ᏅᏗᏍᏗ	-12.095
▁ᎨᎶ	-12.0951
ᏲᏍᏙᏗᏱ	-12.0951
▁ᎠᏢᏆᏍ	-12.0963
ᏃᏁᎸ	-12.0966
ᏅᏯ	-12.0967
ᏦᎯᏳᏒᎢ	-12.0968
▁ᎤᏂᏍᏆ	-12.0972
ᏪᎭ	-12.0974
ᏁᎳᎩᏉ	-12.0977
▁ᏗᎦᏂᏴ	-12.0978
▁ᏧᎬᏩ	-12.098
▁ᏳᏩᏛ	-12.0982
▁ᏓᎧᎿ	-12.0986
ᏫᏚᏓᎢᏅ	-12.0989
ᏯᏙᏤᎮᏍᏗ	-12.0989
ᎦᏌᏬᎢ	-12.0989
ᎦᏃᎸ	-12.099
ᏲᏏᏌ	-12.099
ᏄᎪᎢ	-12.0991
▁ᎤᏕᏒ	-12.0994
ᏯᏍᏛᎾ	-12.0995
▁ᏱᏄᎾᏛᏁ	-12.0996
ᏄᏍᏕᎢ	-12.0999
ᏥᏎᎪᎩ	-12.1
▁ᏧᎾᎵᎪ	-12.1
ᎴᏂᏙᎸᎢ	-12.1002
▁ᎠᎾᎵᏍᎪᎸᏗᏍ	-12.1003
▁ᎤᎾᏓᏛᏁ	-12.1009
ᏬᏅ	-12.1009
ᏚᎨ	-12.101
ᏩᏕᏁᎴᎢ	-12.1012
ᏁᏟᏴᎡᏗ	-12.1013
ᏣᏯᏅ	-12.1014
▁ᎤᎸᏌ	-12.1014
▁ᏧᏓᏄ	-12.1014
▁ᎣᏥᏃᎮ	-12.1015
▁ᏓᏁᎶ	-12.1015
ᏡᏓ	-12.1016
▁ᏚᏂᏣᎦ	-12.1018
ᏓᏁᎶ	-12.1019
ᏩᏂ	-12.1021
ᏟᏍᏗᏍᎪᎢ	-12.1021
ᏔᏍᎪᎢ	-12.1025
ᏴᏈᏛ	-12.1026
ᏯᏅᏓᏗᏍᎪ	-12.1026
ᎬᏫᏳ	-12.1028
▁ᎤᏔᏕ	-12.1034
▁ᏱᏫᏨ	-12.1034
▁ᏚᏭᎪᏓᏁ	-12.1035
▁ᏣᎧᎵᎢ	-12.1035
▁ᎤᏍᏢᏂᏍ	-12.1038
ᏬᎯᏳᏅ	-12.1039
▁ᎤᏁᎵᏤ	-12.1041
ᎯᏳᏒᎾ	-12.1043
▁ᎤᏓᏠᏍ	-12.1044
▁ᎬᏬᏎ	-12.1049
ᎾᏛᏁᏗᏱ	-12.1049
▁ᏚᏟᎶᏍᏓᏁᎴ	-12.1049
▁ᎤᏂᏲᎢ	-12.1052
ᏥᎪᏗ	-12.1053
ᏌᎳᏗ	-12.1053
▁ᎾᏅᏁ	-12.1056
ᎾᏄᎪᏫ	-12.1061
ᎣᏒ	-12.1062
▁ᏕᏍᏓ	-12.1062
ᏍᏔᏁᎮ	-12.1066
ᎱᏍᏕ	-12.1066
ᏣᎬ	-12.1067
▁ᎤᏂᏄᎪᏤ	-12.1068
ᏘᏃᎵ	-12.1071
▁ᎤᎾᏙᏓ	-12.1073
ᏚᎳ	-12.1076
ᏰᎵᏒᎩ	-12.1077
▁ᏣᏚᏓᎴ	-12.1079
▁ᎤᏍᏆᏂ	-12.1079
ᏏᏙᎰ	-12.1079
▁ᏂᏍᏋᏁ	-12.1079
ᏟᏴᎮᎢ	-12.1081
ᏍᏆᏙᎾ	-12.1082
ᏔᎩᏍᏗ	-12.1082
ᎤᏍᏆᏂᎩ	-12.1085
▁ᏕᎫᎪᏗ	-12.1086
▁ᏂᏍᎩᏪᏎ	-12.1088
▁ᎱᏰ	-12.1089
▁ᎠᏂᏯᎡ	-12.1089
▁ᎠᏲᏞ	-12.1092
▁ᎦᏰᏥᏙ	-12.1095
▁ᏂᏓᏛ	-12.1097
ᎧᎵᎵ	-12.1099
▁ᎤᎾᎴᎿᏫᏍ	-12.1099
ᏁᏅᏒᎩ	-12.11
▁ᎤᎵᏍᏕᏍᏔ	-12.1101
▁ᎠᏓᏄᏖᏲ	-12.1103
ᏣᏓᏂᎸᎩ	-12.1107
▁ᏚᎾᏄᎪᏫᏎ	-12.1108
▁ᎠᏂᏏᎾ	-12.1109
▁ᎠᏥᎸᏍᎩᏂ	-12.1109
ᎬᏍᎪᎸᏁ	-12.111
ᎤᏃᎴ	-12.111
▁ᎤᎾᏚᎵ	-12.111
ᏍᏕᎸᏙᏓ	-12.111
ᏍᏚᎸ	-12.1111
▁ᏚᎾᏚᏫᏍ	-12.1111
▁ᎠᎩᏲᎰ	-12.1112
▁ᎢᏓᎴᏂᏙ	-12.1114
▁ᏩᎫ	-12.1119
ᏓᎦᏘᎴ	-12.1123
ᎩᏂᏴᏗ	-12.1127
▁ᏥᏩᏂ	-12.1127
ᏂᎬᏎᎲᎢ	-12.1127
▁ᎤᏕᏯᏙ	-12.1128
▁ᎠᎫᏬ	-12.1129
▁ᎤᎭᏲ	-12.1129
▁ᎢᏣᏓᏙᎵᏍ	-12.1131
ᏍᎫᏕᏍᎬ	-12.1133
▁ᏗᏩᎾᎦᎳ	-12.1133
ᎫᏓᎴᏏ	-12.1133
ᎿᏩᏗᏒ	-12.1134
▁ᎡᏍᏓ	-12.1136
ᎭᏲᎮ	-12.1136
ᏖᎳᏕ	-12.1136
ᏲᏎᎲᎩ	-12.1137
ᏍᏗᏰᏕ	-12.1137
▁ᏓᎦᏛ	-12.1138
ᏄᏍᏕ	-12.1139
▁ᏓᎵᏂᎪᎯᏍᏗᏍ	-12.114
ᏑᎴᎥ	-12.1141
ᎯᏍᏔᏁᎢ	-12.1142
ᏍᎩᏓᏒ	-12.1143
▁ᏳᏣᏅᏓᏕ	-12.1144
▁ᎠᏂᎦᏘᏗᏍ	-12.1146
ᎿᎷ	-12.1147
ᏥᎨᏳᎭ	-12.1148
▁ᏥᏄᏛᏁ	-12.1149
ᏛᏁᎸᎩ	-12.1151
ᏍᎪᏂᎯ	-12.1153
ᏂᎸᏫᏍᏓᏁᎸ	-12.1157
▁ᏱᏅᏩ	-12.1157
ᏠᏏ	-12.1158
▁ᏗᏥᏯ	-12.1159
ᏓᎦᎵᏍᏙᏔᏂ	-12.116
▁ᏥᏥᏯ	-12.1162
ᏙᏩᏗᏍ	-12.1163
▁ᏱᏄᎾ	-12.1164
ᎵᏍᎦᏍᏙᏔᏂ	-12.1164
▁ᎤᏃᎱ	-12.1165
▁ᏓᎩᎸᏫᏍᏓᏁ	-12.1165
▁ᏱᏭ	-12.1166
ᎵᏍᏚᎸ	-12.1166
ᏣᎢᏒ	-12.1166
▁ᎠᏂᏬᏂᏍᎨ	-12.1167
ᎵᏍᏓᏴᏔᏂ	-12.1167
▁ᏴᎨᏣ	-12.1169
ᏂᎨᎯᏙᎴᎢ	-12.117
▁ᏄᏛᎾ	-12.1173
ᏓᏅᏓᏗᏍᏓ	-12.1174
ᏦᏕ	-12.1174
ᎩᏍᏕᎸᎯᏙᎸ	-12.1178
ᏪᏎᎮᎢ	-12.1179
▁ᏩᏂᏴᎯ	-12.1179
ᎬᏆᏛᎦᏁ	-12.118
ᎪᎸᏛ	-12.1181
ᎵᏙᎰ	-12.1182
▁ᎤᎾᏡ	-12.1186
ᏃᎮᏢ	-12.1187
ᏂᏪᏍᎨ	-12.1187
ᎸᏉᏙ	-12.1189
▁ᏓᏕᏙ	-12.119
▁ᏂᏥᏯ	-12.119
ᎪᏩᏛᎡᏗ	-12.1191
ᏂᎨᏳ	-12.1191
ᎬᏍᎦᎳ	-12.1193
“	-12.1194
▁ᏃᎦᎵᏍᏔ	-12.1194
ᎦᏙᎨ	-12.1194
ᏴᎡᎲ	-12.1194
ᏓᏁᏣᏍᏚ	-12.1195
ᎼᏂ	-12.1195
ᏓᏛᏁᎲᎩ	-12.1196
ᏍᏕᎸᎲ	-12.1196
ᏴᎯᎲ	-12.1198
▁ᎤᏂᏲᎰ	-12.1198
ᏅᎦᎸᏗ	-12.1203
ᏛᏗᏍᎬ	-12.1207
ᎫᎩ	-12.1208
ᏫᏍᏗᏍᎩ	-12.121
▁ᏓᎾᏟ	-12.1212
▁ᏚᏂᏰ	-12.1213
▁ᏱᏂᏨ	-12.1213
ᏩᎾᎦᎶ	-12.1213
▁ᏂᏍᏆᏛᏁ	-12.1213
ᏣᏚᎵᏍᎨᏍᏗ	-12.1214
ᏂᎾᏫ	-12.1215
ᎭᏂᎸ	-12.1215
▁ᎢᏣᎨᏳ	-12.1215
▁ᎤᎦᎾᏬ	-12.1215
ᏰᎸᏍᏗ	-12.1215
ᏟᏂᎬᏁᎸ	-12.1216
▁ᏫᎦᎶᎯ	-12.1216
ᎧᏁᏗᏱ	-12.1216
▁ᎤᎾᎴᏫᏍ	-12.1217
ᎪᏓᏁᎯ	-12.1218
▁ᎠᏇᎷ	-12.1219
ᏟᏴᎡ	-12.1223
ᏧᏁᏍᎨᎮᎢ	-12.1226
ᏚᏂᎳᏫᏤ	-12.1226
ᎦᏄᎳᏥ	-12.1226
▁ᎠᏛᏅᎢᏍᏗ	-12.1226
ᎣᎨᏅ	-12.1227
ᏄᎸᎲ	-12.1228
ᏧᏓᎴᏅ	-12.1229
ᏘᏅᏍᏓ	-12.1229
ᎤᏛᏎᎢ	-12.1229
ᎭᎾᏬ	-12.123
ᏘᏲᎸ	-12.1232
ᎶᏁᎢ	-12.1232
ᏓᏟᎶᏍᏗᏍᎬ	-12.1233
▁ᎥᏥᏯ	-12.1233
ᎦᏕᎶᎣᏍ	-12.1234
ᎾᎾᎵᏍᏗ	-12.1234
ᎩᎪᎲᎯ	-12.1235
▁ᏗᏤᏍᏙ	-12.1235
ᏂᎨᏐ	-12.1235
ᎬᏬᏎᎸᎩ	-12.1236
ᎿᎥ	-12.1236
ᏓᏥᏯᏅᎯ	-12.1237
ᎩᎸᏂ	-12.1239
ᏣᎪᏍᏗ	-12.124
ᏙᏯ	-12.124
ᏓᏍᏔᏅᏅ	-12.124
ᏍᎩᎾᎾ	-12.1241
ᏓᏰᏙᎳᏛ	-12.1241
ᎤᏁᎫ	-12.1241
ᎩᎶᎯᏍᏗ	-12.1241
ᏄᏩᏂᏌᏅ	-12.1243
ᏕᎾᏓᎪᎲᏳ	-12.1243
▁ᏗᎦᎸᏫᏍ	-12.1244
▁ᎢᎤᎾᏨᏎ	-12.1244
▁ᏚᎧᎿᏩᏗᏙᎮ	-12.1244
▁ᎤᏅᏩᏁ	-12.1244
▁ᎨᏣᏡᏗᏍᎬ	-12.1244
▁ᏧᎩᏥᏍᎪ	-12.1244
▁ᎠᎾᎵᏅᏢ	-12.1244
▁ᏭᎩᎸᏁ	-12.1244
▁ᎤᏍᎦᏅᏥᏙᎸ	-12.1244
ᎠᎾᏓᎪᎾᏗᏍᎬ	-12.1244
ᏄᎾᏓᎴ	-12.1244
▁ᏧᏲᏏᏍᎨ	-12.1245
▁ᎤᏁᎢᏍᏓᏁᎸ	-12.1245
ᏚᏳᎪᏛ	-12.1245
ᏍᎪᏂᏍᏗ	-12.1245
▁ᏄᏍᏆᏂ	-12.1245
ᏬᎯᏳᏁ	-12.1245
▁ᏂᏚᏛᏁᎴ	-12.1246
▁ᏙᏗᎧᏂᏍᎬ	-12.1246
ᎵᏍᏓᏴᏁ	-12.1246
ᎤᏂᎶᏒ	-12.1246
ᎤᏁᎢᏍᏔᏅ	-12.1246
ᎤᎾᏛᎪᏗᏱ	-12.1246
ᎪᎯᏳᎲᏍᎪ	-12.1247
ᏓᎴᏍᎬᎢ	-12.1247
▁ᎢᏥᎾᏰᏍᎬ	-12.1248
ᏙᏓᎦᏥ	-12.1248
ᎤᎵᏍᏙᏔᏅ	-12.1248
ᏍᎩᏃᎯᏏ	-12.1248
▁ᎠᎩᎵᏲᎬ	-12.125
▁ᎠᎩᏯᎥ	-12.125
ᎤᎵᏍᎨ	-12.125
ᏓᏳᎶᏒ	-12.1251
ᎤᎦᏃᏩ	-12.1251
ᏅᏁᎭ	-12.1251
ᎠᏂᎪᏕᏍᎩ	-12.1251
ᏧᏓᎴᏁ	-12.1251
ᎠᎦᏴᎵ	-12.1251
ᎤᎵᏍᏆᎸᏗ	-12.1251
ᏚᎾᏙᎥ	-12.1252
ᏦᎴᏍᏗ	-12.1252
▁ᏫᎬᏩᏴᏔᏁ	-12.1252
ᎠᏥᎸᏉᏗᏳ	-12.1252
▁ᏫᏓᎧᏁ	-12.1252
ᏥᏍᏕᏥ	-12.1252
ᎤᎾᏄᎪᏫᏎᎢ	-12.1252
ᏗᎵᏍᏓᏴᏗᏱ	-12.1252
ᎡᎳᏆᏗ	-12.1252
▁ᏧᏂᎳᏫ	-12.1253
ᏕᎤᏙᎥ	-12.1253
ᏓᏗᏍᏗᏱ	-12.1253
▁ᎤᏁᎳᏫᏎᎲ	-12.1253
▁ᏕᎦᎸᏫᏍᏓᏁᎸ	-12.1253
▁ᏥᏮᎦᏙ	-12.1253
▁ᏭᏩᎦᏘᏗᏒ	-12.1253
▁ᏄᎾᏛᎿᏕᎬ	-12.1253
▁ᎤᏘᏃᎴ	-12.1253
▁ᎠᎩᏐᏅ	-12.1253
▁ᏨᏓᎸ	-12.1254
ᏄᎾᏛᏅ	-12.1254
ᏠᎨᏏ	-12.1254
▁ᏥᏂᎨᏎ	-12.1254
ᎢᎪᎯᏓ	-12.1254
ᏣᏅᏓᏕ	-12.1255
▁ᎣᎩᎪᎲ	-12.1255
ᏂᎪᎯᎸᎾ	-12.1255
▁ᎤᏗᏔᎮ	-12.1255
ᎨᏥᏍᏕᎸᏗ	-12.1255
▁ᏅᏓᎬᏩᎾ	-12.1256
ᎡᏆᎭᎻ	-12.1256
▁ᏕᏥᎧᎿᏩᏗᏒ	-12.1256
▁ᏚᏪᎧᏁ	-12.1256
▁ᎣᏥᏃᎮᏍᎬ	-12.1256
▁ᎤᏅᏓᏗᏗᏒ	-12.1257
▁ᏧᎾᏄᎪᏫᏎᎴ	-12.1257
ᏧᎬᏩᎶᏗ	-12.1257
▁ᏱᎪᎵᎨ	-12.1257
▁ᏓᏓᏁᎳᏗᏒ	-12.1257
▁ᏗᏣᎸᏫ	-12.1258
▁ᏗᏆᏓᎴᏅ	-12.1258
ᏂᎬᎾᏛ	-12.1258
▁ᎤᏛᎦᏍᏔᏁ	-12.1258
▁ᎠᎾᏓᏩᏛᎯᏙ	-12.1258
ᎤᏁᎦ	-12.1259
▁ᎤᏟᏍᏔ	-12.1259
ᏍᏛᏗᏍᎨ	-12.1259
ᏃᏈᏏ	-12.1259
ᏄᏂᏪᏎᎢ	-12.1259
ᏡᎩ	-12.126
ᏣᎵᏍᎪᎸᏓᏁᎸ	-12.126
ᏅᎢᏍᏔᏅᎯ	-12.126
ᏁᎫᏥᏛ	-12.1261
ᏳᏩᏁᎦ	-12.1261
ᎡᏒᎭ	-12.1261
ᎦᏂᏴᏛ	-12.1261
ᏩᎫ	-12.1262
ᏧᏁᎬ	-12.1262
ᏚᎳᏑᏝ	-12.1262
ᏚᏍᏆᏃᏴ	-12.1262
ᎦᏙᎬᎩ	-12.1262
ᎤᎾᏣᏅ	-12.1262
ᎶᏄᎮᏗ	-12.1262
▁ᏚᏠᏒᏎ	-12.1263
ᏛᏅᎢᏍᏔᏁ	-12.1263
ᏩᎶᏏ	-12.1263
▁ᎤᏓᏙᎵᏍᏓᏁᎴ	-12.1263
▁ᎤᏍᏆᏂᎪᏔᏁ	-12.1263
ᎬᏬᎵ	-12.1263
▁ᏕᏣᏓᏘᎾᎥ	-12.1263
▁ᏓᏂᏬᏂᏍᎬ	-12.1263
ᎠᏥᎸ	-12.1264
▁ᎤᏓᏙᎵᏣ	-12.1264
ᎩᎨᏳᏒᎢ	-12.1264
ᎮᎵᎠ	-12.1264
▁ᏧᏂᎦᏴᎵ	-12.1264
ᏚᏬᏁᏔᏁᎢ	-12.1264
▁ᏂᏚᏅᏁᎴ	-12.1265
ᏗᎪᏢ	-12.1265
ᏲᏍᏔ	-12.1265
ᎵᏥᏙᏁᎭ	-12.1266
ᎤᏁᎬ	-12.1266
ᏯᏘᏅᏍᏗ	-12.1266
ᏍᎩᏯᏘᏃ	-12.1266
ᎢᏳᏍᏘ	-12.1267
▁ᎩᎾᎵ	-12.1267
ᏅᎥᏍᎩ	-12.1267
ᏓᏴᎳᏔᏍ	-12.1267
▁ᏚᏚᎪᏔᏅ	-12.1267
ᎾᏘᏲ	-12.1268
ᎾᏫᏛᏛ	-12.1268
ᎮᏂᎵ	-12.1268
▁ᎬᏩᏕᏁᎴ	-12.1269
▁ᎠᏂᎷᎨ	-12.1269
ᎭᏗᎭ	-12.1269
ᎤᏲᏨ	-12.127
ᏗᎧᎿᏩᏗᏙᎯ	-12.127
▁ᏧᏆ	-12.1271
ᎠᏓᏅᏙ	-12.1272
ᏓᎵᏂᎪᎯᏍᏙᏗ	-12.1272
▁ᎾᏥᏪᏎᎴ	-12.1272
ᏣᎬᏫᏳᎯ	-12.1272
▁ᎦᏅᏬ	-12.1273
▁ᎠᏥᏰᎸᎾᏁᎴ	-12.1273
ᏂᏤᎷᎯ	-12.1273
ᏍᎪᎸᏙᏗ	-12.1273
▁ᏣᎵᏂᎩ	-12.1274
▁ᎣᎦᏓ	-12.1274
ᏧᏓᎴᏅᏓ	-12.1274
▁ᎬᏩᎪᎮ	-12.1274
ᏏᎾᏌᏅ	-12.1274
▁ᎤᏂᏲᏠᎯᏎᎸ	-12.1275
▁ᏂᎦᏥᏪᏎᎸ	-12.1275
▁ᎾᏆᏛᎿᏕᎬ	-12.1275
ᏗᎦᎶ	-12.1275
▁ᏲᏣ	-12.1276
▁ᎯᎦᏍᎦᏂ	-12.1277
▁ᏧᏍᏆᏂᎪ	-12.1277
ᏦᏓᎸ	-12.1277
▁ᏫᎾᎩ	-12.1277
ᏓᏙᎵᏣᏘ	-12.1277
ᎠᎩᎪᏩᏛᏗᏱ	-12.1278
ᎤᎵᎮᎵᏍᏗ	-12.1278
▁ᎤᏪᏙᎴ	-12.1278
ᏍᎦᏅᏥᏙᎸᎢ	-12.1278
ᎩᏍᏕᎸᎯᏓᏍᏗ	-12.1279
ᏌᎳᏛ	-12.1279
ᏖᎸᏂ	-12.128
ᏥᎨᏳ	-12.128
ᎾᏛᏁᎮ	-12.128
ᏁᎥᎭ	-12.1281
ᏩᏘᏍᎬᎾ	-12.1281
ᏐᎴᏍᏗ	-12.1281
▁ᎠᎵᏍᏆᏗᏍᎬ	-12.1281
ᏖᏍᎬ	-12.1282
▁ᎤᏁᏙᎴ	-12.1282
▁ᏗᎦᏙᎨ	-12.1282
ᎹᏅ	-12.1282
▁ᏫᏗᎬᏩ	-12.1282
▁ᏣᏁᎫ	-12.1282
▁ᎤᏬᏂ	-12.1282
▁ᏓᏰᏙᎳ	-12.1283
▁ᏚᏍᏓᏩᏛᏎ	-12.1283
ᎢᏧᎳᎭ	-12.1283
▁ᎤᏪᏙ	-12.1283
▁ᎤᎾᏚᎵᏍᎪ	-12.1283
ᎵᏍᎦᏂᏍᏛ	-12.1283
▁ᏫᏓᏆᎧᎾᏅ	-12.1283
ᎾᏓᎵᏁᎯᏕ	-12.1283
▁ᎤᏓᏏᏁ	-12.1283
ᎦᎾᏏᏍᎩ	-12.1284
▁ᎤᏂᏍᎦᎴ	-12.1285
ᎬᏬᎯᏳ	-12.1285
▁ᏭᏣᏅ	-12.1285
▁ᎡᎦᎫᏴ	-12.1285
ᏔᎵᏁ	-12.1285
ᏍᎩᎾᏛ	-12.1285
▁ᎤᎵᏖᎸ	-12.1286
ᏍᎩᏙᎵᎩ	-12.1286
▁ᎤᏕᏁᎴ	-12.1286
▁ᎤᎾᏓᏙᎵᏍᏓᏁᎸ	-12.1286
ᏓᏪᎳᎩᏍᎬ	-12.1286
▁ᏭᏂᏴᎴ	-12.1287
▁ᎤᏂᏍᏆᏂᎪᏒ	-12.1287
ᏗᏥᏁᏟᏴ	-12.1288
▁ᎨᏥᏌ	-12.1288
▁ᎴᎻ	-12.1288
▁ᏄᎾᏛᏁ	-12.1288
ᎦᎾᏬᏍᎬ	-12.1288
ᏲᎱᏏᏕᎾ	-12.1288
ᎵᏱᎵᏕ	-12.1288
▁ᎣᏤᎲ	-12.1289
▁ᏧᎾᏤ	-12.1289
▁ᎤᎾᎦᏎᏍᏛ	-12.129
▁ᏂᏚᎵᏍᏔᏅ	-12.129
ᏄᏩᏁᎴ	-12.1291
▁ᏚᏬᏢᏅ	-12.1291
▁ᎭᏓᏅ	-12.1291
▁ᎿᏛ	-12.1291
▁ᏧᎾᎵᏂ	-12.1291
ᎯᎪᏩᏛ	-12.1291
ᏴᏓᏆᎶᏍᎬ	-12.1292
ᏃᎯᎸᏍᏔ	-12.1292
▁ᎤᏗᎴᎲ	-12.1292
▁ᏄᎵᏂᎬ	-12.1293
▁ᎤᏁᏟᏴ	-12.1293
ᎦᏰᎬᏍᏔ	-12.1293
ᏅᏍᎦᎸ	-12.1294
▁ᎤᎩᏨ	-12.1294
ᏨᏏᏰᏗ	-12.1294
▁ᎤᏬᏪᎳᏅ	-12.1294
ᎵᏠᏯᏍᏕᏍᏗ	-12.1294
ᏆᏓᏅᏖᎸ	-12.1294
ᏗᎦᎶᏗ	-12.1295
ᏴᏓᏆᎶᏍᎩ	-12.1295
ᏩᏗᏎᎢ	-12.1296
▁ᎠᏩᏘᏍᎪ	-12.1296
ᏎᎦᏨ	-12.1296
ᏙᎴᏆᏍ	-12.1297
ᏄᎯᏍᏗᏍᎬ	-12.1297
▁ᏧᏃᏪᎳᏅ	-12.1298
▁ᎤᎾᎳᏍᏓᎡ	-12.1298
▁ᏄᏂᏪ	-12.1298
ᏂᏙᎴ	-12.1298
▁ᏥᎧᏁ	-12.1298
ᏓᎾᏏᏂ	-12.1298
▁ᏥᏃᎪ	-12.1299
▁ᏧᏂᎷᏫᏍᏔᏁ	-12.1299
▁ᏓᎾᏕᏲᎲᏍ	-12.1299
▁ᎤᎵᏨᏓᏆ	-12.1299
ᎵᏍᏙᏰᏗ	-12.1299
ᎵᏏᎲᏎ	-12.1299
ᎾᏂᎩᏒ	-12.13
▁ᎠᎦᎫᏴᎡ	-12.13
ᎦᏟᎮ	-12.13
▁ᏚᏅᏩᏅ	-12.13
▁ᏚᎵᏦ	-12.13
ᏓᏴᎳᏔᏅ	-12.1301
▁ᏧᎷᏫᏍᏔᏁ	-12.1301
▁ᎬᏩᏛᎦᏁᎸ	-12.1301
▁ᎢᏳᏕᏘᏴ	-12.1301
▁ᎤᎸᏓᎸᎥᏍ	-12.1302
▁ᎭᏙᎴᎰ	-12.1302
ᏌᎺᎵ	-12.1303
▁ᎠᏂᏐᏢᎢᏍᏗᏍ	-12.1303
ᎬᎭᎸᏛ	-12.1304
ᎤᎵᎮᎵ	-12.1304
▁ᎧᏁᎨ	-12.1304
ᎾᏕᎲᏍᎬ	-12.1305
▁ᎠᎾᎦ	-12.1305
▁ᎭᎵᎮᎵ	-12.1305
▁ᎢᎧᏁᏨ	-12.1305
▁ᎬᏩᏂᏴᎲ	-12.1305
ᏬᏍᎩᎵ	-12.1305
ᎵᏍᏗᏰᏓᏁ	-12.1305
ᏅᏧᎵᏍᏙᏔᏅ	-12.1305
ᏬᏥ	-12.1306
ᏬᏁᏗᏍᎨ	-12.1306
▁ᎤᏘᏴ	-12.1306
▁ᏙᎩᎾᏍᎩᏓᏒ	-12.1306
▁ᎢᏳᏛᏁ	-12.1306
ᎵᏃᎮᏗᏍᎬ	-12.1306
ᏑᎵᎪᏨᎩ	-12.1307
ᎵᏂᎪᎯᏍᏗ	-12.1307
▁ᏙᏦ	-12.1307
ᏕᏯᏔᏁᎮ	-12.1308
ᎠᎦᏛ	-12.1308
ᎷᎯᏍᏔᏅ	-12.1308
▁ᏗᎦᎳᏫ	-12.1309
ᏂᏄᎪᏤᎢ	-12.131
ᏫᏌᏅ	-12.131
▁ᎬᏯᎵᏃᎮᏙᏗ	-12.131
ᏲᏤᎾ	-12.131
ᏗᎩᏯᏍᏗ	-12.1311
ᏗᎴᎩ	-12.1311
▁ᎾᏥᏪᏎ	-12.1311
ᏯᏆ	-12.1311
ᏰᏌᏛᎢ	-12.1312
ᎾᏄᎪᏥ	-12.1312
ᎬᎭᎷᏯᏍ	-12.1312
▁ᎢᏥᎩᎵᏲᎢᏍᏗ	-12.1313
▁ᏱᏕᏣᏓ	-12.1313
▁ᎥᎤ	-12.1313
▁ᎢᏯᎩᏪᏍᏗ	-12.1313
▁ᏚᏃᏕ	-12.1313
▁ᏚᏂᎧᏅ	-12.1314
▁ᎤᎾᎵᏖᎸ	-12.1314
ᎧᏍᎨᏂ	-12.1314
▁ᎻᏗᏂ	-12.1315
▁ᎢᎯᏴᏁᏗ	-12.1315
ᏭᏂ	-12.1315
ᏓᏅᏍᎨ	-12.1316
ᎨᎳᏗ	-12.1316
▁ᏗᎪᏑᎴᏗ	-12.1316
ᏛᏓᏍᏓᏁᎮ	-12.1317
ᎷᏫᏍᏓᏁᏗ	-12.1317
▁ᏫᎨᏥᏯᏅ	-12.1317
▁ᎠᎵᏍᎦ	-12.1317
▁ᏕᎬᏩᎳᏫ	-12.1317
▁ᎣᎾᏫ	-12.1317
ᎾᏓᏑᏰ	-12.1317
▁ᏗᏣᎵᏂᎪᎯᏍᏙᏗ	-12.1318
ᏅᎵᏰᎥ	-12.1318
▁ᎤᎵᏍᏇᏚ	-12.1319
ᎷᏤᎢ	-12.1319
▁ᏅᏓᎬᏩᏓᎴ	-12.1319
ᏕᎭᏲᎲ	-12.1319
▁ᎡᎳᏆ	-12.1319
▁ᎠᎩᏍᏛᏗ	-12.1319
ᏍᏆᎾᎳᏗᏍᏗ	-12.132
▁ᏚᏓᏓᎴ	-12.132
ᎦᎵᏍᏗᏍᎪᎢ	-12.132
▁ᎥᏓᏗ	-12.132
▁ᎢᏣᏓᏅᏔᏩᏕ	-12.132
ᏪᎵᏎᎢ	-12.132
ᎪᏪᎵᎯ	-12.132
ᏘᏅᏎ	-12.132
ᏬᎯᏤ	-12.1321
▁ᎾᏯᏛᎡ	-12.1321
▁ᏫᏥᎷᏨ	-12.1321
ᏂᏢᎩ	-12.1321
ᏣᏪᏐᎸᏍᏓ	-12.1321
ᏍᏓᏩᏕᏒᎭ	-12.1322
▁ᏄᏂᎬᏫᏳ	-12.1322
▁ᏚᏬᏢᏔ	-12.1322
ᏍᏓᏲᏒ	-12.1322
▁ᏄᎬᏫ	-12.1322
ᎦᏕᎣᏍᎦ	-12.1323
▁ᎤᏒᎦᎸ	-12.1323
ᎴᏔᏅᎢ	-12.1323
ᏕᏘᏴᏌᏗᏒ	-12.1323
▁ᏗᏣᏓᎴᏅ	-12.1324
▁ᎤᎵᏍᎪᎸᏔᏅ	-12.1324
ᏭᎷᏤᎢ	-12.1324
▁ᎤᎾᏄᎪᏥ	-12.1325
ᏍᏕᎯ	-12.1325
ᏍᏉᏂᎪᏗ	-12.1325
ᎷᎸᏗᏱ	-12.1325
▁ᎤᏣᎴᏍ	-12.1326
ᏂᏙᎾᎡ	-12.1326
▁ᎤᏍᎦᎸ	-12.1326
ᏕᏍᏗᏱ	-12.1326
ᎦᎫᏴᏓᏁᏗ	-12.1326
▁ᎬᏆᏛᏁᏗ	-12.1326
ᏖᎸᏂᎸ	-12.1326
ᏕᎵᏙ	-12.1327
ᏙᏣᏁ	-12.1327
▁ᎡᏥᏙᎵᏍᏗ	-12.1327
ᎾᎥᏂ	-12.1327
ᎦᎵᏂᎪᎯ	-12.1328
▁ᏧᏪᏙᎵᏍᏗ	-12.1328
▁ᎠᏆᎴᏂᏓᏍᏗ	-12.1328
ᎦᏯᎷᎥᏍᎩ	-12.1328
▁ᎢᏧᏅᏁᏗ	-12.1328
ᏅᎵᏰᏗ	-12.1328
▁ᎤᏬᏯᏁ	-12.1329
ᏥᎵᏦ	-12.1329
▁ᎬᎩᏁᏉᏤ	-12.1329
▁ᎠᎫᎢᏍᏗᏍ	-12.1329
▁ᏙᏗᏍᎩᏯᏘ	-12.1329
ᏌᎳᏓᏁᎢ	-12.133
▁ᏫᎨᏥᏲᎵ	-12.133
ᏃᏍᎩᏒᎢ	-12.133
▁ᏕᎭᏕᏲᎲᏍ	-12.1331
ᏔᎧᏅᎦ	-12.1331
▁ᏳᏣᏅ	-12.1331
▁ᎬᏬᎳᏕᏍ	-12.1331
▁ᎩᏯᏎ	-12.1331
▁ᎤᏂᏔᎳ	-12.1331
▁ᏭᏔᎷ	-12.1331
ᎦᏪᎠ	-12.1331
▁ᎠᏓᎾᏫᏗ	-12.1332
▁ᏕᏥᎧᎿᏩᏗ	-12.1332
ᏩᎯᏎᎸ	-12.1332
ᎳᏁᎸ	-12.1332
▁ᏓᎭᏬᎢ	-12.1332
ᎭᎷᏰ	-12.1332
ᏍᏆᏗᏍᎬᎾ	-12.1332
ᏍᏛᏗᏍᏔᏅ	-12.1333
ᏣᎸᏫᏍᏓᏁᎮᏍᏗ	-12.1333
▁ᎡᎻᏂᏓ	-12.1333
ᏥᏍᏓᏱᏕᎵ	-12.1333
▁ᎤᎦᎾᏏ	-12.1333
▁ᏁᏓᏂ	-12.1333
▁ᏕᏣᏓᏘᎾ	-12.1333
▁ᎢᏣᎢᏒ	-12.1333
ᏞᏫᏒ	-12.1334
ᏢᏆᏍᏙᏗ	-12.1334
ᏟᏍᏕ	-12.1334
ᏅᎫᏛᎢ	-12.1334
ᏈᎷ	-12.1334
▁ᎠᏥᎤᏍᏕᏎᎸ	-12.1334
▁ᎯᏍᎫ	-12.1334
ᏯᏘᏅᏍᏔ	-12.1335
ᏚᏫᏍᏛ	-12.1335
▁ᏕᏣᎧᎿᏩᏗᏙ	-12.1335
▁ᎢᏯᎩᏳᏍ	-12.1335
ᏚᏚ	-12.1335
▁ᎦᏕᎶ	-12.1336
ᎵᏓᎩᏛ	-12.1336
ᏔᏕᎩᏍᎨ	-12.1336
ᎾᏫᏛᎯ	-12.1336
ᏍᏓᏩᏕᎦ	-12.1336
ᏪᏐᎸᏍᏔ	-12.1336
▁ᏙᏓᏲ	-12.1336
ᏔᏍᎩᏍᎩ	-12.1337
▁ᏱᏗᏧᎪ	-12.1337
▁ᏗᎦᏅᏍᎨ	-12.1337
ᏛᏛᎲᎦ	-12.1337
▁ᏥᏕᎪᏪ	-12.1337
ᏢᏈᏍᏙᏗ	-12.1337
ᎢᏓᏙᎴᎰ	-12.1338
ᏕᏯᏙᏔᏂ	-12.1338
hi	-12.1338
▁ᎠᏍᏆᏂᎪᎯ	-12.1338
▁ᏚᏟᏂᏆ	-12.1338
ᏴᏌᏗᏒ	-12.1338
ape	-12.1338
▁Ch	-12.1338
ᏓᎿᏍᏆᎶᏍᏗ	-12.1338
ᎦᎴᏯᏍᎪ	-12.1338
▁ᎠᏩᏂᎦᎳ	-12.1338
▁ᎨᏣᏔᏲᏎ	-12.1338
▁ᏂᏚᏬᏚ	-12.1338
▁ᏗᎦᎷᏫᏍᏔᏅᏗ	-12.1338
▁ᏚᎷᏆᏗᏅ	-12.1338
▁ᏚᏂᏄᏪᏒ	-12.1338
▁ᏫᏰᏣᏓᎢ	-12.1338
ᎢᏗᎬᏤᎵᏛ	-12.1338
ᎤᎸᏕᎦ	-12.1338
ᎦᏌᏯᏍᏛᎾ	-12.1338
ᎨᎪᏪᎶᏔᏅᎯ	-12.1338
ᎩᎷᏫᏍᏔᏏ	-12.1338
ᎭᎴᏫᏍᏔ	-12.1338
ᎭᏓᎾᏫᏓ	-12.1338
ᎳᏅᏓᏗᏏ	-12.1338
ᎵᏂᎬᏁᎭ	-12.1338
ᎵᏍᎫᎭᏴ	-12.1338
ᎵᏍᏇᏔᏬ	-12.1338
ᎵᏍᏕᎸᏙᏔᎾ	-12.1338
ᎺᎵᎩᏌᏕᎩᏃ	-12.1338
ᎾᏗᏔᎰᏅ	-12.1338
ᎾᏙᎯᏳᎾᏁᏗ	-12.1338
ᏂᎦᏥᏯᏛᏁᎰ	-12.1338
ᏂᏅᎦᎴᎰᏅ	-12.1338
ᏂᏆᏘᎵ	-12.1338
ᏂᏗᏥᏲᏕᏍᏗᏍᎬᎾ	-12.1338
ᏃᎯᎵᏣᏁ	-12.1338
ᏅᏔᏗᏘᏍᎬ	-12.1338
ᏍᏆᏂᎪᏎᎴ	-12.1338
ᏑᏰᏍᎬ	-12.1338
ᏓᎦᏕᎶᎣᏏ	-12.1338
ᏓᏓᏏᎾᎲᏍᏙᏗ	-12.1338
ᏓᏕᏘᏴᎮᎬ	-12.1338
ᏔᏕᎦᏅᎩ	-12.1338
ᏕᎦᎵᎩᎡᎮᎢ	-12.1338
ᏖᎡᎯᏍᏗᏍᎨᎢ	-12.1338
ᏙᏛᎪᏄᎶᏏ	-12.1338
ᏚᏂᏍᏔᏲᎳ	-12.1338
ᏣᎵᏂᎪᎯᏍᏔᏂ	-12.1338
ᏥᏔᏲᎯᎭ	-12.1338
ᏥᏥᏃᎯᏍᏓ	-12.1338
ᏥᏮᏗᎦᎶᏏ	-12.1338
ᏯᏓᏴᎡᎵ	-12.1338
ᏲᎰᏎᎵ	-12.1338
▁Po	-12.1338
▁ᎠᎦᎫᏴᏓᏁᎮᏍᏗ	-12.1338
▁ᎠᎦᏔᏔᏅᎥᏍᎩ	-12.1338
▁ᎠᎧᏖᏃᎮ	-12.1338
▁ᎠᎾᏁᎳᏗᏍᎪᎢ	-12.1338
▁ᎠᎾᏁᏢᏔᏂᏒᎢ	-12.1338
▁ᎠᏂᎧᏔᎲ	-12.1338
▁ᎠᏂᎻᏗᏯᏂ	-12.1338
▁ᎠᏂᏃᏔᏂᏙᎯ	-12.1338
▁ᎠᏃᏢᏅᎥᏍᎬᎢ	-12.1338
▁ᎠᏆᏓᏙᎵᏍᏔᏅ	-12.1338
▁ᎠᏍᎪᏂᏗᏢ	-12.1338
▁ᎠᏍᎫᏕᏍᎪᎢ	-12.1338
▁ᎠᏒᎾᏘᎶᎥᎯ	-12.1338
▁ᎠᏓᏁᏤᎯ	-12.1338
▁ᎠᏛᏒᎥᏍᎩ	-12.1338
▁ᎠᏜᏩᏍᏗᏍᎨᏍᏗ	-12.1338
▁ᎠᏥᏍᏛᏗᏍᏗᏍᎬᎢ	-12.1338
▁ᎠᏯᏍᏜᏗᏍᎩ	-12.1338
▁ᎡᎵᎣᏈᎦ	-12.1338
▁ᎢᎤᏄᎪᏨ	-12.1338
▁ᎢᎦᎤᏘᏍᏛ	-12.1338
▁ᎢᏍᎩᏌᏛᎥᏍᎦ	-12.1338
▁ᎢᏍᏛᎨᏳᎢ	-12.1338
▁ᎢᏣᏚᎸᏗᏱ	-12.1338
▁ᎢᏣᏠᎾᏍᏛ	-12.1338
▁ᎢᏥᎾᏝᎾᎥ	-12.1338
▁ᎢᏨᏰᎳᏗᏙᎮᏍᏗ	-12.1338
▁ᎢᏨᏰᏯᏔᏅᎢ	-12.1338
▁ᎢᏯᏟᎶᎥᎯ	-12.1338
▁ᎢᏰᏣᏛᏁᏗ	-12.1338
▁ᎢᏲᏨᏴᏁᏗᏱ	-12.1338
▁ᎣᎦᎵᏥᏙᏗᏱ	-12.1338
▁ᎣᏁᏏᏉᎳ	-12.1338
▁ᎤᎦᏎᏍᏕᎢ	-12.1338
▁ᎤᎧᏲᏐᏅ	-12.1338
▁ᎤᎩᎳᏫᏎ	-12.1338
▁ᎤᎵᏍᏔᏴᏃᏁᏍᏗ	-12.1338
▁ᎤᎷᏦᏅᎯ	-12.1338
▁ᎤᎾᎦᎰᏍᏔᏅ	-12.1338
▁ᎤᎾᏙᎴᎨᏎ	-12.1338
▁ᎤᏁᏧᏥᏛ	-12.1338
▁ᎤᏂᎦᏘᏕᎢ	-12.1338
▁ᎤᏂᎪᎯᏙᎸᎯ	-12.1338
▁ᎤᏂᎪᏁᎶᎯᏌᏘ	-12.1338
▁ᎤᏂᏍᏈᏍᏓ	-12.1338
▁ᎤᏂᏐᏢᎢᏍᏔᏅ	-12.1338
▁ᎤᏂᏔᎳᏬᏎᎢ	-12.1338
▁ᎤᏃᎱᎦᏂᎸ	-12.1338
▁ᎤᏐᏢᎢᏍᏔᏅ	-12.1338
▁ᎤᏓᏑᏰᎢ	-12.1338
▁ᎤᏓᏥᏃᎯᏍᏔᏅ	-12.1338
▁ᎤᏓᏩᏗᏍᏛ	-12.1338
▁ᎤᏚᏓᏛᏗᏱ	-12.1338
▁ᎤᏟᏴᏍᎩᎸᎮ	-12.1338
▁ᎤᏧᏈᏍᏙᏒᎯ	-12.1338
▁ᎤᏪᏙᎵᎨᎢ	-12.1338
▁ᎨᏤᎳᏗᏙᎭ	-12.1338
▁ᎨᏥᏐᏠᎸᎢ	-12.1338
▁ᎬᏩᎦᏌᏯᏍᏕ	-12.1338
▁ᎬᏩᏂᎾᏄᎪᏫᏎᎮᏍᏗ	-12.1338
▁ᎬᏩᏍᏓᏩᏙᎯ	-12.1338
▁ᎭᏆᏥᏂ	-12.1338
▁ᎭᏓᏅᏗᏍᏗᏍᎨᏍᏗ	-12.1338
▁ᎯᏯᎵᏍᎦᏍᏙ	-12.1338
▁ᎻᎱᏤᎵ	-12.1338
▁ᎻᏏᎴᎻ	-12.1338
▁ᎻᏚᏎᎵ	-12.1338
▁ᏁᏣᏛᏁᏍᏗᏉ	-12.1338
▁ᏂᎦᏅᎦᎸᎲᎾ	-12.1338
▁ᏂᎦᏥᏪᏎᎭ	-12.1338
▁ᏂᎬᏫᏍᏕ	-12.1338
▁ᏂᏕᏣᏓᏛᏁᎮᏍᏗ	-12.1338
▁ᏂᏗᏣᏓᏕᎵᏎᎲᎾ	-12.1338
▁ᏂᏗᏣᏢᏫᏎᎲᎾ	-12.1338
▁ᏂᏗᏥᏁᎲᎾ	-12.1338
▁ᏂᏙᏣᎵᏍᏓᏁᎭ	-12.1338
▁ᏄᎾᎵᎮᎵᏣᏛᎾ	-12.1338
▁ᏄᏂᎷᎶᏤᎲᎾ	-12.1338
▁ᏅᎤᏪᏎᎸᎩ	-12.1338
▁ᏅᏋᏁᎵᏙᎸᎢ	-12.1338
▁ᏅᏓᎦᏪᏏ	-12.1338
▁ᏅᏓᏍᎩᏴᏁᎵ	-12.1338
▁ᏅᏓᏳᎾᎵᏍᏓᏁᎵ	-12.1338
▁ᏅᏓᏳᏍᏗᏗᏒᎩ	-12.1338
▁ᏅᏛᏂᏙᎾᎢ	-12.1338
▁ᏈᏗᏂᏱ	-12.1338
▁ᏍᎩᏯᎵᎡᎵᏍ	-12.1338
▁ᏍᎩᏯᏐᎥᎦ	-12.1338
▁ᏍᏆᏕᎲᏏ	-12.1338
▁ᏐᎵᎼᏅ	-12.1338
▁ᏓᎦᎳᏐᏫᏏ	-12.1338
▁ᏓᎧᎿᏩᏕᎨᏍᏗ	-12.1338
▁ᏓᎨᎯᏛᏔᏂ	-12.1338
▁ᏓᎩᏯᏪᏥᏙᎸ	-12.1338
▁ᏓᎬᏁᏉᎢ	-12.1338
▁ᏓᎬᏍᏓᏩᏗᏙᎵ	-12.1338
▁ᏓᎾᏕᏒᎲᏍᎨᎢ	-12.1338
▁ᏓᎾᏦᎭᏱᎮ	-12.1338
▁ᏓᎿᏬᏍᎨ	-12.1338
▁ᏓᏁᏙᎲᎩ	-12.1338
▁ᏓᏂᏂᎩᎸ	-12.1338
▁ᏓᏂᏥᏍᏔᎳᏍᎬ	-12.1338
▁ᏓᏍᎩᏯᏠᏥ	-12.1338
▁ᏓᏓᏘᏁᎲᎢ	-12.1338
▁ᏓᏥᎴᏐᏂ	-12.1338
▁ᏓᏥᏍᏔᏩᏕᏏ	-12.1338
▁ᏓᏥᏔᏲᎵ	-12.1338
▁ᏓᏨᏲᏎᎵ	-12.1338
▁ᏓᏲᏍᏓᏁᎳᏗ	-12.1338
▁ᏓᏳᎾᏚᎩᏒ	-12.1338
▁ᏕᎤᎸᏫᏍᏓᏏ	-12.1338
▁ᏕᎨᎦᏓᏂᎸᏨ	-12.1338
▁ᏕᎩᎾᏦᏒ	-12.1338
▁ᏕᎬᏒᎲᏍᎬᎢ	-12.1338
▁ᏕᎬᏩᏓᏂᎸᏨᎩ	-12.1338
▁ᏕᎬᏯᎫᏴᏓᏁᎮᏍᏗ	-12.1338
▁ᏕᎬᏯᏠᎢᏍᏓᏁᎸ	-12.1338
▁ᏕᎭᏅᏓᏗᏍᏗᏍᎨᏍᏗ	-12.1338
▁ᏕᎯᏯᏓᏂᎸᏨᎭ	-12.1338
▁ᏕᏍᏗᏂᏴᎮᏍᏗ	-12.1338
▁ᏕᏥᎦᎿᏩᏗᏒ	-12.1338
▁ᏗᎦᎵᏯᏅᎯᏛ	-12.1338
▁ᏗᎨᏥᏅᏍᏕᏎᎸᎯ	-12.1338
▁ᏗᎩᎾᏓᏛᏙᏗ	-12.1338
▁ᏗᎫᏩᎭᏄᏫ	-12.1338
▁ᏗᎬᏩᏕᏲᏗ	-12.1338
▁ᏗᏂᎳᏍᏓᎳᏩᏗᏒ	-12.1338
▁ᏗᏓᏙᏕᎯᎯ	-12.1338
▁ᏗᏗᏂᏃᎩᏍᎨᎢ	-12.1338
▁ᏗᏴᎦᎴᏴᏓ	-12.1338
▁ᏘᏰᎵᎯᏍᏓ	-12.1338
▁ᏙᎦᏓᏲᎵᎸ	-12.1338
▁ᏙᎵᏓᏍᏆ	-12.1338
▁ᏙᏓᎦᏥᏯᏟᎶᏍᏔᏂ	-12.1338
▁ᏙᏓᏦᎵᏍᏔᏂ	-12.1338
▁ᏙᏘᏴᏔᏂᎵ	-12.1338
▁ᏙᏛᎠᎴᎯᏌᏂ	-12.1338
▁ᏚᎵᏖᎸᏁ	-12.1338
▁ᏚᎾᏁᎳᏗᏙᎴ	-12.1338
▁ᏚᎾᏁᏍᏓᏝᎰᎢ	-12.1338
▁ᏚᎾᏐᏓᎸ	-12.1338
▁ᏚᎾᏗᏫᏍᏗᏍᎨ	-12.1338
▁ᏚᎾᏦᎭᏱᎸ	-12.1338
▁ᏚᏂᎵᏰᏗᏍᎬ	-12.1338
▁ᏚᏂᎷᏫᏍᏔᏁᎲ	-12.1338
▁ᏚᏌᏬᎴ	-12.1338
▁ᏚᏍᏆᎸᏔᏅ	-12.1338
▁ᏚᏗᎦᎴᏯᏍᏔᏅ	-12.1338
▁ᏚᏟᎷᏆᏗᏅᏎ	-12.1338
▁ᏚᏥᏍᏠᏨᎩ	-12.1338
▁ᏚᏩᏅᎦᏢ	-12.1338
▁ᏚᏮᎩᎶᎥᎩ	-12.1338
▁ᏚᏯᏍᏜᏛ	-12.1338
▁ᏛᎩᏯᏅᎡᎴᏍᏗ	-12.1338
▁ᏛᎵᏰᎢᎸᏍᏓ	-12.1338
▁ᏛᎾᎵᏛᏔᏂ	-12.1338
▁ᏛᏋᏍᎦᎸᏂ	-12.1338
▁ᏣᏥᏰᎸᎾᏁᎴᎢ	-12.1338
▁ᏥᎦᎧᎰᎢ	-12.1338
▁ᏥᎬᎩᎾᎸᏍᏔᏅᎩ	-12.1338
▁ᏥᏁᏣᏛᎩᏍᎪᎢ	-12.1338
▁ᏥᏂᏕᎯᏪᏎᎸᎩ	-12.1338
▁ᏥᏂᏚᏩᏁᎸ	-12.1338
▁ᏥᏍᎩᏯᏂᎩᏍᏓ	-12.1338
▁ᏥᏓᏅᎿᏗᏍᏙᏗ	-12.1338
▁ᏥᏓᏚᏫᏍᏗᎭ	-12.1338
▁ᏥᏚᏣᏃᏛᎩ	-12.1338
▁ᏥᏫᏗᎦᎸᏌᏓᏗᏍᎪᎢ	-12.1338
▁ᏥᏫᏨᏲᏪᎳᏁ	-12.1338
▁ᏥᏯᎵᏃᎮᏗᏍᎬᎢ	-12.1338
▁ᏥᏯᏓᏁᏟᏴᏍᏓᏁᎸ	-12.1338
▁ᏥᏯᏚᏣᎳᏅᎭ	-12.1338
▁ᏦᎦᏓᏂᎸᎢᏍᏗᏱ	-12.1338
▁ᏦᎩᏲᎱᎯᏍᏗᏱ	-12.1338
▁ᏦᏣᎵᏥᏙᏁᏗᏱ	-12.1338
▁ᏧᏃᏕᎯᎯ	-12.1338
▁ᏧᏣᏬᏓ	-12.1338
▁ᏨᏧᎶᏎᎢ	-12.1338
▁ᏩᏂᎶᏒᎭ	-12.1338
▁ᏩᏆᏘᏅᏍᏔᏅᎩ	-12.1338
▁ᏫᎤᏪᏅ	-12.1338
▁ᏫᎬᏩᏲᏥᏓᏍᏗ	-12.1338
▁ᏫᏂᏚᏩᏁᎴ	-12.1338
▁ᏫᏄᎾᏛᏁᎸᎩ	-12.1338
▁ᏫᏙᏛᎾᎴᏔᏂ	-12.1338
▁ᏫᏙᏛᎾᏓᎡᏏ	-12.1338
▁ᏫᏙᏛᏂᏲᎯᏎᎵ	-12.1338
▁ᏫᏚᎦᏔᎲᏍᏙᏗᏱ	-12.1338
▁ᏫᏱᏣᎧᎲᎦ	-12.1338
▁ᏭᏁᎳᏗᏓ	-12.1338
▁ᏭᏁᏙᎸᎯ	-12.1338
▁ᏭᏓᏬᎥᏍᏗ	-12.1338
▁ᏭᏗᏍᎦᏝᏁ	-12.1338
▁ᏭᏩᏯᎸᏥᎴ	-12.1338
▁ᏮᏓᏳᏎᎮᎵ	-12.1338
▁ᏮᏛᏂᎶᏏ	-12.1338
▁ᏯᎩᎷᏤᎴᏍᏗ	-12.1338
▁ᏯᎾᏓᏅᏍᎬᎾ	-12.1338
▁ᏯᏂᏍᏙᎰᎢ	-12.1338
▁ᏯᏉᎯᏳᎮ	-12.1338
▁ᏯᏕᏠᏆᏍᎦ	-12.1338
▁ᏱᏁᏨᎾᏕᎨᏍᏗ	-12.1338
▁ᏱᏅᏧᎵᏍᏙᏔᏁ	-12.1338
▁ᏱᏍᎩᎦᏔᎮᎢ	-12.1338
▁ᏱᏍᎩᏲᎢᏳᎲᏍᎦ	-12.1338
▁ᏱᏍᎩᏲᎢᏳᏁᎢ	-12.1338
▁ᏱᏍᏆᏓᏙᎵᏍᏓᏁᎸ	-12.1338
▁ᏱᏓᏂᏍᏓᏩᎦᎦ	-12.1338
▁ᏱᏕᏥᎤᏍᏕᏎᎸ	-12.1338
▁ᏱᏗᏥᏍᏆᏂᎪ	-12.1338
▁ᏱᏚᏂᎿᏍᏕᏠᎢ	-12.1338
▁ᏱᏣᏍᎦᏅᏤᏍᏗ	-12.1338
▁ᏱᏥᎪᏁᎶᏍᎨᏍᏗ	-12.1338
▁ᏱᏦᎯᏳᎭ	-12.1338
▁ᏱᏦᎯᏳᏁᏍᏗ	-12.1338
▁ᏳᎦᏌᏯᏍᏔᏁ	-12.1338
▁ᏳᏂᏬᏂᏌ	-12.1338
▁ᏴᎦᎬᏴᏕᎩ	-12.1338
▁ᏴᎬᏚᏓᎴᏍᏓ	-12.1338
▁ᎠᎩᎪᏩᏘᏍᎩ	-12.1338
▁ᎠᎵᏖᎸᏂᎮᎢ	-12.1338
▁ᎠᏂᏫᏄᏣ	-12.1338
▁ᎠᏂᏫᏅᎨᏌᏂ	-12.1338
▁ᎠᏅᏳᏤᎲ	-12.1338
▁ᎠᏫᏒᎥᏍᎩ	-12.1338
▁ᎤᏂᏲᎸᎢᏍᏔᏅ	-12.1338
▁ᎤᏄᎶᎸ	-12.1338
▁ᎬᏲᎵᏍᏔᏅ	-12.1338
▁ᏂᏛᏅᏁᎵ	-12.1338
▁ᏂᏥᏪᏍᎨᏍᏗ	-12.1338
▁ᏕᎤᏬᎡᎢ	-12.1338
▁ᏕᏥᎦᏌᏬᎢᎲᎢ	-12.1338
▁ᏛᏃᎵᏥ	-12.1338
▁ᏥᎿᏛᎦ	-12.1338
▁ᏫᏗᏍᎩᏯᏘᏅᏍᏔᏅᎩ	-12.1338
▁ᏯᎩᏲᏏᎭ	-12.1338
▁ᏳᏰᎵᏛᎾ	-12.1338
ᎦᏙᎴᎰᏍᎦ	-12.1338
ᎩᏰᎳᏗᏙᎭ	-12.1338
ᏂᎨᎯᏙᎵ	-12.1338
ᏌᏆᏞ	-12.1338
ᏍᎫᏆ	-12.1338
ᏥᎦᏖᏃᎮᏍᏗ	-12.1338
ᏩᏒᏙᎣᏎ	-12.1338
ᏴᏍᏓᎩᏍᎩ	-12.1338
▁ᎠᎦᎾᏬᏗᏍ	-12.1338
▁ᎠᏄᏖᏍᎨ	-12.1338
▁ᎠᏍᎪᎵᏰᏍᎨ	-12.1338
▁ᎠᏍᎫᏕᏍᎩ	-12.1338
▁ᎡᎵᎡᏌ	-12.1338
▁ᎡᏥᏔᏲᏎᎮᏍᏗ	-12.1338
▁ᎢᎡᏥᎪᎵᏰ	-12.1338
▁ᎢᎩᏲᎱᎯᏎᎸ	-12.1338
▁ᎢᏍᎩᏃᏁᎵᎸ	-12.1338
▁ᎢᏍᎩᏍᎦᎦ	-12.1338
▁ᎤᎦᏴᎳᏨ	-12.1338
▁ᎤᎵᎩᏳᏍ	-12.1338
▁ᎤᎵᏍᎩᏃᏘᏍ	-12.1338
▁ᎤᏂᏩᏒᎥᏍᎩ	-12.1338
▁ᎤᏍᏕᏅᏨ	-12.1338
▁ᎤᏖᎸᏅ	-12.1338
▁ᎥᏆᎨᏅᏛ	-12.1338
▁ᎬᎾᏰᏍᎬ	-12.1338
▁ᎬᏩᏂᏲᏥᏙᎸ	-12.1338
▁ᎬᏩᏕᎰᏔᏁᎢ	-12.1338
▁ᎭᏙᏯᏅᎯ	-12.1338
▁ᏂᎦᏥᏯᏛᏁᎸᎩ	-12.1338
▁ᏂᎻᎶᏗ	-12.1338
▁ᏂᏓᎦᏛᏁᎵ	-12.1338
▁ᏂᏙᏓᎬᏩ	-12.1338
▁ᏅᏧᏛᎿᏗᏎ	-12.1338
▁ᏓᏂᏄᎪᏫᏍ	-12.1338
▁ᏓᏳᏐᏅᏂ	-12.1338
▁ᏕᎨᎦᎴᏗ	-12.1338
▁ᏕᏣᏓᏡᏩᏗᏒ	-12.1338
▁ᏕᏥᎳᏫᏦᎯᎲ	-12.1338
▁ᏕᏥᏄᎪᏫᏍ	-12.1338
▁ᏗᎦᎦᏠᏱᎯ	-12.1338
▁ᏗᎩᎾᏢᏗᏱ	-12.1338
▁ᏚᎳᏑᏞ	-12.1338
▁ᏛᎵᏍᏓᏴᏂ	-12.1338
▁ᏣᏂᏙᎾᎠ	-12.1338
▁ᏣᏦᏔᏍᏔᏅ	-12.1338
▁ᏥᏕᎾᏦᎯ	-12.1338
▁ᏥᏚᏱᎶᎴᎢ	-12.1338
▁ᏧᏃᎸᏔᏂᏙᎰ	-12.1338
▁ᏧᏄᎪᏨ	-12.1338
▁ᏧᏚᎪᏙᏗ	-12.1338
▁ᏱᎦᎳᏍᏢ	-12.1338
▁ᏱᏪᏣᏓᎢᏅ	-12.1338
▁ᏳᏂᏚᎬᎾ	-12.1338
▁ᏴᎬᏓᏛᎦ	-12.1338
ᎨᎩᎩᎵᏲᎢᏍᏗᏍᎬᎩ	-12.1338
ᎭᏄᏭ	-12.1338
ᎳᏫᏎᎵ	-12.1338
ᏍᏚᎢᎡᏗᏱ	-12.1338
ᏓᎾᏇᏍᎬ	-12.1338
ᏚᎾᏓᏩᏛᏔᏁᎢ	-12.1338
ᏚᏔᎲᎢ	-12.1338
ᏣᎬᏩᎳᏅᎯ	-12.1338
ᏬᏁᏔᏂ	-12.1338
ᏴᎧᏁᎵ	-12.1338
▁ᎠᎦᏐᎠᏏᎯᎲ	-12.1338
▁ᎠᎵᏒᎢᏍᏙᏗ	-12.1338
▁ᎠᏅᏳᎬ	-12.1338
▁ᎢᏥᏑᎵᎪᎢ	-12.1338
▁ᎢᏨᎩᎵᏲᏤᎲ	-12.1338
▁ᎤᎾᏍᏕᏥ	-12.1338
▁ᎥᏥᏯᏓᏙᎵᏍᏓᏁᎸᎩ	-12.1338
▁ᎥᏥᏯᏛᎦᏁᎸᎩ	-12.1338
▁ᏂᏤᎵᏍᎬᎾ	-12.1338
▁ᏅᏗᎦᎵᏍᏗᏙᏗᏍ	-12.1338
▁ᏕᎦᏓᏬᏍᏗᎭ	-12.1338
▁ᏕᏥᏲᏍᎨᏍᏗ	-12.1338
▁ᏗᎨᏥᏐᏅᏅᎯ	-12.1338
▁ᏗᎩᎧᏁᏴᏗᏱ	-12.1338
▁ᏙᏨᏅᎢ	-12.1338
▁ᏚᏟᎶᏍᏔᏁᎴ	-12.1338
▁ᏛᎾᏓᏅᏓᏗ	-12.1338
▁ᏧᎾᎵᏂᎦᏂ	-12.1338
▁ᏧᏂᎾᏦᏴᏍᏗ	-12.1338
▁ᏩᏐᏝ	-12.1338
▁ᏫᏂᏚᏅ	-12.1338
▁ᏫᏓᏂᏅᎨᎢ	-12.1338
▁ᏫᏥᎾᏄᎪᎢᏍᏗᏱ	-12.1338
▁ᏭᏓᎩᏅᏒ	-12.1338
▁ᏭᏩᎾᏬ	-12.1338
▁ᏭᏬᎯᎶ	-12.1338
▁ᏮᎠᎦᏔᎲᏍᏓ	-12.1338
▁ᏳᎬᏫᏳᎭ	-12.1338
▁ᏳᏩᎨᏫ	-12.1338
ᎠᏆᏘᏂᏙ	-12.1338
ᎧᏙᏴ	-12.1338
ᏐᏢᎢᏍᏔᏁᎢ	-12.1338
ᏕᎭᏓᏟᏴᎲ	-12.1338
ᏗᏍᎦᏅᎨᏍᏗ	-12.1338
ᏯᏙᎴᎣᎯ	-12.1338
▁ᎠᎩᏂᏰᎸ	-12.1338
▁ᎠᏓᎿᏍᏆᎶᏍᏗᏍᎩ	-12.1338
▁ᎡᏣᏛᏓᏍᏓᏏ	-12.1338
▁ᎣᎦᏢᏆᏒ	-12.1338
▁ᎤᏍᏘᏰᏅᎯ	-12.1338
▁ᎬᏩᎦᏘᏗᏍᎩ	-12.1338
▁ᎭᏇᏅᏍᏗ	-12.1338
▁ᎯᎨᏳᎢ	-12.1338
▁ᏂᏓᎵᏍᏗᎭ	-12.1338
▁ᏃᏣᏛᏁᎲ	-12.1338
▁ᏐᏱᏁᎳ	-12.1338
▁ᏗᏅᏂᎦᎵᏍᏗ	-12.1338
▁ᏚᏛᏅᎢᏍᏓᏁᎸ	-12.1338
▁ᏥᏚᏭᏓ	-12.1338
▁ᏧᏂᏄᎪᏨ	-12.1338
▁ᏱᎨᎵᏍᎨ	-12.1338
▁ᏳᏂᎷᏤᎮ	-12.1338
▁ᎠᎩᎵᏲᎦ	-12.1338
▁ᎠᎵᏍᏛᏧᏍᏗ	-12.1338
▁ᎠᎵᏘᏍᎪᎢ	-12.1338
▁ᎠᏆᏂᎩᏍᏗᏱ	-12.1338
▁ᎤᎧᏲᏐᏁ	-12.1338
▁ᎤᎬᏍᏉᎡ	-12.1338
▁ᎤᎾᏰᏒᎯ	-12.1338
▁ᏂᏚᎳᏍᎬᎢ	-12.1338
▁ᏂᏚᎾᏓᏁᎶᏛᎾ	-12.1338
▁ᏣᎶᏅᎮᎭ	-12.1338
▁ᏥᏣᏣᎠ	-12.1338
▁ᏩᏍᏖᏍᏗ	-12.1338
▁ᏯᎪᏩᏘᏍᎨᎢ	-12.1338
▁ᏲᏍᏗᎦᏔᎭ	-12.1338
ᎨᏥᎤᏍᏕᏎᎴᎢ	-12.1338
ᎨᏦᏎᎰ	-12.1338
ᏁᎶᎲᏍᎩ	-12.1338
ᏚᏣᎪᏎ	-12.1338
ᏩᏍᎦᎸᏁᎢ	-12.1338
ᏫᏚᏘᏅᏍᏔᏅᎩ	-12.1338
ᏬᏁᏗᏍᎩ	-12.1338
▁ᎠᎾᏓᏛᏍᎬᎢ	-12.1338
▁ᎠᏠᏄᎮᏛ	-12.1338
▁ᎢᎠᏥᏩᏛᎲᏃ	-12.1338
▁ᎣᏣᏁᏦᎥᏍ	-12.1338
▁ᎬᏇᏅᏍᏗ	-12.1338
▁ᎭᏓᏳᎦ	-12.1338
▁ᏂᏣᏓᎨᏒ	-12.1338
▁ᏕᎦᏃᏣᏢ	-12.1338
▁ᏕᎨᎫᎪᏓᏁ	-12.1338
▁ᏗᎦᎶᏐᎲᏍᎩ	-12.1338
▁ᏗᏍᏇᏲᎲᏍᎩ	-12.1338
▁ᏙᎩᏯᏪᏥᏙ	-12.1338
▁ᏙᏓᎦᏥᏳᎪᏓᏁᎵ	-12.1338
▁ᏙᏓᏨᏲᎯᏎᎵ	-12.1338
▁ᏚᏂᏍᏆᎸᏔ	-12.1338
▁ᏣᏁᏉᎥᎯ	-12.1338
▁ᏥᎬᏲᏎᎸᎩ	-12.1338
▁ᏥᏂᏓᎦᏔᎰᎢ	-12.1338
▁ᏥᏂᏚᏪᏎᎴᎢ	-12.1338
▁ᏦᏪᎳᏅᎩ	-12.1338
▁ᏧᏙᎨᏍᎩ	-12.1338
▁ᏫᏥᎧᏅᎯ	-12.1338
▁ᏳᎨᏅᏛ	-12.1338
ᎩᏰᏲᏗ	-12.1338
ᎭᏓᎾᏫᏗᏍ	-12.1338
ᏂᏒᎳᏍᎨ	-12.1338
ᏯᏠᎩᏉ	-12.1338
▁ᎠᎾᏙᏂᏍᎩ	-12.1338
▁ᎠᏓᏬᏍᎬ	-12.1338
▁ᎠᏓᏴᏍᏕᏍᎩ	-12.1338
▁ᎢᎨᏣᎵᏍᏓᏁᏗ	-12.1338
▁ᎣᏂᏏᎹ	-12.1338
▁ᎤᏓᏁᎪᏳᎲ	-12.1338
▁ᎦᎴᏫᏍᏗ	-12.1338
▁ᏓᎦᏁᏐ	-12.1338
▁ᏓᏇᎷᎬ	-12.1338
▁ᏕᎦᏟᎶᏍᏗᏍᎬ	-12.1338
▁ᏚᎾᏘᏔ	-12.1338
▁ᏣᏓᎦᏌ	-12.1338
▁ᏤᏧᎪᏓᏁ	-12.1338
▁ᏧᎦᏔᏘ	-12.1338
▁ᏧᏂᏨᏍᏙᏗ	-12.1338
ᏓᎩᎧᎿᏩᏗᏙᎸ	-12.1338
▁ᎠᎩᏲᎮ	-12.1338
▁ᎠᏂᏫᏒᎥᏍᎩ	-12.1338
▁ᎠᏆᏘᏂᏙᎲᎩ	-12.1338
▁ᎤᏪᏩᏒᎢᏍᏗ	-12.1338
▁ᎨᏥᏍᎦᏂ	-12.1338
▁ᎪᏎᎰ	-12.1338
▁ᎯᏂᏌᏉ	-12.1338
▁ᏂᎨᎵᏍᎪ	-12.1338
▁ᏓᏂᎶᏒᎭ	-12.1338
▁ᏓᏥᎵᏬᏥ	-12.1338
▁ᏕᏓᏦᏍᎬᎢ	-12.1338
▁ᏗᏂᎳᏫᏦᎯᎯ	-12.1338
▁ᏚᏔᏪᏙᏁ	-12.1338
▁ᏛᎡᏥ	-12.1338
▁ᏣᏰᎸᏎᏍᏗ	-12.1338
▁ᎠᏉᏛᎸᎯ	-12.1338
▁ᎬᏕᏘᏱᎩ	-12.1338
▁ᏓᎬᏯᏎᎮᎵ	-12.1338
▁ᏧᏂᏂᏴᏓ	-12.1338
ᏓᎿᏫ	-12.1338
ᏗᏚᎳᏫᎢᏍᏗᏱ	-12.1338
ᏚᎾᏄᏩᎡ	-12.1338
ᏣᎴᏫᏍᏗᏍᎬ	-12.1338
▁ᎤᏁᏐᎠᎯᏍᏗ	-12.1338
▁ᏓᎾᎵᏃᎮᎵᏙᎲ	-12.1338
ᎦᏒᎳᏍᎪ	-12.1338
ᎬᏯᎵᎮᎵᏤᎭ	-12.1338
ᏑᎴᏍᎪ	-12.1338
ᏚᎦᎴᏅᏔᏁ	-12.1338
ᏬᏎᎵ	-12.1338
▁ᎠᎩᏯᎣᏅ	-12.1338
▁ᎡᏧᎢᏍᏗ	-12.1338
▁ᎬᏩᎵᏠᏯᏍᏗ	-12.1338
▁ᏂᏨᏯᏛᏁᎸ	-12.1338
▁ᏅᏗᎦᏍᏙᏗᏍᎨ	-12.1338
▁ᏍᏆᏂᏏᎲᏏ	-12.1338
▁ᏕᏣᏓᎦᎵᏍᏓᏗᏍ	-12.1338
▁ᏘᎻᎾ	-12.1338
▁ᏥᏂᏥᏪᏍᎬᎩ	-12.1338
▁ᏫᎦᏓᎥ	-12.1338
▁ᏫᏥᎶᏒᎩ	-12.1338
▁ᏱᎫᏩᏂ	-12.1338
▁ᏱᏗᏦᎯᏳ	-12.1338
▁ᎠᎾᏍᎩᏓᏒᎥᏍ	-12.1338
▁ᎤᎦᎶᎬ	-12.1338
▁ᎤᏂᏃᏴᎵᏓ	-12.1338
den	-12.1338
ᏁᎷᎩᎡᎸ	-12.1338
ᏓᏓᏚᎪᏓᏁᎲ	-12.1338
ᏙᏧᏄᎪᏫᏎᎢ	-12.1338
▁Pri	-12.1338
▁ᎠᏲᏓᏒ	-12.1338
▁ᎣᎦᏕᏗᏱ	-12.1338
▁ᎣᏍᏗᏴᎩ	-12.1338
▁ᎦᎳᏍᏢ	-12.1338
▁ᎪᎯᏳᎲᏍᎬ	-12.1338
▁ᎬᏇᎸ	-12.1338
▁ᏌᏬᏛ	-12.1338
▁ᏓᏤᏲᏂ	-12.1338
▁ᏕᏛᏁᏍᏗ	-12.1338
▁ᏥᎯᏃᏁᎵ	-12.1338
▁ᏧᏍᏚᎢᎡᎸᎯ	-12.1338
▁ᏦᏌᏯ	-12.1338
▁ᏂᎬᎩᏲᎸᎾ	-12.1338
▁ᏅᏗᎠᏥᏪᏎ	-12.1338
▁ᏫᏙᏓᎨ	-12.1338
▁ᏰᏣᏛᏓ	-12.1338
ᎠᎦᏍᎦᏃ	-12.1338
▁ᎤᏄᏓᎴᏍᎩ	-12.1338
▁ᎤᏕᎯᏴ	-12.1338
▁ᎫᎭᏟ	-12.1338
▁ᎺᎠ	-12.1338
▁ᏚᏰᏍᏛ	-12.1338
▁ᏥᏕᎨᏥ	-12.1338
▁ᏧᏍᏕᎸᏛ	-12.1338
ᎦᎾᏬᏒ	-12.1338
▁ᎠᎾᎵᏖᎸᎲᏍᎬ	-12.1338
▁ᎠᏂᏴᏍᏗᏍᎩ	-12.1338
▁ᎠᏆᏂᏏᏗᏱ	-12.1338
▁ᎠᏥᏓᎦᎸᎢᏒᎯ	-12.1338
▁ᎤᎵᏍᎩᏃᎳ	-12.1338
▁ᏗᎦᎷᏥᏒ	-12.1338
▁ᏚᏁᏲᏁ	-12.1338
▁ᏥᎬᏩᏂᏛᏔᏁ	-12.1338
▁ᎡᏥᏩᏛᎲᎭ	-12.1338
ᏓᏡᏫᏍᏕᎢ	-12.1338
ᏗᏫᏎᎸᎩ	-12.1338
▁ᎠᏌᏱᎵ	-12.1338
▁ᎠᏣᎩᏍᎩ	-12.1338
▁ᎤᎦᎾᏅ	-12.1338
▁ᎤᏍᎩᏅᏕ	-12.1338
▁ᎧᏁᎮᏛ	-12.1338
▁ᏥᏂᏌᏅᎩ	-12.1338
▁ᏥᏙᏣᏠᎯ	-12.1338
▁ᏧᎨᏅᏛ	-12.1338
▁ᏧᏎᎪᎩᏍᏗᏱ	-12.1338
▁ᎠᏑᏯᎩᏛ	-12.1338
▁ᎡᏐᏏ	-12.1338
▁ᎢᏣᏢᏆᏍᎬ	-12.1338
▁ᎤᏂᏍᏔᏩᏛ	-12.1338
▁ᏕᏥᎦᏅᎩ	-12.1338
▁ᏚᏒᎦᎸᎩ	-12.1338
▁ᏥᏛᏦ	-12.1338
▁ᏫᎾᏴᎯ	-12.1338
▁ᏯᏗᏔᏍᎨ	-12.1338
▁ᏱᏂᎦᏪᎭ	-12.1338
▁ᏱᏨᏃᏁᎴᎢ	-12.1338
ᏥᏍᏝ	-12.1338
▁ᎠᏆᏍᎪᏒᎯ	-12.1338
▁ᎦᏄᏓᎴᎩ	-12.1338
▁ᎬᏯᏛᎦᏁᎸ	-12.1338
▁ᎭᏛᏅᎭ	-12.1338
▁ᏗᏓᎢᏒᎢ	-12.1338
▁ᏙᏛᏂᏴᎳᏏ	-12.1338
▁ᏚᎾᏗᏍᏚ	-12.1338
▁ᏚᏂᎳᏫᏛ	-12.1338
▁ᏧᎵᏯᏏ	-12.1338
▁ᏫᎫᏩᏂᎶᎯᏍᏗ	-12.1338
▁ᏫᏱᏣᏴ	-12.1338
▁ᏱᎫᏩᎾ	-12.1338
▁ᎤᏐᏓᎸ	-12.1338
▁ᎤᏣᏃᏛᎩ	-12.1338
▁ᎦᏲᎩᏂ	-12.1338
▁ᏉᏗᏆ	-12.1338
▁ᏥᏂᏕᎤ	-12.1338
▁ᏥᏂᏨᏪᏏ	-12.1338
▁ᏳᎬᏩ	-12.1338
ᏣᎵᎮᎵᎪᎢ	-12.1339
▁ᎠᎪᏩᏘᏍᎨᎢ	-12.1339
▁ᎠᎵᏍᏔᏴᎲᏍᎨ	-12.1339
▁ᎠᏂᎯᏲᎲᎢ	-12.1339
▁ᎢᏣᎵᏥᏙᎲᏍᎨᏍᏗ	-12.1339
▁ᎢᏳᏅᏂᏐᏗᏱ	-12.1339
▁ᎣᎦᏛᏅᎢᏍᏓᏁᎸ	-12.1339
▁ᎤᏗᏍᏚᏅ	-12.1339
▁ᎦᏃᎴᏍᎬ	-12.1339
▁ᏙᏓᏲᎩᎸᏫᏍᏓᏁ	-12.1339
▁ᏙᏗᏂᎧᏁᎢ	-12.1339
▁ᏚᎵᏥᏍ	-12.1339
▁ᏚᏓᎴᏅᏔᏅ	-12.1339
▁ᏩᏕᏗᏱ	-12.1339
▁ᏫᎬᏩᏘᏅᏍᏔᏅᎩ	-12.1339
▁ᏱᏂᎦᏔᎮ	-12.1339
▁ᎬᏩᎩᏨᏗ	-12.1339
ᏏᏄᏴ	-12.1339
ᏜᏅᏓᏕ	-12.1339
▁ᎠᏌᎻᏛ	-12.1339
▁ᎠᏍᏚᏟᏍᎩ	-12.1339
▁ᎾᏆᎵᏍᏓᏁᎵᏙᎲᎢ	-12.1339
▁ᏚᎾᏓᏟᏴᎲ	-12.1339
▁ᏱᏗᏓᏓᏂᎸᎦ	-12.1339
▁ᎢᎨᎬᎾᏕᎩ	-12.1339
▁ᎤᏃᎱᏲᎵ	-12.1339
▁ᏄᏚᏪᏎᎸᎩ	-12.1339
▁ᏟᏍᏆ	-12.1339
▁ᎬᏬᏱ	-12.1339
▁ᏩᏓᏬᏣ	-12.1339
▁ᏭᏟᏫᏛ	-12.1339
▁ᏳᎦᏙᎥᏎᎢ	-12.1339
▁ᏳᏚᏓᎴᏍᏔᏁ	-12.1339
ᎵᏛᏗᏍᎬᎾ	-12.1339
▁ᎤᎦᏎᏍᏗᏕ	-12.1339
▁ᏙᏓᏣᏠᏏ	-12.1339
▁ᏛᏥᎸᏉᏔᏂ	-12.1339
▁ᏥᏕᎯᎾᏄᎪᏫᏎᎸ	-12.1339
▁ᎢᎦᏠᏯᏍᏔᏅ	-12.1339
▁ᎢᏣᏛᎩᏍᎩ	-12.1339
▁ᏕᎬᏩᎾᏍᏗᏍᎨᎢ	-12.1339
▁ᏫᏄᏪᏒᎩ	-12.1339
ᏁᎢᏍᏓᏁᎲᎩ	-12.1339
ᏍᏔᏩᏗᏎ	-12.1339
ᏐᏯᎦ	-12.1339
▁ᎡᏍᏗᏍᏓᏩᏕᏒᎭ	-12.1339
▁ᎤᎸᏉᏔᏅᎯ	-12.1339
▁ᎤᏅᏩᏅᎩ	-12.1339
▁ᎤᏍᎫᏓᏛᎢ	-12.1339
▁ᎧᏴᏌᏛ	-12.1339
▁ᎬᏩᏓᏡᏫᏍᏔᏁᎢ	-12.1339
▁ᏕᎩᎾᏓᎨᏳᏒᎢ	-12.1339
▁ᏗᏥᎾᏌ	-12.1339
ᏚᎵᏥᏙᏁᎴ	-12.1339
▁ᏏᏂᎹᏂ	-12.1339
▁ᏓᏂᎪᏩᏗᏍᎨ	-12.1339
▁ᏕᎦᎦᏎᏍ	-12.1339
▁ᏯᎩᏲᎱᏒ	-12.1339
▁ᏯᏆᎴᏂᏙᎸ	-12.1339
▁ᏱᎨᎨᎭ	-12.1339
▁ᎠᎦᏎᏍᏙᏗ	-12.1339
▁ᎠᎱᏃᎲ	-12.1339
▁ᎠᏗᏅᏗᏉ	-12.1339
▁ᎤᏴᏜ	-12.1339
▁ᏕᎰᏢᏔᏅᎭ	-12.1339
▁ᏚᎩᎸᏨ	-12.1339
▁ᏚᏴᏒᎩ	-12.1339
▁ᏥᏚᎸᏫᏍᏓᏁᎸ	-12.1339
▁ᏧᎵᏃᎯᏴᎯ	-12.1339
▁ᏨᎩᏅᏒ	-12.1339
ᏧᎾᏄᎪᏨ	-12.1339
▁ᎠᎾᏠᎾᏍᏗᏍᎬ	-12.1339
▁ᎬᏉᎯᏳᎲᏍᎩ	-12.1339
▁ᏚᏪᏌᏍᏔᏁ	-12.1339
▁ᏰᏥᎦᏔᎮ	-12.1339
▁ᏂᏪᏒᎭ	-12.1339
ᏥᎦᎿᏩᏗᏙ	-12.1339
▁ᎠᏂᏅᏜᎡᎢ	-12.1339
▁ᎠᏨᏏᏰᏍᎨ	-12.1339
▁ᎥᎶᏱ	-12.1339
▁ᏍᎪᏂᏴ	-12.1339
▁ᏖᏲᎲᏍᎩ	-12.1339
▁ᏗᏔᎸᎢ	-12.1339
▁ᏥᎦᎶᏒᏍᏗᎭ	-12.1339
▁ᏕᎪᏪᎵᏍ	-12.1339
▁ᏥᏂᏕᏣᏛᏁ	-12.1339
ᏁᏉᎡᎵ	-12.1339
▁ᎠᏃᏚᎢᏍᏗᏍᎬ	-12.1339
▁ᎠᏣᎾᏉᎯ	-12.1339
▁ᏓᏥᏲᎤᏏ	-12.1339
▁ᏦᎩᏂᎸᏫᏍᏓᏁᎯ	-12.1339
▁ᏧᏪᏚᏁᎯ	-12.1339
ᏓᏛᏳᏤ	-12.1339
▁ᎹᏓᏯᏃ	-12.1339
▁ᏕᎨᏥᏂᏌᎲ	-12.1339
▁ᏙᏥᏴᎬ	-12.1339
▁ᏯᏍᎦᎦ	-12.1339
▁ᎺᎮ	-12.1339
▁ᎤᏁᎳᏗᏙᎲ	-12.1339
▁ᏓᏰᏥᏄᎪᏫᏏ	-12.1339
▁ᏚᏂᏲᎱᏎᎢ	-12.1339
ᎨᏲᎲᏍᎦ	-12.1339
▁ᏙᎩᏲᏐᏅ	-12.1339
▁ᏳᎯᏐᏓᏁ	-12.1339
ᏓᎵᏁᎯᏗᏍ	-12.1339
ᏲᎢᎱᎯ	-12.1339
▁ᎤᎵᏃᎮᏔᏁ	-12.1339
▁ᎤᏁᏌᏴ	-12.1339
▁ᏥᎡᏥ	-12.1339
▁ᏧᎪᎵᏰᏗᏱ	-12.1339
▁ᏘᏔᎴ	-12.1339
ps	-12.1339
ᏟᎶᏍᏓᏁᎭ	-12.1339
▁ᏣᎦᎵᏍᏓᏴᎾᏁᏗᏱ	-12.1339
▁ᏯᏂᏏᎾ	-12.1339
▁ᏱᏂᏣᏍᏕᏍᏗ	-12.1339
▁ᏱᏗᏥᏬᏂᎭ	-12.1339
▁ᏚᏗᏔᏍᏔᏅ	-12.1339
▁ᏫᏗᎦᏅᎪ	-12.1339
ᎩᎾᏄᎪᏥᎸᎩ	-12.1339
ᎩᏁᏟᏴᏏ	-12.1339
▁ᏓᏗᏍᏆᏂᎪᏔᏂ	-12.1339
▁ᏗᎩᎷᏫᏍᏔᏁᏗ	-12.1339
▁ᎠᎩᎵᏴ	-12.1339
▁ᎤᏂᎿᎸᏨ	-12.1339
▁ᏄᏙᎯᏳᏒ	-12.1339
▁ᏓᎦᏎᎵ	-12.1339
▁ᏥᏕᏥᏙᎦ	-12.1339
▁ᏓᏥᏔᏲᏎᎵ	-12.1339
▁ᏧᏃᏴᎪ	-12.1339
ᏄᏲᎢᏯ	-12.1339
▁ᎤᎩᎵᏲᏤᎢ	-12.1339
▁ᎲᏁᏍᏗ	-12.1339
▁ᏂᎨᎬᏁᎮ	-12.1339
▁ᏂᎨᎬᏁᎲᎢ	-12.1339
▁ᏂᎬᏅᎪᏪᎳ	-12.1339
▁ᏓᎬᏩᏍᎪᏂᎵ	-12.1339
ᏔᎸᎩᏍᏗ	-12.1339
▁ᎠᎫᎷᏤᏗ	-12.1339
▁ᏗᎬᏩᎾᏓᏁᏟᏴᎡᏗ	-12.1339
▁ᏧᏴᏣ	-12.1339
▁ᏬᎩᏴᎸ	-12.1339
▁ᏮᏓᏥᎷᏤᎵ	-12.1339
▁ᏱᏙᎸᏫᏍᏓᏁᎭ	-12.1339
▁ᎠᏣᏅᏙᏗ	-12.1339
▁ᎤᏪᏩᏒᏤ	-12.1339
▁ᏓᎾᏓᏱᎵᏙᎲ	-12.1339
▁ᏓᏢᎥᏍᎬ	-12.1339
▁ᏕᎨᎦᏨᏍᏔ	-12.1339
ᎵᏃᎮᏗᏍᎨᎢ	-12.1339
▁ᎭᏓᏬᏣ	-12.1339
▁ᏥᎾᏰᏍᎦᏰᏃ	-12.1339
ᎯᏲᎯᏍᏓ	-12.1339
ᏌᎳᏙᏓ	-12.1339
▁ᎠᏆᏘᏂ	-12.1339
▁ᎠᏔᎸᎦᏒ	-12.1339
▁ᎢᎭᏛᏁᎯ	-12.1339
▁ᏗᏂᎧᏅᎢ	-12.1339
▁ᏫᏯᏴᎯᎮᏍᏗ	-12.1339
▁ᎤᎬᎭᏓ	-12.1339
▁ᏅᏓᎬᏩᏪᏎᎵ	-12.1339
▁ᏕᏨᏯᏬᏍᏗᎭ	-12.1339
ᎨᏣᎫᏴᏏ	-12.1339
▁ᎢᏳᏩᏓᏗ	-12.1339
▁ᎧᎹᎹ	-12.1339
▁ᏗᎨᏥᏴᎩᏅᎯ	-12.1339
▁ᏙᏓᎦᏘᏃᎵ	-12.1339
▁ᏭᎾᎵᏃᎮ	-12.1339
ᏧᏘᏍᏓᏁᏗᏱ	-12.1339
▁ᎢᏓᏓᏅᏓᏓ	-12.1339
▁ᎨᏣᏕᏯᏙᏗᏍᎩ	-12.1339
▁ᏂᏚᏁᎶᏛᎾ	-12.1339
▁ᏩᏆᏗᏅᏒ	-12.1339
▁ᏓᎬᎾᏄᎪᏫᏎᎵ	-12.1339
▁ᏗᏤᎵᏛ	-12.1339
ᏘᏁᏏ	-12.1339
▁ᏙᏗᏫᏒᎢ	-12.1339
▁ᏱᏂᎦᏪᏍᎨ	-12.1339
ᏊᎪᏓᏁᎸ	-12.1339
▁ᎤᏴᏍᏕᏍᎩ	-12.1339
▁ᏅᏓᏣᏄᎪᏫᏒᎯ	-12.1339
▁ᏳᏁᏤᎢ	-12.1339
▁ᏳᏣᎩᏒᎾ	-12.1339
▁ᏄᏍᏆᎸᎲᎾ	-12.1339
▁ᏥᎧᏃᎮᏍ	-12.1339
[...]
