<unk>	0
<s>	0
</s>	0
,	-2.7062
▁the	-2.96591
▁and	-3.31214
.	-3.37006
▁of	-3.64592
▁to	-4.15438
▁that	-4.31026
▁in	-4.35116
▁And	-4.38837
▁he	-4.46033
▁a	-4.4717
▁I	-4.56734
;	-4.7085
:	-4.75938
▁unto	-4.76567
s	-4.77635
▁him	-4.85887
▁his	-4.86617
▁be	-4.93819
▁is	-4.94993
▁for	-4.98053
▁they	-5.00536
▁not	-5.00993
▁shal	-5.01605
▁it	-5.03996
▁was	-5.06302
l	-5.06325
▁with	-5.10438
▁them	-5.13507
▁said	-5.20256
▁	-5.23656
▁all	-5.40357
▁you	-5.40989
ing	-5.42581
ed	-5.44195
▁God	-5.4698
▁ye	-5.53067
▁as	-5.56928
?	-5.57277
▁me	-5.58398
’	-5.60939
▁from	-5.62116
▁thou	-5.62561
▁my	-5.69564
▁but	-5.74902
▁have	-5.75689
▁are	-5.77036
t	-5.77081
▁on	-5.7721
▁were	-5.77463
▁Lord	-5.81128
▁had	-5.81849
▁which	-5.82213
▁when	-5.8241
▁“	-5.87406
▁their	-5.87724
▁man	-5.92191
”	-5.92789
▁one	-5.94025
▁out	-5.94836
▁this	-5.96063
▁will	-5.96867
▁we	-5.9756
▁up	-6.01486
▁by	-6.02399
▁into	-6.03187
▁thy	-6.04073
▁The	-6.05739
▁thee	-6.06999
▁But	-6.12036
▁there	-6.13545
▁came	-6.15813
▁Jesus	-6.1702
▁who	-6.17033
▁her	-6.20118
▁at	-6.22739
▁things	-6.24929
▁also	-6.27976
▁upon	-6.30014
▁your	-6.32109
d	-6.32308
▁us	-6.34006
▁For	-6.34937
▁no	-6.35311
▁come	-6.36424
▁she	-6.41991
▁if	-6.43248
▁hath	-6.44077
▁do	-6.45834
▁He	-6.50726
▁made	-6.52122
▁an	-6.55626
▁went	-6.55828
▁day	-6.58278
▁down	-6.60074
▁saying	-6.60445
▁so	-6.60937
▁our	-6.62648
▁even	-6.63235
▁say	-6.63371
▁men	-6.64012
▁people	-6.64707
▁before	-6.65167
▁or	-6.68489
▁these	-6.69803
▁may	-6.69953
▁Christ	-6.71063
▁go	-6.72553
-	-6.72836
▁what	-6.73748
eth	-6.75066
!	-6.75593
'	-6.76518
ly	-6.77807
▁did	-6.77891
▁after	-6.79576
▁know	-6.79913
▁make	-6.80073
▁every	-6.81538
▁let	-6.81743
▁through	-6.83743
▁Wilbur	-6.85766
▁son	-6.87044
▁land	-6.87249
cause	-6.87518
▁therefore	-6.87579
▁would	-6.87737
▁then	-6.8883
▁away	-6.89148
▁good	-6.90674
▁children	-6.9099
▁hand	-6.93107
▁over	-6.93187
▁about	-6.94831
▁Moses	-6.95942
▁two	-6.97077
▁called	-6.97458
▁am	-6.97901
▁earth	-6.98006
▁house	-7.00013
▁should	-7.00214
th	-7.02581
▁any	-7.02771
▁father	-7.03325
▁name	-7.03449
▁great	-7.03975
▁put	-7.04993
▁now	-7.05106
y	-7.05112
▁like	-7.06249
▁days	-7.08003
▁against	-7.08616
▁whom	-7.08991
▁saw	-7.09153
▁been	-7.09979
▁where	-7.10212
▁heard	-7.1096
▁saith	-7.11146
e	-7.1177
▁more	-7.12147
▁see	-7.13855
▁many	-7.14101
▁took	-7.15876
▁give	-7.16088
▁pass	-7.18562
▁Israel	-7.18639
▁Now	-7.19744
▁forth	-7.20207
▁time	-7.20343
▁life	-7.20793
▁take	-7.21119
▁again	-7.2181
▁brethren	-7.22249
▁another	-7.23017
▁heaven	-7.23521
▁himself	-7.26374
st	-7.27429
▁word	-7.27869
▁might	-7.28603
▁way	-7.29048
▁world	-7.29083
▁sons	-7.29962
▁Then	-7.30802
▁first	-7.31044
▁own	-7.31429
▁behold	-7.32239
▁other	-7.32257
▁how	-7.32281
se	-7.33463
▁among	-7.34757
▁brought	-7.36418
▁law	-7.368
▁Father	-7.36842
▁little	-7.3813
▁place	-7.39921
▁some	-7.40731
▁could	-7.41589
▁eat	-7.41945
▁than	-7.42936
▁old	-7.43412
▁back	-7.43454
▁Jacob	-7.43878
▁Egypt	-7.45253
▁sent	-7.45263
▁accord	-7.45741
▁years	-7.45992
▁Spirit	-7.46649
▁brother	-7.47121
f	-7.47506
▁Pharaoh	-7.4759
▁love	-7.48951
▁gave	-7.49029
▁disciples	-7.50088
▁cast	-7.50414
▁Abraham	-7.50956
▁water	-7.51303
▁faith	-7.51427
▁Mr	-7.51544
▁found	-7.51929
▁set	-7.5227
▁wife	-7.52441
▁voice	-7.52585
▁They	-7.52821
▁yet	-7.53275
▁It	-7.54
▁A	-7.54157
▁O	-7.5418
▁under	-7.54437
▁glory	-7.54497
▁dead	-7.55457
▁hast	-7.5646
▁having	-7.56486
▁Charlotte	-7.5653
▁being	-7.56809
▁done	-7.5757
▁answered	-7.57619
▁spake	-7.58048
▁Joseph	-7.58574
▁bring	-7.58674
▁together	-7.59635
▁night	-7.59941
▁heart	-7.60234
▁city	-7.62893
▁Son	-7.63478
▁eyes	-7.64767
r	-7.64977
m	-7.66072
▁work	-7.6613
▁neither	-7.66249
▁only	-7.66439
▁both	-7.66698
▁speak	-7.66752
▁three	-7.66822
▁flesh	-7.67395
▁When	-7.67434
▁What	-7.68117
▁can	-7.68375
▁thereof	-7.68586
▁nor	-7.68639
▁same	-7.69162
▁fire	-7.69187
▁given	-7.692
▁much	-7.69239
▁without	-7.69343
I	-7.69613
▁right	-7.70796
▁seven	-7.70818
▁Thi	-7.71506
▁left	-7.72117
▁blood	-7.72126
▁hear	-7.72916
▁face	-7.73118
▁LORD	-7.73945
▁thing	-7.74131
▁asked	-7.74177
▁long	-7.74222
▁off	-7.75518
▁evil	-7.76442
▁words	-7.76524
est	-7.77042
▁art	-7.77075
▁head	-7.77656
▁well	-7.77962
▁hands	-7.78362
▁sat	-7.78381
▁death	-7.79643
▁So	-7.79822
▁kingdom	-7.80297
▁Thou	-7.81616
▁Jews	-7.82415
▁th	-7.82889
▁mother	-7.82959
▁while	-7.8296
▁nothing	-7.84318
▁unti	-7.84319
▁bear	-7.8443
▁light	-7.8484
very	-7.85567
▁stood	-7.86389
▁ever	-7.88478
▁themselves	-7.89206
▁Paul	-7.89212
▁gold	-7.89913
▁lay	-7.90494
▁Let	-7.90708
▁keep	-7.91136
ose	-7.91225
▁Zuckerman	-7.91262
▁sea	-7.91266
▁side	-7.92075
▁Behold	-7.92119
▁Fern	-7.92891
soever	-7.93026
▁s	-7.93677
▁looked	-7.93863
er	-7.94043
▁Jerusalem	-7.94354
▁Peter	-7.94354
▁seen	-7.9451
▁Ye	-7.94995
▁sin	-7.95254
▁thine	-7.95895
▁cometh	-7.96343
▁Be	-7.96422
▁woman	-7.96647
▁certain	-7.96653
▁ground	-7.96656
▁end	-7.97189
▁chief	-7.9742
▁She	-7.97506
▁body	-7.9757
▁We	-7.97951
▁knew	-7.98201
▁In	-7.98339
▁fear	-7.9838
▁just	-7.98671
▁power	-7.98927
▁feet	-7.98988
▁morning	-7.98988
▁such	-7.98993
n	-7.99952
▁pig	-8.00517
▁tree	-8.00549
▁hundred	-8.01312
▁sheep	-8.01391
▁holy	-8.01396
▁whole	-8.01467
▁bread	-8.02106
▁Aaron	-8.02201
▁began	-8.02221
▁must	-8.03029
▁John	-8.03848
▁servant	-8.03872
▁receive	-8.04401
▁multitude	-8.04682
▁told	-8.04734
a	-8.04863
▁toward	-8.05105
▁written	-8.05521
▁die	-8.06402
▁There	-8.06647
▁seed	-8.06694
▁peace	-8.06898
▁going	-8.07198
▁here	-8.07494
▁servants	-8.08108
▁believe	-8.08591
▁new	-8.08934
▁live	-8.0927
▁works	-8.09363
▁truth	-8.09835
ll	-8.1045
▁fell	-8.10735
▁spirit	-8.10764
re	-8.10809
▁grace	-8.11611
▁high	-8.12426
▁witness	-8.12494
▁get	-8.12508
▁mouth	-8.1251
▁four	-8.13321
▁S	-8.13416
▁tabernacle	-8.13449
▁concern	-8.14368
▁each	-8.15264
▁coming	-8.1529
▁near	-8.16197
▁Isaac	-8.16198
▁commanded	-8.16314
▁pray	-8.17168
▁find	-8.17986
▁Charley	-8.18094
▁five	-8.18109
▁web	-8.182
▁tell	-8.1869
▁still	-8.19056
▁spoken	-8.19066
▁become	-8.19075
▁hour	-8.1914
▁white	-8.19229
—	-8.19309
▁part	-8.19443
een	-8.19523
▁F	-8.19862
▁sight	-8.20043
▁laid	-8.21086
▁received	-8.21252
▁though	-8.21749
▁child	-8.21988
▁round	-8.22019
▁mine	-8.23001
▁betw	-8.23006
▁seek	-8.23189
▁Who	-8.24004
▁altar	-8.24007
▁manner	-8.24007
▁never	-8.24016
▁full	-8.24959
▁temple	-8.2511
▁walk	-8.25198
▁river	-8.252
▁drink	-8.25484
▁stand	-8.26542
▁send	-8.27107
▁righteousness	-8.27113
▁field	-8.27286
▁think	-8.28723
ther	-8.28766
▁Holy	-8.29228
▁around	-8.2926
▁died	-8.29477
▁king	-8.29492
▁save	-8.30108
▁stone	-8.30406
▁daughter	-8.30542
▁living	-8.31378
▁Wherefore	-8.31383
▁Arable	-8.31604
▁angel	-8.31695
▁cried	-8.32478
▁cause	-8.32661
▁door	-8.32794
▁judgment	-8.33837
▁priest	-8.33877
▁enter	-8.3419
▁gospel	-8.34712
▁taken	-8.34824
▁known	-8.34881
▁young	-8.35902
▁mind	-8.36576
▁mercy	-8.36998
▁Gentiles	-8.37003
▁blessed	-8.3717
▁C	-8.3734
▁few	-8.3812
▁All	-8.38343
▁ask	-8.3849
▁bare	-8.39225
▁kill	-8.39487
▁look	-8.39994
▁hold	-8.40086
▁rest	-8.40146
▁hard	-8.40519
▁money	-8.40528
▁opened	-8.40702
▁believed	-8.40787
▁lord	-8.40864
▁second	-8.41736
▁gone	-8.41748
▁Templeton	-8.4177
▁un	-8.41805
▁hope	-8.42799
▁Pharisees	-8.43071
▁call	-8.43497
▁show	-8.43682
▁My	-8.44284
▁entered	-8.44647
▁Esau	-8.46702
▁last	-8.46705
▁don	-8.46922
▁gathered	-8.46923
ter	-8.4768
▁daughters	-8.47686
▁Go	-8.47902
▁born	-8.47914
▁twelve	-8.47985
▁wise	-8.47992
ce	-8.4809
▁able	-8.48372
▁walked	-8.48508
▁got	-8.48533
▁minister	-8.48824
▁third	-8.49283
▁always	-8.49289
▁lest	-8.4929
▁none	-8.49306
▁delivered	-8.49548
▁sake	-8.49756
▁dwell	-8.49988
▁As	-8.50097
▁too	-8.50444
▁righteous	-8.50452
▁yourselves	-8.50599
▁country	-8.50604
▁cannot	-8.50605
▁sure	-8.50609
▁became	-8.50618
▁raised	-8.50674
▁Avery	-8.50712
▁whe	-8.51107
▁prophets	-8.51297
▁above	-8.51932
▁barn	-8.51933
▁followed	-8.52245
▁You	-8.52357
▁beast	-8.52483
▁thought	-8.5287
▁priests	-8.52935
▁mount	-8.53287
▁judge	-8.53436
▁offering	-8.54027
▁cattle	-8.54654
▁angels	-8.55708
▁women	-8.56041
▁food	-8.56043
▁looking	-8.56578
▁fruit	-8.56588
▁year	-8.56793
▁joy	-8.57444
▁half	-8.57451
▁true	-8.57451
▁midst	-8.57497
▁How	-8.57598
▁soul	-8.58053
▁fine	-8.58807
▁indeed	-8.5889
▁anything	-8.58906
▁To	-8.5897
▁most	-8.58987
▁filled	-8.58993
▁elders	-8.59019
▁wood	-8.59608
▁serve	-8.60044
▁covenant	-8.60329
▁remember	-8.60329
▁ten	-8.61202
▁fall	-8.61223
▁small	-8.61762
▁dark	-8.61779
▁Simon	-8.61799
▁silver	-8.61801
▁Every	-8.61847
▁Egyptians	-8.61971
▁sun	-8.6278
▁ran	-8.63338
▁sins	-8.63442
▁returned	-8.63497
es	-8.64314
▁church	-8.64789
▁Smith	-8.64807
▁sabbath	-8.64808
▁Lurvy	-8.6482
▁lived	-8.65136
rose	-8.65325
▁waters	-8.65449
ness	-8.6549
▁fathers	-8.65936
▁fish	-8.66302
▁strong	-8.66348
▁thousand	-8.67047
▁myself	-8.6793
▁turned	-8.68314
▁prophet	-8.68658
▁kept	-8.69495
▁alone	-8.69499
▁darkness	-8.69514
▁Why	-8.6958
▁far	-8.69584
▁One	-8.696
▁That	-8.69657
▁sign	-8.71027
▁home	-8.71105
▁why	-8.71124
▁ready	-8.71156
▁ears	-8.7165
▁feast	-8.71798
▁turn	-8.71881
▁sleep	-8.72178
▁eternal	-8.72747
en	-8.72795
▁didn	-8.73001
▁saved	-8.73049
▁spider	-8.7356
▁big	-8.74407
▁straightway	-8.74419
▁others	-8.745
▁along	-8.74502
▁departed	-8.74602
▁rat	-8.76019
▁wilderness	-8.76109
▁wisdom	-8.76109
▁Abram	-8.76109
▁ark	-8.76139
▁whatsoever	-8.76383
▁passed	-8.76408
▁seeing	-8.76645
▁loved	-8.76879
▁need	-8.77615
▁something	-8.77835
▁except	-8.77835
▁better	-8.77836
▁till	-8.77841
▁wine	-8.77841
▁within	-8.78234
ve	-8.78249
ers	-8.78698
▁wind	-8.78736
▁commandment	-8.78748
gat	-8.78852
You	-8.7903
▁seem	-8.79503
▁linen	-8.796
out	-8.79723
us	-8.80047
▁nations	-8.80253
▁its	-8.80305
▁standing	-8.80343
▁leave	-8.80493
▁follow	-8.80509
▁write	-8.80887
▁T	-8.81102
▁beginning	-8.81373
▁sitting	-8.81379
▁saints	-8.81382
erily	-8.81386
▁His	-8.81426
▁appeared	-8.81552
▁goose	-8.81674
▁mountains	-8.82035
▁reason	-8.82656
▁top	-8.83093
▁deep	-8.83129
▁present	-8.83191
▁fulfilled	-8.83193
▁knowledge	-8.83207
▁Come	-8.83248
▁scribes	-8.83323
▁ought	-8.83338
an	-8.83447
▁air	-8.8364
▁tent	-8.84574
▁David	-8.85043
▁Laban	-8.85043
▁authority	-8.85044
▁rather	-8.85048
▁thyself	-8.8505
▁Bless	-8.85052
▁wilt	-8.85055
▁sh	-8.85429
▁cut	-8.85649
▁husband	-8.86054
▁meet	-8.86483
▁wrath	-8.8693
▁behind	-8.8693
▁pure	-8.86938
If	-8.87589
▁yea	-8.87776
▁want	-8.87825
▁destroy	-8.88387
▁Chap	-8.8885
▁afraid	-8.88853
▁congregation	-8.88853
▁baptized	-8.88881
▁foot	-8.88905
▁generations	-8.89419
▁leaves	-8.89766
▁kind	-8.89797
▁throne	-8.89941
▁help	-8.90573
▁visit	-8.90809
hall	-8.90852
▁apostles	-8.91106
▁master	-8.91991
▁sick	-8.92787
▁Canaan	-8.92798
▁bound	-8.9281
▁Galilee	-8.92814
▁next	-8.92814
▁replied	-8.92816
▁try	-8.92838
▁wherein	-8.92878
▁cup	-8.92976
▁soldiers	-8.92996
▁garments	-8.93232
▁teaching	-8.93237
or	-8.93277
▁watch	-8.93405
▁woods	-8.93868
▁boy	-8.94018
▁friend	-8.94028
▁p	-8.94283
▁deliver	-8.94432
le	-8.94619
▁deal	-8.94851
▁sockets	-8.94866
▁Take	-8.94891
▁worthy	-8.94916
▁beloved	-8.94997
▁therein	-8.95028
▁bed	-8.95275
▁boys	-8.95708
▁thence	-8.95813
▁knoweth	-8.95841
▁hair	-8.9597
▁preach	-8.96151
▁meat	-8.96216
▁f	-8.96374
▁arose	-8.96428
▁six	-8.96506
▁knowing	-8.96574
▁has	-8.96597
▁nigh	-8.96644
▁twenty	-8.96941
▁salvation	-8.96943
▁Noah	-8.96943
▁rain	-8.96946
▁thus	-8.96992
▁held	-8.97088
▁E	-8.97478
▁fast	-8.97739
▁signs	-8.98027
▁suffer	-8.98182
▁At	-8.98249
▁teach	-8.98444
▁eye	-8.98565
▁blind	-8.98573
▁smell	-8.9859
▁clean	-8.98848
▁M	-8.98859
▁curtain	-8.99066
▁testimony	-8.99066
▁straw	-8.99066
▁everything	-8.99069
▁blue	-8.9907
▁firstborn	-8.9907
▁Bear	-8.99088
▁sit	-8.99165
▁free	-8.99177
▁soon	-8.99189
▁cubits	-8.9942
▁desire	-8.99437
p	-8.99904
▁hearts	-9.00279
▁honor	-9.0123
▁Pilate	-9.0124
▁enough	-9.0124
▁Therefore	-9.01265
▁lifted	-9.01484
▁once	-9.01759
▁demons	-9.01768
▁Indians	-9.0177
▁perfect	-9.02501
▁nation	-9.02625
▁doeth	-9.0272
What	-9.02907
▁Do	-9.03074
▁No	-9.0316
▁abide	-9.03367
▁Rachel	-9.03462
▁Even	-9.03464
▁bega	-9.03499
▁By	-9.0372
▁forty	-9.03938
▁Jud	-9.04012
▁red	-9.04049
drew	-9.04072
▁sacrifice	-9.04688
▁P	-9.04782
▁court	-9.04842
▁sister	-9.0485
▁cloud	-9.04857
▁named	-9.0487
▁table	-9.04894
▁mountain	-9.049
▁answer	-9.05197
▁alive	-9.05736
▁Judah	-9.0574
▁camp	-9.05749
▁moved	-9.05922
▁greater	-9.06003
▁evening	-9.06099
▁dream	-9.06209
al	-9.06366
ous	-9.06861
▁matter	-9.07193
▁month	-9.07218
▁verily	-9.08061
▁Mary	-9.08065
▁broken	-9.08077
able	-9.08102
▁lie	-9.0835
▁Yea	-9.09102
▁sound	-9.09135
▁promise	-9.09374
▁Where	-9.09419
▁boat	-9.09557
cross	-9.09888
S	-9.10009
▁gather	-9.10027
▁ate	-9.10265
▁book	-9.10437
▁After	-9.10441
▁dwelt	-9.10441
▁enemies	-9.10441
▁faithful	-9.10458
▁Of	-9.10943
▁mighty	-9.10983
▁prison	-9.11878
▁tongue	-9.12043
▁kings	-9.12338
▁wait	-9.12451
▁multitudes	-9.12878
▁presence	-9.1288
▁taught	-9.1288
▁grew	-9.12884
▁carried	-9.12887
▁since	-9.12911
▁sold	-9.12917
▁hanging	-9.1306
▁almo	-9.13082
ion	-9.13098
▁led	-9.13163
▁preached	-9.1338
▁cross	-9.13459
▁start	-9.13489
ies	-9.13635
It	-9.13666
less	-9.13911
▁walking	-9.13952
▁journey	-9.14007
▁synagogue	-9.14531
▁rock	-9.1454
▁worship	-9.1497
▁lo	-9.15308
▁purple	-9.1538
▁Sarah	-9.1538
▁felt	-9.1538
▁hearken	-9.1538
▁sweet	-9.15382
▁thirty	-9.15416
▁oil	-9.15511
▁B	-9.15768
sought	-9.16355
▁times	-9.16436
▁war	-9.16684
▁goeth	-9.16688
▁re	-9.16857
▁crate	-9.16947
▁point	-9.17046
▁understand	-9.17364
▁stones	-9.17381
▁rich	-9.17405
▁please	-9.1778
▁eight	-9.17904
▁loud	-9.17905
▁resurrection	-9.17944
▁least	-9.17944
▁trees	-9.18052
▁early	-9.18055
▁burnt	-9.18206
as	-9.18655
▁measure	-9.18669
▁sword	-9.19627
▁fellow	-9.19636
▁egg	-9.19724
▁offer	-9.19875
▁Herod	-9.20575
▁Littlefish	-9.20576
▁ourselves	-9.20576
▁branches	-9.20582
▁neck	-9.20643
▁warm	-9.20672
▁brass	-9.20745
▁rings	-9.2088
▁vain	-9.20986
▁blessing	-9.21047
▁speaketh	-9.21113
▁killed	-9.21521
▁souls	-9.22154
▁service	-9.22288
▁ear	-9.22541
on	-9.22573
▁N	-9.22604
fore	-9.23238
▁wives	-9.23279
▁else	-9.23279
▁herself	-9.23287
▁younger	-9.23384
▁arise	-9.23425
▁rulers	-9.23814
ment	-9.23862
▁boards	-9.23988
▁See	-9.24076
▁bless	-9.25153
▁prayer	-9.25305
▁continue	-9.25981
▁strength	-9.26035
▁fifty	-9.26056
▁beyond	-9.26057
▁milk	-9.26057
▁lead	-9.26081
▁morrow	-9.26177
▁healed	-9.26241
▁open	-9.27741
body	-9.28089
▁generation	-9.281
▁names	-9.2816
▁On	-9.28327
▁manifest	-9.28497
in	-9.28735
▁false	-9.28778
▁Thu	-9.28845
▁scarlet	-9.28913
▁apart	-9.28913
▁quit	-9.28915
▁Teacher	-9.28915
▁James	-9.28915
▁spread	-9.28938
▁fled	-9.28946
▁judged	-9.29361
▁number	-9.30423
▁black	-9.30461
▁gift	-9.31007
▁read	-9.31234
▁smoke	-9.3165
▁rejoice	-9.3166
▁poor	-9.31709
▁buried	-9.31855
▁grey	-9.31855
▁wrought	-9.31856
▁dry	-9.31868
▁already	-9.31874
▁soil	-9.31896
▁front	-9.31915
▁abideth	-9.3198
▁age	-9.31982
▁appointed	-9.31987
▁Lot	-9.32076
▁pillars	-9.324
▁horses	-9.32434
▁pieces	-9.32595
▁means	-9.32601
▁friends	-9.33087
▁break	-9.33326
▁build	-9.33981
▁order	-9.33994
▁apple	-9.34016
▁speaking	-9.34233
Well	-9.34318
▁weak	-9.34349
▁houses	-9.3438
▁pen	-9.34399
▁crown	-9.34432
▁return	-9.34467
one	-9.34488
▁low	-9.34559
▁Satan	-9.34885
▁making	-9.34886
▁Leah	-9.34886
▁Fair	-9.34886
▁Nation	-9.34894
▁dust	-9.34903
▁east	-9.34921
▁gain	-9.34966
▁Thy	-9.34989
▁gods	-9.35096
▁sinners	-9.35159
▁shew	-9.35613
▁fat	-9.35774
ward	-9.36109
it	-9.36283
ty	-9.3717
▁gate	-9.37213
rom	-9.37331
▁comfort	-9.37571
▁places	-9.37719
▁corn	-9.37991
▁shame	-9.38016
▁worshipped	-9.38063
▁fallen	-9.38069
▁stopped	-9.38073
▁vessels	-9.3832
▁thanks	-9.38554
▁heavens	-9.38793
▁giveth	-9.38887
▁bad	-9.39046
▁stay	-9.4033
▁tomb	-9.40357
much	-9.4061
▁length	-9.40758
▁anoint	-9.40804
▁close	-9.40865
▁praise	-9.41016
▁draw	-9.412
▁unclean	-9.41219
▁grow	-9.41222
▁Wolf	-9.41236
▁beautiful	-9.41236
▁crucified	-9.41236
▁kiss	-9.41236
▁ephod	-9.41236
▁circumcision	-9.41236
▁trough	-9.41238
▁cold	-9.41238
▁justified	-9.41245
▁Give	-9.41269
▁course	-9.41301
▁King	-9.41302
▁finished	-9.41326
▁lost	-9.41331
▁climbed	-9.4134
▁animals	-9.41556
with	-9.41836
ation	-9.41929
▁run	-9.42756
el	-9.42869
▁famine	-9.43571
h	-9.43663
▁board	-9.43805
▁command	-9.44011
▁feel	-9.44092
▁exceeding	-9.44476
▁rise	-9.44554
▁wrong	-9.44566
▁Philip	-9.44569
▁abroad	-9.44569
▁Rebekah	-9.44569
▁devil	-9.4457
▁shut	-9.44575
▁south	-9.44578
▁past	-9.44582
▁Judas	-9.44586
▁moment	-9.44587
▁itself	-9.44604
▁prepared	-9.44648
▁talked	-9.44807
▁often	-9.44915
▁seventh	-9.4511
▁offered	-9.45122
▁suffered	-9.45239
▁Not	-9.45316
▁seat	-9.46083
▁working	-9.46209
▁commandments	-9.46209
▁burn	-9.46815
ur	-9.46855
▁sorrow	-9.47019
▁scripture	-9.47164
▁Indian	-9.47188
▁dis	-9.47421
▁best	-9.47449
▁perish	-9.47459
▁grass	-9.47905
▁office	-9.47969
▁foolish	-9.48001
▁Cherokee	-9.48017
▁asleep	-9.48017
▁beseech	-9.48017
▁staves	-9.48018
▁summer	-9.4802
▁reward	-9.48029
▁passover	-9.48035
▁speech	-9.48044
▁room	-9.48047
▁conceived	-9.48048
▁Amen	-9.4805
▁green	-9.48057
▁crowd	-9.48071
A	-9.48266
▁pleased	-9.48276
▁covered	-9.48337
▁believeth	-9.48401
▁understanding	-9.48623
▁flocks	-9.4881
▁tongues	-9.49231
▁members	-9.49845
▁met	-9.49845
▁season	-9.5026
▁smite	-9.50392
▁counsel	-9.50591
▁hearing	-9.50607
▁edge	-9.5065
▁bow	-9.50668
▁image	-9.50668
▁captain	-9.50695
▁parable	-9.50714
▁tribe	-9.50725
▁piece	-9.50754
gotten	-9.51013
▁sharp	-9.51439
▁reign	-9.51443
▁care	-9.51464
▁bright	-9.51536
▁subject	-9.51582
▁fornication	-9.51589
▁patience	-9.51589
▁salute	-9.51589
▁writing	-9.51589
▁sky	-9.51589
▁wept	-9.5159
▁swim	-9.5159
▁guard	-9.51594
▁buy	-9.51597
▁slay	-9.51598
▁divided	-9.51707
▁beheld	-9.51709
▁eaten	-9.51731
▁troubled	-9.51783
▁dur	-9.51939
▁legs	-9.51966
▁crying	-9.51971
▁riches	-9.52194
▁hid	-9.52259
▁loveth	-9.52316
▁wanted	-9.52388
▁forward	-9.5241
am	-9.52986
▁prayed	-9.53212
ng	-9.53357
▁committe	-9.53624
▁depart	-9.54028
ful	-9.54067
▁duke	-9.54427
▁creature	-9.54438
▁flock	-9.5445
▁b	-9.54715
▁lift	-9.54874
▁repent	-9.5514
▁short	-9.55173
▁strange	-9.55237
▁forgive	-9.55251
▁eating	-9.55257
▁ox	-9.55277
▁incense	-9.55292
▁large	-9.55293
▁account	-9.55293
▁truck	-9.55293
▁spiritual	-9.55293
▁Adam	-9.55294
▁glorified	-9.55297
▁Sodom	-9.55299
▁pay	-9.553
ittim	-9.55304
▁Lamb	-9.55304
▁immediately	-9.55308
▁circumcised	-9.55334
▁churches	-9.55337
▁yard	-9.55393
▁Th	-9.5548
▁poured	-9.55508
▁clothes	-9.55509
▁closed	-9.55567
▁thereon	-9.55621
▁raise	-9.55679
▁touched	-9.55703
▁breadth	-9.55733
▁bowed	-9.55737
▁receiveth	-9.55748
▁sore	-9.55777
▁rod	-9.55802
▁besought	-9.56316
▁bit	-9.56435
ir	-9.5653
▁putt	-9.56568
▁wax	-9.56673
▁e	-9.56921
▁mean	-9.58042
▁disciple	-9.58307
▁stranger	-9.5834
▁touch	-9.58606
▁carry	-9.58687
▁wash	-9.58973
▁glad	-9.59004
▁quiet	-9.59056
▁lawful	-9.59069
▁council	-9.59138
▁Barnabas	-9.59139
▁Woe	-9.59139
▁garden	-9.59139
▁iniquity	-9.59139
▁hurt	-9.59139
▁whither	-9.59139
▁cities	-9.59139
▁tried	-9.5914
▁empty	-9.59153
▁deny	-9.59168
▁lad	-9.59173
▁bought	-9.59175
▁exceedingly	-9.59273
▁pulled	-9.59297
▁pit	-9.59317
▁happened	-9.59365
▁longer	-9.59368
▁charged	-9.59389
▁hated	-9.59424
▁manifested	-9.59713
▁knowest	-9.59844
▁worketh	-9.59937
▁less	-9.59951
▁greatly	-9.60633
▁sac	-9.6071
▁reach	-9.61166
taking	-9.61834
▁breastplate	-9.62142
▁Lo	-9.62168
▁garment	-9.62312
of	-9.62371
▁multiply	-9.62616
▁t	-9.6269
▁obey	-9.62698
▁car	-9.62719
ri	-9.62724
▁Some	-9.62773
ted	-9.62883
▁road	-9.63136
▁Jackson	-9.63139
▁couple	-9.63139
▁guess	-9.63139
▁spent	-9.6314
▁bondage	-9.6314
▁created	-9.63151
▁built	-9.63152
▁brown	-9.63153
▁swear	-9.63157
at	-9.63168
▁quickly	-9.63169
giving	-9.63175
▁self	-9.63179
▁h	-9.63217
o	-9.63292
▁nine	-9.63296
▁stretched	-9.63355
▁trouble	-9.63407
▁Are	-9.63409
▁couldn	-9.63474
▁wonders	-9.63475
▁touching	-9.63606
▁stars	-9.63728
sar	-9.63824
▁purpose	-9.64255
▁gifts	-9.64309
▁heads	-9.64565
and	-9.6468
is	-9.64905
day	-9.65041
▁D	-9.65836
ear	-9.65838
ped	-9.65962
▁afternoon	-9.66357
▁foundation	-9.66379
▁appear	-9.66408
▁Jew	-9.66644
▁cry	-9.66922
▁rule	-9.66923
▁wall	-9.67057
▁spirits	-9.67079
▁straight	-9.67303
▁Abimelech	-9.67305
▁bottom	-9.67305
▁caught	-9.67305
▁conscience	-9.67305
▁twin	-9.67305
▁unleavened	-9.67305
▁Elijah	-9.67305
▁hungry	-9.67308
▁story	-9.67309
▁winter	-9.6731
▁teeth	-9.67312
▁catch	-9.67313
▁household	-9.67323
▁sinned	-9.67326
▁With	-9.67342
▁really	-9.6735
▁risen	-9.67351
▁learned	-9.67666
▁beat	-9.67735
▁sides	-9.67906
▁ways	-9.67932
▁watched	-9.68202
▁ones	-9.68253
▁skins	-9.68281
im	-9.68654
▁calling	-9.68849
▁months	-9.68857
▁faces	-9.68924
▁horse	-9.69118
▁H	-9.69182
i	-9.69223
for	-9.69549
▁state	-9.70662
▁tail	-9.70714
▁creek	-9.70749
▁ruler	-9.70862
▁act	-9.70911
Oh	-9.71075
▁parts	-9.71077
▁feed	-9.71185
▁count	-9.71368
▁double	-9.71427
▁secret	-9.71504
▁abound	-9.71505
▁loose	-9.71537
▁wild	-9.71555
▁thin	-9.7162
▁spoke	-9.71631
▁Levi	-9.71649
▁hither	-9.71651
▁raiment	-9.71653
▁glorify	-9.71653
▁afar	-9.71654
▁vineyard	-9.71654
▁Ridge	-9.71656
▁space	-9.71656
▁pigpen	-9.71659
▁goats	-9.7166
▁wrote	-9.71667
▁suddenly	-9.71681
▁creep	-9.71684
▁forgiven	-9.71696
▁outside	-9.71707
▁maid	-9.71709
▁golden	-9.71752
▁hot	-9.71767
▁witnesses	-9.71781
▁officers	-9.7187
▁ends	-9.72034
▁heed	-9.72088
▁birds	-9.72219
▁wet	-9.72272
ar	-9.72331
▁mayest	-9.7254
▁eateth	-9.7281
▁heavenly	-9.73048
▁synagogues	-9.73161
▁Whi	-9.73192
▁feared	-9.74065
▁beasts	-9.74473
▁skin	-9.74854
▁charge	-9.75078
w	-9.75133
rew	-9.75159
▁pleasure	-9.75317
▁pillar	-9.75355
He	-9.75522
▁L	-9.75591
either	-9.75634
▁remain	-9.75654
▁play	-9.75692
▁sail	-9.75828
▁report	-9.75856
ake	-9.76055
▁confess	-9.76189
▁inherit	-9.76194
▁Benjamin	-9.76199
▁Isaiah	-9.76199
▁array	-9.76199
▁haply	-9.76199
▁remembrance	-9.76199
▁womb	-9.76199
▁Timothy	-9.76199
▁mystery	-9.76199
▁daily	-9.76199
▁hail	-9.762
▁tired	-9.762
▁fence	-9.762
▁likewise	-9.76201
▁inheritance	-9.76203
▁arrived	-9.76232
▁Put	-9.76334
▁Have	-9.76368
▁inside	-9.76477
▁talking	-9.76544
▁camels	-9.76562
▁weight	-9.76575
▁lose	-9.76583
ah	-9.76814
▁breath	-9.76993
▁heareth	-9.7709
▁willing	-9.77102
▁d	-9.77309
▁g	-9.77384
▁c	-9.77666
rs	-9.77708
▁spring	-9.78101
ity	-9.78192
▁fight	-9.78886
▁—	-9.78976
▁candlestick	-9.80067
▁village	-9.80091
▁lamb	-9.80103
▁cover	-9.80122
▁coat	-9.80128
▁finger	-9.8016
adventure	-9.80273
▁W	-9.80337
▁song	-9.80341
Yes	-9.80366
▁bury	-9.80485
▁fashion	-9.80502
▁establish	-9.80527
▁thank	-9.80613
▁possess	-9.8077
▁stumble	-9.80872
▁flee	-9.80874
▁ashamed	-9.8096
▁dominion	-9.8096
▁flood	-9.8096
▁knife	-9.8096
▁trail	-9.8096
▁devour	-9.80961
▁precious	-9.80961
▁Saviour	-9.80961
▁vail	-9.80961
▁happy	-9.80961
▁marry	-9.80961
▁further	-9.80962
▁Perry	-9.80963
▁possible	-9.80972
▁elect	-9.80976
▁adultery	-9.80989
▁smote	-9.80996
▁sware	-9.81007
▁amazed	-9.81009
▁stick	-9.81026
▁slowly	-9.81037
▁scattered	-9.81076
▁sort	-9.81105
▁hardened	-9.81108
▁sixth	-9.81186
▁hire	-9.81193
▁bones	-9.81277
▁borne	-9.81315
▁hence	-9.8138
▁liveth	-9.81494
▁burned	-9.81557
▁feeling	-9.81653
ily	-9.81884
▁notice	-9.81945
▁destroyed	-9.82034
▁strangers	-9.82038
▁doing	-9.82973
▁Is	-9.83049
▁R	-9.83169
▁perceive	-9.84637
▁Salut	-9.84827
▁hole	-9.85062
▁Hebrew	-9.85097
▁cubit	-9.8512
▁ship	-9.85191
▁sanctif	-9.85251
▁curse	-9.85812
▁grave	-9.85927
▁naked	-9.85943
▁supper	-9.85959
▁Macedonia	-9.8596
▁Spearfinger	-9.8596
▁behalf	-9.8596
▁ignorant	-9.8596
▁thither	-9.8596
▁bottle	-9.85961
▁crawl	-9.85961
▁Saul	-9.85961
▁idea	-9.85961
▁loaves	-9.85961
▁reproach	-9.85969
▁cheer	-9.85972
▁moon	-9.85973
▁Arise	-9.85977
▁tidings	-9.85985
▁handmaid	-9.85997
▁decided	-9.86005
▁horns	-9.86046
▁wide	-9.8611
▁idols	-9.86203
▁fly	-9.86244
▁shoes	-9.86291
▁knees	-9.86341
▁bonds	-9.86467
▁washed	-9.86538
▁goods	-9.86571
ate	-9.86578
▁either	-9.86591
▁letters	-9.86601
▁use	-9.87014
▁move	-9.87397
▁eggs	-9.87619
▁tables	-9.87886
▁sacrifices	-9.8789
g	-9.88076
▁thinking	-9.88136
▁form	-9.88295
▁needs	-9.88493
nto	-9.88661
▁accuse	-9.89308
▁bearing	-9.89505
▁question	-9.8981
▁demon	-9.89935
▁affliction	-9.90232
▁governor	-9.90276
▁root	-9.90322
▁possession	-9.90342
▁neighbor	-9.90349
▁wheel	-9.90383
▁host	-9.9039
▁corner	-9.90431
▁afterward	-9.905
▁clear	-9.90626
How	-9.90667
But	-9.9067
▁worry	-9.90729
▁regard	-9.90753
▁proceed	-9.90767
nt	-9.90798
▁forbid	-9.91018
▁shoulder	-9.91021
▁wicked	-9.91057
▁grievous	-9.91098
▁late	-9.91199
▁Cain	-9.91222
▁Claire	-9.91224
▁Jordan	-9.91224
▁abode	-9.91224
▁centurion	-9.91224
▁company	-9.91224
▁marriage	-9.91224
▁neighbour	-9.91224
▁flies	-9.91224
▁parents	-9.91224
▁families	-9.91224
▁struck	-9.91224
▁breakfast	-9.91225
▁nought	-9.91225
▁business	-9.91227
▁repentance	-9.9123
▁subjection	-9.91239
▁brake	-9.91244
▁Most	-9.91245
▁fill	-9.91257
▁tiny	-9.91265
▁cock	-9.91266
▁begin	-9.9127
▁direction	-9.91276
▁sell	-9.91291
▁robe	-9.91305
▁anger	-9.91324
▁marvelled	-9.91353
▁Art	-9.91355
▁tied	-9.91393
ting	-9.91411
▁reckoned	-9.91489
▁Here	-9.91588
▁covering	-9.91745
ever	-9.91788
▁lusts	-9.91854
▁served	-9.91941
▁fully	-9.91948
▁height	-9.92032
▁corners	-9.92118
▁journeyed	-9.92144
▁hate	-9.92196
▁faint	-9.92406
▁Her	-9.92547
▁scriptures	-9.92552
▁gates	-9.92695
▁declare	-9.92829
▁falling	-9.92878
▁treasure	-9.93402
the	-9.93419
▁G	-9.93652
▁commit	-9.93664
ance	-9.94595
▁voices	-9.95052
▁labor	-9.95267
ish	-9.95405
▁tribulation	-9.95784
red	-9.95786
▁join	-9.95908
▁arm	-9.95912
▁apostle	-9.95976
The	-9.96069
times	-9.96124
That	-9.96222
▁profit	-9.96299
▁utter	-9.96321
▁strip	-9.96335
▁change	-9.96365
▁leaven	-9.96459
▁stop	-9.96566
▁refuse	-9.96583
▁plain	-9.96655
▁natural	-9.96668
▁chose	-9.96749
▁Again	-9.96779
▁Brethren	-9.96779
▁Grace	-9.96779
▁Nazareth	-9.96779
▁beneath	-9.96779
▁geese	-9.96779
▁middle	-9.96779
▁woe	-9.9678
▁fourteen	-9.9678
▁fair	-9.9678
▁respect	-9.96781
▁spoil	-9.96792
▁Asia	-9.96797
▁abundantly	-9.96803
▁Nay	-9.96808
▁drove	-9.96822
▁wish	-9.96835
▁lying	-9.96839
▁Know	-9.96869
▁rent	-9.96907
▁revealed	-9.96914
▁Dr	-9.97031
▁spin	-9.97088
▁talents	-9.97099
▁clothed	-9.97112
▁ago	-9.97193
▁persons	-9.97298
▁remained	-9.97305
ill	-9.97309
▁fourth	-9.97382
▁stayed	-9.97529
▁wouldest	-9.9774
▁creatures	-9.98087
▁following	-9.98221
▁perceiv	-9.98275
▁drive	-9.98326
▁rocks	-9.98734
▁rush	-9.99315
▁race	-9.99744
▁star	-9.99957
▁nights	-10.0014
▁trust	-10.0023
▁ass	-10.0036
▁wear	-10.0085
▁pain	-10.0143
▁oath	-10.0167
▁snow	-10.0167
▁vision	-10.0171
▁ram	-10.0173
▁fowl	-10.0174
▁miracle	-10.0174
▁male	-10.0175
▁serpent	-10.0176
▁learn	-10.0177
▁talk	-10.0179
▁widow	-10.018
▁border	-10.0181
ry	-10.0186
k	-10.0202
▁won	-10.021
▁redeem	-10.0222
▁escape	-10.0247
▁several	-10.0255
▁lot	-10.0257
he	-10.0258
▁Antioch	-10.0266
▁Crockett	-10.0266
▁Ishmael	-10.0266
▁Reuben	-10.0266
▁Washington	-10.0266
▁baptism	-10.0266
▁cunning	-10.0266
▁everlasting	-10.0266
▁language	-10.0266
▁leaving	-10.0266
▁truly	-10.0266
▁Sarai	-10.0266
▁Sinai	-10.0266
▁astray	-10.0266
▁dawn	-10.0266
▁slew	-10.0266
▁nature	-10.0266
▁sitteth	-10.0266
▁colonel	-10.0266
▁swallow	-10.0266
▁Shechem	-10.0266
▁Howbeit	-10.0266
▁sanctuary	-10.0266
▁tarried	-10.0267
▁grain	-10.0267
▁bitter	-10.0267
▁yellow	-10.0268
▁interpretation	-10.0268
▁sanctified	-10.0268
▁oxen	-10.0269
▁sorry	-10.0272
▁wheat	-10.0273
▁fishes	-10.0273
▁farm	-10.0279
▁sown	-10.028
▁pail	-10.0282
▁exalted	-10.0286
▁Te	-10.0297
▁weeping	-10.0298
▁loosed	-10.0299
▁line	-10.0302
▁Look	-10.0304
▁lower	-10.0305
▁tears	-10.0306
▁wipe	-10.0307
ory	-10.0309
▁sailed	-10.0322
▁calleth	-10.0324
▁counted	-10.0325
▁comforted	-10.0348
▁lines	-10.0352
▁borders	-10.0352
▁north	-10.038
▁noise	-10.0388
▁watching	-10.0412
▁turning	-10.0434
▁st	-10.0442
▁doest	-10.0447
▁Br	-10.0508
▁nose	-10.053
▁con	-10.0541
▁spiders	-10.0581
▁inso	-10.0581
▁Oh	-10.0589
▁cr	-10.0601
▁offerings	-10.0651
▁thoughts	-10.0655
▁r	-10.0671
▁per	-10.0679
▁hide	-10.0701
▁cabin	-10.0792
▁exhort	-10.0795
▁fig	-10.0796
▁hill	-10.0804
to	-10.0824
Charlotte	-10.0836
Now	-10.0836
▁lack	-10.0839
ch	-10.085
▁Ha	-10.0855
▁dirt	-10.0882
▁swam	-10.0883
▁overcome	-10.0883
▁building	-10.0891
▁Asmeret	-10.0891
▁Ephesus	-10.0891
▁Hittite	-10.0891
▁Nahor	-10.0891
▁Simeon	-10.0891
▁cellar	-10.0891
▁harlot	-10.0891
▁rope	-10.0891
▁yield	-10.0891
▁running	-10.0891
▁Damascus	-10.0891
▁different	-10.0891
▁drank	-10.0891
▁godliness	-10.0891
▁common	-10.0892
▁wings	-10.0892
▁shook	-10.0892
▁compassion	-10.0893
▁grant	-10.0894
▁beaten	-10.0894
▁pick	-10.0894
▁bigge	-10.0894
▁chosen	-10.0895
▁pool	-10.0895
▁thorns	-10.09
▁asses	-10.09
▁An	-10.09
▁tempted	-10.0909
▁jumped	-10.0909
▁Did	-10.0909
▁chains	-10.0911
▁row	-10.0912
▁Hear	-10.0915
▁mourning	-10.0916
men	-10.0919
▁wor	-10.0931
▁goodness	-10.0934
▁herds	-10.0934
▁pipe	-10.0939
ants	-10.0946
▁bowls	-10.0956
▁pale	-10.0958
▁lamps	-10.0961
▁breaking	-10.0987
▁arms	-10.0988
▁lambs	-10.1006
▁sayest	-10.103
▁Shem	-10.1055
▁de	-10.107
▁withal	-10.1075
▁prayers	-10.1101
▁heal	-10.1151
▁drinking	-10.1176
▁commun	-10.1202
▁judges	-10.1268
▁fruits	-10.1292
▁roll	-10.133
▁desert	-10.1409
▁bringing	-10.1454
▁girdle	-10.1459
▁cave	-10.146
age	-10.1462
▁stream	-10.1463
▁week	-10.1469
▁Greek	-10.1472
▁bird	-10.1473
▁glorying	-10.1479
▁reap	-10.149
Good	-10.1495
▁flow	-10.1504
▁render	-10.1505
laid	-10.1521
▁letter	-10.1533
▁flat	-10.1545
▁haste	-10.1546
▁Man	-10.1555
ollow	-10.1557
▁stumbling	-10.1558
▁Almighty	-10.1558
▁anxious	-10.1558
▁bodies	-10.1558
▁bridegroom	-10.1558
▁damsel	-10.1558
▁disobedient	-10.1558
▁divers	-10.1558
▁necessary	-10.1558
▁obedience	-10.1558
▁prosper	-10.1558
▁screamed	-10.1558
▁silence	-10.1558
▁uncircumcision	-10.1558
▁diligence	-10.1558
▁iron	-10.1558
▁trumpet	-10.1558
▁harvest	-10.1558
▁Stephen	-10.1558
▁lips	-10.1558
▁slain	-10.1558
▁Haran	-10.1558
▁honey	-10.1558
▁rising	-10.1558
▁Nancy	-10.1558
▁acceptable	-10.1559
▁spare	-10.1559
▁boldness	-10.1559
▁overlay	-10.1559
▁temptation	-10.1559
▁lodge	-10.1561
▁steal	-10.1562
▁worse	-10.1565
▁Can	-10.1566
▁hypocrites	-10.1567
▁Sure	-10.157
▁ceased	-10.1572
▁Sir	-10.1573
▁removed	-10.1573
▁defiled	-10.1576
ite	-10.1577
▁goslings	-10.1579
▁henceforth	-10.158
▁shortly	-10.158
▁hell	-10.1582
▁obtained	-10.1583
THE	-10.1585
wo	-10.1593
▁onto	-10.1595
▁stared	-10.161
▁sacrificed	-10.1617
▁soft	-10.1626
▁frogs	-10.1633
▁Greeks	-10.1645
▁widows	-10.1657
▁pro	-10.1663
▁Sen	-10.1685
▁comes	-10.1713
▁needed	-10.1729
ors	-10.1735
▁seeth	-10.1749
▁prove	-10.1774
▁sad	-10.1821
▁rebuke	-10.1831
▁holding	-10.1835
▁ill	-10.1926
ge	-10.1963
rolled	-10.1978
▁liked	-10.1996
score	-10.2001
▁fore	-10.2002
▁occasion	-10.2061
No	-10.2129
▁happen	-10.213
▁lust	-10.2134
▁burden	-10.2136
▁add	-10.2158
c	-10.216
▁revelation	-10.2173
▁region	-10.2177
▁supplication	-10.2182
▁shepherd	-10.2185
▁blanket	-10.2185
▁Egyptian	-10.2188
▁mark	-10.2196
▁dog	-10.2204
ris	-10.2205
▁beside	-10.2209
F	-10.2214
▁salt	-10.2223
▁laugh	-10.2226
▁inhabit	-10.2226
▁interest	-10.2227
▁condemn	-10.2228
▁betray	-10.2229
▁pour	-10.2233
▁heat	-10.2234
▁defile	-10.2241
ary	-10.2243
▁je	-10.2244
▁release	-10.2252
▁despise	-10.2252
▁taste	-10.2253
▁store	-10.2253
▁slow	-10.2264
▁vine	-10.2272
▁Sadducees	-10.2272
▁America	-10.2272
▁Lazarus	-10.2272
▁Manasseh	-10.2272
▁Sequoyah	-10.2272
▁awoke	-10.2272
▁confidence	-10.2272
▁countenance	-10.2272
▁doctrine	-10.2272
▁dumb	-10.2272
▁multiplied	-10.2272
▁ointment	-10.2272
▁recompense	-10.2272
▁substance	-10.2272
▁tarry	-10.2272
▁Hagar	-10.2272
▁crep	-10.2272
▁digged	-10.2272
▁contrary	-10.2272
▁gander	-10.2272
▁fellowship	-10.2273
▁loins	-10.2273
▁pretty	-10.2273
▁Zion	-10.2273
▁understood	-10.2273
▁continually	-10.2273
▁unrighteousness	-10.2273
▁ungodly	-10.2274
▁loss	-10.2274
▁wickedness	-10.2275
▁price	-10.2275
▁trade	-10.2275
▁exactly	-10.2275
▁married	-10.2276
▁heap	-10.2276
▁rejected	-10.2277
▁doorway	-10.2277
▁stedfastly	-10.2278
▁carefully	-10.2278
▁fruitful	-10.2278
▁shot	-10.228
▁stirred	-10.228
▁descended	-10.2283
▁spit	-10.2285
▁kindness	-10.2285
▁hunger	-10.2286
▁prevailed	-10.2287
▁thick	-10.2289
▁dying	-10.229
▁manure	-10.2292
▁ring	-10.2293
▁quietly	-10.2294
▁loops	-10.2295
▁bars	-10.2296
▁town	-10.2298
▁final	-10.2303
▁pond	-10.231
▁divide	-10.2314
xcept	-10.232
▁chariots	-10.232
▁rejoiced	-10.232
▁condemned	-10.2322
▁cleanse	-10.2325
▁powers	-10.233
▁promised	-10.2335
▁consider	-10.2342
ke	-10.2345
time	-10.2365
▁fasten	-10.2371
▁desired	-10.2379
ach	-10.238
▁m	-10.2383
▁dreamed	-10.241
▁seasons	-10.245
▁Re	-10.2451
▁Well	-10.2455
▁lives	-10.2457
unto	-10.2507
ight	-10.2552
▁mo	-10.2559
▁ca	-10.2567
▁parted	-10.2604
▁praying	-10.263
▁intend	-10.2684
▁west	-10.2713
▁tr	-10.2743
▁laying	-10.2743
▁shed	-10.2759
▁favor	-10.2779
▁desir	-10.2792
▁rivers	-10.2907
▁hang	-10.2927
▁custom	-10.2947
▁case	-10.2949
▁frog	-10.2956
▁lamp	-10.2956
▁trap	-10.2959
▁prophesy	-10.2986
what	-10.2986
though	-10.299
▁fetch	-10.2992
▁stretch	-10.2999
▁Say	-10.3002
that	-10.3007
▁Rabbi	-10.3008
▁endure	-10.3015
▁owner	-10.3019
▁complete	-10.302
ug	-10.3021
▁hung	-10.3026
▁proud	-10.3026
▁commend	-10.3028
▁eleven	-10.303
▁content	-10.3031
▁branch	-10.304
sarea	-10.3041
▁Babylon	-10.3041
▁Capernaum	-10.3041
▁English	-10.3041
▁Nevertheless	-10.3041
▁Remember	-10.3041
▁Titus	-10.3041
▁cousin	-10.3041
▁enemy	-10.3041
▁epistle	-10.3041
▁fifteen	-10.3041
▁ghost	-10.3041
▁thief	-10.3041
▁travail	-10.3041
▁Festus	-10.3041
▁calf	-10.3041
▁Moreover	-10.3041
▁broad	-10.3041
▁compass	-10.3041
▁excellent	-10.3041
▁void	-10.3041
▁stuff	-10.3041
▁particular	-10.3041
▁famous	-10.3041
▁Edom	-10.3042
▁bidden	-10.3042
▁prophecy	-10.3042
▁heavy	-10.3042
▁family	-10.3042
▁nay	-10.3042
▁Which	-10.3042
▁palm	-10.3042
▁single	-10.3043
▁ashes	-10.3043
▁Abel	-10.3043
▁jealousy	-10.3043
▁husbandmen	-10.3043
▁bind	-10.3044
▁kindred	-10.3044
▁Hello	-10.3044
▁trial	-10.3044
▁beforehand	-10.3044
▁shaken	-10.3044
bee	-10.3045
▁cherubims	-10.3045
▁determined	-10.3045
▁wander	-10.3046
▁driven	-10.3047
▁Homer	-10.3049
▁portion	-10.3049
▁later	-10.3049
▁required	-10.305
▁everywhere	-10.305
▁ball	-10.3052
▁fit	-10.3056
▁wrapp	-10.3058
ier	-10.3062
▁remaineth	-10.3062
▁increased	-10.3062
▁pitched	-10.3064
▁hateth	-10.3064
▁anybody	-10.3067
▁hooks	-10.307
▁planted	-10.3071
▁stool	-10.3071
▁youngest	-10.3072
▁hunting	-10.3075
▁publicans	-10.308
▁withered	-10.3085
b	-10.3086
▁likeness	-10.3087
▁stead	-10.3087
▁betrayed	-10.3088
▁en	-10.3091
▁special	-10.3091
▁does	-10.3091
▁fugitives	-10.3094
Many	-10.3094
▁tall	-10.3096
▁aside	-10.3101
▁standeth	-10.3136
▁findeth	-10.314
▁builded	-10.3154
▁greatest	-10.3157
▁numbered	-10.3159
▁gotten	-10.317
▁hosts	-10.3171
▁reading	-10.3171
▁Zuckermans	-10.3174
▁Hebrews	-10.3178
▁waited	-10.3182
▁sounded	-10.3189
▁shoulders	-10.3214
ought	-10.3233
▁tribes	-10.3234
▁meeting	-10.3245
▁sleeping	-10.3264
if	-10.3285
ned	-10.3289
stead	-10.3382
▁masters	-10.339
all	-10.3413
nder	-10.345
reached	-10.347
▁thousands	-10.3491
▁Heth	-10.3514
▁yours	-10.3518
▁seal	-10.3538
ened	-10.3629
▁Du	-10.3701
ic	-10.3717
▁forget	-10.3763
▁paper	-10.378
▁shadow	-10.3785
▁animal	-10.379
▁vessel	-10.379
▁Pharisee	-10.3791
▁band	-10.3793
▁elder	-10.3794
▁sack	-10.3794
▁shekel	-10.3796
▁bond	-10.3799
▁color	-10.3803
▁herb	-10.3807
▁prisoner	-10.3812
Do	-10.3815
Can	-10.3818
▁doubt	-10.3823
▁swing	-10.3823
▁proclaim	-10.3831
▁reckon	-10.3832
▁press	-10.3835
▁suck	-10.3835
▁weep	-10.3837
▁deed	-10.3842
▁restore	-10.3857
▁observe	-10.3858
▁memorial	-10.386
elah	-10.3863
▁broke	-10.3871
id	-10.3871
ncle	-10.3874
▁buttermilk	-10.3875
▁Calhoun	-10.3875
▁Ephraim	-10.3875
▁Finally	-10.3875
▁Gomorrah	-10.3875
▁Goshen	-10.3875
▁High	-10.3875
▁Lichen	-10.3875
▁Solomon	-10.3875
▁asunder	-10.3875
▁creation	-10.3875
▁female	-10.3875
▁longsuffering	-10.3875
▁school	-10.3875
▁slept	-10.3875
▁twice	-10.3875
▁idle	-10.3875
▁spend	-10.3875
▁hidden	-10.3875
▁crieth	-10.3875
▁oak	-10.3875
▁alms	-10.3875
▁destruction	-10.3875
▁dried	-10.3875
▁wroth	-10.3875
▁forehead	-10.3875
▁steward	-10.3875
▁colt	-10.3875
▁Dorian	-10.3875
▁stole	-10.3875
▁sang	-10.3875
▁dump	-10.3875
▁pasture	-10.3875
▁scratch	-10.3875
▁corruption	-10.3876
▁lawyer	-10.3876
▁size	-10.3876
▁fun	-10.3876
▁denied	-10.3876
▁tender	-10.3876
▁kine	-10.3876
▁trespasses	-10.3876
▁sow	-10.3876
▁expect	-10.3876
▁thanksgiving	-10.3877
▁pitcher	-10.3877
▁astonished	-10.3877
▁discern	-10.3877
▁ministration	-10.3877
▁merciful	-10.3878
▁dash	-10.3878
▁cook	-10.3879
▁worth	-10.3879
▁deer	-10.3879
▁error	-10.388
▁getting	-10.3882
▁thirst	-10.3884
▁mill	-10.3884
▁whispered	-10.3884
▁bath	-10.3884
▁drawn	-10.3885
▁persuaded	-10.3887
▁dirty	-10.3887
▁floor	-10.3887
▁wonderful	-10.3889
▁warned	-10.3893
▁belly	-10.3897
▁partakers	-10.3905
▁separate	-10.3907
▁Just	-10.3911
▁attention	-10.3913
▁highest	-10.3917
▁Canaanites	-10.3918
▁cows	-10.392
▁string	-10.392
▁sufferings	-10.3925
▁bowl	-10.3928
▁Don	-10.394
▁drunken	-10.3943
▁...	-10.3951
▁str	-10.3951
▁dwelleth	-10.3953
▁reported	-10.3956
▁shekels	-10.3962
▁West	-10.3967
▁carrying	-10.3976
▁burdens	-10.3977
▁o	-10.3982
▁hiding	-10.3982
▁canst	-10.3988
▁burning	-10.3989
▁anointed	-10.3991
▁rams	-10.4
be	-10.403
z	-10.4038
ew	-10.4039
▁heir	-10.4055
▁fo	-10.4065
reby	-10.4068
ied	-10.4077
▁dukes	-10.4077
ine	-10.4091
▁Andrew	-10.4131
ad	-10.4144
▁sing	-10.416
aw	-10.4177
▁net	-10.4192
▁rested	-10.4193
▁La	-10.4213
ably	-10.4253
▁minded	-10.4261
▁ex	-10.4279
▁co	-10.4285
▁claim	-10.4347
O	-10.4358
hi	-10.4378
▁spra	-10.442
▁mov	-10.4507
▁w	-10.4516
ard	-10.4525
▁Je	-10.4526
wn	-10.4558
minded	-10.4559
▁cloth	-10.4602
▁fillet	-10.4627
▁person	-10.4666
▁leg	-10.4683
▁thread	-10.4684
▁log	-10.4691
▁hatchet	-10.4692
ring	-10.4695
▁sinner	-10.4702
▁J	-10.4703
▁soldier	-10.471
▁teacher	-10.4713
▁chamber	-10.4715
bye	-10.4726
Look	-10.4727
C	-10.4727
Let	-10.4728
which	-10.4728
▁interpret	-10.4733
And	-10.4734
▁travel	-10.4734
▁sojourn	-10.4734
▁veil	-10.4738
▁inter	-10.4745
▁appoint	-10.4748
te	-10.4762
▁humble	-10.4763
▁cease	-10.4764
▁prepare	-10.4765
▁nice	-10.477
▁pleasant	-10.477
um	-10.4773
▁direct	-10.4778
▁unrighteous	-10.4782
erhaps	-10.4782
▁equal	-10.4783
▁fulfil	-10.4783
▁suggest	-10.4783
▁absent	-10.4784
▁Agrippa	-10.4784
▁Axe	-10.4784
▁Baptist	-10.4784
▁Featherstone	-10.4784
▁Iscariot	-10.4784
▁Lamech	-10.4784
▁Martha	-10.4784
▁Midian	-10.4784
▁Wasseton	-10.4784
▁Zebedee	-10.4784
▁abiding	-10.4784
▁crucify	-10.4784
▁desolate	-10.4784
▁exercise	-10.4784
▁laurel	-10.4784
▁leap	-10.4784
▁savour	-10.4784
▁smooth	-10.4784
▁swine	-10.4784
▁trembling	-10.4784
▁Also	-10.4784
▁Ephron	-10.4784
▁atonement	-10.4784
▁fulness	-10.4784
▁merry	-10.4784
▁lean	-10.4784
▁dragon	-10.4784
▁resist	-10.4784
▁Sidon	-10.4784
▁choice	-10.4784
▁token	-10.4784
▁defence	-10.4784
▁Ross	-10.4784
▁dinner	-10.4784
▁trip	-10.4784
▁Enoch	-10.4784
▁Wayah	-10.4784
▁chair	-10.4784
▁uttermost	-10.4784
▁Ham	-10.4784
▁plow	-10.4784
▁lake	-10.4785
▁kid	-10.4785
▁Master	-10.4785
▁coast	-10.4785
▁horsemen	-10.4785
▁condemnation	-10.4785
▁distance	-10.4785
▁Hamor	-10.4785
▁pluck	-10.4785
▁plann	-10.4786
▁yourself	-10.4787
▁roof	-10.4787
▁prize	-10.4787
▁snare	-10.4788
▁post	-10.479
▁radiant	-10.4791
▁whereby	-10.4791
▁shone	-10.4791
▁sixty	-10.4793
▁sober	-10.4794
▁grown	-10.4795
▁pile	-10.4795
▁robbers	-10.4797
▁murmured	-10.4798
ixt	-10.4799
▁consumed	-10.4802
▁shouted	-10.4802
▁Edith	-10.4803
▁terrific	-10.4803
man	-10.4806
▁cleansed	-10.4811
▁favoured	-10.4811
▁failed	-10.4815
▁refused	-10.4817
▁Hav	-10.4817
joined	-10.4818
▁everybody	-10.4822
▁St	-10.4823
▁Rabbit	-10.4823
▁wondered	-10.4824
▁Ch	-10.4826
▁pressed	-10.4831
▁laughed	-10.484
▁Beer	-10.4843
▁speaker	-10.4848
▁plagues	-10.4855
▁Per	-10.4868
▁established	-10.4869
▁party	-10.4874
▁glass	-10.4889
▁blankets	-10.4897
old	-10.4897
ive	-10.4911
▁forest	-10.4927
▁dozen	-10.4928
not	-10.4934
▁villages	-10.4956
▁fingers	-10.4956
▁hit	-10.4962
▁shape	-10.4977
▁walls	-10.4977
▁Beth	-10.498
▁goest	-10.4985
ns	-10.4988
▁strive	-10.5013
▁gr	-10.5021
▁apples	-10.5061
▁ha	-10.5071
ain	-10.5132
▁showing	-10.5138
▁Dan	-10.5142
ched	-10.5173
▁wr	-10.5207
▁husbands	-10.5229
▁telling	-10.5244
▁fact	-10.5264
most	-10.5278
em	-10.5291
math	-10.5299
▁vi	-10.5408
ank	-10.5442
▁bade	-10.5462
▁Get	-10.5486
ber	-10.5492
▁worked	-10.5527
▁tro	-10.5553
▁wonder	-10.5592
▁fields	-10.5608
loved	-10.5671
▁earthquake	-10.5684
▁thigh	-10.5689
▁minute	-10.5692
▁window	-10.5692
▁knop	-10.5694
▁ordinance	-10.5695
▁prince	-10.5695
▁basket	-10.5696
▁meal	-10.5699
▁figure	-10.5704
where	-10.5713
ne	-10.5715
▁corrupt	-10.5719
Why	-10.5728
un	-10.5728
▁consent	-10.5729
Don	-10.5731
There	-10.5734
▁accept	-10.5736
▁pull	-10.5743
seat	-10.5755
▁healing	-10.5759
▁increase	-10.5764
▁awake	-10.5766
▁earnest	-10.5769
▁hunt	-10.577
▁suppose	-10.5771
▁ride	-10.5772
sheba	-10.5783
▁fool	-10.5784
▁Amalek	-10.5784
▁Hivite	-10.5784
▁Jethro	-10.5784
▁Magdalene	-10.5784
▁Mamre	-10.5784
▁Peace	-10.5784
▁Philadelphia	-10.5784
▁Philistines	-10.5784
▁Samaria	-10.5784
▁Silas	-10.5784
▁apparel	-10.5784
▁bacon	-10.5784
▁believing	-10.5784
▁coupling	-10.5784
▁dishonor	-10.5784
▁fault	-10.5784
▁fountain	-10.5784
▁liberty	-10.5784
▁lieutenant	-10.5784
▁ministry	-10.5784
▁plenty	-10.5784
▁stomach	-10.5784
▁strife	-10.5784
▁taches	-10.5784
▁thrice	-10.5784
▁tribute	-10.5784
▁underneath	-10.5784
▁aught	-10.5784
▁barren	-10.5784
▁enjoy	-10.5784
▁imitat	-10.5784
▁Ananias	-10.5784
▁bosom	-10.5784
▁shirt	-10.5784
▁firmament	-10.5784
▁Bethany	-10.5784
▁JE	-10.5784
▁shining	-10.5784
▁staff	-10.5784
▁curious	-10.5784
wels	-10.5784
▁weather	-10.5784
▁chicken	-10.5784
▁Speak	-10.5784
▁remission	-10.5784
▁cool	-10.5784
▁meekness	-10.5784
▁fog	-10.5784
▁George	-10.5784
▁dropped	-10.5784
▁Terah	-10.5785
▁decomposers	-10.5785
▁fighting	-10.5785
▁bunch	-10.5785
▁dew	-10.5786
▁armies	-10.5786
▁darkened	-10.5786
▁shake	-10.5787
▁span	-10.5787
▁testified	-10.5787
▁upper	-10.5787
▁nakedness	-10.5787
ueen	-10.5787
▁motion	-10.5788
▁exhortation	-10.5788
▁approved	-10.5789
▁seize	-10.5789
▁moreover	-10.579
▁busy	-10.579
▁Henry	-10.5793
▁boldly	-10.5794
▁Perhaps	-10.5795
▁flame	-10.5796
▁endureth	-10.5797
▁butler	-10.58
▁overcometh	-10.58
▁Pig	-10.58
▁agreed	-10.5801
▁accomplished	-10.5805
▁pushed	-10.5805
▁spices	-10.5807
▁someone	-10.5809
Run	-10.581
▁separated	-10.581
▁pack	-10.5815
▁listening	-10.5815
▁anyone	-10.5816
▁blow	-10.5817
hick	-10.5819
▁dragg	-10.5819
owed	-10.582
▁escaped	-10.5821
▁searched	-10.5823
▁guide	-10.5826
▁lieth	-10.583
▁supposed	-10.5834
▁Though	-10.5834
▁proclaimed	-10.5837
▁Wom	-10.584
▁thunders	-10.5844
▁brush	-10.5856
▁tenth	-10.5859
▁streets	-10.5863
▁judgeth	-10.5864
▁falleth	-10.5869
▁shine	-10.5882
▁teachers	-10.5889
▁sacks	-10.5891
▁deeds	-10.5894
▁perished	-10.5916
▁formed	-10.5918
ure	-10.593
▁ru	-10.5936
▁neighbors	-10.5956
▁force	-10.5961
▁hoped	-10.5962
▁beam	-10.5998
▁Ma	-10.6044
ant	-10.6076
▁simple	-10.6081
▁sha	-10.611
thrown	-10.6143
▁ministering	-10.6161
▁bell	-10.6164
land	-10.6173
▁promises	-10.6175
▁matters	-10.6183
▁dwelling	-10.6184
▁dreams	-10.6187
▁sprinkl	-10.6188
▁Pr	-10.62
▁Pa	-10.6208
▁Me	-10.6224
▁share	-10.6239
▁kinds	-10.626
▁thrones	-10.626
▁Ga	-10.6308
les	-10.6316
u	-10.6318
▁winds	-10.6318
▁par	-10.6324
▁Cap	-10.6396
ra	-10.642
me	-10.643
▁rode	-10.6473
led	-10.6487
▁sakes	-10.6504
ump	-10.6516
▁Wil	-10.6531
▁declar	-10.6554
ot	-10.6606
▁wave	-10.6658
▁hat	-10.6672
▁knee	-10.6703
ments	-10.6704
▁tin	-10.6706
od	-10.6714
▁hu	-10.6715
ery	-10.6717
dded	-10.6792
▁drunk	-10.6794
▁captive	-10.68
▁habitation	-10.68
▁game	-10.68
▁mourn	-10.6803
▁effort	-10.6803
▁nest	-10.6804
▁virgin	-10.6804
▁flower	-10.6806
▁street	-10.6807
▁plague	-10.6808
ware	-10.6809
▁drop	-10.6809
▁search	-10.6814
▁scribe	-10.6815
▁girl	-10.6818
▁youth	-10.6819
▁path	-10.6821
▁rubb	-10.6822
pleasing	-10.6828
▁marvel	-10.6834
▁twist	-10.6838
▁pot	-10.6844
▁testify	-10.6847
▁delight	-10.6849
▁ninet	-10.685
▁due	-10.6851
▁obtain	-10.6852
special	-10.6854
▁mad	-10.6855
▁real	-10.6855
▁den	-10.6861
▁preserve	-10.6873
▁bid	-10.6873
▁consume	-10.6876
▁bold	-10.6882
▁entire	-10.6883
Thi	-10.6885
We	-10.689
laver	-10.6891
eople	-10.6892
▁trespass	-10.6893
▁public	-10.6893
▁danger	-10.6894
▁agree	-10.6895
▁tight	-10.6895
▁Padan	-10.6895
▁future	-10.6895
▁Beaver	-10.6895
▁Bethuel	-10.6895
▁Charlie	-10.6895
▁Japheth	-10.6895
▁Joppa	-10.6895
▁Joshua	-10.6895
▁Zacharias	-10.6895
▁altogether	-10.6895
▁bundle	-10.6895
▁diligently	-10.6895
▁disobedience	-10.6895
▁fifth	-10.6895
▁furnace	-10.6895
▁grieved	-10.6895
▁group	-10.6895
▁guile	-10.6895
▁indignation	-10.6895
▁iniquities	-10.6895
▁kitchen	-10.6895
▁leaf	-10.6895
▁midnight	-10.6895
▁nevertheless	-10.6895
▁offended	-10.6895
▁practise	-10.6895
▁publish	-10.6895
▁sanctification	-10.6895
▁silk	-10.6895
▁slops	-10.6895
▁speckled	-10.6895
▁stoop	-10.6895
▁surname	-10.6895
▁sweat	-10.6895
▁venison	-10.6895
▁violence	-10.6895
▁Charleston	-10.6895
▁abyss	-10.6895
▁devout	-10.6895
▁Apollos	-10.6895
▁angry	-10.6895
▁wove	-10.6895
▁brimstone	-10.6895
▁smitten	-10.6895
▁slaves	-10.6895
▁gracious	-10.6895
▁Bilhah	-10.6895
▁degree	-10.6895
▁magicians	-10.6895
▁below	-10.6895
▁blew	-10.6895
▁bride	-10.6895
▁trick	-10.6895
▁easier	-10.6895
▁Everything	-10.6895
▁wages	-10.6895
▁lightning	-10.6895
▁harm	-10.6895
▁privily	-10.6895
▁Seir	-10.6896
▁mix	-10.6896
▁unbelief	-10.6896
▁issue	-10.6896
▁mingled	-10.6896
▁usual	-10.6896
▁New	-10.6897
▁choose	-10.6897
▁sentence	-10.6897
▁Hono	-10.6897
▁Chapman	-10.6897
▁upright	-10.6897
▁Anah	-10.6897
▁innocent	-10.6897
▁roast	-10.6897
▁assembly	-10.6898
▁confession	-10.6898
▁unbelieving	-10.6898
▁print	-10.6899
▁rear	-10.6899
▁bondservant	-10.69
▁muskets	-10.6901
▁crickets	-10.6901
▁City	-10.6901
▁foolishness	-10.6901
▁honorable	-10.6901
▁appeal	-10.6901
▁somewhere	-10.6902
▁Way	-10.6902
▁bag	-10.6903
▁sighed	-10.6903
▁dart	-10.6904
owbeit	-10.6905
▁mention	-10.6905
▁Seven	-10.6905
▁earnestly	-10.6908
▁boots	-10.6911
▁locusts	-10.6911
▁maybe	-10.6913
▁dove	-10.6915
▁persecuted	-10.6918
▁hinder	-10.692
▁Sit	-10.6924
▁afflicted	-10.6929
▁listened	-10.6929
▁mocked	-10.6929
▁peril	-10.6934
▁br	-10.6934
▁entreated	-10.6934
▁sand	-10.6934
▁Fer	-10.6939
▁changed	-10.6939
▁hunters	-10.6944
▁Doth	-10.6948
▁interpreted	-10.6949
▁pocket	-10.6952
ttach	-10.6957
▁valu	-10.6961
▁breasts	-10.6963
▁soli	-10.6966
▁kindly	-10.6967
▁beans	-10.6971
▁miles	-10.6974
▁suit	-10.6976
▁leavened	-10.6988
ix	-10.6989
▁baskets	-10.6994
▁kneel	-10.7004
▁cloths	-10.7006
▁prisoners	-10.7023
▁bestow	-10.7026
▁besides	-10.7036
▁says	-10.7048
▁beating	-10.7054
▁mess	-10.7061
▁lots	-10.7068
▁exalt	-10.7069
op	-10.7102
▁coats	-10.711
▁Ho	-10.712
▁stoned	-10.7121
▁salutation	-10.7121
mah	-10.7169
▁fearful	-10.7179
▁parables	-10.7184
▁lands	-10.7185
▁ward	-10.7215
▁tombs	-10.7216
▁reasoning	-10.7245
▁god	-10.7247
▁sp	-10.7334
fully	-10.7338
▁aim	-10.7348
ans	-10.7354
▁clouds	-10.7356
▁today	-10.7379
ia	-10.7389
ture	-10.7396
ol	-10.7409
▁haven	-10.7454
na	-10.7471
▁puff	-10.753
▁rebuk	-10.7637
▁arrow	-10.7643
godly	-10.767
▁stepp	-10.7686
▁Repe	-10.7692
formed	-10.7708
▁avenge	-10.7741
▁po	-10.7751
▁withstand	-10.7756
dal	-10.7789
▁looks	-10.7793
▁rattl	-10.7796
▁step	-10.7836
ern	-10.7841
▁judgments	-10.7854
▁inward	-10.7864
▁Arables	-10.7876
▁doors	-10.7895
morrow	-10.7909
ries	-10.7914
▁ho	-10.7926
▁bush	-10.7933
▁hem	-10.7935
ered	-10.7971
▁Abi	-10.7977
▁cove	-10.7978
▁watered	-10.7983
ent	-10.799
gged	-10.8025
nother	-10.8033
▁fail	-10.8038
▁tradition	-10.8046
▁Cas	-10.8048
▁trunk	-10.8055
▁climb	-10.8056
kins	-10.8058
▁fugitive	-10.8058
▁chariot	-10.8059
▁mile	-10.8059
▁bras	-10.8062
▁toil	-10.8062
▁shoe	-10.8067
K	-10.8083
aram	-10.8088
you	-10.8089
Fern	-10.809
▁fold	-10.8092
▁bone	-10.8093
▁rail	-10.8095
▁tear	-10.8095
▁torment	-10.8099
▁dress	-10.8101
▁entreat	-10.8102
down	-10.8107
▁baptize	-10.8114
rust	-10.8116
some	-10.8118
▁provoke	-10.8123
doing	-10.8126
▁becoming	-10.813
▁patient	-10.8131
▁crow	-10.8134
▁Maj	-10.8139
▁murder	-10.8139
aithful	-10.8144
eathen	-10.8144
▁vari	-10.8145
▁advantage	-10.8145
▁Barabbas	-10.8145
▁Caiaphas	-10.8145
▁Cephas	-10.8145
▁Cilicia	-10.8145
▁Naphtali	-10.8145
▁Rejoice	-10.8145
▁Return	-10.8145
▁Stretch	-10.8145
▁Zebulun	-10.8145
▁abundance	-10.8145
▁anguish	-10.8145
▁attempt	-10.8145
▁beauty	-10.8145
▁capital	-10.8145
▁cloak	-10.8145
▁coffee	-10.8145
▁courage	-10.8145
▁dancing	-10.8145
▁desperate	-10.8145
▁example	-10.8145
▁expedient	-10.8145
▁experience	-10.8145
▁necessity	-10.8145
▁ninth	-10.8145
▁nourish	-10.8145
▁olive	-10.8145
▁ouches	-10.8145
▁perdition	-10.8145
▁pledge	-10.8145
▁renew	-10.8145
▁stories	-10.8145
▁supply	-10.8145
▁terribl	-10.8145
▁uncircumcised	-10.8145
▁valley	-10.8145
▁wolf	-10.8145
▁almonds	-10.8145
▁mitre	-10.8145
▁stiff	-10.8145
▁Bethlehem	-10.8145
▁Dinah	-10.8145
▁Scot	-10.8145
▁blank	-10.8145
▁easy	-10.8145
▁narrow	-10.8145
▁snake	-10.8145
▁baby	-10.8145
▁calm	-10.8145
▁Mark	-10.8145
▁dispute	-10.8145
▁pattern	-10.8145
▁redemption	-10.8145
▁Rome	-10.8145
▁Think	-10.8145
▁abomination	-10.8145
▁conversation	-10.8145
▁yoke	-10.8145
▁provide	-10.8145
▁tunnel	-10.8145
▁townhouse	-10.8145
▁chance	-10.8145
▁Gerar	-10.8145
▁coals	-10.8145
▁Great	-10.8145
▁Adah	-10.8145
▁division	-10.8145
▁blameless	-10.8145
▁disgust	-10.8145
▁lump	-10.8146
▁Tyre	-10.8146
▁impossible	-10.8146
▁zealous	-10.8146
▁blasphemy	-10.8146
▁covetousness	-10.8146
▁miserable	-10.8146
▁admonish	-10.8146
▁signet	-10.8146
▁Jake	-10.8146
▁Eber	-10.8147
▁torn	-10.8147
ook	-10.8147
▁sufficien	-10.8147
▁spies	-10.8148
▁partake	-10.8148
▁profitable	-10.8148
▁sorrowful	-10.8148
▁dish	-10.8148
▁dear	-10.8148
▁privately	-10.8149
▁kindled	-10.8149
▁clay	-10.8149
▁Lowan	-10.8149
▁clerk	-10.8149
▁skull	-10.8149
▁shift	-10.8149
▁fresh	-10.8149
▁scourge	-10.815
▁Love	-10.815
▁vast	-10.8151
▁weakness	-10.8151
▁doesn	-10.8151
▁cheek	-10.8152
▁firstfruits	-10.8152
▁uncleanness	-10.8152
▁track	-10.8153
▁ordained	-10.8154
▁grabbed	-10.8154
▁Day	-10.8154
▁discover	-10.8156
▁anyway	-10.8157
▁wasn	-10.8157
▁hopeless	-10.8157
▁hay	-10.8159
▁entirely	-10.8159
▁selves	-10.8163
▁fist	-10.8164
▁health	-10.8165
▁descending	-10.8167
▁farther	-10.8167
▁waved	-10.8168
▁Soon	-10.8168
▁stripes	-10.8169
light	-10.8169
▁contain	-10.817
▁clearly	-10.8175
▁smaller	-10.8179
up	-10.8179
line	-10.8179
▁yelled	-10.818
▁endured	-10.8182
▁disappeared	-10.8183
▁pearls	-10.8187
▁ridges	-10.8187
▁diseases	-10.8187
ul	-10.8192
▁pins	-10.8197
▁limbs	-10.8198
▁babes	-10.8198
▁porch	-10.8199
▁music	-10.82
▁corrupted	-10.8201
▁openly	-10.8201
▁bugs	-10.8202
mote	-10.8205
▁dressed	-10.8209
▁wagons	-10.821
▁transgressions	-10.821
▁clothing	-10.8211
▁shade	-10.8212
▁proved	-10.8216
▁wit	-10.8217
▁quarter	-10.8219
▁freely	-10.822
▁teacheth	-10.822
▁sowed	-10.8228
▁island	-10.8236
▁poke	-10.8246
▁drops	-10.8247
▁pigs	-10.8256
▁ordinances	-10.8258
▁princes	-10.8258
pa	-10.8258
ab	-10.8277
▁ra	-10.8279
▁barely	-10.8282
ping	-10.8284
lee	-10.8287
▁obeyed	-10.829
▁judgest	-10.829
▁nets	-10.8303
ites	-10.8304
▁shepherds	-10.8306
▁towns	-10.8306
▁preacher	-10.8309
▁beholding	-10.8317
ctually	-10.8318
▁weeks	-10.8318
▁hills	-10.833
▁sawest	-10.8333
▁Seth	-10.8334
▁seeme	-10.8359
▁handle	-10.8373
▁acknowledge	-10.8377
▁Write	-10.8379
▁opening	-10.8383
▁songs	-10.8391
▁perfected	-10.8411
▁rods	-10.846
ions	-10.8467
ee	-10.8487
iel	-10.8495
▁lights	-10.8499
▁ti	-10.8538
▁lover	-10.855
aved	-10.8554
liness	-10.8557
▁strike	-10.8559
cy	-10.8596
▁Ar	-10.8651
tuck	-10.8669
▁sisters	-10.8673
▁principal	-10.8715
▁Les	-10.8818
▁Al	-10.8819
ree	-10.8831
hu	-10.8847
▁Z	-10.8855
▁dra	-10.8857
▁Whe	-10.8873
pe	-10.8886
ush	-10.8888
ft	-10.8896
mer	-10.8916
▁thereby	-10.892
▁ended	-10.8925
▁settl	-10.8925
▁saidst	-10.8925
ated	-10.8949
▁admir	-10.8975
▁camest	-10.8985
▁liken	-10.9017
dden	-10.9049
▁bus	-10.9096
▁wa	-10.9114
▁du	-10.9125
ver	-10.9168
way	-10.9171
ice	-10.9192
▁distress	-10.9225
▁butter	-10.9297
ings	-10.9326
▁hearted	-10.9331
▁Am	-10.9341
▁plan	-10.9354
ade	-10.9381
rash	-10.9385
ash	-10.939
▁Ja	-10.9391
ipped	-10.9407
ut	-10.9409
▁Wa	-10.9414
▁Er	-10.9438
il	-10.9438
W	-10.9439
house	-10.9444
over	-10.9455
▁bullock	-10.9464
▁platter	-10.9466
▁plant	-10.9467
▁tale	-10.9475
▁bank	-10.9475
▁blade	-10.9479
▁mock	-10.9481
▁dance	-10.9481
▁listen	-10.9484
▁thunder	-10.9485
▁clothe	-10.9485
▁talent	-10.9489
▁breast	-10.9491
▁weigh	-10.95
▁envy	-10.9509
Just	-10.9516
stool	-10.9516
▁forbear	-10.9516
deep	-10.9518
Where	-10.9518
but	-10.9518
So	-10.952
Go	-10.952
▁suppos	-10.952
My	-10.9524
▁afflict	-10.9528
▁disappear	-10.9529
▁favour	-10.953
▁hatch	-10.9531
▁jump	-10.9531
▁finish	-10.9532
▁harp	-10.9543
same	-10.9544
▁persecute	-10.9548
▁harden	-10.9553
▁plot	-10.9554
▁pea	-10.9557
▁silent	-10.956
▁quick	-10.9562
pon	-10.9563
▁adulter	-10.9565
▁careful	-10.9565
▁fade	-10.9566
▁potato	-10.9571
▁engrav	-10.9572
▁forsake	-10.9572
▁birth	-10.9573
▁speed	-10.9573
▁Galil	-10.9573
▁affection	-10.9573
▁Achaia	-10.9573
▁Aholibamah	-10.9573
▁Arphaxad	-10.9573
▁Beelzebub	-10.9573
▁Children	-10.9573
▁Cornelius	-10.9573
▁Cyprus	-10.9573
▁Cyren	-10.9573
▁Eliphaz	-10.9573
▁Elisabeth	-10.9573
▁Felix	-10.9573
▁Fussy	-10.9573
▁Galatia	-10.9573
▁Grounds	-10.9573
▁Hezron	-10.9573
▁Lieutenant	-10.9573
▁Melchizedek	-10.9573
▁Milcah	-10.9573
▁Zilpah	-10.9573
▁Zoar	-10.9573
▁accompan	-10.9573
▁adversaries	-10.9573
▁carnal	-10.9573
▁enormous	-10.9573
▁frozen	-10.9573
▁furniture	-10.9573
▁grandchildren	-10.9573
▁grapes	-10.9573
▁honour	-10.9573
▁infirmity	-10.9573
▁mediator	-10.9573
▁midwives	-10.9573
▁mischief	-10.9573
▁obedient	-10.9573
▁opportunity	-10.9573
▁outdoors	-10.9573
▁refuge	-10.9573
▁ringstraked	-10.9573
▁runners	-10.9573
▁steep	-10.9573
▁storm	-10.9573
▁strove	-10.9573
▁woke	-10.9573
▁wolves	-10.9573
▁clever	-10.9573
▁slaughter	-10.9573
▁Olives	-10.9573
▁aloud	-10.9573
▁beckon	-10.9573
▁gnash	-10.9573
▁occupied	-10.9573
▁pertain	-10.9573
▁adversary	-10.9573
▁myrrh	-10.9573
▁Korah	-10.9573
▁consecrate	-10.9573
▁regular	-10.9573
▁important	-10.9574
▁doctor	-10.9574
▁stockade	-10.9574
▁punishment	-10.9574
▁sinneth	-10.9574
▁Enos	-10.9574
▁birthright	-10.9574
▁holiness	-10.9574
▁stedfast	-10.9574
▁offspring	-10.9574
▁frame	-10.9574
▁Hades	-10.9574
▁train	-10.9574
▁mercies	-10.9574
▁freedom	-10.9574
▁litter	-10.9574
▁comment	-10.9574
▁reins	-10.9574
▁grate	-10.9575
▁check	-10.9575
▁Bash	-10.9575
▁flight	-10.9575
▁imagination	-10.9576
▁useful	-10.9576
▁lame	-10.9576
▁Asher	-10.9576
▁rejecteth	-10.9576
▁hundredfold	-10.9576
▁err	-10.9577
▁human	-10.9577
▁sense	-10.9577
▁perplexed	-10.9577
▁evermore	-10.9577
▁books	-10.9577
▁fever	-10.9577
▁Him	-10.9577
▁spear	-10.9577
▁swarm	-10.9577
▁Bar	-10.9578
▁southward	-10.9578
▁chest	-10.9578
▁Cainan	-10.9578
▁eastward	-10.9578
▁adorn	-10.9578
▁bake	-10.9578
▁throat	-10.9579
▁onyx	-10.9579
▁lend	-10.9579
zale	-10.958
▁fourscore	-10.958
▁recent	-10.9581
▁gladness	-10.9581
▁frost	-10.9582
▁menservants	-10.9583
▁sickle	-10.9585
▁view	-10.9585
▁box	-10.9585
▁pursued	-10.9585
▁march	-10.9586
▁Watch	-10.9588
▁shineth	-10.9588
▁ham	-10.9589
▁managed	-10.9589
▁ascended	-10.959
▁deceived	-10.9591
▁refreshed	-10.9591
▁passage	-10.9592
▁tithes	-10.9595
▁soweth	-10.9595
ked	-10.9595
▁Hast	-10.9595
▁loaded	-10.9598
▁strengthened	-10.9599
der	-10.9599
▁Gad	-10.96
▁axe	-10.9602
▁convict	-10.9604
▁manna	-10.9607
tial	-10.9609
▁scared	-10.9609
▁restored	-10.9609
skins	-10.9618
▁realize	-10.9618
▁observed	-10.962
▁gladly	-10.9621
▁pe	-10.9624
▁tasted	-10.9625
▁climbing	-10.9628
▁Amorites	-10.9636
▁Only	-10.9637
▁higher	-10.9638
▁wondering	-10.9643
ue	-10.9645
▁weary	-10.9655
▁answereth	-10.9656
▁hanged	-10.966
▁mid	-10.9665
▁rust	-10.9665
▁plans	-10.9665
▁sealed	-10.9669
▁incorruptible	-10.9671
▁beware	-10.9674
▁Hai	-10.9677
▁trunks	-10.9678
▁therewith	-10.968
▁steps	-10.968
▁noon	-10.9687
▁redeemed	-10.9687
▁baker	-10.969
▁doves	-10.9692
▁learning	-10.9694
▁fainted	-10.97
▁upward	-10.9704
▁shadows	-10.9734
▁tempt	-10.9738
▁herbs	-10.9745
▁feeding	-10.9755
immed	-10.9761
▁dogs	-10.9762
tion	-10.9762
▁castle	-10.9762
▁accus	-10.9765
▁meant	-10.9766
L	-10.9784
ack	-10.9796
▁wouldn	-10.9805
▁attend	-10.9811
▁suffering	-10.9827
▁possessions	-10.9833
stroke	-10.9835
▁sixt	-10.9836
▁reed	-10.9839
▁spot	-10.9841
▁candlesticks	-10.986
▁pitch	-10.9911
do	-10.9955
▁captains	-10.996
▁temper	-10.9961
▁imagine	-10.9966
▁lovely	-10.9973
▁seats	-10.9984
more	-10.9992
▁blot	-11.003
▁Roman	-11.0036
ins	-11.0049
go	-11.0065
▁killing	-11.0082
▁keeper	-11.0119
▁wars	-11.012
om	-11.0153
▁Will	-11.0155
▁boats	-11.0162
▁sounds	-11.0165
ith	-11.0186
lock	-11.0186
▁courts	-11.0191
▁cow	-11.0218
▁Ad	-11.022
▁El	-11.0235
she	-11.0312
os	-11.0328
▁tents	-11.0338
ified	-11.0351
▁herd	-11.0365
▁De	-11.0381
nd	-11.0388
ship	-11.039
▁fan	-11.0402
ni	-11.0422
▁base	-11.0427
▁dippe	-11.0428
▁Bo	-11.0434
▁worm	-11.0435
▁comest	-11.0459
dge	-11.0466
▁pai	-11.0507
N	-11.0649
▁prov	-11.0649
▁sa	-11.0657
ble	-11.0693
▁yell	-11.0714
▁va	-11.0725
ster	-11.0732
br	-11.0733
don	-11.0774
▁n	-11.078
▁fro	-11.0792
pers	-11.0822
▁gun	-11.0844
▁com	-11.0855
ane	-11.0862
ally	-11.0863
▁befall	-11.0943
ay	-11.095
test	-11.0963
▁pre	-11.0979
head	-11.0992
▁Yes	-11.1002
set	-11.1008
ough	-11.1039
servant	-11.1061
lk	-11.1062
pped	-11.1076
▁hours	-11.1088
▁cha	-11.11
▁scrap	-11.1101
▁Sa	-11.1107
▁balloon	-11.1116
▁webs	-11.1118
▁scatter	-11.1127
▁whoso	-11.1129
▁labour	-11.1131
ations	-11.1139
fold	-11.1141
▁sepulchre	-11.1141
▁brick	-11.1141
▁lion	-11.1144
▁statute	-11.1145
▁provision	-11.1146
▁liar	-11.1146
▁persecution	-11.1146
▁messenger	-11.1148
▁maidservant	-11.115
▁murderer	-11.1151
▁wound	-11.1152
▁wagon	-11.1152
▁transgression	-11.1152
sh	-11.1153
▁idol	-11.1154
ced	-11.1154
▁publican	-11.1156
▁Canaanite	-11.1162
H	-11.117
control	-11.1172
Please	-11.1174
ists	-11.1177
▁stir	-11.1177
▁receiv	-11.1178
May	-11.118
▁pound	-11.118
▁officer	-11.1182
chamber	-11.1182
▁gnaw	-11.1183
▁tabernacles	-11.1183
Some	-11.1184
Come	-11.1184
Templeton	-11.1185
li	-11.1185
▁boil	-11.1186
She	-11.1188
▁attain	-11.1191
▁confirm	-11.1192
▁oppress	-11.1193
▁bark	-11.1197
icken	-11.1202
▁reveal	-11.1204
▁eviden	-11.1206
All	-11.1208
▁Y	-11.121
▁fin	-11.121
▁deceive	-11.1214
▁sc	-11.1215
▁peri	-11.1218
▁mud	-11.1218
▁gird	-11.1219
▁inquire	-11.1221
▁require	-11.1221
rough	-11.1224
bor	-11.1224
▁remove	-11.1226
▁fierce	-11.1227
▁assured	-11.1227
▁glorious	-11.123
▁lone	-11.1232
uffer	-11.1232
▁knock	-11.1234
▁Syria	-11.1236
gers	-11.1237
▁gentle	-11.1237
▁sect	-11.1239
urthermore	-11.1239
▁correct	-11.1239
stitute	-11.124
▁abst	-11.124
▁effect	-11.124
▁wool	-11.124
torium	-11.124
▁Alexander	-11.124
▁Aquila	-11.124
▁Believe	-11.124
▁Creek	-11.124
▁Eleazar	-11.124
▁Hebron	-11.124
▁Iconium	-11.124
▁Issachar	-11.124
▁Jericho	-11.124
▁KING	-11.124
▁Laodicea	-11.124
▁Lystra	-11.124
▁Machpelah	-11.124
▁Mahalaleel	-11.124
▁Methuselah	-11.124
▁Nazarene	-11.124
▁Peleg	-11.124
▁Sunday	-11.124
▁Troas	-11.124
▁Zibeon	-11.124
▁audience	-11.124
▁autumn	-11.124
▁baptizing	-11.124
▁blemish	-11.124
▁bracelets	-11.124
▁breeze	-11.124
▁ceiling	-11.124
▁cleave	-11.124
▁conditions	-11.124
▁desolation	-11.124
▁eldest	-11.124
▁enmity	-11.124
▁ensample	-11.124
▁execute	-11.124
▁extra	-11.124
▁foreordained	-11.124
▁foreskin	-11.124
▁ignorance	-11.124
▁jasper	-11.124
▁majesty	-11.124
▁merchandise	-11.124
▁mirror	-11.124
▁muscle	-11.124
▁newspaper	-11.124
▁opinion	-11.124
▁plenteous	-11.124
▁rejoicing	-11.124
▁relief	-11.124
▁represent	-11.124
▁reprobate	-11.124
▁reserved	-11.124
▁rotten	-11.124
▁serving	-11.124
▁studie	-11.124
▁taskmasters	-11.124
▁tetrarch	-11.124
▁tobacco	-11.124
▁treasury	-11.124
▁unprofitable	-11.124
▁Army	-11.124
▁Reu	-11.124
▁Word	-11.124
▁downhill	-11.124
▁overshadow	-11.124
▁paused	-11.124
▁queer	-11.124
▁roar	-11.124
▁savor	-11.124
▁shield	-11.124
▁magic	-11.124
▁Eden	-11.124
▁existence	-11.124
▁spell	-11.124
▁Alph	-11.124
▁scorch	-11.124
▁soap	-11.124
▁success	-11.124
▁excellenc	-11.124
▁needlework	-11.124
▁stink	-11.124
▁limit	-11.124
▁grind	-11.124
▁estate	-11.124
▁magnified	-11.124
▁Jesse	-11.124
▁triumph	-11.124
▁foursquare	-11.124
▁Tamar	-11.124
▁vinegar	-11.124
▁quail	-11.124
▁brave	-11.124
▁displease	-11.124
▁unfruitful	-11.124
▁aforetime	-11.124
▁Government	-11.124
▁situation	-11.124
▁folk	-11.124
▁serious	-11.124
▁squatted	-11.1241
▁Salah	-11.1241
▁fame	-11.1241
▁doughnut	-11.1241
▁herdmen	-11.1241
▁encamp	-11.1241
▁government	-11.1241
▁message	-11.1241
▁omer	-11.1241
▁Jared	-11.1241
▁object	-11.1241
▁readiness	-11.1241
▁Reuel	-11.1241
▁Rain	-11.1241
▁hypocrisy	-11.1241
▁tenons	-11.1241
▁center	-11.1241
▁Moon	-11.1242
▁melt	-11.1242
▁barnyard	-11.1242
▁dangerous	-11.1242
▁dy	-11.1242
▁proof	-11.1242
▁depth	-11.1242
▁match	-11.1243
▁Rise	-11.1243
▁saving	-11.1243
▁Shelah	-11.1244
▁Syrian	-11.1244
▁Old	-11.1244
▁squash	-11.1245
▁range	-11.1245
▁recover	-11.1245
▁thrash	-11.1246
▁study	-11.1246
▁Without	-11.1247
▁spotted	-11.1247
▁mass	-11.1248
▁laden	-11.1248
▁convert	-11.1249
▁whiskers	-11.1249
▁prophesied	-11.1249
▁purchased	-11.1249
▁justice	-11.1251
ext	-11.1251
▁surety	-11.1252
▁lonely	-11.1252
▁eighth	-11.1253
▁repeated	-11.1253
▁sniffed	-11.1253
▁vexed	-11.1253
▁prof	-11.1253
▁reproved	-11.1253
▁edifying	-11.1253
workers	-11.1255
▁pair	-11.1256
▁ripe	-11.1257
▁sickness	-11.1257
▁sum	-11.1257
▁nurse	-11.1258
▁sinful	-11.1259
▁sway	-11.1259
▁Hur	-11.1261
▁fixed	-11.1261
cut	-11.1262
ael	-11.1262
▁circle	-11.1263
▁couch	-11.1264
▁inquired	-11.1265
muel	-11.1267
▁setting	-11.1268
▁blaspheme	-11.1268
▁instructed	-11.1269
▁collected	-11.1269
▁covet	-11.1269
▁exten	-11.127
▁nodded	-11.1272
▁softly	-11.1273
▁groaning	-11.1274
▁evident	-11.1275
▁backward	-11.1278
▁Other	-11.1279
▁plainly	-11.128
▁riding	-11.128
▁somebody	-11.1282
▁wounded	-11.1286
▁despised	-11.129
▁released	-11.129
▁lace	-11.1291
▁marvell	-11.1292
▁pervert	-11.1296
▁Cret	-11.1297
▁murmurings	-11.1298
▁distressed	-11.13
▁forbidd	-11.131
▁distan	-11.1312
▁cursed	-11.1314
▁searching	-11.1314
▁testifying	-11.1314
▁hogs	-11.1315
▁marketplaces	-11.1315
▁Samaritans	-11.1315
▁questionings	-11.1316
▁accepted	-11.1318
▁May	-11.1318
▁openeth	-11.1319
▁intent	-11.1321
▁hairy	-11.1322
▁laws	-11.1323
▁sojourned	-11.1327
▁ju	-11.1327
▁pounds	-11.1331
▁maidservants	-11.1332
▁ours	-11.1332
▁housetop	-11.1337
▁plants	-11.1347
robably	-11.135
▁begged	-11.1354
▁workers	-11.1354
uffle	-11.1366
▁coves	-11.1366
▁exhorted	-11.1369
mit	-11.1376
▁paths	-11.1381
▁virgins	-11.1381
▁waves	-11.1382
▁uttered	-11.1384
▁labored	-11.1386
▁speakest	-11.1387
▁knops	-11.1398
Not	-11.14
▁shapes	-11.14
▁clearing	-11.1402
▁Good	-11.1405
▁hundreds	-11.1409
▁entertain	-11.1415
▁burying	-11.1419
▁Mo	-11.1421
▁beach	-11.1427
▁bands	-11.1431
▁pots	-11.1436
ech	-11.1443
▁Eli	-11.1446
▁appearing	-11.1446
▁Mi	-11.1454
▁drinketh	-11.1459
▁supplications	-11.1465
▁occasions	-11.147
▁Sometime	-11.1476
▁Co	-11.1478
gging	-11.1486
▁di	-11.1505
▁rac	-11.1512
▁serpents	-11.1516
▁Ou	-11.152
ide	-11.152
▁En	-11.1524
▁roots	-11.155
▁fasting	-11.1551
▁holes	-11.1567
▁constrain	-11.1607
iness	-11.1615
▁creeks	-11.1618
nce	-11.1619
▁Pi	-11.1622
▁char	-11.1634
▁bother	-11.1641
▁sayings	-11.1653
▁smelling	-11.1657
▁dreaming	-11.1666
▁seest	-11.1674
▁examin	-11.168
▁helping	-11.1686
▁Ne	-11.1709
▁pop	-11.1713
▁Sin	-11.1723
▁process	-11.1728
▁gra	-11.1743
ha	-11.1751
▁sta	-11.1797
▁tangle	-11.1812
uch	-11.1894
how	-11.1916
by	-11.1938
longeth	-11.1983
ig	-11.1991
trusted	-11.2007
▁nuts	-11.2051
▁hairs	-11.2055
v	-11.2082
lushed	-11.21
Is	-11.2101
tur	-11.2121
▁Con	-11.2123
▁signifie	-11.2126
lic	-11.2127
pic	-11.2144
▁member	-11.2164
ious	-11.2165
▁spi	-11.2167
pensation	-11.2183
▁Ari	-11.2199
son	-11.2212
▁Jo	-11.2235
▁Le	-11.2249
▁mere	-11.2256
▁win	-11.2311
▁cur	-11.2317
tic	-11.2336
treated	-11.2355
▁sub	-11.2357
da	-11.2375
▁welcome	-11.2381
are	-11.2387
▁treasures	-11.2394
ign	-11.2402
▁im	-11.2408
▁bas	-11.2417
▁ease	-11.2425
ancy	-11.243
▁sprinkle	-11.244
▁throw	-11.2458
▁pie	-11.2473
lah	-11.2505
sive	-11.2514
▁dodg	-11.253
ale	-11.2565
▁fain	-11.2602
▁lords	-11.2638
▁cutt	-11.2646
cession	-11.2675
io	-11.2696
▁imagin	-11.2697
▁simpl	-11.2702
bal	-11.2702
llen	-11.2723
▁examine	-11.2728
▁longing	-11.2732
▁shave	-11.2735
▁cor	-11.2739
shed	-11.2741
▁heave	-11.2742
▁Sheba	-11.2762
nas	-11.2787
pping	-11.2808
pots	-11.2836
▁Gree	-11.2837
▁min	-11.2842
tained	-11.2882
▁cap	-11.2908
▁flu	-11.2942
own	-11.2967
right	-11.2979
ving	-11.2984
▁Sha	-11.2988
long	-11.2995
ged	-11.2997
▁Ju	-11.3005
▁Ten	-11.3029
like	-11.3046
M	-11.3075
cept	-11.3088
hold	-11.3101
▁ga	-11.3108
▁rid	-11.3108
held	-11.3112
ccord	-11.3126
▁tumult	-11.3131
▁trans	-11.3144
▁eunuch	-11.3148
▁shilling	-11.3148
▁chestnut	-11.3148
corruptible	-11.3149
▁sheet	-11.3149
▁plate	-11.3149
▁Samaritan	-11.315
▁marketplace	-11.315
▁Amorite	-11.3151
▁babe	-11.3152
worker	-11.3153
▁hunter	-11.316
▁push	-11.317
wear	-11.317
▁hog	-11.3171
▁limb	-11.3173
▁Na	-11.3173
▁instruction	-11.318
Will	-11.3182
color	-11.3183
When	-11.3185
Wilbur	-11.3185
▁includ	-11.3186
midst	-11.3186
▁pin	-11.3187
▁accomplish	-11.3197
Of	-11.3197
▁prevail	-11.3197
▁Late	-11.3199
▁hind	-11.3199
▁charg	-11.32
▁handful	-11.3205
yard	-11.3207
▁dim	-11.321
▁K	-11.322
▁decide	-11.3221
▁conceive	-11.3221
▁circumcise	-11.3222
lace	-11.3223
ursed	-11.3225
▁lunch	-11.3225
▁mouths	-11.3226
▁confident	-11.3227
▁fervent	-11.3227
▁brief	-11.3227
▁shout	-11.3228
▁deceitful	-11.3228
▁difficult	-11.323
uddenly	-11.323
▁warn	-11.3232
▁overthrow	-11.3236
▁rend	-11.3239
▁purse	-11.3239
▁zeal	-11.3239
▁confus	-11.3239
▁deceit	-11.3239
▁cruel	-11.3239
▁pant	-11.324
▁Corinth	-11.324
▁Bethsaida	-11.324
▁Boudinot	-11.324
▁Chedorlaomer	-11.324
▁Chief	-11.324
▁Deliver	-11.324
▁Friend	-11.324
▁Nadab	-11.324
▁Pamphylia	-11.324
▁Philippi	-11.324
▁Serug	-11.324
▁Tarsus	-11.324
▁Thomas	-11.324
▁Tychicus	-11.324
▁YHWH	-11.324
▁abolish	-11.324
▁accurately	-11.324
▁affrighted	-11.324
▁amazement	-11.324
▁anathema	-11.324
▁attitude	-11.324
▁beguile	-11.324
▁betrothed	-11.324
▁borrow	-11.324
▁bridle	-11.324
▁carriage	-11.324
▁cheese	-11.324
▁consecration	-11.324
▁cornmeal	-11.324
▁cotton	-11.324
▁dissolved	-11.324
▁furlongs	-11.324
▁grandmother	-11.324
▁grandstand	-11.324
▁grief	-11.324
▁grinned	-11.324
▁heretofore	-11.324
▁hospitality	-11.324
▁hurry	-11.324
▁infirmities	-11.324
▁insurrection	-11.324
▁leather	-11.324
▁magazine	-11.324
▁mandrakes	-11.324
▁muttered	-11.324
▁nutrients	-11.324
▁organisms	-11.324
▁perfume	-11.324
▁powder	-11.324
▁racket	-11.324
▁regret	-11.324
▁religion	-11.324
▁spinnerets	-11.324
▁strict	-11.324
▁stunned	-11.324
▁swelling	-11.324
▁task	-11.324
▁terrified	-11.324
▁thieves	-11.324
▁thoroughly	-11.324
▁ungodliness	-11.324
▁upstairs	-11.324
▁vanity	-11.324
▁vengeance	-11.324
▁whisky	-11.324
▁avoid	-11.324
▁cream	-11.324
▁deaf	-11.324
▁decision	-11.324
▁excess	-11.324
▁flavor	-11.324
▁indoors	-11.324
▁kinsmen	-11.324
▁lascivious	-11.324
▁orchard	-11.324
▁progress	-11.324
▁sweep	-11.324
▁thumb	-11.324
▁worried	-11.324
▁Diana	-11.324
▁Nathanael	-11.324
▁burst	-11.324
▁neglect	-11.324
▁polish	-11.324
▁secur	-11.324
closing	-11.324
▁Hosanna	-11.324
▁alien	-11.324
▁rumor	-11.324
▁slumber	-11.324
▁sneak	-11.324
▁Like	-11.324
▁gravity	-11.324
▁Aholi	-11.324
▁crumbs	-11.324
▁difference	-11.324
▁citizenship	-11.324
▁snout	-11.324
Sleep	-11.324
▁choke	-11.324
▁heavily	-11.324
▁continuing	-11.324
▁fables	-11.324
Humble	-11.324
▁Deep	-11.324
▁delay	-11.324
▁tag	-11.324
▁overtake	-11.324
▁bald	-11.324
▁odor	-11.324
diment	-11.324
▁Gaius	-11.324
▁Zerah	-11.324
▁Jason	-11.324
▁bowels	-11.324
▁Heaven	-11.324
▁Depart	-11.324
▁support	-11.324
▁babies	-11.324
▁straitened	-11.324
▁consolation	-11.324
▁bucket	-11.324
▁riverboat	-11.324
▁seventeen	-11.324
▁Tru	-11.3241
▁graft	-11.3241
▁bleed	-11.3241
▁urgent	-11.3241
▁uncertain	-11.3241
▁brook	-11.3241
▁stewardship	-11.3241
▁sincerity	-11.3241
▁dig	-11.3241
▁gentlemen	-11.3241
▁dollar	-11.3241
▁buck	-11.3241
▁property	-11.3241
▁wallet	-11.3241
▁partner	-11.3241
▁crook	-11.3241
▁assign	-11.3241
▁accusation	-11.3241
▁otherwise	-11.3241
▁Herodias	-11.3241
▁provender	-11.3241
▁scales	-11.3241
▁confusion	-11.3241
▁stem	-11.3241
▁victory	-11.3241
▁attack	-11.3241
▁tower	-11.3241
▁envie	-11.3241
▁assay	-11.3241
▁hys	-11.3242
▁landscape	-11.3242
▁liquor	-11.3242
▁wot	-11.3242
▁duty	-11.3242
▁chew	-11.3242
▁lice	-11.3242
▁shamefully	-11.3242
▁carton	-11.3242
▁split	-11.3242
Bee	-11.3242
▁dung	-11.3242
▁shortened	-11.3242
▁utterance	-11.3242
▁distinction	-11.3242
▁friendship	-11.3242
▁expectation	-11.3242
▁raw	-11.3242
▁behave	-11.3243
▁motionless	-11.3243
▁square	-11.3243
▁offence	-11.3243
▁appearance	-11.3243
▁potatoes	-11.3243
▁firm	-11.3243
▁westward	-11.3243
▁filthy	-11.3243
▁dizzy	-11.3243
▁memory	-11.3243
▁pepper	-11.3244
▁spilled	-11.3244
▁peach	-11.3244
▁tossed	-11.3244
▁potter	-11.3244
neck	-11.3245
▁argument	-11.3245
▁Save	-11.3245
▁cris	-11.3245
▁election	-11.3245
▁punished	-11.3246
▁frightened	-11.3246
▁booth	-11.3246
▁ladies	-11.3247
agement	-11.3247
▁Jonah	-11.3248
▁Keep	-11.3248
▁boast	-11.325
▁wake	-11.325
▁priesthood	-11.325
▁glanc	-11.3251
▁squirrels	-11.3252
▁relieved	-11.3252
▁Onan	-11.3252
▁Sam	-11.3255
tual	-11.3256
▁chuckled	-11.3256
▁explained	-11.3256
▁trembled	-11.3256
▁Over	-11.3256
▁comfortable	-11.3256
▁gainsaying	-11.3257
▁graven	-11.3257
▁slight	-11.3258
R	-11.3259
▁stage	-11.326
▁pine	-11.3262
▁moth	-11.3264
lapped	-11.3264
▁pretend	-11.3265
▁noble	-11.3265
▁chastening	-11.3267
▁scar	-11.3268
▁upside	-11.3269
ross	-11.327
▁however	-11.3271
▁weave	-11.3271
▁Fall	-11.3271
▁damp	-11.3271
▁whispering	-11.3271
▁tares	-11.3271
▁warriors	-11.3271
▁idolaters	-11.3272
▁swo	-11.3272
▁blasphemed	-11.3272
servants	-11.3272
▁entr	-11.3272
▁stern	-11.3274
▁liver	-11.3275
▁closer	-11.3276
▁laborers	-11.3278
▁Anna	-11.3284
▁ax	-11.3285
▁severally	-11.3286
▁position	-11.3287
▁key	-11.3288
▁Nothing	-11.3289
▁humbled	-11.3289
▁assembled	-11.329
▁ma	-11.3291
▁Jebusites	-11.3292
▁fornicators	-11.3292
▁shelters	-11.3292
▁Perizzites	-11.3292
▁grievously	-11.3292
▁news	-11.3294
▁throwing	-11.3294
▁forthwith	-11.3294
▁chase	-11.3295
▁girded	-11.3297
▁bug	-11.3297
▁barking	-11.33
▁flatter	-11.33
▁sir	-11.3302
▁spinn	-11.3303
▁stack	-11.3304
▁passions	-11.3306
▁lid	-11.3307
▁scattering	-11.3309
▁fi	-11.3309
▁thereunto	-11.3309
▁seethe	-11.3309
▁droppings	-11.3312
▁joints	-11.3313
▁sparrows	-11.3313
▁personal	-11.3316
▁tormented	-11.3317
▁perisheth	-11.332
▁mocking	-11.3321
▁failing	-11.3322
bed	-11.3322
▁closely	-11.3326
▁delighted	-11.3327
▁starv	-11.3327
▁fatherless	-11.3327
▁deck	-11.3328
Thank	-11.3329
▁eunuchs	-11.3333
▁shillings	-11.3333
▁chestnuts	-11.3333
▁plates	-11.3333
▁thinkest	-11.3338
som	-11.3339
▁stopp	-11.3342
▁treated	-11.3342
▁veiled	-11.3348
▁questioning	-11.3351
▁invisible	-11.3354
▁messengers	-11.3354
▁Whom	-11.3354
ature	-11.3358
arley	-11.3363
▁singing	-11.3365
▁firstling	-11.3367
▁wont	-11.337
ole	-11.3373
▁considered	-11.3375
▁inhabited	-11.3379
sop	-11.3385
▁mist	-11.3388
ton	-11.3391
▁manif	-11.3394
▁interesting	-11.3394
▁prophesying	-11.3395
iest	-11.3399
▁serveth	-11.34
▁ahead	-11.34
▁needeth	-11.3401
▁exhorting	-11.3409
II	-11.3412
▁efforts	-11.3416
vile	-11.3426
▁cart	-11.3426
▁proceeded	-11.3429
▁older	-11.3433
▁minutes	-11.3437
▁filling	-11.3437
▁windows	-11.3438
ards	-11.3442
▁believest	-11.3446
▁fashioned	-11.3451
▁dec	-11.3451
▁ja	-11.3452
▁fle	-11.3457
▁hatchets	-11.3458
▁breathing	-11.347
his	-11.3472
▁heirs	-11.3479
▁awful	-11.35
▁seals	-11.3505
ible	-11.3519
alam	-11.3532
side	-11.3548
▁tooth	-11.3555
▁divine	-11.3561
▁forever	-11.3566
mp	-11.3574
▁fowls	-11.3584
▁miracles	-11.3584
▁males	-11.3585
▁pri	-11.3591
revious	-11.3613
▁sco	-11.3626
▁wheels	-11.3627
▁afterwards	-11.3627
▁questions	-11.3629
▁remind	-11.3639
▁Se	-11.3643
▁cane	-11.3649
▁pleasures	-11.3691
▁helper	-11.3695
nath	-11.3698
co	-11.3698
ff	-11.3699
▁tails	-11.3712
▁Cana	-11.3728
bah	-11.3745
dom	-11.3766
▁helped	-11.3768
▁accuser	-11.3773
▁pa	-11.3779
ran	-11.378
▁Bu	-11.3786
uth	-11.3796
hin	-11.3809
▁images	-11.382
▁ash	-11.3823
row	-11.3829
▁scorn	-11.3882
▁doll	-11.3888
ded	-11.3896
gy	-11.3925
urge	-11.3926
▁orders	-11.3928
▁shell	-11.3987
eph	-11.4023
▁points	-11.4053
ise	-11.4071
▁peaceful	-11.4082
ears	-11.4099
▁trac	-11.4116
ias	-11.4117
▁sy	-11.4119
▁su	-11.4122
▁intreat	-11.4135
▁lur	-11.415
ast	-11.4158
▁tip	-11.4181
ork	-11.4203
tal	-11.4241
▁decompose	-11.4241
▁bl	-11.4249
aph	-11.4274
▁helps	-11.4322
▁ver	-11.434
▁puffe	-11.4362
▁empt	-11.4399
▁runt	-11.4407
ating	-11.4429
rushed	-11.4434
▁steppe	-11.4462
por	-11.4471
▁commune	-11.4476
▁decompos	-11.4505
▁bees	-11.4506
nched	-11.4556
▁mar	-11.4573
ify	-11.4616
ull	-11.4641
cked	-11.4657
▁layer	-11.4677
als	-11.4693
▁tu	-11.4696
▁tool	-11.4711
phe	-11.4745
ile	-11.4759
▁Si	-11.4771
▁Ti	-11.4771
▁bar	-11.4798
▁Whit	-11.4809
rim	-11.4841
pture	-11.4862
▁val	-11.4875
angled	-11.4905
▁mol	-11.4906
▁qua	-11.4913
erah	-11.4915
▁kn	-11.5027
pen	-11.503
iv	-11.5031
rous	-11.5034
▁dip	-11.5086
▁Wi	-11.5108
▁distribute	-11.5135
▁doer	-11.5138
com	-11.5148
▁Ah	-11.5151
▁settle	-11.5166
dull	-11.5177
▁Di	-11.5189
▁camel	-11.5195
ere	-11.5214
▁whit	-11.5257
bout	-11.5269
▁rag	-11.5319
▁Ca	-11.5327
ians	-11.5351
▁injur	-11.5359
lations	-11.5368
▁overthr	-11.5387
rated	-11.5387
eak	-11.5392
unt	-11.5395
board	-11.5412
ung	-11.542
onsider	-11.5426
eez	-11.5436
▁cake	-11.5441
uck	-11.5458
▁using	-11.5465
▁Bela	-11.5489
ower	-11.5497
▁Mu	-11.5556
round	-11.5567
work	-11.5571
▁prefer	-11.5586
▁vow	-11.5587
▁skill	-11.5593
▁Set	-11.5595
visible	-11.5597
antic	-11.5622
ttention	-11.5626
▁candle	-11.5628
▁invent	-11.5636
cerning	-11.5638
▁exp	-11.5639
▁groan	-11.564
▁nail	-11.5642
▁rank	-11.5642
▁debtor	-11.5643
▁pomegranate	-11.5646
▁weapon	-11.5646
ined	-11.5647
▁murmur	-11.5647
ngel	-11.5648
▁sparrow	-11.5648
▁dropping	-11.5649
▁deceiver	-11.565
▁disease	-11.5652
stone	-11.5652
▁perver	-11.5654
▁descend	-11.5654
▁gosling	-11.5655
took	-11.5655
▁loop	-11.5657
▁pearl	-11.5659
▁cla	-11.5659
aged	-11.5661
▁partaker	-11.5665
▁chain	-11.5667
course	-11.5667
tled	-11.5671
▁prais	-11.5678
Stop	-11.5678
Nothing	-11.5679
▁judg	-11.568
Edith	-11.5682
terrific	-11.5682
▁despair	-11.5683
D	-11.5683
bow	-11.5684
front	-11.5684
Who	-11.5685
worthy	-11.5685
gave	-11.5685
Did	-11.5687
▁waste	-11.5688
▁purify	-11.5688
master	-11.5688
fell	-11.5689
face	-11.5691
For	-11.5691
▁load	-11.5692
thirst	-11.5693
▁jo	-11.5694
▁instruct	-11.5694
▁threaten	-11.5694
▁collect	-11.5694
▁ridge	-11.5697
foot	-11.5699
▁Kno	-11.5699
▁murmuring	-11.5699
nets	-11.5702
Then	-11.5707
ouched	-11.5713
▁strengthen	-11.5714
▁preten	-11.5714
rent	-11.5715
key	-11.5715
▁excite	-11.5718
▁arrange	-11.5719
▁tremble	-11.5719
▁surprise	-11.5719
▁reprove	-11.572
▁approve	-11.5721
▁swa	-11.5722
▁dr	-11.5725
ps	-11.5726
▁general	-11.5726
ounded	-11.5726
▁clan	-11.5727
▁vague	-11.5727
▁Ke	-11.5728
▁exact	-11.5728
▁abundant	-11.5728
▁immediate	-11.5729
▁bruise	-11.5729
▁supplie	-11.573
▁greas	-11.573
▁map	-11.5731
▁cheerful	-11.5732
▁glorie	-11.5732
▁sur	-11.5733
hood	-11.5733
They	-11.5734
▁bon	-11.5734
▁ski	-11.5735
▁safe	-11.5736
weed	-11.5736
spect	-11.5736
▁railing	-11.5737
▁transgress	-11.5737
belief	-11.5738
they	-11.5738
▁debt	-11.5738
▁riot	-11.5739
▁express	-11.5739
▁cherub	-11.5739
▁proper	-11.5739
▁flour	-11.5739
▁yo	-11.574
▁strait	-11.574
nswere	-11.574
bby	-11.574
▁glutton	-11.574
▁horizon	-11.574
▁occur	-11.574
Listen	-11.574
Terrific	-11.574
latchet	-11.574
tarsus	-11.574
▁Amminadab	-11.574
▁Aristarchus	-11.574
▁Comforter	-11.574
▁Congress	-11.574
▁Cranshaw	-11.574
▁Derbe	-11.574
▁Dishon	-11.574
▁Ephrath	-11.574
▁Euphrates	-11.574
▁GOD	-11.574
▁Havilah	-11.574
▁Hearken	-11.574
▁Hogsucker	-11.574
▁Ishmeelites	-11.574
▁Kohath	-11.574
▁Nicodemus	-11.574
▁PIG	-11.574
▁Receive	-11.574
▁Servant	-11.574
▁Succoth	-11.574
▁Would	-11.574
▁Zohar	-11.574
▁absence	-11.574
▁adoption	-11.574
▁afford	-11.574
▁assurance	-11.574
▁blowgun	-11.574
▁bounty	-11.574
▁cabbage	-11.574
▁century	-11.574
▁chapiters	-11.574
▁cinnamon	-11.574
▁concubine	-11.574
▁convenient	-11.574
▁correspond	-11.574
▁demanded	-11.574
▁devise	-11.574
▁emerald	-11.574
▁engine	-11.574
▁foxes	-11.574
▁greeting	-11.574
▁handkerchief	-11.574
▁haught	-11.574
▁hereafter	-11.574
▁impart	-11.574
▁incorruption	-11.574
▁insects	-11.574
▁level	-11.574
▁mysterious	-11.574
▁necessities	-11.574
▁nostrils	-11.574
▁obeisance	-11.574
▁perform	-11.574
▁picture	-11.574
▁pilgrims	-11.574
▁president	-11.574
▁proconsul	-11.574
▁pronounce	-11.574
▁propitiation	-11.574
▁province	-11.574
▁raspberr	-11.574
▁request	-11.574
▁response	-11.574
▁restitution	-11.574
▁restrained	-11.574
▁reviling	-11.574
▁revived	-11.574
▁riverbank	-11.574
▁sapphire	-11.574
▁sardius	-11.574
▁showbread	-11.574
▁shrank	-11.574
▁smiled	-11.574
▁solemn	-11.574
▁straddle	-11.574
▁survive	-11.574
▁swift	-11.574
▁sworn	-11.574
▁terror	-11.574
▁twig	-11.574
▁unimagin	-11.574
▁unloose	-11.574
▁unmarried	-11.574
▁unusual	-11.574
▁whiskey	-11.574
▁Brother	-11.574
▁diminish	-11.574
▁disappoint	-11.574
▁element	-11.574
▁emerge	-11.574
▁latter	-11.574
▁orange	-11.574
▁queen	-11.574
▁raven	-11.574
▁roam	-11.574
▁scrivener	-11.574
▁Gilead	-11.574
▁Ithamar	-11.574
▁Likewise	-11.574
▁discreet	-11.574
▁fraction	-11.574
▁impress	-11.574
▁knuckle	-11.574
▁leprosy	-11.574
▁mammon	-11.574
▁merchant	-11.574
▁mule	-11.574
▁mysteries	-11.574
▁reproof	-11.574
▁giant	-11.574
▁clipping	-11.574
▁middling	-11.574
▁Potiph	-11.574
▁circum	-11.574
▁crystal	-11.574
▁bereaved	-11.574
▁bondwoman	-11.574
▁exchange	-11.574
▁holler	-11.574
▁instru	-11.574
▁noodle	-11.574
▁adulteress	-11.574
▁beggar	-11.574
▁kicked	-11.574
▁title	-11.574
▁buryingplace	-11.574
▁refrain	-11.574
▁Christmas	-11.574
▁turban	-11.574
▁Salmon	-11.574
▁liberality	-11.574
▁enchantments	-11.574
▁workmanship	-11.574
▁occupation	-11.574
▁sackcloth	-11.574
▁bodily	-11.574
▁flash	-11.574
▁gorge	-11.574
▁snapp	-11.574
▁Preparation	-11.574
▁Count	-11.574
▁stumblingblock	-11.574
▁Joses	-11.574
▁arrival	-11.574
▁blasphemies	-11.574
▁blossoms	-11.574
▁freewoman	-11.574
▁fungus	-11.574
access	-11.574
▁Buddy	-11.574
▁covetous	-11.574
▁Abb	-11.574
▁palsied	-11.574
▁Walk	-11.574
▁nap	-11.574
▁winepress	-11.574
▁digging	-11.574
▁decree	-11.574
▁Moab	-11.574
▁paddle	-11.574
▁foggy	-11.574
▁job	-11.574
▁reverence	-11.574
▁Drink	-11.5741
▁Italy	-11.5741
▁confe	-11.5741
▁Goodbye	-11.5741
▁Little	-11.5741
▁principalities	-11.5741
▁thicket	-11.5741
▁tonight	-11.5741
kay	-11.5741
▁cursing	-11.5741
▁gently	-11.5741
▁Shur	-11.5741
▁permit	-11.5741
nquire	-11.5741
▁Haden	-11.5741
▁announcement	-11.5741
▁lane	-11.5741
▁pink	-11.5741
▁Shinar	-11.5741
▁towel	-11.5741
▁adj	-11.5741
▁tempest	-11.5741
▁scoop	-11.5741
▁flick	-11.5741
▁Gran	-11.5741
▁patch	-11.5741
▁package	-11.5741
▁midday	-11.5741
▁conceal	-11.5741
▁candy	-11.5741
ntil	-11.5742
▁apostleship	-11.5742
▁halt	-11.5742
▁entangle	-11.5742
▁Elam	-11.5742
▁guilty	-11.5742
▁loving	-11.5742
▁crime	-11.5742
▁malice	-11.5742
▁countries	-11.5742
▁heathen	-11.5742
▁awkwardly	-11.5742
▁crash	-11.5742
▁Miz	-11.5742
ndy	-11.5742
▁shore	-11.5742
ville	-11.5743
▁main	-11.5743
▁pillow	-11.5743
▁claw	-11.5743
▁furthermore	-11.5743
▁satisfied	-11.5744
▁defer	-11.5744
▁thistles	-11.5744
▁stedfastness	-11.5744
▁vo	-11.5744
▁Weep	-11.5744
▁barbarian	-11.5744
▁bill	-11.5744
▁communicate	-11.5745
▁husbandman	-11.5745
▁Abib	-11.5745
▁cleansing	-11.5746
▁nearby	-11.5746
▁operat	-11.5746
▁sheepfold	-11.5746
▁easily	-11.5746
▁super	-11.5747
▁blast	-11.5747
▁jar	-11.5747
▁armor	-11.5748
▁violent	-11.5748
▁forsaken	-11.5748
▁grunted	-11.5748
▁gambl	-11.5748
chol	-11.5748
eedy	-11.5748
▁crushed	-11.5749
▁phone	-11.5749
▁whiteman	-11.575
▁disturb	-11.575
▁skirt	-11.575
no	-11.575
▁grease	-11.575
▁wealth	-11.5751
▁supplieth	-11.5751
▁Jam	-11.5751
ently	-11.5751
▁blame	-11.5752
▁difficulty	-11.5753
▁agreement	-11.5753
▁contend	-11.5753
▁vaguely	-11.5753
▁Else	-11.5753
▁needful	-11.5753
pro	-11.5754
▁weaving	-11.5754
▁wrist	-11.5754
▁dare	-11.5754
▁cheerfully	-11.5754
▁cost	-11.5755
▁trott	-11.5755
▁curv	-11.5755
▁acres	-11.5755
▁ribs	-11.5755
▁magistrates	-11.5755
▁Lotan	-11.5756
▁knot	-11.5756
▁candie	-11.5757
▁briefly	-11.5757
sual	-11.5757
▁deceitfully	-11.5757
▁persecutest	-11.5757
▁maple	-11.576
▁ability	-11.576
▁fiercely	-11.576
▁sink	-11.576
▁vanished	-11.5761
▁overhead	-11.5761
▁arranged	-11.5761
▁slipp	-11.5762
▁sower	-11.5764
▁silently	-11.5764
▁clang	-11.5767
quil	-11.5767
▁float	-11.5768
▁stalk	-11.5768
ode	-11.5768
▁Summ	-11.5769
▁block	-11.5769
▁wink	-11.5769
▁quake	-11.577
▁reconciled	-11.577
▁platt	-11.577
▁shovel	-11.5771
▁thirsty	-11.5772
▁soup	-11.5774
▁Never	-11.5774
▁overthrown	-11.5774
▁remark	-11.5774
▁Men	-11.5774
▁steady	-11.5776
ration	-11.5779
▁sincere	-11.578
▁slopes	-11.5781
▁physicians	-11.5781
▁killers	-11.5782
▁dad	-11.5783
▁action	-11.5784
▁louder	-11.5784
irst	-11.5784
▁endless	-11.5785
▁commendeth	-11.5786
▁groaned	-11.5788
▁card	-11.5788
▁manservant	-11.5789
▁anew	-11.5789
▁joint	-11.5791
▁sever	-11.5797
▁stumbleth	-11.5802
▁pushing	-11.5804
▁naturally	-11.5805
azed	-11.5807
▁flip	-11.5808
▁earrings	-11.5808
▁lepers	-11.5808
▁boughs	-11.5809
▁transgressors	-11.5809
▁faithless	-11.5811
▁invented	-11.5811
▁shit	-11.5812
▁trapper	-11.5812
▁sojourners	-11.5814
▁oppressed	-11.5814
▁confirmed	-11.5814
▁Remov	-11.5815
▁melted	-11.5816
▁urge	-11.5819
▁yester	-11.5819
▁wildly	-11.5823
▁completed	-11.5824
▁particle	-11.5824
▁whoring	-11.5825
▁companions	-11.5825
▁Hous	-11.583
▁hon	-11.5835
▁pomegranates	-11.5835
▁weapons	-11.5836
▁wond	-11.5836
ev	-11.5837
▁actions	-11.5837
▁overmuch	-11.5838
▁hatched	-11.5839
▁Teman	-11.5847
▁continueth	-11.5848
▁commandeth	-11.5849
▁rep	-11.5851
king	-11.5855
▁wh	-11.5855
▁mourned	-11.5855
▁extortioner	-11.5856
this	-11.5857
▁thereto	-11.5859
alutations	-11.5859
▁mudd	-11.5859
▁sen	-11.5861
aid	-11.5864
▁ci	-11.5865
▁department	-11.5869
position	-11.5881
erable	-11.5882
▁comb	-11.5882
▁rider	-11.5883
In	-11.5883
▁richly	-11.5883
rops	-11.5886
lessly	-11.5889
▁liars	-11.589
▁statutes	-11.589
▁provisions	-11.589
▁persecutions	-11.589
ac	-11.5891
▁chin	-11.5892
▁guns	-11.5893
▁murderers	-11.5894
za	-11.5895
▁sucked	-11.5896
▁needy	-11.5903
▁transform	-11.5905
▁Romans	-11.5908
▁wanton	-11.5911
▁finest	-11.5911
▁driver	-11.5913
▁preacheth	-11.5916
▁dances	-11.5917
▁squa	-11.5932
oc	-11.5941
▁deeply	-11.5942
▁smoked	-11.5946
ups	-11.5947
cum	-11.595
▁lacked	-11.5951
gered	-11.5953
unny	-11.5961
▁mete	-11.5966
▁goes	-11.5967
its	-11.5968
▁pi	-11.597
▁nests	-11.5973
▁games	-11.5973
▁captives	-11.5973
▁habitations	-11.5973
▁girls	-11.5973
ep	-11.5975
▁profited	-11.5978
▁flowers	-11.598
vice	-11.5982
▁trapp	-11.5991
▁regarded	-11.5991
ction	-11.5995
▁thighs	-11.6
tty	-11.6002
▁worrying	-11.6006
T	-11.6018
▁amount	-11.6021
▁righteously	-11.6024
oth	-11.6024
▁logs	-11.6028
▁willeth	-11.6036
▁killeth	-11.6052
cakes	-11.6056
▁colors	-11.6056
▁papers	-11.6056
mong	-11.6061
▁tea	-11.6062
▁customs	-11.6084
ius	-11.6086
che	-11.6108
▁regions	-11.6112
▁forgett	-11.6114
ric	-11.6116
▁seasoned	-11.6119
▁embrace	-11.6119
bs	-11.612
▁Abid	-11.6124
▁tomorrow	-11.6136
▁streams	-11.614
▁Christian	-11.614
▁worshipp	-11.6149
▁style	-11.6149
full	-11.6163
▁figs	-11.6168
▁aged	-11.6169
▁buildings	-11.6172
▁meaning	-11.6183
▁staying	-11.6184
▁crowned	-11.6197
▁visions	-11.6207
▁owners	-11.621
uz	-11.6223
▁Fe	-11.6224
▁mon	-11.6243
▁governors	-11.6253
▁sus	-11.6263
▁ships	-11.6288
figur	-11.6288
▁Par	-11.6298
arm	-11.6307
et	-11.6311
ives	-11.6318
▁treat	-11.6326
inning	-11.6336
▁charges	-11.6343
compelled	-11.6371
▁Eph	-11.6371
▁afternoons	-11.6397
▁doings	-11.643
enable	-11.6432
▁ink	-11.6465
ok	-11.6465
▁penn	-11.6479
mma	-11.649
▁wanting	-11.6503
fe	-11.651
▁edges	-11.6512
▁rehears	-11.6514
racles	-11.6518
▁writer	-11.654
▁favorabl	-11.6541
▁rattle	-11.6612
tent	-11.6629
inner	-11.6645
anke	-11.6654
▁conce	-11.6729
▁busi	-11.6747
▁smit	-11.6748
▁perp	-11.6759
▁shower	-11.677
▁Was	-11.6772
▁earthy	-11.6778
ons	-11.6795
▁Stop	-11.6802
▁swords	-11.681
▁fellows	-11.6811
bone	-11.6813
▁entice	-11.6825
ave	-11.684
▁belong	-11.6866
▁journeys	-11.6869
▁lap	-11.6875
▁differ	-11.6888
▁prisons	-11.6901
▁heel	-11.6903
x	-11.6911
▁curl	-11.6927
ema	-11.6933
eral	-11.6942
Be	-11.6952
vil	-11.6952
born	-11.6963
▁beard	-11.6966
ich	-11.6974
ular	-11.6991
ddle	-11.7009
▁Ben	-11.7039
▁Ph	-11.704
aking	-11.7052
▁afore	-11.7056
ban	-11.7062
▁lashe	-11.707
▁earthly	-11.7093
van	-11.7103
▁ch	-11.7121
▁meats	-11.7122
ore	-11.7256
bel	-11.7274
wled	-11.7341
dder	-11.735
wood	-11.7356
▁argu	-11.7369
▁mus	-11.7402
▁Phi	-11.7409
ond	-11.7426
▁interrupt	-11.7441
▁gaz	-11.7515
her	-11.7536
▁feasts	-11.754
wardly	-11.7545
▁struggle	-11.7618
nut	-11.7651
▁parting	-11.7661
ai	-11.7697
▁inch	-11.7731
▁owe	-11.7789
▁Shal	-11.7789
pringtime	-11.7805
▁ob	-11.782
▁driv	-11.7849
lation	-11.7849
dding	-11.7861
▁hug	-11.791
▁strik	-11.7917
ro	-11.8006
▁breathe	-11.805
▁Pra	-11.8054
mortal	-11.8136
▁temperat	-11.8148
rred	-11.8154
▁pur	-11.8166
▁j	-11.8176
uni	-11.8177
ities	-11.8198
nic	-11.8198
uring	-11.8205
lings	-11.8207
▁ascend	-11.8208
▁striv	-11.8212
itches	-11.8212
▁cares	-11.8223
▁calls	-11.8224
▁Ass	-11.8236
▁crack	-11.8257
uddle	-11.8259
doers	-11.8277
▁mis	-11.8296
ener	-11.8309
urn	-11.831
lab	-11.8332
ten	-11.8347
fare	-11.8358
fire	-11.8369
▁bre	-11.8386
ca	-11.8419
▁Ro	-11.8441
rian	-11.8479
▁Eu	-11.8487
▁oppos	-11.8495
eyed	-11.8522
we	-11.8523
▁Eve	-11.8536
mus	-11.8563
▁embrac	-11.8569
tting	-11.8577
ati	-11.8581
mmed	-11.8626
tery	-11.8644
tops	-11.8662
▁fla	-11.8681
lia	-11.8699
▁resid	-11.8704
rance	-11.8709
▁fre	-11.8728
▁temples	-11.8761
eries	-11.8768
▁chi	-11.8779
ak	-11.8781
pher	-11.8781
▁hasted	-11.8781
▁backs	-11.8782
▁Sal	-11.8783
sha	-11.8835
▁bu	-11.8837
unted	-11.8858
aimed	-11.8869
▁fir	-11.887
ized	-11.8885
Th	-11.8895
ega	-11.8896
handed	-11.89
▁Mes	-11.8905
▁extortion	-11.8915
ading	-11.8919
▁wrest	-11.8921
doer	-11.8933
▁compel	-11.8938
gg	-11.894
▁bough	-11.8949
nceforth	-11.8955
orted	-11.8956
▁chasten	-11.8965
▁benefit	-11.8965
▁patriarch	-11.8965
▁guest	-11.8965
▁result	-11.8965
▁bishop	-11.8965
▁ewe	-11.8966
will	-11.8966
rches	-11.8969
▁faction	-11.897
▁psalm	-11.8975
▁senator	-11.8975
come	-11.8975
▁pigeon	-11.8975
▁whisper	-11.8975
▁eagle	-11.8976
▁repute	-11.8976
▁section	-11.8978
▁Levite	-11.8978
dressed	-11.8978
▁leper	-11.8979
unch	-11.898
▁transgressor	-11.8981
▁Jebusite	-11.8982
▁Perizzite	-11.8982
▁fornicator	-11.8982
hand	-11.8982
▁peoples	-11.8983
▁bla	-11.8985
▁earring	-11.8985
▁shelter	-11.8985
▁hook	-11.8991
▁bo	-11.8994
upon	-11.8994
▁stab	-11.8995
▁spice	-11.8996
▁sojourner	-11.8997
eas	-11.9
quench	-11.9001
▁gir	-11.9001
witch	-11.9001
load	-11.9004
▁needle	-11.9005
bbed	-11.9007
▁farmer	-11.9007
Certainly	-11.9008
warm	-11.9008
owing	-11.9011
worm	-11.9011
bas	-11.9011
Y	-11.9012
stood	-11.9013
ridge	-11.9014
hearted	-11.9016
Pig	-11.9016
floor	-11.9016
prisoner	-11.9016
Ho	-11.9016
hooks	-11.9016
learned	-11.9017
legs	-11.9018
quiet	-11.9018
pieces	-11.9018
break	-11.9018
thirty	-11.9018
closed	-11.9018
blood	-11.9018
finger	-11.9018
wife	-11.9018
Take	-11.9019
ground	-11.9019
looking	-11.9019
ick	-11.9019
▁encounter	-11.9019
▁remov	-11.9019
Sure	-11.9022
▁assembl	-11.9022
ocked	-11.9024
▁affirm	-11.9024
▁buffet	-11.9024
▁loos	-11.9025
Every	-11.9026
▁explo	-11.9029
▁refresh	-11.9029
speak	-11.903
▁fix	-11.9034
volut	-11.9035
sembled	-11.9035
que	-11.9036
back	-11.9038
five	-11.9042
An	-11.9042
hath	-11.9043
▁miss	-11.9047
▁Alexandria	-11.9048
Here	-11.9049
Te	-11.9049
▁Right	-11.905
▁cree	-11.905
▁enlarge	-11.9051
▁relieve	-11.9053
▁prophesie	-11.9053
▁purchase	-11.9053
▁bore	-11.9054
▁determine	-11.9054
▁excuse	-11.9056
▁marrie	-11.9056
▁pursue	-11.9056
▁arrive	-11.9057
▁meek	-11.9057
▁pierce	-11.9058
posed	-11.9059
▁delicate	-11.9059
▁nervous	-11.906
▁app	-11.906
cient	-11.9062
▁private	-11.9062
ocia	-11.9062
alvation	-11.9064
▁possibl	-11.9064
▁jealous	-11.9065
atic	-11.9066
ju	-11.9066
ected	-11.9067
upp	-11.9068
istles	-11.9069
▁brim	-11.9072
roi	-11.9072
▁gener	-11.9072
ossum	-11.9072
▁mirac	-11.9072
ntity	-11.9072
▁forgot	-11.9072
▁princip	-11.9072
▁meditat	-11.9072
▁announce	-11.9072
orthy	-11.9073
appy	-11.9073
reakfast	-11.9073
▁author	-11.9073
olonel	-11.9073
▁desp	-11.9073
oyal	-11.9073
▁apprecia	-11.9073
Congratu	-11.9073
▁Jehovah	-11.9073
wilight	-11.9073
zziah	-11.9073
▁Adullamite	-11.9073
▁Ahaz	-11.9073
▁Aranea	-11.9073
▁Bartholomew	-11.9073
▁Bernice	-11.9073
▁Bethphage	-11.9073
▁Boaz	-11.9073
▁Boston	-11.9073
▁Chaldees	-11.9073
▁Chesapeake	-11.9073
▁Crawdaddy	-11.9073
▁Decapolis	-11.9073
▁Demetrius	-11.9073
▁Echota	-11.9073
▁Eliezer	-11.9073
▁Epaphras	-11.9073
▁Ethiopia	-11.9073
▁Galway	-11.9073
▁Gennesaret	-11.9073
▁Gershon	-11.9073
▁Golgotha	-11.9073
▁Hallelujah	-11.9073
▁Hezekiah	-11.9073
▁Horeb	-11.9073
▁Jeremiah	-11.9073
▁Joktan	-11.9073
▁Jotham	-11.9073
▁Jupiter	-11.9073
▁Kadesh	-11.9073
▁Kenaz	-11.9073
▁Luke	-11.9073
▁Matthew	-11.9073
▁Merari	-11.9073
▁Nahshon	-11.9073
▁Nebajoth	-11.9073
▁Nellie	-11.9073
▁Notwithstanding	-11.9073
▁Olivet	-11.9073
▁Peabody	-11.9073
▁Pentecost	-11.9073
▁Perez	-11.9073
▁Perga	-11.9073
▁Pharez	-11.9073
▁Phrygia	-11.9073
▁Pontus	-11.9073
▁Prince	-11.9073
▁Priscilla	-11.9073
▁Psalms	-11.9073
▁Rehoboth	-11.9073
▁Rephidim	-11.9073
▁Sardis	-11.9073
▁Shealtiel	-11.9073
▁Siddim	-11.9073
▁Silvanus	-11.9073
▁Street	-11.9073
▁Symeon	-11.9073
▁Tarshish	-11.9073
▁Thessalonica	-11.9073
▁Trophimus	-11.9073
▁Twelve	-11.9073
▁Zeboi	-11.9073
▁Zillah	-11.9073
▁Zipporah	-11.9073
▁achieve	-11.9073
▁addition	-11.9073
▁advance	-11.9073
▁aeronaut	-11.9073
▁affairs	-11.9073
▁anxiety	-11.9073
▁apiece	-11.9073
▁attire	-11.9073
▁avail	-11.9073
▁balsam	-11.9073
▁bountifully	-11.9073
▁canvas	-11.9073
▁captivity	-11.9073
▁chickadee	-11.9073
▁colours	-11.9073
▁column	-11.9073
▁conclusion	-11.9073
▁conduct	-11.9073
▁conflict	-11.9073
▁congealed	-11.9073
▁constructed	-11.9073
▁contrariwise	-11.9073
▁contributi	-11.9073
▁corpse	-11.9073
▁crazy	-11.9073
▁curiosity	-11.9073
▁deacons	-11.9073
▁desperation	-11.9073
▁destiny	-11.9073
▁disorderly	-11.9073
▁disputing	-11.9073
▁dissension	-11.9073
▁district	-11.9073
▁draught	-11.9073
▁dungeon	-11.9073
▁edifieth	-11.9073
▁embarrass	-11.9073
▁esteem	-11.9073
▁exhausted	-11.9073
▁exotic	-11.9073
▁farewell	-11.9073
▁fascinating	-11.9073
▁feeble	-11.9073
▁fetters	-11.9073
▁fifties	-11.9073
▁forewarn	-11.9073
▁fragments	-11.9073
▁frankincense	-11.9073
▁furnished	-11.9073
▁handbreadth	-11.9073
▁hayloft	-11.9073
▁hymn	-11.9073
▁immortality	-11.9073
▁increasing	-11.9073
▁jailor	-11.9073
▁journals	-11.9073
▁kinsfolk	-11.9073
▁knothole	-11.9073
▁leanfleshed	-11.9073
▁lodging	-11.9073
▁machine	-11.9073
▁matrix	-11.9073
▁meadow	-11.9073
▁mistress	-11.9073
▁moisture	-11.9073
▁mosquitoes	-11.9073
▁oblig	-11.9073
▁opposition	-11.9073
▁philosoph	-11.9073
▁pilgrimage	-11.9073
▁pistol	-11.9073
▁poison	-11.9073
▁poverty	-11.9073
▁predator	-11.9073
▁produce	-11.9073
▁rabbit	-11.9073
▁recognize	-11.9073
▁rectang	-11.9073
▁remnant	-11.9073
▁replenish	-11.9073
▁representatives	-11.9073
▁retrieve	-11.9073
▁sermon	-11.9073
▁shewbread	-11.9073
▁shoot	-11.9073
▁shotgun	-11.9073
▁subsistence	-11.9073
▁swept	-11.9073
▁swipe	-11.9073
▁tavern	-11.9073
▁terrain	-11.9073
▁territory	-11.9073
▁throng	-11.9073
▁titmouse	-11.9073
▁tread	-11.9073
▁unawares	-11.9073
▁unceasing	-11.9073
▁undefiled	-11.9073
▁unexpected	-11.9073
▁unjust	-11.9073
▁unknown	-11.9073
▁unreasonable	-11.9073
▁unveiled	-11.9073
▁uproar	-11.9073
▁vehemently	-11.9073
▁vertical	-11.9073
▁virtue	-11.9073
▁waterproof	-11.9073
▁yesternight	-11.9073
▁antichrist	-11.9073
▁compact	-11.9073
▁congress	-11.9073
▁dedicat	-11.9073
▁gnat	-11.9073
▁maintain	-11.9073
▁oven	-11.9073
▁unloaded	-11.9073
▁Asshur	-11.9073
▁Demas	-11.9073
▁Latin	-11.9073
▁clover	-11.9073
▁conquer	-11.9073
▁distinguish	-11.9073
▁dowry	-11.9073
▁dusk	-11.9073
▁freeze	-11.9073
▁major	-11.9073
▁overwhelm	-11.9073
▁pitfall	-11.9073
▁proverb	-11.9073
▁quiver	-11.9073
▁Dishan	-11.9073
▁Glory	-11.9073
▁agony	-11.9073
▁desk	-11.9073
▁saddlebag	-11.9073
▁succeed	-11.9073
▁superscription	-11.9073
Play	-11.9073
dopted	-11.9073
satisfact	-11.9073
▁Serve	-11.9073
▁cedar	-11.9073
▁conclud	-11.9073
▁loaf	-11.9073
▁lucre	-11.9073
▁oats	-11.9073
▁satisfy	-11.9073
▁topaz	-11.9073
vaga	-11.9073
▁Bind	-11.9073
▁Erastus	-11.9073
▁moaned	-11.9073
▁smart	-11.9073
▁Besides	-11.9073
▁Talk	-11.9073
▁backbit	-11.9073
▁profess	-11.9073
timber	-11.9074
▁Arabia	-11.9074
▁approaching	-11.9074
▁undone	-11.9074
▁Dedan	-11.9074
▁procur	-11.9074
▁Shobal	-11.9074
▁authorities	-11.9074
▁consult	-11.9074
Could	-11.9074
▁limp	-11.9074
havi	-11.9074
▁Welch	-11.9074
▁brawle	-11.9074
▁Jobab	-11.9074
▁River	-11.9074
▁wafer	-11.9074
alley	-11.9074
▁abated	-11.9074
▁emotion	-11.9074
▁surround	-11.9074
▁united	-11.9074
▁Balaam	-11.9074
▁delicious	-11.9074
▁dread	-11.9074
▁abuse	-11.9074
▁engage	-11.9074
▁swimming	-11.9074
▁Marah	-11.9074
▁mumbled	-11.9074
▁stock	-11.9074
▁tanner	-11.9074
▁Syr	-11.9074
▁Tiberias	-11.9074
▁Phoenicia	-11.9074
▁assistance	-11.9074
▁ceasing	-11.9074
▁tape	-11.9074
▁pottage	-11.9074
▁trading	-11.9074
▁chide	-11.9074
▁rebelled	-11.9074
▁slanderers	-11.9074
▁Territories	-11.9074
▁prophetess	-11.9074
▁sheaf	-11.9074
▁Prisc	-11.9074
▁glow	-11.9074
▁grownups	-11.9074
▁terrify	-11.9074
▁vote	-11.9074
▁pestilence	-11.9074
▁quill	-11.9074
▁Creator	-11.9074
▁midway	-11.9074
▁route	-11.9074
▁slant	-11.9074
▁luck	-11.9074
▁brink	-11.9074
▁nobleman	-11.9074
OM	-11.9074
choni	-11.9074
▁device	-11.9074
iletus	-11.9074
▁scent	-11.9074
ella	-11.9074
▁contentious	-11.9074
▁Shuah	-11.9074
▁cords	-11.9074
▁smear	-11.9074
▁Zeal	-11.9074
▁Paradise	-11.9074
▁stubble	-11.9074
▁indig	-11.9074
▁Ezer	-11.9074
▁Luz	-11.9074
▁bolt	-11.9074
clock	-11.9074
▁Fift	-11.9074
▁destitute	-11.9074
kling	-11.9074
▁Lys	-11.9075
▁crafti	-11.9075
▁spun	-11.9075
▁amiss	-11.9075
everal	-11.9075
▁prun	-11.9075
▁mistake	-11.9075
east	-11.9075
▁locks	-11.9075
▁pouches	-11.9075
▁safety	-11.9075
▁birch	-11.9075
▁variet	-11.9075
▁lounge	-11.9075
phath	-11.9075
▁affectionate	-11.9075
▁responsibilit	-11.9075
▁bondman	-11.9075
▁possum	-11.9075
▁Herodians	-11.9075
▁lobby	-11.9075
▁moonlight	-11.9075
▁harness	-11.9075
▁poking	-11.9075
▁shorn	-11.9075
▁birthday	-11.9075
▁lawlessness	-11.9075
▁Corn	-11.9075
▁errand	-11.9075
▁cruse	-11.9076
▁favorite	-11.9076
▁spru	-11.9076
▁stank	-11.9076
noch	-11.9076
▁jerky	-11.9076
▁hireling	-11.9076
▁garnet	-11.9076
▁hatred	-11.9076
▁justification	-11.9076
▁Still	-11.9076
▁Big	-11.9076
▁modest	-11.9076
▁sideboards	-11.9076
▁correction	-11.9076
▁imprisonment	-11.9076
▁advertisement	-11.9076
▁peel	-11.9076
▁lain	-11.9076
▁Pass	-11.9076
▁weaned	-11.9076
▁lowliness	-11.9076
▁Meat	-11.9076
▁beryl	-11.9077
▁equality	-11.9077
▁Elon	-11.9077
▁pallet	-11.9077
▁departure	-11.9077
▁Hard	-11.9077
▁ladder	-11.9077
▁population	-11.9077
▁Esh	-11.9077
▁womenservants	-11.9078
ulous	-11.9078
▁scarce	-11.9078
▁harmless	-11.9078
▁Bethel	-11.9078
▁withereth	-11.9078
▁moss	-11.9078
▁forks	-11.9078
▁braid	-11.9078
pparent	-11.9078
▁observation	-11.9078
▁heritage	-11.9079
▁trance	-11.9079
▁hateful	-11.908
▁Mother	-11.908
▁weaknesses	-11.908
▁decease	-11.908
▁cele	-11.908
▁Cush	-11.9081
▁lofty	-11.9081
▁thoughtfully	-11.9081
▁specifi	-11.9081
▁practic	-11.9081
circling	-11.9081
▁resolv	-11.9082
▁boundary	-11.9082
▁joyful	-11.9082
▁owest	-11.9083
▁Canaanit	-11.9083
▁visitors	-11.9083
▁More	-11.9083
▁cust	-11.9083
▁Dog	-11.9084
▁purser	-11.9084
▁bay	-11.9084
little	-11.9084
▁Ram	-11.9084
▁broth	-11.9084
▁deliverance	-11.9084
▁engraver	-11.9084
▁Life	-11.9084
▁hoisted	-11.9084
▁enlightened	-11.9084
▁Timnath	-11.9085
▁Lif	-11.9085
mates	-11.9085
▁lingere	-11.9085
▁sevenfold	-11.9085
▁exist	-11.9086
▁rare	-11.9086
lves	-11.9086
▁bitterness	-11.9087
▁treaty	-11.9087
▁nervously	-11.9087
▁alleg	-11.9087
▁reviled	-11.9087
▁thefts	-11.9087
▁Five	-11.9087
▁overhear	-11.9088
ubtle	-11.9088
▁fur	-11.9088
▁swoop	-11.9088
▁waist	-11.9088
▁wishes	-11.9088
▁drift	-11.9088
▁rifle	-11.9088
▁smoking	-11.9088
▁ridden	-11.9088
▁barrel	-11.9088
▁Any	-11.9088
▁collection	-11.9088
▁Really	-11.9089
▁sobbed	-11.9089
lick	-11.909
▁Ski	-11.909
▁clu	-11.909
▁maiden	-11.909
▁Away	-11.909
▁slice	-11.9091
▁interpreter	-11.9091
▁Amram	-11.9092
▁costly	-11.9092
▁safely	-11.9092
▁stall	-11.9093
▁avenger	-11.9093
▁quietness	-11.9094
▁dishes	-11.9094
roughly	-11.9095
▁plantation	-11.9095
▁forgiveness	-11.9095
▁Athens	-11.9096
▁Horites	-11.9096
▁Ephesians	-11.9096
▁buttocks	-11.9096
▁malefactors	-11.9096
▁ornaments	-11.9096
▁stairs	-11.9096
▁spoons	-11.9096
▁mounds	-11.9096
▁reflect	-11.9096
▁enlarged	-11.9096
▁plead	-11.9096
▁discour	-11.9096
▁sowest	-11.9096
▁prey	-11.9096
▁workman	-11.9097
▁builders	-11.9097
makers	-11.9097
▁fervently	-11.9098
▁confidently	-11.9098
▁passway	-11.9098
▁sport	-11.9098
▁Obed	-11.9098
gar	-11.9101
▁blasphemeth	-11.9101
▁blackness	-11.9101
bib	-11.9101
▁sup	-11.9102
▁fadeth	-11.9102
▁knocketh	-11.9103
▁quenched	-11.9103
▁confounded	-11.9103
▁hallowed	-11.9104
▁unfe	-11.9104
▁excited	-11.9105
▁balloonist	-11.9105
▁signifying	-11.9105
▁threshing	-11.9105
▁basin	-11.9105
▁blink	-11.9107
▁faithfulness	-11.9107
▁lit	-11.9108
uci	-11.911
quet	-11.9111
▁compli	-11.9112
▁trout	-11.9112
▁source	-11.9114
▁patiently	-11.9114
cated	-11.9114
▁referr	-11.9114
▁surprised	-11.9116
▁bruised	-11.9116
▁Ash	-11.9116
▁consideration	-11.9116
▁passion	-11.9118
llaba	-11.9119
▁uprightly	-11.9119
▁diam	-11.9119
▁address	-11.9119
▁pans	-11.912
▁fishers	-11.912
aster	-11.9121
▁tie	-11.9121
▁affirmed	-11.9123
▁buffeted	-11.9123
▁chastened	-11.9124
▁eighteen	-11.9124
▁outwardly	-11.9124
uit	-11.9124
▁mash	-11.9124
▁squat	-11.9125
▁childless	-11.9125
▁pierced	-11.9126
onge	-11.9126
▁contention	-11.9126
▁hor	-11.9127
▁joke	-11.9127
▁beheaded	-11.9128
▁AN	-11.9128
▁eleventh	-11.9129
▁pleasantly	-11.913
ament	-11.9132
stance	-11.9132
▁brimm	-11.9133
▁strands	-11.9134
▁anchors	-11.9134
▁features	-11.9134
▁sorcerers	-11.9134
▁None	-11.9134
▁basons	-11.9134
▁peaceable	-11.9135
did	-11.9136
▁defilement	-11.9138
▁memorialize	-11.914
▁purifie	-11.9144
▁Certainly	-11.9144
▁Hunt	-11.9145
mission	-11.9145
▁army	-11.9145
avan	-11.9146
▁purifying	-11.9146
▁bidd	-11.9148
▁preserved	-11.9149
▁provoked	-11.9151
hair	-11.9151
▁reapeth	-11.9152
▁outhouse	-11.9155
gate	-11.9155
▁control	-11.9158
▁Herm	-11.9158
▁har	-11.9158
▁destroyer	-11.916
Egg	-11.916
▁wrestl	-11.9163
▁boo	-11.9163
▁threatening	-11.9164
▁pals	-11.9167
▁impen	-11.9167
gars	-11.9171
▁Lib	-11.9172
▁pigeons	-11.9173
▁psalms	-11.9173
▁senators	-11.9173
▁Levites	-11.9173
▁eagles	-11.9173
▁sections	-11.9174
▁stirr	-11.9176
▁ruleth	-11.9178
oming	-11.9182
cob	-11.9183
▁Timna	-11.9185
▁farmers	-11.9185
▁cured	-11.9185
▁wounding	-11.9188
▁fleeth	-11.9188
ical	-11.9189
▁lawless	-11.9192
▁lu	-11.9194
▁metal	-11.9203
attered	-11.9203
▁remarks	-11.9211
RE	-11.9212
▁heels	-11.9212
▁nails	-11.9212
▁agate	-11.9212
▁meaneth	-11.9213
▁vows	-11.9213
▁debtors	-11.9213
▁loads	-11.9214
▁cards	-11.9214
▁Pat	-11.9214
▁deceivers	-11.9214
▁tur	-11.9215
▁moveth	-11.9217
▁fewer	-11.9217
▁scraping	-11.9217
▁Please	-11.922
▁attained	-11.9227
▁possessor	-11.9231
▁cu	-11.9233
▁envying	-11.9242
▁slime	-11.9248
traightway	-11.9249
▁lowly	-11.925
▁handfuls	-11.9253
xa	-11.9258
▁falsely	-11.926
▁pants	-11.9261
ways	-11.9261
edent	-11.9263
ndered	-11.9268
▁k	-11.9269
▁patt	-11.9272
▁handled	-11.9278
▁traveled	-11.9281
▁understandeth	-11.9284
▁doubled	-11.9286
▁ruled	-11.9287
killet	-11.9288
▁bricks	-11.9293
▁sepulchres	-11.9293
▁scraps	-11.9294
▁lions	-11.9294
▁worms	-11.9298
▁fastings	-11.9299
▁justif	-11.93
▁pleasing	-11.9302
▁livers	-11.9302
▁def	-11.9303
▁swinging	-11.9313
▁doubting	-11.9314
▁favored	-11.9317
strain	-11.9321
▁fetched	-11.9321
▁seemly	-11.9324
▁alike	-11.9327
▁careth	-11.9328
▁frie	-11.9329
▁goal	-11.9332
▁blades	-11.9333
▁banks	-11.9333
▁tales	-11.9333
▁Saying	-11.9335
▁spl	-11.9336
▁salted	-11.9341
▁rate	-11.9341
▁burdened	-11.9343
▁harps	-11.9347
mal	-11.9357
ference	-11.936
▁flowed	-11.936
▁deserted	-11.9364
sia	-11.9364
ronic	-11.9365
▁folds	-11.9373
▁traditions	-11.9374
▁inv	-11.9376
ads	-11.9393
▁inwards	-11.9395
▁jell	-11.9411
▁rubbe	-11.9418
changers	-11.9418
phan	-11.9422
▁beg	-11.9428
▁chil	-11.9438
▁piti	-11.9446
▁guides	-11.9452
▁figures	-11.9455
▁earthquakes	-11.9455
enness	-11.9457
▁healings	-11.9458
▁fightings	-11.9458
▁outward	-11.9464
zah	-11.9467
coal	-11.9476
▁dine	-11.9477
▁sop	-11.9484
▁posts	-11.9492
▁scal	-11.9493
▁chambers	-11.9496
▁threads	-11.9496
▁washing	-11.9501
▁daze	-11.9515
▁seeds	-11.9515
▁playing	-11.9528
skinned	-11.953
stern	-11.9554
sea	-11.9556
▁Za	-11.9568
▁cases	-11.9579
uts	-11.9579
lax	-11.9585
▁multiplying	-11.9594
ograph	-11.9614
▁revelations	-11.9621
▁happens	-11.9623
▁wail	-11.9627
▁departing	-11.9641
▁adventure	-11.9648
▁pal	-11.9651
ause	-11.9662
▁caves	-11.9663
▁girdles	-11.9664
▁deserts	-11.9665
bach	-11.9678
—-	-11.9679
▁oppose	-11.9687
▁hens	-11.9702
▁cabins	-11.9705
ittle	-11.9705
▁Sea	-11.9721
▁War	-11.9722
▁occasional	-11.9735
▁oaths	-11.9747
▁snows	-11.9747
▁cau	-11.975
oking	-11.9773
▁bushe	-11.9774
omp	-11.9785
▁tribulations	-11.979
▁labors	-11.9792
▁gallo	-11.9806
raise	-11.9816
▁afflictions	-11.9833
stable	-11.9846
uff	-11.9871
imate	-11.988
▁Gre	-11.9891
▁hearer	-11.9914
▁la	-11.9948
ium	-11.9966
▁class	-11.9973
▁states	-12.0005
▁rightly	-12.0013
ui	-12.0024
▁blinded	-12.0024
▁fasted	-12.0033
cu	-12.0041
lent	-12.0042
▁res	-12.0043
▁perfecting	-12.0045
▁foundations	-12.0065
▁Ab	-12.0069
▁Sett	-12.0073
oli	-12.0078
amped	-12.0087
▁breastplates	-12.0092
rah	-12.0095
▁Sh	-12.0103
▁gat	-12.0103
▁fr	-12.0136
▁crackl	-12.0146
▁Med	-12.0159
ecting	-12.0169
▁shove	-12.0179
▁counsels	-12.0225
▁needles	-12.0227
▁Haz	-12.026
▁sorrows	-12.0261
oned	-12.0271
eady	-12.0276
▁inte	-12.0282
▁Hush	-12.0285
▁Hol	-12.0286
▁Hid	-12.0295
ye	-12.0309
▁famines	-12.0315
ON	-12.0316
▁Gat	-12.0317
▁sel	-12.0342
▁workings	-12.0345
▁socia	-12.0361
▁snatch	-12.0371
yst	-12.0384
▁wil	-12.0397
▁persuad	-12.0404
damn	-12.0417
▁uses	-12.0447
▁breaks	-12.0459
▁numbers	-12.0501
▁Almo	-12.0506
Che	-12.0547
▁Zi	-12.0554
▁services	-12.0635
▁reform	-12.0664
▁weari	-12.0664
▁fe	-12.0679
▁crates	-12.0729
herein	-12.0734
MO	-12.0736
▁allow	-12.0748
▁uncle	-12.0751
cord	-12.0756
nigh	-12.0763
arrows	-12.0771
▁struggl	-12.0777
▁rou	-12.0785
▁admire	-12.0797
eigne	-12.0847
▁hum	-12.0962
▁Ber	-12.1015
ander	-12.102
B	-12.1024
allowed	-12.1033
▁gaze	-12.104
▁blackberr	-12.1092
▁uneas	-12.1092
▁argue	-12.1114
ching	-12.1116
claimed	-12.1122
vi	-12.1131
wist	-12.1143
▁pace	-12.1153
tended	-12.1179
▁cat	-12.1226
▁elevate	-12.1231
▁Jac	-12.1236
▁Jet	-12.1243
empti	-12.1261
▁Pen	-12.1273
▁loft	-12.1275
actic	-12.1289
▁da	-12.1301
ray	-12.1409
▁sole	-12.1429
berries	-12.1452
▁mood	-12.147
top	-12.1492
▁pat	-12.16
spir	-12.1603
shell	-12.1625
illy	-12.1641
epho	-12.1642
▁blu	-12.1652
ock	-12.1666
▁Car	-12.168
▁Command	-12.1701
▁gall	-12.1724
lashes	-12.1732
▁sacr	-12.1796
▁trace	-12.1803
▁commo	-12.1821
▁wi	-12.1821
iles	-12.1932
orn	-12.196
▁waxe	-12.1963
hai	-12.1978
came	-12.205
▁invit	-12.208
▁Jer	-12.2116
Isn	-12.2129
▁Hi	-12.2138
▁tast	-12.2149
▁Pu	-12.215
▁che	-12.2152
lasses	-12.2152
▁slu	-12.2168
ud	-12.2169
onster	-12.2204
ame	-12.2215
▁inde	-12.2288
oved	-12.2354
mar	-12.2354
ows	-12.2356
ieth	-12.2386
▁contr	-12.2407
▁Ri	-12.2459
▁pr	-12.246
▁rehearse	-12.2506
lids	-12.2584
▁Sep	-12.2594
rity	-12.263
zo	-12.2643
ow	-12.2688
▁Sou	-12.2689
rench	-12.2696
ncy	-12.2788
ence	-12.2819
igure	-12.283
▁constraine	-12.2867
congratu	-12.2876
oon	-12.2908
ano	-12.2932
▁rage	-12.295
▁pu	-12.295
met	-12.2968
eek	-12.2974
hew	-12.2979
▁Sho	-12.3004
nah	-12.3004
bi	-12.3015
tie	-12.3019
asped	-12.3041
▁Amon	-12.3054
tening	-12.3065
asty	-12.3076
han	-12.3077
▁considerabl	-12.3108
vious	-12.3121
zens	-12.3148
▁strok	-12.3154
husks	-12.3161
loo	-12.3165
▁spat	-12.3178
▁rais	-12.3183
To	-12.3195
▁scra	-12.3211
▁port	-12.324
▁wag	-12.3259
ace	-12.3259
▁rec	-12.3278
mbled	-12.329
▁actual	-12.3299
▁troubl	-12.3332
rie	-12.3346
awfully	-12.336
ench	-12.3383
laus	-12.3414
rable	-12.3424
▁chal	-12.3424
▁Om	-12.3467
ron	-12.3481
cial	-12.3496
roth	-12.3514
▁li	-12.352
▁divid	-12.354
P	-12.3575
▁stripe	-12.3593
ER	-12.3634
any	-12.3676
obably	-12.3692
giver	-12.3699
▁plo	-12.37
amo	-12.3726
oiled	-12.3729
amia	-12.3749
TH	-12.3757
ivity	-12.3762
wish	-12.3775
E	-12.3783
self	-12.3785
nger	-12.3787
▁attendan	-12.3795
▁slim	-12.3795
▁ston	-12.3815
ging	-12.3817
itable	-12.3832
AR	-12.3855
ib	-12.3858
minate	-12.3869
sided	-12.3872
▁magn	-12.3873
▁rob	-12.3881
▁companion	-12.3883
inch	-12.3887
Hey	-12.3888
icles	-12.3888
j	-12.3895
ounding	-12.3914
headed	-12.3916
never	-12.3919
▁impe	-12.3923
▁Tra	-12.3927
mobil	-12.3931
▁arch	-12.3931
struction	-12.3933
▁slap	-12.3934
ips	-12.3934
▁wrap	-12.394
him	-12.3944
▁Tim	-12.3946
▁bite	-12.3946
▁horn	-12.3947
▁convi	-12.3947
▁complain	-12.3963
▁impo	-12.3964
oving	-12.3964
▁scorpion	-12.3966
▁elbow	-12.3966
▁poplar	-12.3966
▁apron	-12.3966
▁impla	-12.3968
▁hillside	-12.3968
▁sorcerer	-12.3976
▁anchor	-12.3976
▁feature	-12.3976
use	-12.3977
▁bason	-12.398
▁slope	-12.398
▁physician	-12.3981
▁Sanct	-12.3981
▁strand	-12.3982
▁warrior	-12.3983
hereabouts	-12.3983
▁highway	-12.3983
▁idolater	-12.3984
▁locust	-12.3987
▁payment	-12.3987
▁speci	-12.3988
▁tithe	-12.3988
orry	-12.3988
▁selve	-12.3989
▁hypocrite	-12.3989
▁robber	-12.399
▁tare	-12.3991
▁observ	-12.3994
▁thorn	-12.3995
▁tran	-12.3999
▁sigh	-12.3999
▁mil	-12.4
▁revile	-12.4
agger	-12.4001
jected	-12.4002
continu	-12.4002
rag	-12.4003
citizen	-12.4003
Wash	-12.4003
uncle	-12.4005
corn	-12.4007
source	-12.4008
pathetic	-12.4009
tions	-12.4009
▁excus	-12.4009
handled	-12.4009
draft	-12.401
float	-12.4011
stalk	-12.4012
AN	-12.4012
limb	-12.4012
block	-12.4012
Summ	-12.4013
hog	-12.4013
Never	-12.4014
▁pierc	-12.4014
▁bro	-12.4014
▁persecut	-12.4014
gird	-12.4015
box	-12.4015
stedfast	-12.4015
Watch	-12.4015
cloth	-12.4015
▁sid	-12.4015
None	-12.4015
search	-12.4016
Seven	-12.4016
Get	-12.4016
Henry	-12.4016
keeper	-12.4016
soldier	-12.4016
J	-12.4016
Perhaps	-12.4016
shekel	-12.4017
fields	-12.4017
ounted	-12.4017
shot	-12.4017
kindness	-12.4017
condemned	-12.4017
Homer	-12.4017
▁whistl	-12.4017
please	-12.4017
Hur	-12.4018
horse	-12.4018
witnesses	-12.4018
pleasure	-12.4018
bade	-12.4018
spread	-12.4018
Give	-12.4018
bush	-12.4018
friend	-12.4018
myself	-12.4019
Lurvy	-12.4019
wheel	-12.4019
perfect	-12.4019
With	-12.4019
room	-12.4019
pans	-12.4019
generation	-12.4019
while	-12.4019
burnt	-12.4019
nothing	-12.4019
knowledge	-12.4019
▁reject	-12.4019
push	-12.402
aa	-12.402
▁dismiss	-12.402
dad	-12.402
serve	-12.402
coat	-12.4021
▁Gi	-12.4021
One	-12.4021
whe	-12.4021
trap	-12.4022
sail	-12.4022
▁thresh	-12.4022
▁lum	-12.4022
green	-12.4022
ertainly	-12.4023
Say	-12.4023
place	-12.4023
▁confound	-12.4025
▁hallow	-12.4025
▁gainsay	-12.4026
▁signify	-12.4027
▁edify	-12.4027
▁vanish	-12.4027
eeches	-12.4028
only	-12.4028
▁explain	-12.4028
▁kno	-12.4029
▁vex	-12.4029
▁sniff	-12.4029
▁repeat	-12.4029
▁exceed	-12.403
▁chuckl	-12.403
▁ordain	-12.403
▁grabb	-12.403
bond	-12.4031
▁threat	-12.4031
▁flam	-12.4032
Put	-12.4032
▁amaz	-12.4032
See	-12.4033
pri	-12.4034
portion	-12.4034
▁laborer	-12.4035
lead	-12.4036
▁citizen	-12.4036
seeing	-12.4037
▁shear	-12.4037
▁ta	-12.4038
▁plea	-12.4038
Wa	-12.4039
oasty	-12.404
nything	-12.4042
▁App	-12.4043
made	-12.4048
▁tame	-12.4051
▁boot	-12.4053
▁testifie	-12.4054
run	-12.4055
▁Exp	-12.4055
▁create	-12.4055
▁boar	-12.4055
▁Israelite	-12.4055
tant	-12.4058
olved	-12.406
▁flourish	-12.406
hod	-12.4061
▁continual	-12.4062
▁genealog	-12.4062
▁sudden	-12.4063
sparag	-12.4063
ufficien	-12.4063
oldiers	-12.4064
▁dizz	-12.4064
▁choos	-12.4064
trong	-12.4064
▁filth	-12.4064
▁snar	-12.4064
▁reconcile	-12.4064
▁communicat	-12.4065
▁memor	-12.4065
▁twent	-12.4065
phos	-12.4065
hould	-12.4066
angel	-12.4066
▁distinct	-12.4067
bur	-12.4067
ification	-12.4069
▁Amra	-12.407
▁import	-12.4071
▁mir	-12.4071
▁merci	-12.4071
path	-12.4071
▁persuasi	-12.4071
▁tee	-12.4072
▁Mattha	-12.4072
▁appro	-12.4072
aradise	-12.4072
aughter	-12.4072
neys	-12.4072
▁attract	-12.4072
▁Govern	-12.4072
▁situat	-12.4072
▁stubb	-12.4072
▁subtil	-12.4072
▁habit	-12.4072
▁abomina	-12.4073
▁pouch	-12.4073
ecomposers	-12.4073
estroy	-12.4073
ntreat	-12.4073
attering	-12.4073
xcellent	-12.4073
ontrary	-12.4073
ontinue	-12.4073
▁gloom	-12.4073
venture	-12.4073
urmur	-12.4073
ilbur	-12.4073
epart	-12.4073
istened	-12.4073
▁Apoll	-12.4073
▁excel	-12.4073
▁Ponti	-12.4073
▁esp	-12.4073
arvel	-12.4073
▁succ	-12.4073
rink	-12.4073
▁bureau	-12.4073
▁employ	-12.4073
▁scru	-12.4073
▁August	-12.4073
▁Nico	-12.4073
▁centipede	-12.4073
▁executi	-12.4073
▁expense	-12.4073
▁frail	-12.4073
▁grasshopper	-12.4073
▁happie	-12.4073
▁revelling	-12.4073
▁skelet	-12.4073
▁traitor	-12.4073
▁victual	-12.4073
Crunchy	-12.4073
Phoebe	-12.4073
Slowly	-12.4073
bulus	-12.4073
cian	-12.4073
consequen	-12.4073
continency	-12.4073
gullible	-12.4073
hippoorwill	-12.4073
languish	-12.4073
mphas	-12.4073
olog	-12.4073
petitions	-12.4073
roduction	-12.4073
significan	-12.4073
zziel	-12.4073
▁Agabus	-12.4073
▁Areopag	-12.4073
▁Assyria	-12.4073
▁Baal	-12.4073
▁Baalzephon	-12.4073
▁Babel	-12.4073
▁Baptizer	-12.4073
▁Beautiful	-12.4073
▁Beroea	-12.4073
▁Bigfish	-12.4073
▁Bithynia	-12.4073
▁Carmi	-12.4073
▁Circumcision	-12.4073
▁Cotton	-12.4073
▁Cowee	-12.4073
▁Crispus	-12.4073
▁Crucify	-12.4073
▁Dalma	-12.4073
▁Dorcas	-12.4073
▁Ellasar	-12.4073
▁Epaphroditus	-12.4073
▁Florida	-12.4073
▁Fulfil	-12.4073
▁Gabriel	-12.4073
▁Gerasenes	-12.4073
▁Gershom	-12.4073
▁Gethsemane	-12.4073
▁Girgas	-12.4073
▁Increase	-12.4073
▁Izhar	-12.4073
▁Jehoshaphat	-12.4073
▁Jokshan	-12.4073
▁Joram	-12.4073
▁Lebanon	-12.4073
▁Lydda	-12.4073
▁Lydia	-12.4073
▁Mattath	-12.4073
▁Matthias	-12.4073
▁Mehujael	-12.4073
▁Melchi	-12.4073
▁Methusael	-12.4073
▁Millipede	-12.4073
▁Nimrod	-12.4073
▁Nineveh	-12.4073
▁Onesiphorus	-12.4073
▁Pergamum	-12.4073
▁Phoeni	-12.4073
▁Pisidia	-12.4073
▁Potomac	-12.4073
▁Prophesy	-12.4073
▁Publius	-12.4073
▁Rabboni	-12.4073
▁Radiant	-12.4073
▁Rahab	-12.4073
▁Rameses	-12.4073
▁Rephaims	-12.4073
▁Rufus	-12.4073
▁Sabaoth	-12.4073
▁Sacrifice	-12.4073
▁Salome	-12.4073
▁School	-12.4073
▁Search	-12.4073
▁Seba	-12.4073
▁Secret	-12.4073
▁Shaveh	-12.4073
▁Siloam	-12.4073
▁Smyrna	-12.4073
▁Sosthenes	-12.4073
▁Squirrel	-12.4073
▁Supreme	-12.4073
▁Tavern	-12.4073
▁Theophilus	-12.4073
▁Thessalonians	-12.4073
▁Tubalcain	-12.4073
▁Zachariah	-12.4073
▁Zerubbabel	-12.4073
▁absolute	-12.4073
▁acquired	-12.4073
▁advise	-12.4073
▁ammunition	-12.4073
▁apothecary	-12.4073
▁appetizing	-12.4073
▁apprehend	-12.4073
▁armpits	-12.4073
▁assumption	-12.4073
▁beefsteak	-12.4073
▁bison	-12.4073
▁bomb	-12.4073
▁boulder	-12.4073
▁brilliant	-12.4073
▁burial	-12.4073
▁busybodies	-12.4073
▁calico	-12.4073
▁clamor	-12.4073
▁companies	-12.4073
▁compound	-12.4073
▁conspiracy	-12.4073
▁convocation	-12.4073
▁cornbread	-12.4073
▁craftsmen	-12.4073
▁crawfish	-12.4073
▁cumber	-12.4073
▁delusion	-12.4073
▁denarius	-12.4073
▁detail	-12.4073
▁dictionary	-12.4073
▁disannul	-12.4073
▁discarded	-12.4073
▁divorcement	-12.4073
▁doorframes	-12.4073
▁downstream	-12.4073
▁elaborate	-12.4073
▁eloquent	-12.4073
▁emperor	-12.4073
▁enact	-12.4073
▁evangelist	-12.4073
▁experiment	-12.4073
▁extreme	-12.4073
▁fatfleshed	-12.4073
▁fathoms	-12.4073
▁foreknew	-12.4073
▁fullgrown	-12.4073
▁fumbling	-12.4073
▁futile	-12.4073
▁garner	-12.4073
▁gleam	-12.4073
▁goddess	-12.4073
▁gravy	-12.4073
▁grisled	-12.4073
▁gulped	-12.4073
▁gutted	-12.4073
▁gutters	-12.4073
▁happiness	-12.4073
▁hominy	-12.4073
▁humiliation	-12.4073
▁immutab	-12.4073
▁implements	-12.4073
▁inconvenient	-12.4073
▁infield	-12.4073
▁influen	-12.4073
▁ingathering	-12.4073
▁interlude	-12.4073
▁kinswoman	-12.4073
▁kneadingtroughs	-12.4073
▁lamentation	-12.4073
▁lantern	-12.4073
▁leisure	-12.4073
▁lintel	-12.4073
▁material	-12.4073
▁medicine	-12.4073
▁millipedes	-12.4073
▁moccasins	-12.4073
▁mudflat	-12.4073
▁muzzle	-12.4073
▁nerve	-12.4073
▁nipple	-12.4073
▁oysters	-12.4073
▁pellets	-12.4073
▁penknife	-12.4073
▁pollut	-12.4073
▁porcupine	-12.4073
▁portrait	-12.4073
▁preeminence	-12.4073
▁prejudice	-12.4073
▁preparing	-12.4073
▁presumptuous	-12.4073
▁problem	-12.4073
▁promptly	-12.4073
▁provocation	-12.4073
▁rabble	-12.4073
▁rapid	-12.4073
▁religious	-12.4073
▁renounce	-12.4073
▁restraineth	-12.4073
▁ridiculous	-12.4073
▁rigour	-12.4073
▁roost	-12.4073
▁sandwich	-12.4073
▁scruples	-12.4073
▁slog	-12.4073
▁slothful	-12.4073
▁smiling	-12.4073
▁sobriety	-12.4073
▁sorceries	-12.4073
▁sorcery	-12.4073
▁stimulate	-12.4073
▁stupor	-12.4073
▁subdue	-12.4073
▁suffice	-12.4073
▁sumptuous	-12.4073
▁supreme	-12.4073
▁survival	-12.4073
▁television	-12.4073
▁terrestrial	-12.4073
▁theoretical	-12.4073
▁thereafter	-12.4073
▁thirteen	-12.4073
▁thistledown	-12.4073
▁timbrel	-12.4073
▁tomatoes	-12.4073
▁traffic	-12.4073
▁trample	-12.4073
▁tremen	-12.4073
▁trinket	-12.4073
▁unaccountabl	-12.4073
▁unfair	-12.4073
▁univers	-12.4073
▁unruly	-12.4073
▁unthankful	-12.4073
▁unwashen	-12.4073
▁vesture	-12.4073
▁vicinity	-12.4073
▁victim	-12.4073
▁woodpile	-12.4073
▁wrinkle	-12.4073
▁yawned	-12.4073
▁zero	-12.4073
▁Death	-12.4073
acinth	-12.4073
shrunk	-12.4073
ummim	-12.4073
▁Ancih	-12.4073
▁Antipa	-12.4073
▁Frankl	-12.4073
▁Jenny	-12.4073
▁Malch	-12.4073
▁Mississippi	-12.4073
▁accommodat	-12.4073
▁altercat	-12.4073
▁calculat	-12.4073
▁clown	-12.4073
▁clutter	-12.4073
▁copy	-12.4073
▁cripple	-12.4073
▁expanse	-12.4073
▁flags	-12.4073
▁gabbl	-12.4073
▁grove	-12.4073
▁license	-12.4073
▁lilies	-12.4073
▁magnificen	-12.4073
▁morter	-12.4073
▁pastille	-12.4073
▁plaster	-12.4073
▁ribbon	-12.4073
▁snuffdishes	-12.4073
▁surmis	-12.4073
▁terms	-12.4073
ietly	-12.4073
▁Jann	-12.4073
▁assault	-12.4073
▁chryso	-12.4073
▁crafty	-12.4073
▁delud	-12.4073
▁drool	-12.4073
▁grandfather	-12.4073
▁humility	-12.4073
▁lamented	-12.4073
▁lungs	-12.4073
▁mankind	-12.4073
▁narrat	-12.4073
▁negotiat	-12.4073
▁risk	-12.4073
▁smack	-12.4073
▁soothsay	-12.4073
▁spark	-12.4073
▁squeal	-12.4073
▁stove	-12.4073
▁twirl	-12.4073
▁unsettle	-12.4073
▁whicker	-12.4073
▁withdraw	-12.4073
▁Earth	-12.4073
▁Towers	-12.4073
▁circuit	-12.4073
▁expert	-12.4073
▁foaming	-12.4073
▁ignore	-12.4073
▁wobbl	-12.4073
▁beho	-12.4073
▁garnish	-12.4073
xtort	-12.4073
▁Galeed	-12.4073
▁Sabt	-12.4073
▁basketfuls	-12.4073
▁daddy	-12.4073
▁fragran	-12.4073
▁motor	-12.4073
▁napkin	-12.4073
▁scourging	-12.4073
▁surpass	-12.4073
versatile	-12.4074
▁balance	-12.4074
▁glid	-12.4074
▁overflow	-12.4074
▁suspicio	-12.4074
spouts	-12.4074
▁dazzling	-12.4074
▁effectual	-12.4074
▁initial	-12.4074
▁opus	-12.4074
▁waistcoat	-12.4074
▁hobbl	-12.4074
▁numer	-12.4074
▁purification	-12.4074
▁Joanna	-12.4074
▁dragline	-12.4074
▁runneth	-12.4074
▁Hirah	-12.4074
▁assessment	-12.4074
▁loathe	-12.4074
▁superlative	-12.4074
▁Pontiac	-12.4074
▁persistent	-12.4074
▁uphill	-12.4074
▁Amoz	-12.4074
▁rude	-12.4074
ilacs	-12.4074
▁approached	-12.4074
▁billows	-12.4074
▁globe	-12.4074
▁oink	-12.4074
▁option	-12.4074
▁rescue	-12.4074
▁balm	-12.4074
▁councillor	-12.4074
▁frying	-12.4074
▁hazard	-12.4074
▁nursing	-12.4074
▁shiver	-12.4074
▁Josiah	-12.4074
▁enchant	-12.4074
▁sentiment	-12.4074
▁ambassage	-12.4074
▁filthiness	-12.4074
▁forefather	-12.4074
▁consist	-12.4074
▁eventide	-12.4074
▁grandson	-12.4074
▁reclin	-12.4074
pproximately	-12.4074
▁dignities	-12.4074
▁peaks	-12.4074
▁Slug	-12.4074
▁furious	-12.4074
▁stroll	-12.4074
▁superfluity	-12.4074
▁Raamah	-12.4074
▁aloft	-12.4074
▁divinity	-12.4074
▁slats	-12.4074
▁caution	-12.4074
▁pride	-12.4074
▁cautiously	-12.4074
▁ginger	-12.4074
▁splash	-12.4074
▁Doctor	-12.4074
▁appeti	-12.4074
▁babblings	-12.4074
▁befitting	-12.4074
▁leasing	-12.4074
▁precede	-12.4074
▁welfare	-12.4074
▁outfit	-12.4074
▁spoonful	-12.4074
▁bacteria	-12.4074
▁uniform	-12.4074
azin	-12.4074
▁Corinthians	-12.4074
▁usury	-12.4074
▁display	-12.4074
▁salon	-12.4074
▁battle	-12.4074
▁turtle	-12.4074
▁vomit	-12.4074
substan	-12.4074
▁manger	-12.4074
▁Calah	-12.4074
▁exhal	-12.4074
▁stanched	-12.4074
▁vaunt	-12.4074
▁chaise	-12.4074
▁translat	-12.4074
▁britches	-12.4074
▁guiltless	-12.4074
▁owl	-12.4074
▁travers	-12.4074
▁Salem	-12.4074
▁fuss	-12.4074
▁acquaintance	-12.4074
▁Gaza	-12.4074
▁Mizraim	-12.4074
▁allotted	-12.4074
▁soaked	-12.4074
▁primar	-12.4074
▁suet	-12.4074
▁droop	-12.4074
▁clash	-12.4074
▁gloomily	-12.4074
▁vouch	-12.4074
▁Rhod	-12.4074
▁decay	-12.4074
▁dripping	-12.4074
▁loyal	-12.4074
▁Julius	-12.4074
▁enforc	-12.4074
▁partiality	-12.4074
Meeting	-12.4074
▁eaves	-12.4074
▁enrolment	-12.4074
▁kidding	-12.4074
tude	-12.4074
▁popover	-12.4074
▁laz	-12.4074
▁legitima	-12.4074
▁Tert	-12.4074
▁Claudius	-12.4074
▁poet	-12.4074
▁flake	-12.4074
▁streak	-12.4074
Nice	-12.4074
sabba	-12.4074
▁okay	-12.4074
▁tube	-12.4074
▁cinder	-12.4074
▁railhead	-12.4074
▁anti	-12.4074
NK	-12.4074
▁Jeze	-12.4074
▁Poor	-12.4074
▁pulse	-12.4074
churn	-12.4074
jah	-12.4074
▁Javan	-12.4074
▁Lud	-12.4074
▁subtilty	-12.4074
▁Job	-12.4075
agic	-12.4075
▁whale	-12.4075
▁factious	-12.4075
▁blunt	-12.4075
▁edified	-12.4075
iggled	-12.4075
▁decade	-12.4075
tenance	-12.4075
▁Maha	-12.4075
▁hammer	-12.4075
▁rhythmic	-12.4075
▁Kid	-12.4075
▁concourse	-12.4075
bited	-12.4075
zzling	-12.4075
▁Zac	-12.4075
▁earshot	-12.4075
▁coco	-12.4075
▁hencefor	-12.4075
▁Dead	-12.4075
▁horseback	-12.4075
▁kin	-12.4075
▁Teach	-12.4075
▁oilcloth	-12.4075
▁Elisha	-12.4075
▁Padanaram	-12.4075
▁spectac	-12.4075
▁sheath	-12.4075
▁severity	-12.4075
▁embroiderer	-12.4075
▁Naaman	-12.4075
▁impu	-12.4075
▁stew	-12.4075
▁recall	-12.4075
▁flute	-12.4075
▁ownership	-12.4075
▁Irad	-12.4075
▁ancest	-12.4075
▁suggestions	-12.4075
bia	-12.4075
ember	-12.4075
bula	-12.4075
▁foreship	-12.4075
▁Massa	-12.4075
▁Lyc	-12.4075
▁Carry	-12.4075
▁persuasive	-12.4075
▁rig	-12.4075
▁tripod	-12.4075
urvey	-12.4076
▁instant	-12.4076
▁Merc	-12.4076
▁trump	-12.4076
▁trench	-12.4076
▁Edomites	-12.4076
hites	-12.4076
▁meditation	-12.4076
▁detest	-12.4076
▁thankfulness	-12.4076
enser	-12.4076
▁calam	-12.4076
▁Beersheba	-12.4076
AT	-12.4076
▁tackl	-12.4076
▁Bridge	-12.4076
▁cookery	-12.4076
▁piss	-12.4076
osity	-12.4076
▁scalp	-12.4076
▁wavering	-12.4076
▁rebel	-12.4076
▁missionar	-12.4076
▁eff	-12.4076
▁removal	-12.4076
▁drear	-12.4076
▁Kir	-12.4076
▁wakeful	-12.4076
▁Kar	-12.4076
▁partial	-12.4076
▁grid	-12.4076
▁justifieth	-12.4076
▁speedily	-12.4076
▁beget	-12.4076
erceive	-12.4076
▁variance	-12.4076
cade	-12.4076
egion	-12.4076
▁expression	-12.4077
▁cruelty	-12.4077
▁Naph	-12.4077
▁pomp	-12.4077
▁Hog	-12.4077
Easy	-12.4077
▁thunderings	-12.4077
▁riotous	-12.4077
▁history	-12.4077
▁transit	-12.4077
▁funny	-12.4077
▁theatre	-12.4077
▁confirmation	-12.4077
▁roadway	-12.4077
▁boyhood	-12.4077
▁Hermon	-12.4077
▁mineral	-12.4077
naim	-12.4077
▁fuck	-12.4077
▁Hori	-12.4077
▁bondmen	-12.4078
▁rocket	-12.4078
▁policy	-12.4078
▁unholy	-12.4078
▁unseemly	-12.4078
nkle	-12.4078
▁gallery	-12.4078
apolis	-12.4078
▁wavered	-12.4078
▁encourage	-12.4078
▁phoe	-12.4078
▁hop	-12.4078
▁alternate	-12.4078
▁Beriah	-12.4078
▁wariness	-12.4078
▁State	-12.4078
▁skirmish	-12.4078
▁Aram	-12.4078
▁parings	-12.4078
▁cling	-12.4078
▁Matthan	-12.4078
ndron	-12.4078
▁Bow	-12.4078
▁axle	-12.4078
polis	-12.4078
ilver	-12.4078
▁nea	-12.4079
ccent	-12.4079
▁Lie	-12.4079
▁carrie	-12.4079
▁sparingly	-12.4079
▁politely	-12.4079
▁similarly	-12.4079
nnels	-12.4079
▁doubleminded	-12.4079
▁wrongfully	-12.4079
▁Shim	-12.4079
▁noisy	-12.4079
ulation	-12.4079
gage	-12.4079
▁bump	-12.4079
▁suppertime	-12.4079
▁arising	-12.4079
guiltiness	-12.4079
abies	-12.4079
▁alongside	-12.408
▁dough	-12.408
uda	-12.408
ddling	-12.408
onia	-12.408
▁acceptation	-12.408
▁grand	-12.408
▁Hadar	-12.408
▁Onesi	-12.408
▁chaste	-12.4081
▁promi	-12.4081
eously	-12.4081
▁rill	-12.4081
▁fitting	-12.4081
acter	-12.4081
▁crunch	-12.4081
▁crust	-12.4081
▁gentleness	-12.4081
▁Rhe	-12.4081
▁gum	-12.4082
▁lam	-12.4082
▁mockers	-12.4082
▁hitherto	-12.4082
▁eag	-12.4082
▁collapsed	-12.4082
▁disbelieved	-12.4082
▁scabb	-12.4082
▁confi	-12.4082
▁surre	-12.4083
▁hello	-12.4083
▁Jah	-12.4083
▁attachment	-12.4083
▁boxes	-12.4083
▁china	-12.4083
▁identi	-12.4083
▁thankful	-12.4084
▁Tab	-12.4084
oper	-12.4084
▁stings	-12.4084
▁attraction	-12.4084
▁Tryph	-12.4084
▁freeman	-12.4085
▁genealogy	-12.4085
▁bull	-12.4085
▁tighten	-12.4085
▁team	-12.4085
▁shaven	-12.4085
▁Gomer	-12.4085
▁mire	-12.4085
lene	-12.4085
▁fearfulness	-12.4085
▁gorgeous	-12.4085
riah	-12.4086
▁fume	-12.4086
geon	-12.4086
▁honest	-12.4086
▁seduc	-12.4086
▁homeland	-12.4086
▁incl	-12.4086
▁tones	-12.4087
▁station	-12.4087
▁approvedness	-12.4087
▁earnestness	-12.4087
▁normal	-12.4087
▁alo	-12.4087
▁Cover	-12.4087
▁agent	-12.4088
▁flourisheth	-12.4088
chant	-12.4089
▁pew	-12.4089
▁soberness	-12.4089
pilled	-12.4089
▁bedtime	-12.4089
▁backbone	-12.409
educ	-12.409
horus	-12.409
▁Ken	-12.409
retty	-12.409
rubs	-12.409
Are	-12.409
rged	-12.4091
▁reconcil	-12.4091
▁assist	-12.4091
▁foes	-12.4092
▁chast	-12.4092
▁dau	-12.4092
▁scare	-12.4092
▁ledge	-12.4092
cientist	-12.4093
▁dreamily	-12.4093
▁belonging	-12.4093
▁embalmed	-12.4093
▁drowned	-12.4093
▁hesitated	-12.4093
▁butchered	-12.4093
orci	-12.4093
▁underwear	-12.4094
▁cobbler	-12.4094
▁Mish	-12.4094
voca	-12.4094
Goodness	-12.4095
isc	-12.4095
▁gloriest	-12.4095
▁Near	-12.4095
▁meta	-12.4095
▁Apple	-12.4096
▁sym	-12.4096
▁delicately	-12.4098
▁meekly	-12.4098
▁laughter	-12.4098
▁tamed	-12.4098
▁chasteneth	-12.4098
▁flapped	-12.4098
▁Elim	-12.4098
▁dealings	-12.4099
▁acquaint	-12.4099
▁Mib	-12.4099
▁tailor	-12.41
▁blaze	-12.41
▁familiar	-12.41
▁ordinary	-12.41
▁wreck	-12.41
amous	-12.4101
▁Wind	-12.4101
▁cure	-12.4102
eneration	-12.4102
▁thump	-12.4102
▁Fight	-12.4103
anim	-12.4103
▁firelight	-12.4103
▁defende	-12.4103
▁Majest	-12.4103
▁watchful	-12.4103
▁overboard	-12.4103
bsolution	-12.4104
allel	-12.4104
▁Obe	-12.4104
▁saddle	-12.4104
luc	-12.4105
affl	-12.4105
▁worshippeth	-12.4106
oic	-12.4106
arge	-12.4106
blossom	-12.4106
▁generally	-12.4108
▁sunris	-12.4108
▁ruff	-12.4109
yway	-12.4109
rban	-12.411
▁joyfully	-12.4111
rsel	-12.4111
▁lightened	-12.4111
▁striker	-12.4111
Avery	-12.4111
anging	-12.4112
▁unity	-12.4112
▁perfection	-12.4113
willing	-12.4113
▁copies	-12.4113
▁endeavors	-12.4113
▁feathers	-12.4113
▁morals	-12.4113
▁palaces	-12.4113
▁politics	-12.4113
▁proselytes	-12.4113
▁symbols	-12.4113
eyond	-12.4113
▁convers	-12.4113
▁Mana	-12.4114
▁rambl	-12.4115
siah	-12.4115
hepherd	-12.4115
▁Alexandrian	-12.4115
▁mites	-12.4116
▁bored	-12.4116
ighteous	-12.4116
▁Boy	-12.4116
▁scour	-12.4119
▁unbeliever	-12.4119
▁thereupon	-12.4121
sorry	-12.4123
esis	-12.4123
▁penny	-12.4123
planted	-12.4123
▁fisherm	-12.4124
jack	-12.4124
▁decrease	-12.4124
▁cult	-12.4126
▁assuredly	-12.4127
▁gloriously	-12.4127
col	-12.4127
▁scattereth	-12.4127
▁licked	-12.4127
▁dismissed	-12.4127
▁carcase	-12.4127
▁drunkard	-12.4128
▁complained	-12.4128
▁reviler	-12.4129
▁lackest	-12.4129
▁whistling	-12.413
▁contem	-12.413
burger	-12.413
▁complaining	-12.413
▁mom	-12.4131
▁Had	-12.4132
inter	-12.4133
▁baptizeth	-12.4133
▁pyr	-12.4134
▁wedding	-12.4135
▁project	-12.4135
▁Joy	-12.4135
ripe	-12.4138
▁lick	-12.4139
evolution	-12.414
▁mouthful	-12.414
▁dries	-12.4141
▁spy	-12.4143
lunta	-12.4143
▁constant	-12.4143
▁Ach	-12.4144
▁quench	-12.4144
▁pathetic	-12.4146
▁becomingly	-12.4146
▁faileth	-12.4146
▁draft	-12.4147
▁summ	-12.4148
▁dar	-12.4148
▁sling	-12.4148
▁explod	-12.4148
▁Shil	-12.4148
▁TH	-12.4149
▁compare	-12.4151
▁Wash	-12.4152
▁earlie	-12.4152
▁abhorre	-12.4153
▁local	-12.4155
quality	-12.4156
arsely	-12.4156
▁heartily	-12.4156
qui	-12.4157
▁Aren	-12.4158
ffer	-12.4159
▁Phu	-12.416
ouching	-12.4161
esture	-12.4162
▁encountered	-12.4162
▁mansion	-12.4164
▁thereabout	-12.4167
▁missing	-12.4168
▁excused	-12.4168
▁fastness	-12.4169
▁swamp	-12.4169
▁brightest	-12.4172
▁nicely	-12.4175
non	-12.4175
▁Ze	-12.4175
urning	-12.4176
▁glare	-12.4177
▁Nan	-12.4179
rks	-12.4179
▁ramp	-12.418
rped	-12.4181
▁hillsides	-12.4182
▁elbows	-12.4182
▁poplars	-12.4182
▁scorpions	-12.4182
▁aprons	-12.4182
▁citizens	-12.4182
controlled	-12.4183
▁belongings	-12.4183
▁payments	-12.4187
ymen	-12.4188
year	-12.4188
▁highways	-12.4188
▁outright	-12.4188
▁ref	-12.4189
ffed	-12.4189
▁legion	-12.419
venge	-12.4192
▁proudly	-12.4195
▁readest	-12.4195
lunchtime	-12.4195
▁witch	-12.4195
▁hangeth	-12.4195
▁archer	-12.4196
▁remarked	-12.4196
▁someday	-12.4198
▁vowed	-12.4199
Alon	-12.4202
▁stare	-12.4203
▁lesson	-12.4203
mely	-12.4203
▁despairing	-12.4205
▁inventing	-12.4205
▁ev	-12.4209
woods	-12.4209
nuts	-12.4209
▁wrestling	-12.421
▁sadly	-12.421
▁weakling	-12.4211
▁gear	-12.4215
▁faster	-12.4218
▁Phil	-12.4219
▁miser	-12.4219
▁hasn	-12.422
▁impos	-12.422
ngular	-12.4221
▁stunt	-12.4221
▁Beor	-12.4222
▁uncover	-12.4225
▁awaked	-12.4226
▁paces	-12.4228
▁Rest	-12.4228
▁Israelites	-12.4231
▁consol	-12.4231
▁included	-12.4233
▁admoni	-12.4239
▁plu	-12.4242
ball	-12.4248
orehouses	-12.4252
▁wickedly	-12.4253
▁guests	-12.4253
▁bishops	-12.4253
▁patriarchs	-12.4253
▁results	-12.4253
▁benefits	-12.4253
▁ewes	-12.4253
▁factions	-12.4255
▁dispos	-12.4258
▁reput	-12.4258
▁washings	-12.4259
▁Spid	-12.4259
▁nast	-12.4265
boards	-12.4266
stones	-12.4268
works	-12.4271
fied	-12.4274
TER	-12.4277
▁dissipat	-12.4278
▁decomposed	-12.4279
▁gnawing	-12.428
▁coveting	-12.4283
determin	-12.4284
▁grassy	-12.4285
▁Ked	-12.429
allows	-12.4291
▁aboundeth	-12.4291
▁secretly	-12.4293
band	-12.4295
▁boiled	-12.4297
tay	-12.4301
▁Nor	-12.4304
▁bin	-12.4317
▁dre	-12.4318
▁blasphemer	-12.4325
▁candles	-12.4325
▁ranks	-12.4326
▁Tir	-12.4326
▁railings	-12.4327
▁repenteth	-12.433
▁sorely	-12.4331
▁departeth	-12.4333
▁cries	-12.4338
lay	-12.4339
▁reigneth	-12.434
▁sharply	-12.4342
▁stag	-12.4343
▁forbearing	-12.4353
▁weeds	-12.4354
▁Dis	-12.4359
hips	-12.4362
▁lawfully	-12.4368
▁Hot	-12.4375
aves	-12.4376
▁warmth	-12.4379
▁breaketh	-12.4393
▁twisting	-12.4395
▁sheets	-12.4398
▁tumults	-12.4399
▁instructions	-12.44
▁poorly	-12.4402
gree	-12.4409
▁consented	-12.4413
▁afoot	-12.4423
wailed	-12.4423
▁aboard	-12.4427
▁preferr	-12.4432
▁rouse	-12.4443
▁jet	-12.4446
rock	-12.4454
▁Cos	-12.4459
▁fou	-12.4466
▁planning	-12.4469
▁labours	-12.4472
▁balloons	-12.4474
▁belt	-12.4483
shearer	-12.4484
▁airy	-12.4485
▁duel	-12.4488
▁Arch	-12.4502
▁clapp	-12.4504
▁activit	-12.4507
▁test	-12.4521
▁sleepy	-12.4533
▁signal	-12.454
▁plots	-12.4543
▁vig	-12.4545
▁bullocks	-12.4547
▁enjoin	-12.455
▁platters	-12.4552
▁Abia	-12.4556
▁lusted	-12.4564
▁seedling	-12.4568
▁killings	-12.4568
▁retain	-12.4569
▁bloo	-12.4569
▁ge	-12.4573
▁Hada	-12.4577
▁reaped	-12.4598
▁rendered	-12.4601
▁kne	-12.4661
vity	-12.4667
▁Sm	-12.4672
▁praised	-12.4707
arcel	-12.4708
▁dism	-12.473
▁Pau	-12.4751
consider	-12.477
▁marking	-12.4789
▁popula	-12.479
▁farth	-12.479
chem	-12.4795
▁residen	-12.4797
actors	-12.4814
acked	-12.483
there	-12.4833
AB	-12.4847
porter	-12.4853
La	-12.4862
sters	-12.4867
umbled	-12.4911
had	-12.4915
▁agenc	-12.4921
raggle	-12.4947
gation	-12.4951
▁sanctifie	-12.4989
city	-12.4989
▁radian	-12.5018
udg	-12.5043
balanc	-12.5048
ency	-12.5058
▁lengthen	-12.5062
▁husk	-12.5103
▁blur	-12.5109
▁weaken	-12.5126
fallen	-12.515
tines	-12.5183
tac	-12.5191
▁gunfi	-12.5234
▁mini	-12.5251
twee	-12.5268
lative	-12.5324
hip	-12.5362
rich	-12.539
rake	-12.5394
escend	-12.5395
gratulation	-12.5429
▁distresse	-12.5437
journ	-12.5455
▁kni	-12.5457
▁paint	-12.5518
▁Mesh	-12.5525
▁ripp	-12.5587
▁distribut	-12.5597
ays	-12.5656
ral	-12.5715
▁Alva	-12.5722
▁gar	-12.5723
▁blo	-12.5727
▁trou	-12.5749
Ever	-12.5781
▁morta	-12.5817
▁watche	-12.586
ex	-12.5894
▁carpe	-12.6038
▁quali	-12.6063
informed	-12.6067
▁contra	-12.6074
lets	-12.6161
gin	-12.6165
nches	-12.6186
▁dainti	-12.6194
▁unmo	-12.6195
▁ba	-12.6205
gi	-12.6246
air	-12.6268
▁relat	-12.6274
▁sla	-12.6301
Try	-12.6349
nish	-12.6357
ttle	-12.6368
▁aveng	-12.6394
par	-12.6431
fighters	-12.6493
och	-12.6504
▁non	-12.6511
▁obs	-12.6521
▁naviga	-12.6547
▁invite	-12.6556
view	-12.6573
composed	-12.6642
efraud	-12.6685
▁sca	-12.6837
hen	-12.691
orseshoe	-12.6985
rang	-12.699
▁protect	-12.7045
▁welcom	-12.7089
ust	-12.71
▁Cre	-12.712
iving	-12.7188
ormwood	-12.7303
ana	-12.7344
clusive	-12.7346
▁dam	-12.7437
▁humm	-12.7453
▁dep	-12.7457
opping	-12.7478
bag	-12.7553
tasting	-12.7757
oz	-12.7881
aving	-12.7946
▁impr	-12.7968
▁pac	-12.7975
▁elevat	-12.801
▁compensat	-12.8018
nuel	-12.8029
nstead	-12.8051
▁Mel	-12.8123
add	-12.8257
mock	-12.8411
phras	-12.8512
ether	-12.8513
▁exclu	-12.8561
▁epi	-12.8715
▁principalit	-12.8755
hereunto	-12.8768
formation	-12.8775
evil	-12.8791
▁prote	-12.8823
ize	-12.8857
▁Creat	-12.8869
shoe	-12.8929
awl	-12.8994
pot	-12.9071
wed	-12.9102
llows	-12.9111
udder	-12.9134
bat	-12.9136
bon	-12.9155
▁protecti	-12.9224
▁Rep	-12.9308
▁entic	-12.9312
fraud	-12.9356
ck	-12.9371
▁endur	-12.9414
▁compose	-12.9523
ioch	-12.953
▁navigati	-12.9536
move	-12.9655
▁persuade	-12.9699
rk	-12.9726
▁Po	-12.9814
omantic	-12.9883
▁snatche	-12.9899
▁conc	-12.9974
vo	-13.0007
▁daint	-13.0026
LO	-13.0041
unic	-13.0095
ushim	-13.0136
lotted	-13.016
phra	-13.0209
AM	-13.024
▁measur	-13.0276
bits	-13.0286
▁purpos	-13.0332
elect	-13.0341
▁Revi	-13.0361
arrow	-13.0389
▁enrol	-13.0477
mali	-13.0506
ignity	-13.0713
▁na	-13.0891
▁treati	-13.0955
ripping	-13.0966
arba	-13.1004
acle	-13.1061
olent	-13.1138
▁adjo	-13.1167
scend	-13.1168
▁slack	-13.1238
▁bewail	-13.1328
▁grip	-13.1425
▁compelle	-13.1434
▁exalte	-13.144
tching	-13.1469
nction	-13.1489
▁Writ	-13.1525
▁acknowledg	-13.1548
▁gla	-13.1594
▁mode	-13.1599
▁lin	-13.1763
▁vainglor	-13.1803
kite	-13.1832
▁Bac	-13.1833
▁mids	-13.1877
ammi	-13.188
▁pudd	-13.1894
▁radia	-13.1928
▁divin	-13.1943
Pre	-13.195
styles	-13.1966
▁rele	-13.1984
▁temp	-13.2003
▁Immediate	-13.2061
▁guid	-13.2062
tographe	-13.2071
▁hi	-13.2111
easing	-13.2152
▁nois	-13.218
ruption	-13.2191
trot	-13.2246
mble	-13.2281
ggle	-13.2291
vah	-13.2351
▁Li	-13.2384
▁squ	-13.2394
▁deci	-13.2396
hab	-13.2487
teller	-13.2619
▁reli	-13.2628
▁heav	-13.2756
now	-13.2772
pops	-13.281
▁refer	-13.2814
▁Mac	-13.2875
▁blasphem	-13.2888
▁Byron	-13.294
▁loc	-13.2959
▁proposi	-13.297
emarkable	-13.3045
bakers	-13.3055
▁Ex	-13.3058
▁separat	-13.3098
gro	-13.3108
Spring	-13.3137
quarters	-13.3191
uc	-13.3192
Jach	-13.3217
shares	-13.323
pockets	-13.3309
▁Straight	-13.3336
▁nu	-13.3339
reaching	-13.336
rley	-13.3384
ooted	-13.3402
plicat	-13.3408
▁plac	-13.342
▁Atta	-13.344
dresse	-13.3444
maker	-13.3451
racker	-13.3452
covered	-13.3467
cca	-13.3474
wise	-13.348
gger	-13.3493
▁Tema	-13.3495
arry	-13.3499
pine	-13.3501
Ti	-13.3518
counting	-13.354
▁Dio	-13.3541
mount	-13.355
▁spo	-13.3568
sipate	-13.3584
piders	-13.3602
▁Whoso	-13.3604
uddy	-13.3618
▁simpli	-13.362
▁esc	-13.3643
omen	-13.3644
▁chang	-13.3646
admonit	-13.365
maids	-13.3681
thrus	-13.3685
ickle	-13.3697
▁northw	-13.3732
▁Arc	-13.3741
gaining	-13.3778
▁Step	-13.3786
hanging	-13.3789
ppers	-13.3806
emon	-13.3807
pecial	-13.3835
▁circ	-13.3837
uary	-13.3848
▁plat	-13.3855
ticks	-13.3859
ekah	-13.3861
▁unfo	-13.3861
uckle	-13.3867
▁priv	-13.3869
▁abhor	-13.3874
ual	-13.3878
▁hoar	-13.3879
▁comp	-13.388
▁reconcili	-13.3883
Ba	-13.3893
▁conver	-13.3897
nstantly	-13.3897
▁rub	-13.3901
pra	-13.3908
▁unbeliev	-13.3916
▁fac	-13.3919
lute	-13.3923
change	-13.3924
pti	-13.393
▁contemp	-13.3931
bearing	-13.3937
▁carcas	-13.3937
vented	-13.3938
▁Buck	-13.394
wake	-13.3942
eaten	-13.3942
▁clap	-13.3959
burg	-13.3961
kin	-13.3961
creased	-13.3963
▁bruis	-13.3964
ppoint	-13.3964
postle	-13.3966
lready	-13.3967
give	-13.397
▁endeavor	-13.3973
G	-13.3994
Z	-13.4019
q	-14.7832
“	-14.7833
