{
  "src_word2id": {
    "<pad>": 0,
    "<s>": 1,
    "</s>": 2,
    "<unk>": 3,
    ",": 4,
    ".": 5,
    "\u2581\u13a0\u13b4": 6,
    "\u2581\u13be\u13cd\u13a9": 7,
    ";": 8,
    "\u13c3": 9,
    "\u2581\u13af\u13a0": 10,
    "\u2581\u13a8\u13d2": 11,
    "\u2581": 12,
    "\u13a2": 13,
    "\u2581\u13a5\u13dd": 14,
    "\u2581\u13a8\u13d2\u13a2": 15,
    "\u13f0\u13c3": 16,
    "\u13a9": 17,
    "\u2581\u13a8\u13ce\u13cd\u13d7": 18,
    "\u2581\u13a4\u13c1\u13b3\u13c5\u13af": 19,
    "?": 20,
    "\u2581\u13c3\u13b4": 21,
    "\u2581\u13a4": 22,
    "\u2581\u13a0": 23,
    "\u2581\u13f4\u13eb": 24,
    "\u13c9": 25,
    "\u13d7": 26,
    "\u201d": 27,
    "\u13af": 28,
    "\u2581\u13a9\u13b6": 29,
    "\u2581\u13be\u13cd\u13c9": 30,
    "\u2581\u13a2\u13f3\u13cd\u13d7": 31,
    "\u2581\u13be\u13bf": 32,
    "\u2581\u13be\u13cd\u13a9\u13ef": 33,
    "\u2060": 34,
    "\u2581\u13a0\u13ce\u13c3": 35,
    "\u2581\u13a0\u13f4": 36,
    "\u13ad": 37,
    "\u2581\u13f1\u13a9": 38,
    "\u2581\u13be": 39,
    "-": 40,
    "\u2581\u13e5\u13a9": 41,
    "\u2581\u13f1\u13b0\u13e9": 42,
    "\u2581\u13aa\u13b1\u13cd\u13d7": 43,
    "\u2581\u13c2\u13a6\u13db": 44,
    "\u2581\u13c2\u13af": 45,
    "\u2581\u13a2\u13a6": 46,
    "\u2581\u13a4\u13ac\u13eb\u13f3\u13af": 47,
    "\u2581\u13e5\u13cc": 48,
    "\u2581\u13c2\u13a8\u13d2\u13be": 49,
    "\u13f1": 50,
    "\u2581\u201c": 51,
    "\u13be": 52,
    "\u13cd\u13a9\u13c2": 53,
    "\u2581\u13a3\u13cd\u13db": 54,
    "\u13db": 55,
    "\u2581\u13af\u13a0\u13c3": 56,
    "\u13cd\u13d7": 57,
    "\u2581\u13a4\u13ea\u13e5": 58,
    "\u2581\u13e7": 59,
    "\u2581\u13d7": 60,
    "\u2581\u13a2\u13f3\u13c3": 61,
    "\u2581\u13be\u13cd\u13a9\u13c3": 62,
    "\u2581\u13e7\u13ea\u13e5": 63,
    "\u2581\u13a6\u13b6\u13c1\u13db": 64,
    "\u2581\u13c4\u13ea\u13ce\u13a2": 65,
    "\u13d3": 66,
    "\u2581\u13bf\u13c9": 67,
    "\u2581\u13a1\u13b6\u13af": 68,
    "\u2581\u13de\u13cd\u13d7": 69,
    "\u2581\u13e5": 70,
    "\u2581\u13a0\u13c2": 71,
    "\u2581\u13a8\u13cd\u13d7": 72,
    "\u2581\u13bf\u13c9\u13c3": 73,
    "\u2581\u13a4\u13f2": 74,
    "\u13a6": 75,
    "\u2581\u13a4\u13db\u13c1": 76,
    "\u2581\u13e3": 77,
    "!": 78,
    "\u2581\u13a4\u13e3\u13d8": 79,
    "\u2581\u13a0\u13e5\u13b8": 80,
    "\u2581\u13f1": 81,
    "\u2581\u13da": 82,
    "\u2581\u201d": 83,
    "\u2581\u13eb\u13b5\u13bb": 84,
    "\u2581\u13be\u13af\u13f3": 85,
    "\u2581\u13c2\u13a6\u13a5": 86,
    "\u2581\u13ac\u13c2\u13a8\u13d2": 87,
    "\u2581\u13a0\u13cd\u13a6\u13ef": 88,
    "\u2581\u13a6\u13b8\u13c9\u13d7\u13f3": 89,
    "\u2581\u13ac\u13c2\u13f3\u13c9": 90,
    "\u2581\u13c4\u13cd\u13db": 91,
    "\u2581\u13a6\u13d9": 92,
    "\u2581\u13a7\u13c3\u13ae\u13db": 93,
    "\u13c2": 94,
    "\u2581\u13a1\u13af": 95,
    "\u2581\u13a4\u13e9\u13d2": 96,
    "\u2581\u13a0\u13c1\u13af": 97,
    "\u2581\u13a6\u13b8\u13b3\u13d7": 98,
    "\u2581\u13a0\u13f0\u13b5": 99,
    "\u13c5": 100,
    "\u2581\u13a0\u13d5\u13b8": 101,
    "\u2581\u13a8\u13ce\u13a2": 102,
    "\u2581\u13a4\u13e4\u13b5": 103,
    "\u2581\u13cc\u13c9": 104,
    "\u2581\u13f0\u13b5": 105,
    "\u2581\u13a4\u13e4\u13b5\u13a6": 106,
    "\u2581\u13a0\u13b9": 107,
    "\u2581\u13a2\u13e3": 108,
    "\u2581\u13a2\u13f4\u13db": 109,
    "\u13a8": 110,
    "\u13d7\u13f1": 111,
    "\u2581\u13a4\u13c2": 112,
    "\u13cf": 113,
    "\u13b8": 114,
    "\u13b5": 115,
    "\u2581\u13be\u13c2\u13a5": 116,
    "\u2581\u13a2": 117,
    "\u2581\u13a3\u13cf\u13f3": 118,
    "\u2581\u13a0\u13ce": 119,
    "\u13f3": 120,
    "\u2581\u13a6\u13d9\u13af": 121,
    "\u2581\u13d4\u13b5": 122,
    "\u2581\u13a2\u13cf\u13b5": 123,
    "\u2581[": 124,
    "\u13b4": 125,
    "\u2581\u13a4\u13df": 126,
    "]": 127,
    "\u2581\u13aa\u13af": 128,
    "\u2581\u13d7\u13a7\u13bf\u13e9\u13db\u13cd\u13d7": 129,
    "\u2581\u13af": 130,
    "\u2581\u13a0\u13d3\u13c5\u13d9": 131,
    "\u2581\u13a3\u13cd\u13d3": 132,
    "\u2581\u13a0\u13c2\u13cd\u13a6\u13ef": 133,
    "\u13d2": 134,
    "\u2581\u13d3": 135,
    "\u2581\u13a8\u13ce": 136,
    "\u2581\u13a2\u13e5\u13c8\u13f1": 137,
    "\u2581\u13d4\u13b5\u13c1": 138,
    "\u2581\u13bc\u13cf": 139,
    "\u13b2": 140,
    "\u13cd\u13aa": 141,
    "\u2581\u13a6": 142,
    "\u2581\u13a2\u13f3": 143,
    "\u2581\u13a8\u13d2\u13a9": 144,
    "\u2581\u13ac\u13e9": 145,
    "\u2581\u2060": 146,
    "\u2581\u13a4\u13cd\u13d7": 147,
    "\u2581\u13a2\u13ac\u13f1": 148,
    "\u2581\u13e4\u13a6\u13c8": 149,
    "\u2581\u13da\u13f3\u13aa\u13db": 150,
    "\u2581\u13a4\u13c2\u13e3\u13d8": 151,
    "\u2581\u13a1\u13b3\u13d7": 152,
    "\u2581\u13a1\u13c6\u13ad\u13bb": 153,
    "\u2581\u13a2\u13f3\u13b5\u13cd\u13d9\u13d7\u13f1": 154,
    "\u2581\u13a6\u13d9\u13c3": 155,
    "\u2581\u13a0\u13eb": 156,
    "\u13cd\u13a9": 157,
    "\u2581\u13f3": 158,
    ":": 159,
    "\u13a8\u13cd\u13d7": 160,
    "\u2581\u13a2\u13d7\u13e2": 161,
    "\u2581\u13e9\u13a6": 162,
    "\u13a0": 163,
    "\u2581\u13c7\u13b5\u13f2": 164,
    "\u2581\u13eb": 165,
    "\u2581\u13cf\u13c6": 166,
    "\u2581\u13a0\u13a8\u13f4": 167,
    "\u2581\u13f2\u13be": 168,
    "\u13ac": 169,
    "\u2581\u13a4\u13be": 170,
    "\u2581\u13e6\u13e9": 171,
    "\u2581\u13cc\u13b3\u13d3": 172,
    "\u13aa": 173,
    "\u2581\u13a0\u13cf": 174,
    "\u2581\u13be\u13a5": 175,
    "\u13d9\u13d7": 176,
    "\u2581\u13c4\u13ea\u13d2\u13a9": 177,
    "\u2581\u13c5\u13a9": 178,
    "\u2581\u13c4\u13ea\u13ce\u13b4\u13a2": 179,
    "\u2581\u13c2\u13a6\u13d3": 180,
    "\u2581\u13ed": 181,
    "\u2581\u13e7\u13d3\u13b4\u13c5\u13db": 182,
    "\u2581\u13f1\u13a8\u13ce\u13cd\u13d7": 183,
    "\u2581\u13e6\u13a2": 184,
    "\u13ef": 185,
    "\u2581\u13a2\u13e5": 186,
    "\u13c1": 187,
    "\u2581\u13a4\u13d9\u13af\u13f3\u13af\u13ef": 188,
    "\u2581\u13e5\u13cc\u13c3": 189,
    "\u2581\u13c5\u13ef": 190,
    "\u13e5": 191,
    "\u2581\u13c2\u13da\u13ea\u13ce\u13b4\u13a2": 192,
    "\u2581\u13ef": 193,
    "\u2581\u13a6\u13da": 194,
    "\u2581\u13d0\u13c8\u13b5": 195,
    "\u2581\u13dd\u13cd\u13aa": 196,
    "\u2581\u13a0\u13c2\u13e7\u13cf": 197,
    "\u2581\u13c4": 198,
    "\u2581\u13e3\u13ac\u13eb\u13f3\u13af": 199,
    "\u2581\u13a4\u13ac\u13e9\u13b5": 200,
    "\u13ce": 201,
    "\u2581\u13e7\u13e4\u13b5": 202,
    "\u2581\u13c2": 203,
    "\u2581\u13a6\u13b5\u13c9\u13a9": 204,
    "\u2581\u13d3\u13b6\u13c2\u13a8": 205,
    "\u2581\u13ac": 206,
    "\u2581\u13ac\u13e9\u13cd\u13d3\u13e9\u13d7\u13d9\u13af": 207,
    "\u2581\u13c4\u13ea\u13ce\u13b8\u13a9": 208,
    "\u13cd\u13ac": 209,
    "\u2581\u13a1\u13cd\u13a6": 210,
    "\u2581\u13a6\u13aa": 211,
    "\u2581\u13c2\u13a6\u13d7\u13f3": 212,
    "\u2581\u13a2\u13e7\u13b3\u13ad": 213,
    "\u2581\u13ac\u13d7": 214,
    "\u2581\u13c2\u13aa\u13af\u13b8": 215,
    "\u2581\u13f0\u13b5\u13c9": 216,
    "\u13ae": 217,
    "\u2581\u13a6\u13d3": 218,
    "\u13b3": 219,
    "\u2581\u13a8": 220,
    "\u2581\u13a0\u13c6": 221,
    "\u2581\u13a0\u13d3": 222,
    "\u2581\u13a4\u13d9\u13d3": 223,
    "\u2581\u13da\u13c2": 224,
    "\u2581\u13c8\u13d3": 225,
    "\u2581\u13a3\u13c2": 226,
    "\u2581\u13c4\u13ea\u13ce\u13b4": 227,
    "\u2581\u13a4\u13e4\u13cd\u13d9": 228,
    "\u2581\u13d5": 229,
    "\u2581\u13e5\u13b7\u13cf\u13b5\u13bb": 230,
    "\u2581\u13c2\u13da\u13ea\u13ce\u13b8\u13a9": 231,
    "\u2581\u13a0\u13cf\u13c9": 232,
    "\u2581\u13e3\u13c2": 233,
    "\u2581\u13a6\u13da\u13b2": 234,
    "\u2581\u13a1": 235,
    "\u2581\u13c5\u13d7\u13a6\u13b5\u13cd\u13d9\u13d7\u13ad": 236,
    "\u2581\u13a0\u13c2\u13a8\u13f4": 237,
    "\u2581\u13ac\u13c2": 238,
    "\u2581\u13a4\u13c5\u13d2": 239,
    "\u2581\u13a2\u13a9": 240,
    "\u2581\u13aa\u13ea\u13b5": 241,
    "\u2581\u13c9\u13b3": 242,
    "\u2581\u13e7\u13be\u13d3\u13b4\u13c5\u13db": 243,
    "\u2581\u13f1\u13a8\u13ce": 244,
    "\u2581\u13a2\u13ef\u13c2\u13db": 245,
    "\u2581\u13ac\u13c2\u13db": 246,
    "\u2581\u13a0\u13a9": 247,
    "\u2581\u13a1\u13d9\u13d3": 248,
    "\u2581\u13c4\u13ac\u13eb\u13f3\u13d2": 249,
    "\u13d8": 250,
    "\u2581\u13c2\u13ac\u13be\u13db": 251,
    "\u2581\u13a2\u13a6\u13a2": 252,
    "\u2581\u13cd\u13a9": 253,
    "\u2581\u13be\u13cd\u13a9\u13ef\u13a2": 254,
    "\u2581\u13d0\u13c9": 255,
    "\u2581\u13e3\u13b5": 256,
    "\u2581\u13aa\u13af\u13f3\u13d7": 257,
    "\u13d4\u13c5\u13af": 258,
    "\u2581\u13a0\u13c2\u13d4\u13b5": 259,
    "\u13f4": 260,
    "\u2581\u13be\u13a5\u13c2": 261,
    "\u2581\u13a1\u13b3\u13c2": 262,
    "\u13b0": 263,
    "\u2581\u13a4\u13b5\u13c2\u13a9\u13db": 264,
    "\u2581\u13c4\u13b5\u13cd\u13d4\u13c1\u13a2": 265,
    "\u2581\u13a2\u13f4": 266,
    "\u2581\u13a4\u13c1\u13e8": 267,
    "\u2581\u13a4\u13d9\u13af\u13f3\u13af": 268,
    "\u2581\u13bc\u13cf\u13c3": 269,
    "\u2581\u13a4\u13d3\u13b5\u13a2": 270,
    "\u13b8\u13a9": 271,
    "\u2581\u13d7\u13a6\u13b3\u13eb\u13a2\u13cd\u13d7\u13f1": 272,
    "\u2581\u13e7\u13c2": 273,
    "\u2581\u13a2\u13ac\u13f1\u13d7\u13e2": 274,
    "\u2581\u13a4\u13d3\u13d9\u13b5\u13cd\u13d7": 275,
    "\u2581\u13a0\u13e3\u13d7": 276,
    "\u2581\u13c4\u13c2\u13ea\u13ce\u13a2": 277,
    "\u2581\u13e5\u13aa": 278,
    "\u13b8\u13af": 279,
    "\u2581\u13ad": 280,
    "\u13b4\u13a2": 281,
    "\u13cd\u13a8\u13cd\u13d7": 282,
    "\u2581\u13a2\u13a8\u13ce\u13cd\u13d7": 283,
    "\u13ae\u13cd\u13d7": 284,
    "\u2581\u13d7\u13a7\u13bf\u13e9\u13d7\u13d9\u13af": 285,
    "\u2581\u13a7": 286,
    "\u13a5": 287,
    "\u2581\u13d9": 288,
    "\u2581\u13af\u13cd\u13a9": 289,
    "\u2581\u13d7\u13a6\u13b8\u13eb\u13cd\u13d3\u13c1\u13d7": 290,
    "\u2581\u13a0\u13ef": 291,
    "\u2581\u13a2\u13e7\u13b3": 292,
    "\u2581\u13a4\u13db\u13c5": 293,
    "\u2581\u13a1\u13cf\u13a9": 294,
    "\u2581\u13a0\u13be\u13b5\u13c5\u13df": 295,
    "\u2581\u13cc\u13cc": 296,
    "\u2581\u13d7\u13e3": 297,
    "\u2581\u13a9\u13a6\u13a8": 298,
    "\u2581\u13b0\u13bb": 299,
    "\u2581\u13a6\u13b6\u13af\u13cd\u13d7\u13f1": 300,
    "\u2581\u13c5\u13e9\u13d3\u13b4": 301,
    "\u2581\u13ad\u13eb\u13c2": 302,
    "\u2581\u13d1\u13be\u13b4": 303,
    "\u2581\u13e7\u13be": 304,
    "\u2581\u13a0\u13b5\u13cd\u13d3\u13f4\u13d7": 305,
    "\u13d4\u13c5": 306,
    "\u2581\u13cd\u13a9\u13be\u13be": 307,
    "\u13e8": 308,
    "\u2581\u13c5\u13d9": 309,
    "\u13eb": 310,
    "\u2581\u13d2\u13c3\u13f1": 311,
    "\u2581\u13a2\u13ac\u13f1\u13f1": 312,
    "\u2581\u13a2\u13be\u13a8": 313,
    "\u2581\u13ac\u13e9\u13a6\u13d8\u13ef": 314,
    "\u2581\u13a4\u13c3\u13d5\u13be": 315,
    "\u2581\u13a0\u13e7\u13e3": 316,
    "\u2581\u13a4\u13e9\u13cc": 317,
    "\u2581\u13d4\u13b3\u13da": 318,
    "\u13e2": 319,
    "\u2581\u13a4\u13e5": 320,
    "\u2581\u13a6\u13b8\u13b6\u13a2": 321,
    "\u2581\u13f1\u13a8\u13ce\u13a2": 322,
    "\u2581\u13a3": 323,
    "\u2581\u13e7\u13ac\u13e9\u13b6\u13d7": 324,
    "\u2581\u13a9\u13b3": 325,
    "\u2581\u13a4\u13d3": 326,
    "\u13cc": 327,
    "\u2581\u13a4\u13be\u13e4\u13b5\u13a6": 328,
    "\u13c5\u13af": 329,
    "\u2581\u13da\u13d9\u13a5": 330,
    "\u2581\u13da\u13be": 331,
    "\u13e3": 332,
    "\u2581\u13a2\u13e4": 333,
    "\u2581\u13a6\u13f2\u13df": 334,
    "\u2581\u13c5\u13e9\u13d9\u13af\u13ef\u13db": 335,
    "\u2581\u13a0\u13cf\u13f4\u13eb": 336,
    "\u2581\u13a5": 337,
    "\u13cd\u13db": 338,
    "\u13c9\u13cd\u13a9\u13c2": 339,
    "\u2581\u13a2\u13b8\u13af\u13f3": 340,
    "\u2581\u13a2\u13d3\u13b5\u13c5\u13df": 341,
    "\u2581\u13e7\u13be\u13c1\u13b6\u13d7": 342,
    "\u13cd\u13a9\u13c2\u13c3\u13c5": 343,
    "\u13d9": 344,
    "\u2581\u13f1\u13a8\u13d2\u13be": 345,
    "\u2581\u13a4\u13cd\u13c6\u13c2\u13aa\u13d7": 346,
    "\u2581\u13a4\u13da\u13a9": 347,
    "\u2581\u13d7\u13a6": 348,
    "\u2581\u13a0\u13c6\u13e4\u13b5": 349,
    "\u2581\u13a2\u13aa\u13af\u13db": 350,
    "\u2581\u13a0\u13ac\u13f1": 351,
    "\u13cd": 352,
    "\u2581\u13a3\u13a9": 353,
    "\u2581\u13a0\u13f0\u13b8": 354,
    "\u2581\u13c4\u13b5\u13cd\u13d4\u13c5": 355,
    "\u2581\u13a1\u13c6": 356,
    "\u2581\u13ad\u13eb\u13c2\u13d7\u13e2": 357,
    "\u2581\u13a0\u13c7\u13e5": 358,
    "\u13d5": 359,
    "\u2581\u13e7\u13e4\u13b5\u13a6": 360,
    "\u2581\u13a9\u13b3\u13c9": 361,
    "\u2581\u13c5\u13d3\u13f3\u13d3\u13b4\u13c5\u13af": 362,
    "\u2581\u13c2\u13e8\u13ea\u13ce\u13ad": 363,
    "\u2581\u13c4\u13c2\u13ea\u13d2\u13a9": 364,
    "\u2581\u13a6\u13d3\u13ad": 365,
    "\u2581\u13a4\u13c7\u13d3\u13b5": 366,
    "\u2581\u13a6\u13f3\u13b3": 367,
    "\u2581\u13a4\u13be\u13d3\u13c5\u13d8": 368,
    "\u13d4": 369,
    "\u13ce\u13a2": 370,
    "\u2581\u13a2\u13f3\u13e9\u13c2\u13cc\u13db": 371,
    "\u2581\u13a2\u13f3\u13f0\u13c3": 372,
    "\u2581\u13a2\u13d0": 373,
    "\u2581\u13e5\u13f3": 374,
    "\u2581\u13c3\u13d7": 375,
    "\u2581\u13a2\u13a6\u13db": 376,
    "\u2581\u13a4\u13c1\u13b3\u13a9": 377,
    "\u2581\u13a4\u13d5\u13b5\u13db": 378,
    "\u2581\u13e7\u13d9\u13a2\u13db": 379,
    "\u2581\u13c4\u13ea\u13d2": 380,
    "\u2581\u13c4\u13cd\u13d7": 381,
    "\u2581\u13db": 382,
    "\u2581\u13a2\u13ef\u13a6\u13f4\u13b5": 383,
    "\u2581\u13e7\u13cd\u13c6\u13f4\u13cd\u13d7": 384,
    "\u2581\u13a4\u13db\u13db\u13c1": 385,
    "\u2581\u13d7\u13aa\u13e2\u13d4\u13c5\u13af": 386,
    "\u2581\u13e6": 387,
    "\u13c1\u13a2": 388,
    "\u2581\u13d3\u13c2": 389,
    "\u2581\u13cd\u13c9": 390,
    "\u2581\u13a0\u13c1\u13b2": 391,
    "\u2581\u13a6\u13b5\u13e6\u13db": 392,
    "\u13ae\u13a2": 393,
    "\u2581\u13c4\u13b5\u13cd\u13d4\u13c1": 394,
    "\u2581\u13e9": 395,
    "\u2581\u13c4\u13d3\u13b4\u13d2": 396,
    "\u13b8\u13a2": 397,
    "\u13cd\u13d7\u13f1": 398,
    "\u2581\u13a0\u13c1\u13b2\u13a2": 399,
    "\u13d2\u13a9": 400,
    "\u2581\u13a0\u13cd\u13d3\u13ef": 401,
    "\u13c5\u13a9": 402,
    "\u2581\u13a4\u13be\u13e4\u13b5": 403,
    "\u2581\u13a2\u13f3\u13b5\u13cd\u13d9\u13d7": 404,
    "\u2581\u13a0\u13be\u13d9\u13b4\u13b0\u13cd\u13a9": 405,
    "\u2581\u13a6\u13c1\u13b8": 406,
    "\u2581\u13d0\u13a2": 407,
    "\u2581\u13e6\u13a2\u13c1": 408,
    "\u13d9\u13d7\u13f1": 409,
    "\u2581\u13c3\u13c9": 410,
    "\u2581\u13a0\u13cd\u13aa\u13af\u13e7\u13c8": 411,
    "\u2581\u13a1\u13b3\u13c6\u13d7": 412,
    "\u2581\u13e7\u13c5\u13cf\u13d3\u13cd\u13d7": 413,
    "\u2581\u13a9\u13ac": 414,
    "\u13a8\u13a2": 415,
    "\u2581\u13c4\u13b5\u13cd\u13d4\u13c5\u13a9": 416,
    "\u13b2\u13a2": 417,
    "\u2581\u13cc\u13e9\u13c2": 418,
    "\u2581\u13a0\u13c2\u13c6\u13b5\u13cf": 419,
    "\u2581\u13e0\u13a8\u13cf": 420,
    "\u2581\u13a0\u13f2\u13b1\u13af\u13cd\u13d7": 421,
    "\u2581\u13a0\u13d3\u13c1\u13b8": 422,
    "\u2581\u13a7\u13c5\u13c2\u13cd\u13a9": 423,
    "\u2581\u13a0\u13a6\u13f4\u13b5\u13a8": 424,
    "\u2581\u13a0\u13ba\u13c9\u13af": 425,
    "\u2581\u13c4\u13c2\u13ac\u13eb\u13f3\u13d2": 426,
    "\u2581\u13e7\u13d5\u13d8\u13f4\u13db": 427,
    "\u2581\u13a4\u13c2\u13c3\u13d5\u13be": 428,
    "\u2581\u13e5\u13f3\u13af": 429,
    "\u2581\u13a4\u13c1\u13ac": 430,
    "\u2581\u13dd": 431,
    "\u2581\u13a4\u13d2\u13af": 432,
    "\u2581\u13cf": 433,
    "\u2581\u13a4\u13c2\u13ac\u13eb\u13f3\u13af": 434,
    "\u2581\u13a4\u13c3\u13b4": 435,
    "\u13aa\u13a2": 436,
    "\u2581\u13a2\u13a6\u13e4\u13b5": 437,
    "\u2581\u13a0\u13d9\u13b4\u13b0\u13cd\u13a9": 438,
    "\u2581\u13a0\u13cd\u13aa\u13b5": 439,
    "\u2581\u13d5\u13e5": 440,
    "\u2581\u13d7\u13c2\u13a7\u13bf\u13e9\u13d7\u13d9\u13af": 441,
    "\u2581\u13e3\u13c4\u13cf": 442,
    "\u2581\u13c5\u13e9\u13be\u13d3\u13b4": 443,
    "\u2581\u13c2\u13af\u13cd\u13a9\u13c2": 444,
    "\u2581\u13a0\u13cd\u13a6\u13c2": 445,
    "\u13e4": 446,
    "\u2581\u13be\u13bf\u13c2": 447,
    "\u13a8\u13b6\u13af": 448,
    "\u2581\u13a1\u13e3": 449,
    "\u2581\u13a4\u13d3\u13c5\u13d8": 450,
    "\u2581\u13e7\u13c2\u13cd\u13c6\u13c2\u13aa\u13d9\u13d7": 451,
    "\u2581\u13a5\u13a5": 452,
    "\u13b6": 453,
    "\u2581\u13d7\u13c2\u13f2\u13b5": 454,
    "\u2581\u13c2\u13ac": 455,
    "\u2581\u13a4\u13ec\u13f0\u13c2": 456,
    "\u2581\u13a1\u13c6\u13bb": 457,
    "\u2581\u13a4\u13b5\u13c2\u13a9\u13d7\u13f3": 458,
    "\u2581\u13a1\u13dd\u13ea\u13af": 459,
    "\u2581\u13c2\u13ac\u13c5": 460,
    "\u2581\u13a0\u13a6\u13f4\u13b5\u13a8\u13a2": 461,
    "\u2581\u13a4\u13b5\u13cf\u13a9": 462,
    "\u2581\u13aa\u13b0\u13cd\u13d7": 463,
    "\u2581\u13e8\u13d2": 464,
    "\u2581\u13a2\u13e8\u13d2": 465,
    "\u13c1\u13b8": 466,
    "\u13ac\u13a2": 467,
    "\u2581\u13a6\u13b8\u13b6": 468,
    "\u2581\u13a0\u13f2\u13b5": 469,
    "\u2581\u13a1\u13e5": 470,
    "\u2581\u13e4\u13e5": 471,
    "\u13cd\u13d9\u13d7": 472,
    "\u2581\u13d4\u13b5\u13c1\u13c3": 473,
    "\u2581\u13a6\u13be\u13dd\u13a2": 474,
    "\u2581\u13a0\u13d3\u13a8\u13f3\u13d7": 475,
    "\u2581\u13a8\u13b5\u13b5": 476,
    "\u2581\u13e5\u13a8\u13d2\u13a9": 477,
    "\u2581\u13e5\u13a8\u13ce\u13a2": 478,
    "\u2581\u13a8\u13d0\u13a2": 479,
    "\u13a0\u13c1\u13b6\u13af": 480,
    "\u13a4": 481,
    "\u13a3": 482,
    "\u13c6": 483,
    "\u2581\u13d5\u13a6": 484,
    "\u2581\u13a4\u13c1\u13b3\u13c5\u13af\u13c3": 485,
    ")": 486,
    "\u2581\u13a2\u13ef\u13a9\u13f3\u13cd\u13c8\u13db": 487,
    "\u2581\u13ad\u13be": 488,
    "\u2581\u13a2\u13e8": 489,
    "\u13cd\u13a6": 490,
    "\u2581\u13a0\u13c4\u13ec": 491,
    "\u2581\u13d7\u13c3\u13ea\u13b5\u13cd\u13a9": 492,
    "\u2581\u13a0\u13cd\u13a9\u13be": 493,
    "\u2581\u13a4\u13e4\u13b5\u13aa\u13af": 494,
    "\u2581\u13a4\u13c5\u13cf\u13d3\u13cd\u13d7": 495,
    "\u2581\u13d5\u13eb": 496,
    "\u2581\u13a2\u13d7": 497,
    "\u13e7": 498,
    "\u2581\u13a6\u13f0\u13aa\u13a9": 499,
    "\u2581\u13a0\u13c2\u13f4\u13eb\u13ef": 500,
    "\u2581\u13a2\u13aa\u13af\u13d3": 501,
    "\u13cd\u13ac\u13a2": 502,
    "\u2581\u13a0\u13a6\u13d4\u13b2\u13a2": 503,
    "\u2581\u13ad\u13c2": 504,
    "\u2581\u13a3\u13d3\u13b8": 505,
    "\u2581\u13d7\u13e5": 506,
    "\u2581(": 507,
    "\u13c8": 508,
    "\u2581\u13a6\u13b8\u13c9\u13d7": 509,
    "\u13a1": 510,
    "\u2581\u13d8": 511,
    "\u13a7": 512,
    "\u13a6\u13b5": 513,
    "\u13d2\u13a2": 514,
    "\u2581\u13d7\u13c6\u13e4\u13b5": 515,
    "\u2581\u13a4\u13f4\u13cd\u13d7": 516,
    "\u2581\u13b4\u13c6\u13c2": 517,
    "\u2581\u13a0\u13c3\u13af\u13f3\u13b2\u13cd\u13a9": 518,
    "\u2581\u13d3\u13c6\u13b4\u13b3": 519,
    "\u2581\u13a4\u13e3\u13d4\u13c5\u13af": 520,
    "\u2581\u13e5\u13cd\u13d5\u13e5": 521,
    "\u2581\u13a0\u13f0\u13b3\u13cd\u13d7": 522,
    "\u2581\u13a4\u13ac\u13eb\u13f3\u13cc\u13d5\u13a9": 523,
    "\u2581\u13a7\u13c1\u13cc\u13a2": 524,
    "\u2581\u13c4\u13cd\u13d5\u13cd\u13d7": 525,
    "\u2581\u13a8\u13d0": 526,
    "\u13d4\u13c5\u13a9": 527,
    "\u13e9": 528,
    "\u2581\u13c4\u13d3\u13b4": 529,
    "\u2581\u13e3\u13e4\u13b5": 530,
    "\u2581\u13aa\u13a2": 531,
    "\u2581\u13a0\u13db": 532,
    "\u2581\u13a7\u13c1\u13cd\u13a6": 533,
    "\u2581\u13a0\u13c2\u13cd\u13a9\u13be": 534,
    "\u2581\u13d7\u13a6\u13d9\u13b5": 535,
    "\u13cd\u13a8\u13a2": 536,
    "\u2581\u13a0\u13a9\u13be": 537,
    "\u2581\u13a8\u13b3\u13cd\u13d7\u13f1": 538,
    "\u2581\u13a4\u13f0\u13b8\u13d7": 539,
    "\u2581\u13a4\u13db\u13a6\u13c5": 540,
    "\u2581\u13eb\u13e5": 541,
    "\u2581\u13a6\u13da\u13b2\u13a2": 542,
    "\u2581\u13d7\u13c2\u13f2\u13df": 543,
    "\u2581\u13a0\u13cc\u13bb\u13d3": 544,
    "\u2581\u13a8\u13e5\u13c5\u13cf\u13db": 545,
    "\u2581\u13ba\u13b5": 546,
    "\u2581\u13a0\u13d7\u13be": 547,
    "\u2581\u13e7\u13c1\u13e5": 548,
    "\u2581\u13a0\u13c2\u13cf\u13f4\u13eb\u13ad": 549,
    "\u2581\u13a4\u13f2\u13b1\u13d2": 550,
    "\u2581\u13a2\u13a6\u13db\u13c3": 551,
    "\u2581\u13e8": 552,
    "\u2581\u13a0\u13be": 553,
    "\u2581\u13a4\u13f0\u13b8\u13db": 554,
    "\u2581\u13e5\u13a8\u13d2": 555,
    "\u2581\u13a4\u13aa\u13b2": 556,
    "\u2581\u13d7\u13e3\u13e4\u13b5": 557,
    "\u2581\u13a2\u13b8\u13af\u13e2": 558,
    "\u2581\u13a6\u13e9\u13d2\u13a9": 559,
    "\u2581\u13e7\u13c2\u13f2\u13b1\u13d2\u13af": 560,
    "\u2581\u13a2\u13f3\u13d5\u13d8\u13f4\u13db": 561,
    "\u2581\u13a4\u13d5\u13c1\u13b4\u13a2": 562,
    "\u2581\u13aa\u13e2\u13d4\u13c5\u13af": 563,
    "\u2581\u13a2\u13ef": 564,
    "\u2581\u13a0\u13e5": 565,
    "\u2581\u13d1\u13d3\u13b5": 566,
    "\u2581\u13a0\u13cd\u13aa\u13af": 567,
    "\u2581\u13a0\u13ce\u13c9": 568,
    "\u13e7\u13c8": 569,
    "\u2581\u13a2\u13f3\u13cd\u13a9\u13c2": 570,
    "\u2581\u13e5\u13a8\u13ce": 571,
    "\u2581\u13ac\u13c5": 572,
    "\u13f2": 573,
    "\u2581\u13b1": 574,
    "\u2581\u13c5\u13d3\u13ac\u13e9\u13d3\u13b4\u13c5\u13db": 575,
    "\u2581\u13e3\u13c1\u13b3\u13c5\u13af": 576,
    "\u2581\u13c2\u13aa\u13af\u13b8\u13a2": 577,
    "\u2581\u13a2\u13f3\u13be\u13cd\u13d7": 578,
    "\u13cd\u13a8": 579,
    "\u2581\u13a0\u13a6\u13d9\u13a5\u13af\u13cd\u13d7": 580,
    "\u2581\u13a4\u13d2": 581,
    "\u13ac\u13be": 582,
    "\u13d7\u13a6\u13b3\u13eb\u13a2\u13cd\u13d7\u13f1": 583,
    "\u2581\u13a4\u13be\u13d3\u13e1\u13ac": 584,
    "\u2581\u13a7\u13c1\u13ac": 585,
    "\u2581\u13f4": 586,
    "\u13cd\u13aa\u13a2": 587,
    "\u13d4\u13c1\u13a2": 588,
    "\u2581\u13d7\u13d3\u13cd\u13da\u13d7\u13f1": 589,
    "\u2581\u13c3\u13ef": 590,
    "\u2581\u13c5": 591,
    "\u2581\u13c5\u13f2\u13af": 592,
    "\u13c1\u13d7\u13f1": 593,
    "\u2581\u13e5\u13a6\u13d4\u13ad": 594,
    "\u13b2\u13a9": 595,
    "\u13cd\u13d4\u13c5": 596,
    "\u13df": 597,
    "o": 598,
    "\u2581\u13c4\u13ea\u13ce": 599,
    "\u2581\u13c5\u13d7\u13a6\u13b5\u13cd\u13d9\u13d7\u13cd\u13a8": 600,
    "\u13ad\u13e9": 601,
    "\u2581\u13a8\u13f4": 602,
    "\u2581\u13d4\u13d5\u13f2\u13b2\u13cd\u13a9": 603,
    "\u2581\u13c6\u13b4\u13d7": 604,
    "\u2581\u13d7\u13e4\u13e5": 605,
    "\u2581\u13a5\u13e3\u13f1": 606,
    "\u2581\u13a4\u13be\u13e4\u13b5\u13aa\u13af": 607,
    "\u2581\u13d7\u13be\u13d3\u13c5\u13df": 608,
    "\u2581\u13a4\u13d0\u13c5": 609,
    "\u2581\u13a4\u13b5": 610,
    "\u2581\u13a4\u13c5\u13d7": 611,
    "\u2581\u13a4\u13be\u13db\u13a6\u13c5": 612,
    "\u2581\u13c2\u13a6": 613,
    "\u2581\u13a0\u13b2": 614,
    "\u2581\u13b0\u13e9": 615,
    "\u2581\u13b0": 616,
    "\u2581\u13d7\u13c2": 617,
    "\u2581\u13c5\u13a6\u13cd\u13aa\u13af": 618,
    "\u2581\u13a4\u13b5\u13ae\u13b5\u13cd\u13d7": 619,
    "\u2581\u13a4\u13b4\u13c5\u13ae": 620,
    "\u2581\u13c5\u13d3\u13a6\u13b5\u13cd\u13d9\u13d7\u13cd\u13ac\u13a9": 621,
    "\u2581\u13a4\u13f2\u13a2\u13f3": 622,
    "\u2581\u13a0\u13b3\u13c2": 623,
    "\u2581\u13ac\u13d8": 624,
    "\u2581\u13da\u13ec\u13a1\u13a2": 625,
    "\u2581\u13a1\u13b6\u13db": 626,
    "\u2581\u13a4\u13e0\u13f1": 627,
    "\u2581\u13a0\u13c2\u13ef\u13eb\u13cd\u13a9": 628,
    "\u13ce\u13cd\u13d7": 629,
    "\u13f0": 630,
    "\u2581\u13d3\u13d4\u13b4\u13d2": 631,
    "\u2581\u13a0\u13c2\u13d0\u13a2": 632,
    "\u2581\u13a4\u13b7\u13e8": 633,
    "\u2581\u13a6\u13c1\u13b8\u13a2": 634,
    "\u2581\u13a6\u13b5\u13e6\u13db\u13a2": 635,
    "\u2581\u13a4\u13d9\u13af\u13f3": 636,
    "\u13d4\u13c1": 637,
    "\u2581-": 638,
    "\u2581\u13a4\u13a7\u13db": 639,
    "\u2581\u13a4\u13c5": 640,
    "\u13be\u13cd\u13a9": 641,
    "\u2581\u13cc\u13c9\u13c9": 642,
    "\u2581\u13c2\u13af\u13c3": 643,
    "\u13d2\u13af": 644,
    "\u2581\u13d7\u13c5\u13c3\u13db": 645,
    "\u2581\u13a1\u13ba\u13c5": 646,
    "\u2581\u13ac\u13e9\u13da\u13eb\u13db": 647,
    "\u2581\u13a0\u13c2\u13e7\u13e3": 648,
    "\u2581\u13a9\u13b3\u13c8\u13f4": 649,
    "\u2581\u13a0\u13ac\u13f1\u13e3": 650,
    "\u2581\u13ad\u13eb\u13c2\u13e3": 651,
    "\u2581\u13a3\u13af\u13cd\u13d9\u13d7": 652,
    "\u2581\u13be\u13cd\u13a9\u13cd\u13a9\u13c2": 653,
    "\u2581\u13ac\u13d4\u13c5\u13af": 654,
    "\u13d0": 655,
    "\u2581\u13ab": 656,
    "\u2581\u13ac\u13c2\u13a8": 657,
    "\u2581\u13a3\u13c2\u13c3": 658,
    "\u2581\u13a6\u13cd\u13a9\u13b8": 659,
    "\u2581\u13c2\u13da\u13ea\u13ce\u13b4": 660,
    "\u2581\u13a4\u13d9\u13b4\u13b0\u13d2": 661,
    "\u2581\u13e5\u13da": 662,
    "\u2581\u13b4\u13e5\u13b5": 663,
    "\u2581\u13a4\u13e3\u13b4\u13cd\u13d7": 664,
    "\u2581\u13c2\u13e3": 665,
    "\u2581\u13a6\u13b8\u13b3\u13d7\u13e2": 666,
    "\u2581\u13ad\u13e2": 667,
    "\u2581\u13e4": 668,
    "\u13a8\u13b3\u13cd\u13d7\u13f1": 669,
    "\u2581\u13d3\u13a6": 670,
    "\u2581\u13e5\u13a8\u13d0": 671,
    "\u2581\u13c2\u13e5\u13a5": 672,
    "\u2581\u13cd\u13a9\u13f4": 673,
    "\u2581\u13a4\u13d3\u13c5\u13d9": 674,
    "\u2581\u13f1\u13a6": 675,
    "\u2581\u13d7\u13c4\u13ec": 676,
    "\u2581\u13eb\u13be\u13cd\u13db\u13be": 677,
    "\u2581\u13e7\u13d2\u13af\u13db": 678,
    "\u2581\u13ce\u13b5": 679,
    "\u2581\u13a4\u13c1": 680,
    "\u2581\u13e4\u13af": 681,
    "\u2581\u13d7\u13ac\u13e9": 682,
    "\u2581\u13da\u13cf\u13b3\u13db": 683,
    "\u13ac\u13a9": 684,
    "\u2581\u13a4\u13be\u13d9\u13d3\u13c6\u13cd\u13ac": 685,
    "\u2581\u13a2\u13b8\u13cd\u13a9": 686,
    "\u2581\u13a2\u13ef\u13c2": 687,
    "\u13c1\u13b8\u13af": 688,
    "\u13cd\u13d3": 689,
    "\u2581\u13d6\u13b8\u13b3\u13d7": 690,
    "\u2581\u13a6\u13b5\u13e6\u13d5": 691,
    "\u2581\u13a1\u13c9\u13c2": 692,
    "\u2581\u13be\u13c2\u13ea\u13cd\u13a8\u13a2": 693,
    "\u2581\u13d4\u13b7\u13a9\u13cd\u13a9": 694,
    "\u2581\u13a0\u13c6\u13e4\u13b5\u13a6": 695,
    "\u2581\u13a1\u13ad": 696,
    "\u2581\u13e7\u13d7\u13f1": 697,
    "\u2581\u13a0\u13cb\u13d2": 698,
    "\u2581\u13a0\u13a6": 699,
    "\u2581\u13a8\u13be\u13c2": 700,
    "\u2581\u13ad\u13eb\u13ef": 701,
    "\u2581\u13a4\u13cf\u13d9\u13b5": 702,
    "\u2581\u13a2\u13f3\u13df\u13b6\u13db": 703,
    "\u2581\u13c3\u13c8\u13cf": 704,
    "\u2581\u13c2\u13ac\u13e9\u13ea\u13ce\u13b4\u13a2": 705,
    "\u2581\u13d5\u13e3": 706,
    "\u2581\u13aa\u13f1\u13c1\u13a2": 707,
    "\u2581\u13a6\u13da\u13cf": 708,
    "\u2581\u13e4\u13cd\u13d7": 709,
    "\u2581\u13a0\u13c2\u13a6\u13d4\u13b2": 710,
    "\u2581\u13a4\u13c1\u13e4": 711,
    "\u2581\u13a2\u13be\u13a8\u13a2": 712,
    "\u13d3\u13c1\u13d7": 713,
    "\u2581\u13ed\u13d5\u13b5\u13ac": 714,
    "\u2581\u13d7\u13e8\u13cd\u13d9\u13d7": 715,
    "\u2581\u13d1\u13be\u13d3\u13e1\u13a9": 716,
    "\u13d2\u13be": 717,
    "\u2581\u13e7\u13c2\u13b8\u13eb\u13cd\u13d3\u13c1\u13af": 718,
    "\u2581\u13a2\u13be\u13db": 719,
    "\u2581\u13ab\u13e9": 720,
    "\u2581\u13c5\u13d7\u13a6\u13b5\u13cd\u13d9\u13d7\u13cd\u13a8\u13cd\u13d7": 721,
    "\u2581\u13a6\u13cd\u13a9\u13b6": 722,
    "\u2581\u13e5\u13a8\u13d0\u13a2": 723,
    "\u2581\u13a0\u13f4\u13c3": 724,
    "\u2581\u13a1\u13af\u13cd\u13d7": 725,
    "\u13b2\u13be": 726,
    "\u2581\u13d7\u13ab\u13aa\u13d9\u13d7": 727,
    "\u2581\u13a4\u13ea\u13b5\u13ce": 728,
    "\u2581\u13c4\u13be\u13cd\u13db": 729,
    "\u13db\u13be": 730,
    "\u2581\u13a4\u13c1\u13e4\u13b4": 731,
    "\u2581\u13a8\u13e5": 732,
    "\u2581\u13a3\u13ad\u13c1": 733,
    "\u13d7\u13cd\u13ac": 734,
    "\u2581\u13ac\u13c3\u13db": 735,
    "\u2581\u13d7\u13b5\u13cd\u13d3\u13f4\u13d7\u13f1": 736,
    "\u2581\u13a0\u13e5\u13b8\u13c9\u13d7\u13f3": 737,
    "\u2581\u13a4\u13c1\u13b3\u13c5\u13af\u13cd\u13a9\u13c2": 738,
    "\u2581\u13a4\u13d9": 739,
    "\u2581\u13c2\u13da": 740,
    "\u2581\u13aa": 741,
    "\u13b4\u13cd\u13d7": 742,
    "\u13d7\u13cd\u13a9": 743,
    "\u13af\u13a0": 744,
    "\u2581\u13c2\u13a6\u13ea\u13cd\u13ac": 745,
    "\u2581\u13a4\u13b5\u13cf\u13ac": 746,
    "\u2581\u13a1\u13b6": 747,
    "\u2581\u13a4\u13ea\u13b7\u13c1": 748,
    "\u2581\u13c4\u13db\u13c1\u13b4": 749,
    "\u2581\u13ac\u13c2\u13f3\u13c9\u13c3": 750,
    "\u2581\u13a0\u13c6\u13d3\u13c5\u13d9": 751,
    "\u2581\u13e5\u13cd\u13c6": 752,
    "\u13af\u13f3": 753,
    "\u2581\u13a2\u13c5": 754,
    "\u2581\u13a6\u13b5": 755,
    "\u2581\u13a4\u13c2\u13b7\u13e4": 756,
    "\u2581\u13e7\u13be\u13e4\u13b5": 757,
    "\u2581\u13c2\u13a6\u13ea\u13ad": 758,
    "\u2581\u13a5\u13de\u13cd\u13d7": 759,
    "\u2581\u13a0\u13b0\u13b5": 760,
    "\u2581\u13a0\u13b5": 761,
    "\u2581\u13a0\u13ce\u13c9\u13c9": 762,
    "\u2581\u13a3\u13a6": 763,
    "\u13b7": 764,
    "\u2581\u13a4\u13ac\u13eb\u13f3": 765,
    "\u2581\u13ae\u13be": 766,
    "\u13d5\u13cd\u13d7": 767,
    "\u2581\u13e3\u13e5": 768,
    "\u2581\u13a1\u13b5": 769,
    "\u2581\u13a0\u13f0\u13b8\u13a2": 770,
    "\u13da": 771,
    "\u2581\u13d1\u13be\u13b4\u13a2": 772,
    "\u2581\u13a0\u13d3\u13c5\u13d6\u13cd\u13ac": 773,
    "\u2581\u13a8\u13e3": 774,
    "\u13c4": 775,
    "\u2581\u13a3\u13e5": 776,
    "\u13b0\u13a2": 777,
    "\u2581\u13a0\u13b5\u13cd\u13aa\u13b8\u13d9\u13d7": 778,
    "\u2581\u13eb\u13da": 779,
    "\u2581\u13a4\u13cd\u13aa\u13b8": 780,
    "\u2581\u13a9\u13b6\u13cd\u13a9\u13c2": 781,
    "\u2581\u13e6\u13a0\u13cd\u13aa\u13af": 782,
    "\u2581\u13e7\u13c6\u13b6\u13a6": 783,
    "\u2581\u13a9\u13a6": 784,
    "\u2581\u13d7\u13c2\u13b3\u13eb\u13a9": 785,
    "\u2581\u13a4\u13a9\u13ac": 786,
    "\u2581\u13d4": 787,
    "\u2581\u13e7\u13be\u13e4\u13b5\u13a6": 788,
    "\u2581\u13e3\u13c1\u13ad": 789,
    "\u2581\u13a9\u13a6\u13a8\u13a2": 790,
    "\u13bb": 791,
    "\u2581\u13a4\u13e9\u13d2\u13c9": 792,
    "\u13c1\u13e2\u13d4\u13c5\u13db": 793,
    "\u2581\u13cd\u13a9\u13be": 794,
    "\u2581\u13d7\u13ac": 795,
    "\u2581\u13d3\u13f3": 796,
    "\u2581\u13c5\u13d7\u13a6\u13b5\u13cd\u13d9\u13d7\u13cd\u13ac": 797,
    "\u2581\u13a2\u13e3\u13b5\u13cd\u13d3\u13c1\u13d7": 798,
    "\u2581\u13e9\u13ad\u13ef": 799,
    "\u2581\u13d7\u13a7\u13b8\u13ac": 800,
    "\u2581\u13d9\u13f1\u13d7\u13e2": 801,
    "\u2581\u13e3\u13b3\u13a9": 802,
    "\u2581\u13a1\u13b6\u13d7": 803,
    "\u2581\u13a4\u13e0\u13f1\u13c9": 804,
    "\u2581\u13a0\u13d9\u13af": 805,
    "\u13ea": 806,
    "\u13d9\u13a2\u13f3\u13cd\u13d7": 807,
    "\u13af\u13cd\u13d7": 808,
    "\u2581\u13f1\u13d3": 809,
    "\u2581\u13a6\u13b6\u13af\u13cd\u13d7": 810,
    "\u2581\u13a4\u13e3\u13d8\u13c2": 811,
    "\u2581\u13a4\u13da\u13b5\u13cd\u13ac": 812,
    "\u2581\u13a4\u13be\u13d3": 813,
    "\u2581\u13a2\u13f3\u13be\u13b5\u13cd\u13d3\u13c1\u13d7": 814,
    "\u2581\u13a2\u13f3\u13be\u13db\u13c1\u13d7": 815,
    "\u13c1\u13b4": 816,
    "\u2581\u13af\u13cd\u13a6\u13cd\u13aa\u13af": 817,
    "\u2581\u13c2\u13da\u13f3\u13aa\u13db\u13be": 818,
    "\u2581\u13e7\u13ec\u13f0\u13c2": 819,
    "\u2581\u13a0\u13c2\u13f2\u13cd\u13a9": 820,
    "\u2581\u13e3\u13c1\u13e2\u13d4\u13c5\u13af": 821,
    "\u2581\u13e3\u13d9\u13d3": 822,
    "\u2581\u13a4\u13c2\u13d9\u13d3": 823,
    "\u2581\u13e9\u13cd\u13db": 824,
    "\u2581\u13ac\u13e9\u13c2": 825,
    "\u2581\u13f1\u13e5\u13a6\u13d4\u13ad": 826,
    "\u2581\u13e5\u13bb": 827,
    "\u2581\u13a4\u13cd\u13c6\u13c2\u13a9\u13d7": 828,
    "\u2581\u13b6\u13d7": 829,
    "\u2581\u13be\u13a5\u13c2\u13a8": 830,
    "\u13cd\u13d3\u13ef": 831,
    "\u2581\u13a4\u13a6\u13d4": 832,
    "\u2581\u13a4\u13b5\u13cd\u13c6\u13b8\u13d7": 833,
    "\u2581\u13a0\u13c2\u13c5": 834,
    "\u13d7\u13cd\u13a8\u13cd\u13d7": 835,
    "\u2581\u13a4\u13d0\u13f1": 836,
    "\u2581\u13a4\u13e9": 837,
    "\u2581\u13a4\u13ea": 838,
    "\u2581\u13ac\u13a9": 839,
    "\u2581\u13f1\u13e3": 840,
    "\u13d4\u13c2": 841,
    "\u2581\u13a4\u13b5\u13cd\u13d3\u13f4\u13d7": 842,
    "\u2581\u13d5\u13a4": 843,
    "\u2581\u13a4\u13ea\u13d8": 844,
    "\u2581\u13f1\u13a6\u13b5\u13cd\u13d9\u13d3": 845,
    "\u2581\u13b5\u13a0": 846,
    "\u2581\u13a4\u13b5\u13cd\u13c8\u13d7": 847,
    "\u2581\u13a0\u13e5\u13c5\u13cf\u13d3\u13cd\u13d7": 848,
    "\u2581\u13c3\u13ca": 849,
    "\u2581\u13a2\u13e5\u13cd\u13a6\u13ef": 850,
    "\u2581\u13ce\u13a6": 851,
    "\u2581\u13a4\u13c1\u13a6": 852,
    "\u2581\u13a4\u13a7\u13b5\u13e8\u13af": 853,
    "\u2581\u13e7\u13d3\u13cf": 854,
    "\u2581\u13a0\u13a6\u13d4\u13b2": 855,
    "\u2581\u13a4\u13be\u13dd\u13a2": 856,
    "\u13ca": 857,
    "\u13d7\u13ad": 858,
    "\u2581\u13a4\u13cd\u13aa\u13cd": 859,
    "\u2581\u13f2": 860,
    "\u2581\u13a2\u13e4\u13b2\u13a2": 861,
    "--": 862,
    "\u13db\u13a2": 863,
    "\u2581\u13a2\u13e4\u13b2": 864,
    "\u13c1\u13d7": 865,
    "\u2581\u13a0\u13b9\u13f1": 866,
    "\u2581\u13c4\u13ea\u13ce\u13b8": 867,
    "\u2581\u13a0\u13f4\u13cd\u13a9\u13c2": 868,
    "\u2581\u13d3\u13a9": 869,
    "\u2581\u13a4\u13b7\u13e4": 870,
    "\u2581\u13b5\u13c7\u13a9": 871,
    "\u2581\u13da\u13c5\u13d3\u13d2": 872,
    "\u2581\u13d2\u13a6\u13d4": 873,
    "\u2581\u13a4\u13a6\u13be\u13cd\u13db": 874,
    "\u2581\u13a6\u13b6\u13c7": 875,
    "\u2581\u13cf\u13cc": 876,
    "\u2581\u13da\u13be\u13d9\u13a5": 877,
    "\u2581\u13e5\u13c4\u13cd\u13d7": 878,
    "\u2581\u13ac\u13d9\u13d7": 879,
    "\u13b8\u13ad": 880,
    "\u2581\u13a6\u13b8\u13b3\u13d7\u13e3": 881,
    "\u13cd\u13d4\u13c1\u13a2": 882,
    "\u13dd": 883,
    "\u2581\u13e7\u13d3": 884,
    "\u13cd\u13d8": 885,
    "\u2581\u13a1\u13b2": 886,
    "\u2581\u13e1\u13ac": 887,
    "\u2581\u13db\u13a6": 888,
    "\u13af\u13cd\u13d7\u13f1": 889,
    "\u2581\u13a2\u13ef\u13db\u13c1\u13d7": 890,
    "\u2581\u13f1\u13da": 891,
    "\u2581\u13ce\u13d3\u13c2": 892,
    "\u2581\u13d4\u13b4\u13b2\u13a6": 893,
    "\u2581\u13e5\u13aa\u13ea\u13b3": 894,
    "\u2581\u13a0\u13c2\u13f3\u13e9\u13c1\u13a6": 895,
    "\u2581\u13e7\u13d3\u13c6\u13d9\u13a9": 896,
    "\u2581\u13a0\u13c2\u13f4\u13eb": 897,
    "\u2581\u13a2\u13ac\u13c1\u13b8\u13af": 898,
    "\u2581\u13a6\u13da\u13a2\u13e3": 899,
    "\u2581\u13a4\u13f2\u13b1\u13ce\u13a2": 900,
    "\u2581\u13d3\u13e5": 901,
    "\u2581\u13ed\u13b7\u13e4": 902,
    "\u2581\u13a2\u13f3\u13b5\u13cd\u13d3\u13c1\u13d7": 903,
    "\u2581\u13a0\u13d7\u13d4\u13cd\u13d7": 904,
    "\u2581\u13ac\u13c5\u13a2": 905,
    "\u2581\u13c4\u13be": 906,
    "\u13d6": 907,
    "\u2581\u13a8\u13b5": 908,
    "\u13cf\u13f4\u13eb\u13ad": 909,
    "\u2581\u13a4\u13ec\u13e2": 910,
    "\u2581\u13a4\u13c2\u13cd\u13a6\u13c5\u13e8": 911,
    "\u2581\u13d5\u13af": 912,
    "\u2581\u13a4\u13db\u13a6\u13c1": 913,
    "\u2581\u13c4\u13b5\u13cd\u13d4\u13c2\u13d9\u13b8": 914,
    "\u2581\u13a6\u13f0": 915,
    "\u2581\u13c8\u13b5\u13a9": 916,
    "\u2581\u13a8\u13bb\u13b5": 917,
    "\u2581\u13e7\u13b8\u13eb\u13cd\u13d3\u13c1\u13af": 918,
    "\u2581\u13c5\u13d3\u13a6\u13b5\u13cd\u13d4\u13c2": 919,
    "\u2581\u13d4\u13b3\u13cd\u13aa\u13af": 920,
    "\u2581\u13a2\u13e3\u13b5\u13c5\u13df": 921,
    "\u2581\u13a6\u13c5\u13cd\u13d9\u13d7": 922,
    "\u2581\u13d5\u13e7\u13ac": 923,
    "\u2581\u13a4\u13be\u13d3\u13e4\u13b5\u13db": 924,
    "\u2581\u13af\u13c5\u13cf\u13d3\u13cd\u13d7": 925,
    "\u2581\u13a2\u13e5\u13d9\u13d3": 926,
    "\u2581\u13e7\u13be\u13db\u13d0\u13c5\u13af": 927,
    "\u2581\u13a2\u13e3\u13db\u13c1\u13d7\u13f1": 928,
    "\u2581\u13c2\u13d7": 929,
    "\u2581\u13a4\u13d5\u13ef\u13d9\u13d7": 930,
    "\u2581\u13a6\u13da\u13a2": 931,
    "\u2581\u13d9\u13f1": 932,
    "\u2581\u13a4\u13c2\u13aa\u13b2": 933,
    "\u13d9\u13b8\u13a2": 934,
    "\u2581\u13a4\u13b6\u13a9\u13b8": 935,
    "\u2581\u13ac\u13d7\u13cd\u13ac": 936,
    "\u13a3\u13cd\u13d3": 937,
    "\u2581\u13c2\u13af\u13f0\u13c3": 938,
    "\u2581\u13a4\u13db\u13be": 939,
    "\u2581\u13d0\u13a3\u13c1\u13b3": 940,
    "\u2581\u13a0\u13c2\u13a8\u13ef": 941,
    "\u2581\u13a4\u13a9\u13e8\u13db": 942,
    "\u2581\u13e5\u13c2\u13ac\u13c5": 943,
    "\u2581\u13a2\u13ef\u13db\u13c1\u13af": 944,
    "\u2581\u13a0\u13d5\u13b3": 945,
    "\u2581\u13a2\u13e8\u13a8\u13f3\u13a2": 946,
    "\u2581\u13c2\u13a6\u13b5\u13cd\u13d7\u13ad": 947,
    "\u2581\u13a6\u13b8\u13c9\u13d9\u13d7": 948,
    "\u2581\u13a4\u13b4\u13c2\u13d9\u13b4\u13a2": 949,
    "\u2581\u13a6\u13c1\u13a6": 950,
    "\u2581\u13d3\u13be": 951,
    "\u2581\u13a2\u13ef\u13cd\u13d7": 952,
    "\u2581\u13ed\u13b6\u13ce\u13a2": 953,
    "\u2581\u13a1\u13ae\u13a2": 954,
    "\u2581\u13be\u13af\u13f3\u13c9": 955,
    "\u2581\u13a6\u13b5\u13c9\u13a9\u13c1": 956,
    "\u2581\u13a4\u13b7\u13e8\u13a9": 957,
    "\u2581\u13a4\u13aa\u13ae": 958,
    "\u2581\u13a4\u13ea\u13c5\u13ce": 959,
    "\u2581\u13c2\u13a6\u13a5\u13c9": 960,
    "\u2581\u13a4\u13c1\u13e4\u13b8": 961,
    "\u2581\u13a6\u13ec\u13c2\u13cd\u13ac": 962,
    "\u13a8\u13f3\u13af\u13f3": 963,
    "\u13a0\u13d7\u13d4\u13cd\u13d7": 964,
    "\u13d7\u13a6\u13c5\u13cc\u13d7": 965,
    "\u13e1": 966,
    "\u2581\u13d7\u13a8\u13d2": 967,
    "\u13a7\u13d4\u13ae\u13a2": 968,
    "\u2581\u13c2\u13ac\u13be\u13db\u13a2": 969,
    "\u2581\u13a4\u13b5\u13cd\u13c6\u13d7\u13cd\u13d7": 970,
    "\u2581\u13e7\u13c2\u13be\u13eb": 971,
    "\u2581\u13a0\u13c2\u13cd\u13a6\u13be": 972,
    "\u2581\u13a4\u13be\u13eb": 973,
    "\u2581\u13d3\u13c6\u13b4\u13b7": 974,
    "\u2581\u13c5\u13ac\u13e9\u13ea\u13ce\u13b8\u13a9": 975,
    "\u2581\u13a2\u13e5\u13a6\u13d4\u13ad": 976,
    "\u2581\u13cf\u13d3\u13c1\u13b8\u13af": 977,
    "\u2581\u13a0\u13c2\u13c3\u13af\u13b5\u13d9\u13af": 978,
    "\u2581\u13a0\u13d3\u13c1\u13af": 979,
    "\u2581\u13a4\u13df\u13af\u13f3": 980,
    "\u2581\u13a6\u13db\u13a6": 981,
    "\u2581\u13a0\u13e4\u13af": 982,
    "\u2581\u13e4\u13ad": 983,
    "\u2581\u13a2\u13ac\u13e9": 984,
    "\u2581\u13a2\u13a6\u13d3": 985,
    "\u2581\u13a0\u13c2\u13a6\u13d4\u13b2\u13a2": 986,
    "\u13c7": 987,
    "\u13db\u13a9": 988,
    "\u2581\u13a6\u13d3\u13c1": 989,
    "\u2581\u13a0\u13d3\u13c5\u13d3\u13d7\u13cd\u13d7": 990,
    "\u13b2\u13a6": 991,
    "\u2581\u13f4\u13eb\u13c9": 992,
    "\u2581\u13aa\u13ea\u13b8": 993,
    "\u2581\u13c5\u13e9\u13d3\u13b4\u13c3": 994,
    "\u2581\u13e5\u13d3": 995,
    "\u2581\u13a0\u13c2\u13ec\u13c2\u13cd\u13ac": 996,
    "\u2581\u13c4\u13e9\u13c1\u13b4": 997,
    "\u2581\u13c2\u13a6\u13b5\u13cd\u13d7\u13cd\u13ac": 998,
    "\u2581\u13a0\u13e0\u13c1\u13d7": 999,
    "\u2581\u13d3\u13bf\u13e9": 1000,
    "\u2581\u13c5\u13d3\u13f3\u13b6\u13d2\u13af": 1001,
    "\u2581\u13a7\u13c3\u13af\u13f0\u13a9": 1002,
    "\u2581\u13a1\u13c9\u13af\u13f3": 1003,
    "\u2581\u13a0\u13a6\u13d8\u13cf\u13d7\u13e2": 1004,
    "\u2581\u13e7\u13f3\u13aa\u13d7": 1005,
    "\u2581\u13be\u13cd\u13a9\u13ef\u13c9": 1006,
    "\u2581\u13d7\u13f0\u13b8\u13af": 1007,
    "\u2581\u13a4\u13d4\u13b3\u13ec\u13af\u13cd\u13d7": 1008,
    "\u2581\u13a6\u13b7\u13e8\u13ad": 1009,
    "\u2581\u13c5\u13c3\u13af": 1010,
    "\u2581\u13a0\u13b9\u13df": 1011,
    "\u2581\u13a0\u13c6\u13db\u13c5": 1012,
    "\u2581\u13a4\u13c2\u13f2": 1013,
    "\u2581\u13a4\u13be\u13b5": 1014,
    "\u2581\u13e7\u13c2\u13cd\u13d7": 1015,
    "\u2581\u13aa\u13ea\u13b8\u13a2": 1016,
    "\u2581\u13a4\u13c1\u13e8\u13a9": 1017,
    "\u2581\u13c4\u13db\u13c1\u13b8": 1018,
    "\u2581\u13a6\u13d9\u13a8": 1019,
    "---": 1020,
    "\u2581\u13c4\u13cd\u13d5": 1021,
    "\u2581\u13a4\u13d5\u13d8\u13f4\u13cc\u13d7\u13d2": 1022,
    "\u2581\u13d5\u13a4\u13d9\u13a5": 1023,
    "\u2581\u13d3\u13f3\u13d3\u13b4\u13c5": 1024,
    "\u2581\u13a0\u13cd\u13db": 1025,
    "\u2581\u13a6\u13d9\u13ac": 1026,
    "\u2581\u13d7\u13cf\u13d3\u13b5": 1027,
    "\u2581\u13a3\u13e3\u13b5\u13c5\u13df": 1028,
    "\u2581\u13e4\u13a9\u13cf\u13c2": 1029,
    "\u2581\u13c6\u13c2\u13c6": 1030,
    "\u2581\u13af\u13b8\u13a2\u13f4": 1031,
    "\u2581\u13a2\u13d3\u13d3\u13c5\u13df": 1032,
    "\u2581\u13a8\u13e5\u13b8\u13c9\u13d7": 1033,
    "\u2581\u13d7\u13a8\u13a6\u13c1\u13b6\u13d7": 1034,
    "\u2581\u13a0\u13c8\u13bb\u13b4\u13a9": 1035,
    "\u2581\u13d7\u13c7\u13e5": 1036,
    "\u2581\u13a4\u13a6\u13b5\u13cd\u13d7": 1037,
    "\u13c5\u13cf\u13db": 1038,
    "\u2581\u13e9\u13b6\u13cf": 1039,
    "\u2581\u13ac\u13e9\u13d5\u13c1\u13b4\u13a2": 1040,
    "\u2581\u13be\u13a9\u13ea\u13ce\u13b8\u13a9": 1041,
    "\u2581\u13d5\u13e3\u13d3\u13c5\u13db\u13a2": 1042,
    "\u2581\u13a0\u13d3\u13eb": 1043,
    "\u2581\u13e6\u13f0\u13c2": 1044,
    "\u2581\u13e7\u13e9": 1045,
    "\u13f1\u13a9": 1046,
    "\u2581\u13a0\u13c2\u13aa\u13a2": 1047,
    "\u2581\u13aa\u13cd\u13d3": 1048,
    "\u2581\u13e7\u13ac": 1049,
    "\u2581\u13af\u13aa": 1050,
    "\u2581\u13aa\u13ea\u13b5\u13af": 1051,
    "\u2581\u13aa\u13b3": 1052,
    "\u2581\u13a0\u13ef\u13d9": 1053,
    "\u13cd\u13aa\u13af": 1054,
    "\u13a2\u13cd\u13d7\u13f1": 1055,
    "\u13c1\u13ad": 1056,
    "\u2581\u13da\u13b4\u13c5": 1057,
    "\u2581\u13be\u13c3": 1058,
    "\u2581\u13a6\u13b8": 1059,
    "\u2581\u13d5\u13e3\u13d9\u13a5": 1060,
    "\u13d9\u13af": 1061,
    "\u2581\u13a2\u13e3\u13e4\u13b5": 1062,
    "\u2581\u13d8\u13c5\u13cf\u13d3\u13cd\u13d7": 1063,
    "\u2581\u13c4\u13c2\u13ac\u13eb\u13f3\u13cc\u13d5\u13a9": 1064,
    "\u2581\u13a5\u13d3\u13b5": 1065,
    "\u2581\u13a2\u13b3\u13ef": 1066,
    "\u2581\u13a4\u13be\u13b5\u13cd\u13d5\u13b8\u13d9\u13d7": 1067,
    "\u2581\u13d7\u13d8\u13c2\u13d9\u13af": 1068,
    "\u2581\u13d0\u13b3": 1069,
    "\u2581\u13a0\u13c1\u13d9\u13af": 1070,
    "\u2581\u13d7\u13a8": 1071,
    "\u2581\u13a4\u13e9\u13d2\u13af\u13f3": 1072,
    "\u2581\u13ce\u13a6\u13e8": 1073,
    "\u2581\u13d7\u13e3\u13e4\u13b5\u13a6": 1074,
    "\u2581\u13a4\u13d9\u13af\u13f3\u13d2": 1075,
    "\u2581\u13a4\u13d5\u13c5\u13af": 1076,
    "\u13e8\u13a9": 1077,
    "\u2581\u13a0\u13cd\u13d3\u13f1": 1078,
    "\u2581\u13ac\u13d7\u13cd\u13a9": 1079,
    "\u2581\u13a0\u13a6\u13d7": 1080,
    "\u2581\u13ed\u13c2": 1081,
    "\u2581\u13a0\u13c2\u13d3": 1082,
    "\u13a7\u13c2": 1083,
    "\u13db\u13c1\u13d7": 1084,
    "\u2581\u13c1": 1085,
    "\u2581\u13a3\u13d3\u13b8\u13a2": 1086,
    "\u13a6\u13c5\u13af\u13db": 1087,
    "\u13a2\u13f3\u13cd\u13d7": 1088,
    "e": 1089,
    "\u2581\u13a0\u13b5\u13cd\u13da\u13b6": 1090,
    "\u13a9\u13cd\u13d7": 1091,
    "\u2581\u13a5\u13a9": 1092,
    "\u13cc\u13db": 1093,
    "\u13c5\u13d2": 1094,
    "\u2581\u13a0\u13e5\u13b8\u13f1": 1095,
    "\u2581\u13f1\u13e5": 1096,
    "\u2581\u13c4\u13e9\u13c1\u13b8": 1097,
    "\u2581\u13d9\u13db": 1098,
    "\u2581\u13a4\u13b6\u13d0\u13c5": 1099,
    "\u2581\u13a0\u13a6\u13f4\u13b5": 1100,
    "\u2581\u13a0\u13a7\u13b5\u13a2": 1101,
    "\u2581\u13a0\u13f0\u13d9\u13b3\u13db\u13d7": 1102,
    "\u2581\u13e9\u13cf\u13d3\u13c2": 1103,
    "\u2581\u13d3\u13cf\u13b3\u13db": 1104,
    "\u2581\u13da\u13ec\u13e2\u13d4\u13c5\u13a9": 1105,
    "\u2581\u13d7\u13d3\u13c5\u13d9": 1106,
    "\u2581\u13a0\u13a8\u13f3\u13e3": 1107,
    "\u2581\u13f1\u13c4\u13cd\u13d7": 1108,
    "\u2581\u13d7\u13a8\u13eb": 1109,
    "\u2581\u13e7\u13c2\u13b8\u13eb\u13cd\u13d3\u13c1\u13d7\u13f1": 1110,
    "\u2581\u13a0\u13b9\u13f0\u13b5": 1111,
    "\u2581\u13a4\u13cd\u13a6\u13c3\u13b5": 1112,
    "\u2581\u13e5\u13c1\u13ac\u13a2": 1113,
    "\u2581\u13c2\u13e5": 1114,
    "\u2581\u13a0\u13e4": 1115,
    "\u2581\u13a4\u13f2\u13b1\u13d2\u13af": 1116,
    "\u2581\u13a8\u13c2": 1117,
    "\u2581\u13aa\u13a9": 1118,
    "\u2581\u13a2\u13ac": 1119,
    "\u2581\u13ab\u13e2\u13d7": 1120,
    "\u13af\u13cd\u13d9\u13d7": 1121,
    "\u13a0\u13c2\u13b3\u13cd\u13d3\u13b8": 1122,
    "\u13cd\u13d9": 1123,
    "\u2581\u13d7\u13a9": 1124,
    "\u2581\u13a7\u13c1\u13ac\u13a2": 1125,
    "\u13cd\u13ac\u13be": 1126,
    "\u2581\u13d1": 1127,
    "\u2581\u13da\u13c1\u13e4\u13b4": 1128,
    "\u2581\u13d7\u13a6\u13b8\u13c9\u13d7": 1129,
    "\u2581\u13be\u13c2\u13a5\u13c9": 1130,
    "\u2581\u13a0\u13b2\u13a2": 1131,
    "\u13c5\u13a2": 1132,
    "\u2581\u13da\u13d9\u13a5\u13a2": 1133,
    "\u13a8\u13d2": 1134,
    "\u2581\u13a0\u13e6\u13f4": 1135,
    "\u2581\u13d7\u13d3\u13b4\u13c2\u13cd\u13ac": 1136,
    "\u2581\u13a4\u13ec\u13b8": 1137,
    "\u2581\u13a3\u13cf": 1138,
    "t": 1139,
    "\u2581\u13d7\u13a6\u13ab\u13cd\u13db\u13d7": 1140,
    "\u2581\u13cd\u13c8\u13cd\u13d3": 1141,
    "\u2581\u13a0\u13cd\u13c6\u13a8\u13c2": 1142,
    "\u2581\u13b5\u13eb": 1143,
    "\u2581\u13a8\u13e5\u13c5\u13cf\u13d3\u13cd\u13d7": 1144,
    "\u2581\u13a7\u13c2\u13a9\u13d3": 1145,
    "\u2581\u13a6\u13ec\u13c2\u13cd\u13a9": 1146,
    "\u2581\u13da\u13ec\u13e2\u13c5\u13a9": 1147,
    "\u2581\u13a2\u13a9\u13d9\u13d3": 1148,
    "\u2581\u13be\u13cd\u13a6\u13c5\u13be": 1149,
    "\u2581\u13a4\u13d7\u13b4\u13a9": 1150,
    "\u2581\u13a7\u13c3\u13ae\u13cd\u13a9": 1151,
    "\u2581\u13cd\u13d4\u13ef": 1152,
    "\u2581\u13a4\u13be\u13c1\u13b3\u13a9": 1153,
    "\u2581\u13a2\u13f3\u13cd\u13d7\u13c9": 1154,
    "\u2581\u13a4\u13c5\u13cc": 1155,
    "\u2581\u13a0\u13e2\u13d7\u13f1": 1156,
    "\u2581\u13a6\u13b6\u13d9\u13d7": 1157,
    "\u13ec": 1158,
    "\u13d5\u13a2": 1159,
    "\u2581\u13a0\u13f2\u13a9": 1160,
    "\u2581\u13a4\u13d3\u13c5\u13d8\u13f3": 1161,
    "\u2581\u13a4\u13c2\u13e5": 1162,
    "\u2581\u13a4\u13c5\u13df": 1163,
    "\u2581\u13f1\u13d7\u13e5": 1164,
    "\u13d2\u13ad": 1165,
    "\u2581\u13a6\u13b6": 1166,
    "\u2581\u13a4\u13b5\u13cd\u13d7": 1167,
    "\u2581\u13a6\u13c5\u13af\u13db": 1168,
    "\u2581\u13d5\u13a8": 1169,
    "\u2581\u13c2\u13d3": 1170,
    "\u2581\u13a1\u13b2\u13a2": 1171,
    "\u2581\u13e5\u13d5": 1172,
    "\u2581\u13a4\u13d3\u13c5\u13d6": 1173,
    "\u13e4\u13a2": 1174,
    "\u2581\u13a0\u13cd\u13a6\u13be": 1175,
    "\u2581\u13f1\u13d7": 1176,
    "\u2581\u13c5\u13d3": 1177,
    "\u2581\u13d3\u13ac": 1178,
    "\u2581\u13a0\u13d4\u13b4\u13d2": 1179,
    "\u13a0\u13b4": 1180,
    "\u2581\u13eb\u13e3": 1181,
    "\u2581\u13e6\u13a9": 1182,
    "\u2581\u13d3\u13d3\u13bf\u13e9\u13cd\u13db": 1183,
    "\u2581\u13a4\u13c2\u13e3\u13d6": 1184,
    "\u2581\u13c2\u13da\u13a9\u13e8\u13c2\u13d2": 1185,
    "\u13da\u13b5\u13cd\u13ac\u13be": 1186,
    "\u2581\u13d3\u13c6\u13d9\u13a5": 1187,
    "\u2581\u13a2\u13a6\u13a6\u13db": 1188,
    "\u2581\u13d7\u13a7\u13c3\u13d7": 1189,
    "\u2581\u13e7\u13b8\u13eb\u13cd\u13d3\u13c1\u13d7": 1190,
    "\u2581\u13e9\u13da\u13b5\u13cf": 1191,
    "\u2581\u13a6\u13b7\u13ef\u13cd\u13d7": 1192,
    "\u2581\u13aa\u13cd\u13da": 1193,
    "\u2581\u13e7\u13ef\u13d6\u13be": 1194,
    "\u13b4\u13af\u13d0\u13d7": 1195,
    "\u2581\u13e7\u13c3\u13f0\u13c2": 1196,
    "\u2581\u13d3\u13a6\u13b7\u13e5": 1197,
    "\u2581\u13c5\u13db\u13a9\u13c5\u13cf\u13db": 1198,
    "\u2581\u13c2\u13a6\u13ea\u13cd\u13a8\u13a2": 1199,
    "\u2581\u13a9": 1200,
    "\u2581\u13e7\u13c2\u13e2\u13a9": 1201,
    "\u2581\u13d7\u13c2\u13a6\u13d9\u13b5": 1202,
    "\u2581\u13be\u13ce\u13b5\u13d7": 1203,
    "\u2581\u13a0\u13a9\u13c5\u13cf\u13d9\u13af": 1204,
    "\u2581\u13af\u13b8\u13af\u13f3": 1205,
    "\u2581\u13ac\u13c2\u13d7\u13f3": 1206,
    "\u2581\u13a0\u13c2\u13a9\u13cf": 1207,
    "\u2581\u13a4\u13cd\u13c6\u13b8\u13b2": 1208,
    "\u2581\u13d7\u13a7\u13c3\u13d7\u13f1": 1209,
    "\u2581\u13a0\u13a9\u13cf": 1210,
    "\u2581\u13a4\u13c2\u13b7\u13e8\u13a9": 1211,
    "\u2581\u13ad\u13be\u13be": 1212,
    "\u2581\u13a4\u13e5\u13b8\u13a2": 1213,
    "\u13cd\u13c6": 1214,
    "\u2581\u13a0\u13bc": 1215,
    "\u2581\u13a2\u13a6\u13d8": 1216,
    "\u2581\u13ed\u13b7\u13e4\u13a2": 1217,
    "\u13c1\u13af": 1218,
    "\u13cd\u13c9": 1219,
    "\u2581\u13a2\u13ac\u13c1\u13d7": 1220,
    "\u13a0\u13cb\u13cc": 1221,
    "\u13a6\u13d4\u13b2\u13be": 1222,
    "\u2581\u13e9\u13ef": 1223,
    "\u13cd\u13ac\u13a9": 1224,
    "\u13a1\u13b5": 1225,
    "\u13c5\u13be": 1226,
    "\u13cd\u13a6\u13c5\u13a2\u13cd\u13d7": 1227,
    "\u2581\u13ae": 1228,
    "\u13a9\u13ce": 1229,
    "\u2581\u13a4\u13f2\u13a2": 1230,
    "\u2581\u13a4\u13cd\u13a6\u13c5\u13e8": 1231,
    "\u2581\u13e5\u13e3": 1232,
    "\u2581\u13a2\u13e4\u13be": 1233,
    "\u13e4\u13cd\u13d7": 1234,
    "\u2581\u13a0\u13b4\u13ec": 1235,
    "\u13b2\u13cf": 1236,
    "\u2581\u13a6\u13db\u13ac": 1237,
    "\u2581\u13a6\u13b3\u13a8\u13f4": 1238,
    "\u2581\u13d5\u13a6\u13da\u13b2": 1239,
    "\u2581\u13d7\u13a9\u13a6\u13f4\u13b5\u13a8": 1240,
    "\u2581\u13c2\u13e3\u13db\u13c1\u13b8": 1241,
    "\u2581\u13da\u13c2\u13b8\u13eb\u13cd\u13d3\u13c1\u13b2": 1242,
    "\u2581\u13a6\u13d3\u13c5\u13d6\u13cd\u13ac": 1243,
    "\u2581\u13da\u13be\u13d3\u13c5\u13db": 1244,
    "\u2581\u13a4\u13d5\u13c5": 1245,
    "\u2581\u13a0\u13aa": 1246,
    "\u2581\u13a6\u13c4\u13b8": 1247,
    "\u13f0\u13b5": 1248,
    "\u2581\u13c7\u13c2": 1249,
    "\u2581\u13e5\u13a6": 1250,
    "\u2581\u13a4\u13be\u13b5\u13cd\u13d3\u13f4\u13d7": 1251,
    "\u2581\u13a2\u13e5\u13c8": 1252,
    "c": 1253,
    "\u2581\u13d7\u13be": 1254,
    "\u2581\u13a2\u13f3\u13e9\u13ab\u13d7": 1255,
    "\u2581\u13d2\u13a7\u13d4": 1256,
    "\u2581\u13a2\u13f3\u13d3\u13b4\u13a9": 1257,
    "\u2581\u13c4\u13c3\u13af\u13f3\u13d2\u13be": 1258,
    "\u2581\u13a2\u13e5\u13e1\u13f1": 1259,
    "\u2581\u13a6\u13b5\u13c6\u13cd\u13aa\u13af": 1260,
    "\u2581\u13da\u13d9\u13a1\u13a2": 1261,
    "\u2581\u13d9\u13b4\u13db": 1262,
    "\u2581\u13eb\u13e5\u13a2\u13a6": 1263,
    "\u2581\u13ce\u13b7": 1264,
    "\u2581\u13a0\u13c2\u13e3\u13b3\u13a9": 1265,
    "\u2581\u13a2\u13e4\u13ef\u13d4\u13ae\u13cd\u13d7": 1266,
    "\u2581\u13a4\u13cd\u13a6\u13ce\u13d7": 1267,
    "\u2581\u13a2\u13cc\u13ef": 1268,
    "\u2581\u13a2\u13d7\u13a6\u13d4\u13ad": 1269,
    "\u2581\u13c5\u13d3\u13f3\u13b5\u13cd\u13d9\u13d4\u13c5\u13a9": 1270,
    "\u2581\u13c4\u13ac\u13eb\u13f3\u13cc\u13d5\u13a9": 1271,
    "\u2581\u13a2\u13e8\u13f2\u13ce\u13ad": 1272,
    "\u2581\u13d7\u13b9\u13d7": 1273,
    "\u2581\u13a0\u13c2\u13aa\u13d5\u13cd\u13a9": 1274,
    "\u2581\u13a4\u13af\u13d0\u13d7": 1275,
    "\u2581\u13e7\u13d9\u13d3\u13c6\u13d3": 1276,
    "\u2581\u13be\u13c2\u13a5\u13a2": 1277,
    "\u13b5\u13a6": 1278,
    "\u2581\u13a0\u13cf\u13be\u13cc\u13c2": 1279,
    "\u2581\u13a0\u13ab\u13f4\u13d9\u13d7": 1280,
    "\u2581\u13d7\u13a6\u13aa\u13d7\u13f1": 1281,
    "\u2581\u13a6\u13be\u13f0\u13af\u13cd\u13d7": 1282,
    "\u2581\u13a4\u13be\u13c4\u13aa\u13eb\u13d2\u13af": 1283,
    "\u2581\u13a4\u13be\u13eb\u13f1": 1284,
    "\u2581\u13a0\u13c6\u13db\u13a6\u13c5\u13a9": 1285,
    "\u2581\u13d7\u13e6\u13e2\u13d7": 1286,
    "\u2581\u13a6\u13ec\u13c2\u13af\u13cd\u13d7": 1287,
    "\u2581\u13c1\u13b3": 1288,
    "\u13c1\u13b3\u13c5\u13af": 1289,
    "\u2581\u13ed\u13f4\u13b4\u13a2": 1290,
    "\u2581\u13e9\u13cd\u13d7": 1291,
    "\u2581\u13c9\u13b3\u13c3": 1292,
    "\u2581\u13e7\u13ea": 1293,
    "\u2581\u13a0\u13d7\u13ad": 1294,
    "\u2581\u13c2\u13d5": 1295,
    "\u2581\u13a4\u13ea\u13bf\u13a2": 1296,
    "\u2581\u13f4\u13a9": 1297,
    "\u2581\u13d7\u13e6": 1298,
    "\u2581\u13eb\u13a6": 1299,
    "\u2581\u13a2\u13e4\u13af": 1300,
    "\u2581\u13c5\u13db": 1301,
    "\u2581\u13a6\u13e5": 1302,
    "\u2581\u13c4\u13cd\u13db\u13a2": 1303,
    "\u2581\u13a1\u13d8": 1304,
    "\u13d7\u13cd\u13aa": 1305,
    "\u13c2\u13cf": 1306,
    "\u13a1\u13a2": 1307,
    "\u13a6\u13d8": 1308,
    "\u13d5\u13be": 1309,
    "\u2581\u13da\u13aa\u13ae": 1310,
    "\u2581\u13c5\u13d7\u13a6\u13b5\u13cd\u13d9\u13d7\u13cd\u13aa": 1311,
    "\u13a4\u13c1\u13b3\u13c5\u13af": 1312,
    "\u2581\u13a0\u13c2\u13c3\u13ae\u13cd\u13ac": 1313,
    "\u2581\u13e7\u13ea\u13c5\u13d2": 1314,
    "\u2581\u13a4\u13c3\u13f4\u13ac": 1315,
    "\u2581\u13d3\u13d3\u13c1\u13b8": 1316,
    "\u2581\u13af\u13ef": 1317,
    "\u13b2\u13cd\u13a9": 1318,
    "\u13c1\u13b3": 1319,
    "\u13b6\u13af": 1320,
    "\u13db\u13ac\u13a6": 1321,
    "\u2581\u13a1\u13c9\u13d7": 1322,
    "\u2581\u13a4\u13c2\u13ec\u13c2\u13af\u13cd\u13d7": 1323,
    "\u13be\u13dd\u13a2": 1324,
    "\u2581Cr": 1325,
    "\u2581\u13a2\u13f3\u13be\u13db\u13bf\u13d5\u13a9": 1326,
    "\u2581\u13cd\u13a6\u13da\u13a9": 1327,
    "\u2581\u13c2\u13e5\u13ea\u13ad": 1328,
    "\u2581\u13ce\u13a9\u13b5": 1329,
    "\u2581\u13e7\u13d3\u13d5\u13d2\u13db": 1330,
    "\u2581\u13d7\u13c2\u13ad\u13c4\u13b8\u13af": 1331,
    "\u2581\u13a1\u13c8\u13cc": 1332,
    "\u2581\u13d4\u13b7\u13e3": 1333,
    "\u2581\u13a0\u13e6\u13ad\u13f4": 1334,
    "\u2581\u13a0\u13a9\u13b5\u13ef": 1335,
    "\u2581\u13cc\u13aa\u13c2\u13a8": 1336,
    "\u2581\u13a2\u13b3\u13aa": 1337,
    "\u2581\u13cd\u13a9\u13c3\u13b2\u13cf": 1338,
    "\u2581\u13d7\u13aa\u13ea\u13b5\u13cd\u13a9": 1339,
    "\u2581\u13a4\u13e9\u13d9\u13af\u13f4\u13d3": 1340,
    "\u2581\u13a2\u13f3\u13d3\u13b4\u13c5\u13db": 1341,
    "\u2581\u13a4\u13c2\u13ac\u13eb\u13f3\u13cc\u13d5\u13a9": 1342,
    "\u2581\u13a2\u13f3\u13e9\u13c2\u13d0\u13d7\u13f1": 1343,
    "\u2581\u13a2\u13f3\u13e9\u13c1\u13d7\u13f1": 1344,
    "\u2581\u13d9\u13f0": 1345,
    "\u2581\u13a4\u13f0\u13af": 1346,
    "\u2581\u13a4\u13ec\u13d7\u13a8": 1347,
    "\u2581\u13d2\u13ae\u13f1\u13e3": 1348,
    "\u2581\u13a2\u13ac\u13c1\u13af": 1349,
    "\u2581\u13d3\u13ef\u13a2": 1350,
    "\u2581\u13be\u13cd\u13a9\u13c9": 1351,
    "\u2581\u13c6": 1352,
    "\u2581\u13a7\u13b8\u13a2": 1353,
    "\u13d9\u13a9": 1354,
    "\u2581\u13da\u13b8\u13eb\u13cd\u13d3\u13c1\u13b2\u13a2": 1355,
    "\u2581\u13da\u13be\u13d3\u13c5\u13db\u13a2": 1356,
    "\u13c1\u13b4\u13a2": 1357,
    "\u2581\u13a4\u13be\u13b5\u13a2": 1358,
    "\u13d4\u13c5\u13ad": 1359,
    "\u2581\u13c4\u13db\u13c1\u13b4\u13a2": 1360,
    "\u13d1\u13f4\u13be": 1361,
    "\u2581\u13a6\u13b8\u13b3\u13d7\u13f3": 1362,
    "\u2581\u13a4\u13be\u13d3\u13e1\u13ac\u13a2": 1363,
    "\u2581\u13e3\u13e4\u13b5\u13a6": 1364,
    "\u2581\u13a1\u13d3": 1365,
    "\u2581\u13a8\u13a6": 1366,
    "\u2581\u13aa\u13af\u13d3": 1367,
    "\u13c1\u13b8\u13a9": 1368,
    "\u2581\u13c2\u13a6\u13d7": 1369,
    "\u2581\u13f4\u13a6": 1370,
    "\u13c1\u13b2": 1371,
    "\u2581\u13a4\u13d3\u13c5\u13d6\u13d7": 1372,
    "\u2581\u13d7\u13a7\u13bf\u13e9\u13db\u13cd\u13d7\u13f1": 1373,
    "\u2581\u13f1\u13c2": 1374,
    "\u2581\u13ef\u13c6": 1375,
    "\u2581\u13d7\u13a6\u13d3": 1376,
    "\u2581\u13af\u13b8": 1377,
    "\u2581\u13be\u13cd\u13a9\u13f4": 1378,
    "\u2581\u13be\u13c2": 1379,
    "\u2581\u13a6\u13c3\u13b8\u13a5\u13cd\u13ac": 1380,
    "\u2581\u13a7\u13b3\u13e9\u13d7\u13d2": 1381,
    "\u13a6\u13d4\u13ad": 1382,
    "\u13a2\u13cd\u13d7": 1383,
    "\u2581\u13d7\u13a6\u13da\u13b2": 1384,
    "\u2581\u13a2\u13e6\u13af\u13f3\u13d2": 1385,
    "\u2581\u13a0\u13e4\u13b5\u13cd\u13db": 1386,
    "\u13e5\u13cc": 1387,
    "\u2581\u13a6\u13a8": 1388,
    "\u2581\u13a0\u13c3": 1389,
    "\u2581\u13a8\u13b3": 1390,
    "\u2581\u13ed\u13b6\u13d2": 1391,
    "\u2581\u13a0\u13c6\u13da\u13b5": 1392,
    "\u2581\u13a4\u13c5\u13d2\u13c9": 1393,
    "\u2581\u13a6\u13c1\u13cc\u13a2": 1394,
    "\u13cd\u13d4\u13c2": 1395,
    "\u2581\u13d9\u13af": 1396,
    "\u2581\u13cd\u13c6": 1397,
    "\u2581\u13e8\u13d7\u13d3\u13b4\u13b2\u13cd\u13a6": 1398,
    "\u2581\u13e7\u13d5\u13d8\u13f4\u13d3": 1399,
    "\u2581\u13d7\u13df\u13b6\u13cd\u13d4\u13c5\u13af": 1400,
    "\u2581\u13d7\u13d6\u13b5\u13d9": 1401,
    "\u2581\u13a4\u13aa\u13cf\u13d3": 1402,
    "\u2581\u13e6\u13d3\u13c2": 1403,
    "\u2581\u13a0\u13c2\u13eb\u13c5": 1404,
    "\u2581\u13f1\u13c5\u13d7\u13a6\u13b5\u13cd\u13d9\u13d7\u13ad": 1405,
    "\u2581\u13a2\u13f3\u13be\u13b5\u13cd\u13d9\u13d7\u13f1": 1406,
    "\u2581\u13a4\u13a6\u13be\u13cd\u13d3": 1407,
    "\u2581\u13e7\u13aa\u13b3": 1408,
    "\u2581\u13a2\u13ef\u13be\u13db\u13c1\u13af": 1409,
    "\u2581\u13ac\u13e9\u13df\u13cd\u13d7": 1410,
    "\u2581\u13a0\u13e5\u13cd\u13db": 1411,
    "\u2581\u13e7\u13cd\u13d7": 1412,
    "\u2581\u13aa\u13af\u13d7\u13f3": 1413,
    "\u2581\u13a0\u13b5\u13cd\u13d5\u13b8\u13d9\u13d7": 1414,
    "\u2581\u13a4\u13da\u13b5\u13cd\u13a8\u13cd\u13d7": 1415,
    "\u2581\u13a4\u13da\u13b8\u13d7": 1416,
    "\u2581\u13a2\u13e3\u13e4\u13b5\u13a6": 1417,
    "\u2581\u13e3\u13c1\u13b3": 1418,
    "\u2581\u13a2\u13a6\u13a6\u13d8": 1419,
    "\u13c1\u13b5": 1420,
    "\u13aa\u13af": 1421,
    "\u2581\u13d7\u13c6\u13e4\u13b5\u13a6": 1422,
    "\u13db\u13a6": 1423,
    "\u2581\u13a1\u13b5\u13cd\u13d7": 1424,
    "\u2581\u13f1\u13ac": 1425,
    "\u13c9\u13c3": 1426,
    "\u2581\u13e7\u13d3\u13c3": 1427,
    "\u13d5\u13b5": 1428,
    "\u2581\u13d9\u13d3": 1429,
    "\u2581\u13a4\u13c2\u13e3\u13d4": 1430,
    "\u2581\u13a3\u13c2\u13f1": 1431,
    "\u2581\u13af\u13a0\u13cd\u13a9\u13c2": 1432,
    "\u13aa\u13d7": 1433,
    "\u2581\u13d7\u13c6": 1434,
    "\u13ad\u13c2": 1435,
    "\u2581\u13c3\u13e5": 1436,
    "\u13c1\u13ae\u13cd\u13d7": 1437,
    "\u2581\u13f1\u13e8": 1438,
    "\u2581\u13a0\u13d3\u13c1\u13b8\u13a2": 1439,
    "\u2581\u13ed\u13be": 1440,
    "\u2581\u13c4\u13ea\u13d2\u13a2": 1441,
    "\u2581\u13c4\u13b5\u13cd\u13d4\u13c5\u13a2": 1442,
    "\u2581\u13ef\u13a9": 1443,
    "\u2581\u13be\u13be\u13db\u13c1\u13b2": 1444,
    "\u2581\u13de\u13a6": 1445,
    "\u2581\u13ac\u13e9\u13be": 1446,
    "\u13b7\u13a6": 1447,
    "\u2581\u13da\u13b3\u13cd\u13ac": 1448,
    "\u2581\u13a4\u13c1\u13e8\u13a2": 1449,
    "\u2581\u13eb\u13d3": 1450,
    "\u2581\u13a4\u13a8\u13d3\u13b5\u13f4": 1451,
    "\u2581\u13a4\u13c5\u13cf\u13f4": 1452,
    "\u2581\u13ed\u13ef\u13c5\u13ae": 1453,
    "\u13a9\u13b6": 1454,
    "\u2581\u13a0\u13be\u13a2\u13d2": 1455,
    "\u2581\u13a4\u13c2\u13b7\u13e8": 1456,
    "\u2581\u13d5\u13ad\u13b7\u13a8": 1457,
    "\u2581\u13a6\u13c5\u13c5": 1458,
    "\u2581\u13d5\u13a9": 1459,
    "\u2581\u13ed\u13b7\u13e8": 1460,
    "\u2581\u13e7\u13be\u13cd\u13d7": 1461,
    "\u2581\u13a4\u13d2\u13a2": 1462,
    "\u2581\u13d7\u13e5\u13be\u13eb": 1463,
    "\u2581\u13d0\u13d3\u13bb": 1464,
    "\u2581\u13d3\u13e3": 1465,
    "\u13cc\u13b3\u13d3": 1466,
    "\u2581\u13a4\u13b7\u13af\u13cd\u13d7": 1467,
    "\u2581\u13a4\u13c2\u13f4\u13cd\u13d7": 1468,
    "\u2581\u13a0\u13a6\u13d8\u13cf": 1469,
    "\u2581Perry": 1470,
    "\u2581\u13e7\u13a6\u13be\u13ee": 1471,
    "\u13da\u13d3\u13b4\u13cd\u13d9\u13d7": 1472,
    "\u2581\u13a5\u13f3\u13a9": 1473,
    "\u2581\u13a0\u13b5\u13cd\u13d4\u13f4\u13d7": 1474,
    "\u2581\u13a4\u13a9\u13e8\u13d3": 1475,
    "\u2581\u13a7\u13c2\u13a9\u13db": 1476,
    "\u2581\u13d7\u13d5\u13f2\u13d7": 1477,
    "\u2581\u13a4\u13be\u13f0\u13af\u13cd\u13d7": 1478,
    "\u2581\u13a4\u13eb\u13ef": 1479,
    "\u2581\u13a4\u13c2\u13a9\u13ac": 1480,
    "\u2581\u13a4\u13ec\u13e2\u13d4\u13c5\u13a9": 1481,
    "\u2581\u13e7\u13be\u13a9\u13b8\u13d7": 1482,
    "\u2581\u13d7\u13d3\u13d8\u13c2\u13d9\u13af": 1483,
    "\u2581\u13a4\u13c1\u13ab\u13e5\u13db": 1484,
    "\u2581\u13d7\u13aa": 1485,
    "\u2581\u13a0\u13c6\u13c1\u13b3\u13c5\u13af": 1486,
    "\u2581\u13a0\u13b5\u13cd\u13aa\u13b8\u13d4\u13c5\u13af": 1487,
    "\u2581\u13f3\u13da\u13b5\u13cd\u13a8": 1488,
    "\u2581\u13a0\u13cd\u13da\u13d7": 1489,
    "\u2581\u13a8\u13b5\u13cd\u13ac": 1490,
    "\u2581\u13c2\u13d7\u13a5": 1491,
    "\u2581\u13da\u13d3\u13d8\u13be\u13a5\u13a2": 1492,
    "\u2581\u13a4\u13c2\u13cd\u13c6\u13c2\u13aa\u13ce\u13a2": 1493,
    "\u2581\u13a2\u13f3\u13be\u13db\u13c1\u13d7\u13f1": 1494,
    "\u2581\u13a4\u13cd\u13c6\u13c2\u13aa\u13d7\u13f3": 1495,
    "\u2581\u13d3\u13c6": 1496,
    "\u2581\u13a3\u13cf\u13c9": 1497,
    "\u2581\u13c4\u13db\u13c1\u13b8\u13a9": 1498,
    "\u2581\u13a4\u13bf": 1499,
    "\u2581\u13d7\u13a8\u13d2\u13a2": 1500,
    "\u2581\u13f0": 1501,
    "\u2581\u13a4\u13be\u13b5\u13aa": 1502,
    "\u2581\u13a0\u13eb\u13c5": 1503,
    "\u13cd\u13d5\u13b8\u13d7": 1504,
    "\u2581\u13c2\u13a6\u13ea\u13cd\u13ac\u13a2": 1505,
    "\u13b4\u13c2": 1506,
    "\u2581\u13a0\u13a9\u13cd\u13d7": 1507,
    "\u13b5\u13cd\u13d9\u13d7": 1508,
    "\u13a1\u13af": 1509,
    "\u2581\u13a2\u13e7": 1510,
    "\u13b5\u13cd\u13d7": 1511,
    "\u2581\u13c5\u13a9\u13c1": 1512,
    "\u13a1\u13d7\u13f1": 1513,
    "\u2581\u13c1\u13b0": 1514,
    "\u2581\u13f3\u13be": 1515,
    "\u2581\u13be\u13a5\u13a2": 1516,
    "\u13cd\u13d4": 1517,
    "\u2581\u13a4\u13c1\u13e8\u13af": 1518,
    "n": 1519,
    "\u2581\u13a0\u13cf\u13f4\u13eb\u13c3": 1520,
    "\u2581\u13e3\u13be": 1521,
    "\u2581\u13eb\u13ac\u13e9": 1522,
    "\u2581\u13da\u13f3\u13aa\u13db\u13a2": 1523,
    "\u2581\u13a2\u13f3\u13a2": 1524,
    "\u13d7\u13cd\u13a8\u13a2": 1525,
    "\u2581\u13a4\u13e5\u13b8": 1526,
    "\u13b6\u13db": 1527,
    "\u2581\u13a4\u13ea\u13b5\u13af\u13cd\u13d7": 1528,
    "\u2581\u13a4\u13d5\u13c1\u13b8": 1529,
    "\u2581\u13a0\u13f0\u13d9\u13b3\u13db": 1530,
    "\u2581\u13a1\u13d9\u13b2": 1531,
    "\u13d7\u13f3": 1532,
    "\u2581\u13a0\u13be\u13d3": 1533,
    "\u2581\u13a4\u13d3\u13c2\u13b5\u13a8": 1534,
    "\u2581\u13a4\u13b5\u13c1\u13e8": 1535,
    "\u2581\u13d5\u13e1\u13ac": 1536,
    "\u2581\u13d3\u13c1\u13e9\u13d7\u13d2": 1537,
    "\u2581\u13d5\u13a8\u13cc\u13d7\u13d2": 1538,
    "\u2581\u13a4\u13d3\u13c5\u13d6\u13b4": 1539,
    "\u2581\u13a0\u13c6\u13da\u13b5\u13cd\u13ac": 1540,
    "\u2581\u13a4\u13d3\u13f4\u13cd\u13d7": 1541,
    "\u2581\u13b7\u13c8\u13c2": 1542,
    "\u2581\u13d7\u13c2\u13b5\u13a0\u13c5\u13af\u13db": 1543,
    "\u2581\u13a2\u13c8\u13ac\u13a2": 1544,
    "\u2581\u13b9\u13cf\u13d9\u13c2": 1545,
    "\u2581\u13de\u13a9\u13f3": 1546,
    "\u2581\u13a0\u13be\u13d3\u13c5\u13df": 1547,
    "\u2581\u13ac\u13d4\u13c2\u13d3\u13cd\u13d7": 1548,
    "\u2581\u13a0\u13aa\u13c4": 1549,
    "\u2581\u13cc\u13ba\u13b5\u13f1": 1550,
    "\u2581\u13a0\u13d9\u13b3\u13c5\u13cd\u13d7": 1551,
    "\u2581\u13a9\u13df": 1552,
    "\u2581\u13d7\u13a6\u13c5\u13d9\u13d7": 1553,
    "\u2581\u13a0\u13eb\u13c4\u13e3": 1554,
    "\u2581\u13a0\u13df\u13b6\u13cd\u13d7": 1555,
    "\u2581\u13a2\u13e8\u13d7\u13cd\u13a8\u13cd\u13d7": 1556,
    "\u2581\u13a2\u13f3\u13ea\u13c5\u13cd\u13d7": 1557,
    "\u2581\u13e7\u13cd\u13c6\u13c5\u13be": 1558,
    "\u2581\u13a1\u13cf\u13f1": 1559,
    "\u2581\u13a4\u13ec\u13da\u13af": 1560,
    "\u2581\u13a4\u13ec\u13da\u13af\u13f3": 1561,
    "\u2581\u13a0\u13e5\u13be\u13dd\u13a2": 1562,
    "\u2581\u13a4\u13b6\u13d2\u13cd\u13d7": 1563,
    "\u2581\u13e7\u13d3\u13b4\u13c5\u13d3": 1564,
    "\u2581\u13a0\u13d3\u13af": 1565,
    "\u2581\u13ce\u13b3\u13f1": 1566,
    "\u2581\u13a4\u13c2\u13f4\u13cd\u13d7\u13f1": 1567,
    "\u2581\u13d4\u13b5\u13e7\u13c8": 1568,
    "\u13a4\u13c5": 1569,
    "\u2581\u13a3\u13c1": 1570,
    "\u2581\u13da\u13ef": 1571,
    "\u2581\u13e4\u13ae\u13a2": 1572,
    "\u13b6\u13d7": 1573,
    "\u2581\u13a0\u13c1\u13ae\u13a2": 1574,
    "\u2581\u13da\u13b4\u13c1\u13a2": 1575,
    "\u2581\u13f0\u13ad": 1576,
    "\u2581\u13a0\u13c1\u13ad": 1577,
    "\u2581\u13d0\u13a2\u13f1": 1578,
    "\u2581\u13f1\u13d7\u13e3": 1579,
    "\u13be\u13cf": 1580,
    "\u13e8\u13af": 1581,
    "\u2581\u13a2\u13f3\u13be": 1582,
    "\u2581\u13a0\u13ac": 1583,
    "\u2581\u13d3\u13e8": 1584,
    "\u2581\u13a6\u13cd\u13a9\u13b8\u13a2": 1585,
    "\u2581\u13a0\u13e5\u13b8\u13c9\u13d7": 1586,
    "\u13cd\u13ca": 1587,
    "\u13cd\u13d7\u13cd\u13ac": 1588,
    "\u2581\u13a4\u13a8\u13f3\u13af": 1589,
    "\u2581\u13a2\u13d3": 1590,
    "\u2581\u13a4\u13ec\u13b5": 1591,
    "\u2581\u13d9\u13af\u13f1": 1592,
    "\u2581\u13a0\u13ce\u13a9": 1593,
    "\u2581\u13a0\u13dc": 1594,
    "\u13db\u13d7": 1595,
    "\u2581\u13da\u13b4\u13c1": 1596,
    "\u2581\u13a4\u13c1\u13c5\u13ce": 1597,
    "\u2581\u13a4\u13b8": 1598,
    "\u2581\u13d3\u13be\u13d3": 1599,
    "a": 1600,
    "\u13e0\u13be\u13cd\u13d7": 1601,
    "\u13db\u13af": 1602,
    "\u13b8\u13c9\u13d9\u13d7": 1603,
    "\u13db\u13ad": 1604,
    "\u13b8\u13c9\u13d7\u13f3": 1605,
    "\u2581\u13c5\u13d3\u13f3": 1606,
    "\u2581\u13a0\u13c2\u13d9\u13be\u13a5": 1607,
    "\u13c5\u13d2\u13a9": 1608,
    "\u2581\u13d4\u13b5\u13ad": 1609,
    "\u2581\u13c4\u13c2": 1610,
    "\u2581\u13d7\u13e3\u13d3\u13c5\u13d9": 1611,
    "\u2581\u13a1\u13d7": 1612,
    "\u2581\u13ac\u13c6": 1613,
    "\u13a0\u13ef": 1614,
    "\u2581\u13e8\u13cd\u13a9\u13c3": 1615,
    "\u2581\u13a4\u13f0\u13e4": 1616,
    "\u2581\u13a0\u13c6\u13a7\u13db": 1617,
    "\u2581\u13d3\u13e0\u13af\u13cd\u13db": 1618,
    "\u2581\u13a0\u13c1\u13d9\u13b2": 1619,
    "\u2581\u13ed\u13b6\u13ce": 1620,
    "\u2581\u13a0\u13be\u13db": 1621,
    "\u2581\u13a4\u13d3\u13c5\u13ce": 1622,
    "\u2581\u13d7\u13d3": 1623,
    "\u2581\u13d5\u13a6\u13b6\u13d7": 1624,
    "\u2581\u13cf\u13a9\u13bb": 1625,
    "\u2581\u13a0\u13e5\u13a6\u13d8\u13d7\u13cd\u13d7": 1626,
    "\u2581\u13a4\u13d3\u13c5": 1627,
    "\u2581\u13a4\u13cd\u13aa\u13b5": 1628,
    "\u2581\u13aa\u13ea\u13b3": 1629,
    "\u13d0\u13a2": 1630,
    "\u2581\u13a4\u13d5\u13b0\u13af\u13cd\u13d7": 1631,
    "\u2581\u13a2\u13f3\u13db\u13c1\u13d7": 1632,
    "y": 1633,
    "\u2581\u13a6\u13b7\u13ef\u13cd\u13d8": 1634,
    "\u2581\u13a2\u13cf\u13ba\u13b5": 1635,
    "\u2581\u13ac\u13e9\u13cd\u13d3\u13e9\u13db\u13ce\u13a2": 1636,
    "\u2581\u13a4\u13b5\u13d7\u13e8": 1637,
    "ett": 1638,
    "\u2581\u13c5\u13d3\u13f3\u13c2\u13b6\u13d2\u13af": 1639,
    "\u2581\u13d1\u13be\u13d9\u13d3\u13c6\u13cd\u13d7": 1640,
    "\u2581\u13a2\u13ef\u13c5\u13d9": 1641,
    "\u2581\u13d7\u13ac\u13d4\u13c2\u13d3\u13cd\u13d7": 1642,
    "\u2581\u13a2\u13a6\u13ea\u13cd\u13d7": 1643,
    "\u2581\u13c2\u13ac\u13e9\u13ea\u13ce\u13b8\u13a9": 1644,
    "\u2581\u13a4\u13d3\u13b5": 1645,
    "\u2581\u13d7\u13f0\u13d9\u13b3\u13db\u13d7": 1646,
    "\u2581\u13a0\u13d6\u13b5\u13d9": 1647,
    "\u2581\u13ad\u13e9\u13e7": 1648,
    "\u2581\u13da\u13d8\u13c5\u13ce": 1649,
    "\u2581\u13a4\u13b4\u13c2\u13d9\u13b8": 1650,
    "\u2581\u13d5\u13b9\u13cd\u13a6": 1651,
    "\u2581\u13a0\u13c2\u13a8\u13be\u13c2": 1652,
    "\u2581\u13a0\u13eb\u13d2\u13d7\u13f1": 1653,
    "\u2581\u13d7\u13cd\u13d3\u13d3\u13c5\u13df": 1654,
    "\u2581\u13a6\u13c2\u13a6\u13d4": 1655,
    "\u2581\u13e3\u13d3\u13b5\u13a2": 1656,
    "\u2581\u13a0\u13c2\u13a6\u13d3\u13ad": 1657,
    "\u2581\u13cc\u13be\u13f1": 1658,
    "\u2581\u13e5\u13da\u13d9\u13a5": 1659,
    "\u2581\u13a4\u13c1\u13b5\u13e4\u13a2": 1660,
    "\u2581\u13a4\u13be\u13c1\u13b3\u13c5\u13af": 1661,
    "\u2581\u13a0\u13aa\u13d9\u13d7": 1662,
    "\u2581\u13d9\u13f1\u13e8": 1663,
    "\u2581\u13a4\u13be\u13e0\u13be\u13cd\u13d7": 1664,
    "\u2581\u13d7\u13e6\u13e2\u13d9\u13d7": 1665,
    "\u2581\u13a4\u13be\u13f0\u13af\u13cd\u13d7\u13f3": 1666,
    "\u2581\u13ce\u13bb": 1667,
    "\u2581\u13a4\u13cf\u13e9": 1668,
    "\u2581\u13a4\u13ec\u13da\u13e8": 1669,
    "\u2581\u13ae\u13a6": 1670,
    "\u2581\u13c1\u13b2\u13be": 1671,
    "\u2581\u13c2\u13a6\u13b5\u13cd\u13d3": 1672,
    "\u2581\u13f1\u13c2\u13a6\u13b5\u13cd\u13d3": 1673,
    "\u13a2\u13f3": 1674,
    "\u2581\u13a0\u13a9\u13f0\u13b8\u13ad": 1675,
    "\u2581\u13a4\u13c2\u13af\u13cd\u13d7\u13f1": 1676,
    "\u2581\u13a2\u13a8": 1677,
    "\u2581\u13eb\u13d7": 1678,
    "\u2581\u13a0\u13cd\u13aa\u13af\u13c1": 1679,
    "\u2581\u13a4\u13df\u13cd\u13d3": 1680,
    "\u2581\u13a2\u13ac\u13d3": 1681,
    "\u2581\u13a4\u13b7\u13af\u13cd\u13d7\u13f1": 1682,
    "\u2581\u13be\u13c2\u13ea\u13cd\u13ac\u13a9": 1683,
    "\u2581\u13c8\u13b3": 1684,
    "\u13e9\u13db\u13b2": 1685,
    "\u2581\u13a2\u13ac\u13d2": 1686,
    "\u2581\u13d7\u13c2\u13c5\u13cc\u13d7": 1687,
    "\u2581\u13a0\u13b1\u13cd\u13d5": 1688,
    "\u2581\u13a0\u13c1\u13a9": 1689,
    "\u13a8\u13f3\u13ce\u13cd\u13d7": 1690,
    "\u2581\u13a2\u13be": 1691,
    "\u2581\u13c4\u13be\u13db\u13c5\u13a2": 1692,
    "\u2581\u13d3\u13c1\u13e9\u13d7\u13d2\u13a2": 1693,
    "\u2581\u13d5\u13ad\u13b7\u13a8\u13a2": 1694,
    "\u2581\u13d9\u13a9": 1695,
    "\u13e0": 1696,
    "\u2581\u13a6\u13c2": 1697,
    "\u2581\u13d5\u13a6\u13db": 1698,
    "\u13c3\u13ae\u13ad": 1699,
    "\u2581\u13a8\u13f4\u13a2": 1700,
    "\u13a5\u13cd\u13ac": 1701,
    "\u13a5\u13a2": 1702,
    "\u13b3\u13c5\u13af": 1703,
    "\u13aa\u13b5\u13f0\u13cd\u13a9": 1704,
    "\u13e9\u13db\u13d7": 1705,
    "\u13d1": 1706,
    "\u2581\u13a0\u13a9\u13b5\u13f2\u13a2\u13cd\u13d7": 1707,
    "\u2581\u13a0\u13d9": 1708,
    "\u2581\u13af\u13b3": 1709,
    "\u2581\u13a4\u13c2\u13c1": 1710,
    "\u2581\u13d7\u13e4": 1711,
    "\u2581\u13a4\u13c2\u13e0\u13f1": 1712,
    "\u13c9\u13f0\u13c3": 1713,
    "\u2581\u13d5\u13e3\u13d3": 1714,
    "\u2581\u13a4\u13be\u13d9\u13b4\u13b0\u13d2": 1715,
    "\u2581\u13a4\u13c7\u13d3\u13b8": 1716,
    "\u2581\u13d7\u13d7": 1717,
    "\u13a6\u13db": 1718,
    "\u2581\u13e3\u13c9": 1719,
    "\u13a1\u13ad": 1720,
    "\u2581\u13a6\u13e5\u13ef": 1721,
    "\u2581\u13d4\u13b5\u13c1\u13a2": 1722,
    "\u2581\u13e7\u13be\u13d3": 1723,
    "\u13c5\u13df": 1724,
    "\u2581\u13da\u13b8\u13eb\u13cd\u13d3\u13c1\u13b8": 1725,
    "\u13bf": 1726,
    "\u2581\u13ef\u13be": 1727,
    "\u13b8\u13be": 1728,
    "\u2581\u13a6\u13c1\u13b2": 1729,
    "\u2581\u13a4\u13f4": 1730,
    "\u13b5\u13f1": 1731,
    "\u13db\u13c5": 1732,
    "\u2581\u13a4\u13da\u13b5\u13cd\u13a8": 1733,
    "\u2581\u13c1\u13b3\u13a9": 1734,
    "\u2581\u13d5\u13e5\u13b8\u13eb\u13cd\u13d3\u13c1\u13b2": 1735,
    "\u2581\u13ed\u13f4\u13b4": 1736,
    "\u13ef\u13d6\u13c5": 1737,
    "\u13b5\u13cd\u13c6\u13d7\u13cd\u13a9": 1738,
    "\u2581\u13d9\u13d3\u13b8": 1739,
    "\u2581\u13c4\u13be\u13db\u13c5": 1740,
    "\u2581\u13a1\u13ae": 1741,
    "\u2581\u13d7\u13c1\u13b2": 1742,
    "\u13b2\u13cd\u13ac": 1743,
    "\u2581\u13c5\u13d7\u13a6\u13b5\u13cd\u13d9\u13d7": 1744,
    "\u2581\u13a4\u13c1\u13b8": 1745,
    "\u13b1": 1746,
    "\u2581\u13a4\u13db\u13c1\u13a2": 1747,
    "\u2581\u13a0\u13be\u13d3\u13be\u13cf\u13c2\u13d9\u13af": 1748,
    "\u2581\u13ef\u13a6\u13d4\u13ae": 1749,
    "\u2581\u13a0\u13b5\u13f0\u13be": 1750,
    "\u2581\u13a6\u13e3\u13c4\u13b3": 1751,
    "\u2581\u13a0\u13e8\u13cd\u13d9\u13d7": 1752,
    "\u2581\u13e7\u13a6\u13d2\u13cd\u13d7": 1753,
    "\u2581\u13a2\u13ac\u13e9\u13b5\u13cd\u13d9\u13d7": 1754,
    "\u2581\u13a0\u13d2\u13ac": 1755,
    "\u2581\u13a2\u13e3\u13b5\u13cd\u13d9\u13d7\u13f1": 1756,
    "\u2581\u13d7\u13e5\u13f2\u13b5": 1757,
    "\u2581\u13d7\u13c2\u13cf\u13d7": 1758,
    "\u2581\u13a0\u13e4\u13b7\u13a9": 1759,
    "\u2581\u13e5\u13c4\u13ea\u13ce\u13a2": 1760,
    "\u2581\u13a0\u13c2\u13a9\u13b7\u13eb": 1761,
    "\u2581\u13e7\u13b3\u13cf\u13d5\u13c2": 1762,
    "\u2581\u13a4\u13db": 1763,
    "\u2581\u13eb\u13a6\u13b7\u13a9": 1764,
    "\u2581\u13e5\u13cd\u13da": 1765,
    "\u2581\u13a4\u13be\u13b3\u13c5\u13af": 1766,
    "\u2581\u13d7\u13c2\u13f0\u13b8": 1767,
    "\u2581\u13c4\u13be\u13d3\u13b4\u13d2": 1768,
    "\u2581\u13ab\u13ab": 1769,
    "\u13ef\u13c5\u13db": 1770,
    "\u13b5\u13f0\u13a2\u13b6\u13af\u13cd\u13d7": 1771,
    "\u2581\u13a4\u13f2\u13b1\u13af\u13cd\u13d7\u13f1": 1772,
    "\u2581\u13a4\u13b5\u13cd\u13a8\u13db": 1773,
    "\u2581\u13cf\u13f2": 1774,
    "\u2581\u13ad\u13eb\u13c2\u13e8": 1775,
    "\u2581\u13a7\u13c3\u13ae\u13d7": 1776,
    "\u2581\u13a2\u13f3\u13cd\u13d8": 1777,
    "\u2581\u13a0\u13be\u13d3\u13c5\u13d6\u13cd\u13ac": 1778,
    "\u2581\u13da\u13be\u13d3": 1779,
    "\u2581\u13ab\u13b4": 1780,
    "\u2581\u13a4\u13c2\u13e3\u13db\u13a9": 1781,
    "\u2581\u13ed\u13c2\u13b6\u13ce\u13a2": 1782,
    "\u13a6\u13d9\u13c3": 1783,
    "\u2581\u13d7\u13a9\u13cf": 1784,
    "\u2581\u13a0\u13c6\u13da\u13b5\u13ad": 1785,
    "\u2581\u13a0\u13aa\u13e9\u13db\u13d7": 1786,
    "\u2581\u13d3\u13c5\u13c5": 1787,
    "\u2581\u13c2\u13aa\u13af\u13b8\u13be\u13c9": 1788,
    "\u2581\u13a4\u13f2\u13e8": 1789,
    "\u2581\u13d9\u13a6": 1790,
    "\u2581\u13e5\u13a8\u13f3\u13a2": 1791,
    "\u2581\u13f1\u13a8\u13d0\u13a2": 1792,
    "\u13b3\u13bb": 1793,
    "\u13f4\u13eb": 1794,
    "\u2581\u13c2\u13a6\u13b5\u13cd\u13d9\u13d7": 1795,
    "\u2581\u13a8\u13b5\u13a0": 1796,
    "\u2581\u13a1\u13ae\u13cd\u13d7": 1797,
    "\u2581\u13a1\u13a9": 1798,
    "\u2581\u13da\u13b8\u13eb\u13cd\u13d3\u13c1\u13b8\u13a2": 1799,
    "\u2581\u13a0\u13c1": 1800,
    "\u2581\u13a0\u13c1\u13d9\u13b2\u13a2": 1801,
    "\u2581\u13a2\u13a6\u13e4\u13b5\u13a6": 1802,
    "\u2581\u13aa\u13a8": 1803,
    "\u2581\u13a1\u13d9\u13b2\u13a2": 1804,
    "\u2581\u13d7\u13c1\u13b2\u13a2": 1805,
    "\u2581\u13a4\u13d3\u13c5\u13c5": 1806,
    "\u2581\u13a0\u13d3\u13c1\u13d7": 1807,
    "\u2581\u13a0\u13d7": 1808,
    "\u2581\u13d0": 1809,
    "\u2581\u13a1\u13be": 1810,
    "\u2581\u13c2\u13d9\u13d3\u13f3": 1811,
    "\u2581\u13c2\u13aa\u13af\u13b8\u13be": 1812,
    "\u2581\u13a4\u13c2\u13b7\u13e4\u13a2": 1813,
    "\u2581\u13c2\u13e5\u13a5\u13a2": 1814,
    "\u13a6\u13d7\u13d3": 1815,
    "\u2581\u13e7\u13c5": 1816,
    "\u2581\u13cd\u13a9\u13ef": 1817,
    "\u2581\u13a0\u13c2\u13d0": 1818,
    "\u2581\u13a0\u13cb\u13d2\u13c9": 1819,
    "\u2581\u13e3\u13da": 1820,
    "\u2581\u13cc": 1821,
    "\u2581\u13f4\u13ac": 1822,
    "\u2581\u13e4\u13e3": 1823,
    "\u13e7\u13c8\u13cd\u13d7": 1824,
    "\u13b2\u13cd\u13a8\u13cd\u13d7": 1825,
    "\u2581\u13aa\u13af\u13cd\u13a9\u13c2": 1826,
    "\u13d9\u13b4\u13b0\u13af\u13cd\u13d7": 1827,
    "\u13e2\u13d9\u13d7": 1828,
    "\u13b3\u13d7": 1829,
    "\u13e3\u13d8": 1830,
    "\u2581\u13d5\u13ac\u13e9": 1831,
    "\u2581\u13da\u13ea": 1832,
    "\u13c2\u13b8": 1833,
    "\u2581\u13e7\u13be\u13c4\u13ec": 1834,
    "\u13b9": 1835,
    "\u2581\u13ce\u13b3": 1836,
    "\u13a6\u13b6\u13c1\u13db": 1837,
    "\u2581\u13a0\u13c6\u13db\u13a6\u13c5": 1838,
    "\u2581\u13a1\u13b3\u13ea": 1839,
    "\u2581\u13ce": 1840,
    "\u2581\u13d3\u13eb\u13d2": 1841,
    "\u2581\u13a2\u13f3\u13ea": 1842,
    "\u2581\u13ed\u13c2\u13b7\u13e8": 1843,
    "\u13e9\u13ac\u13d8": 1844,
    "\u2581\u13da\u13c1\u13b4": 1845,
    "\u2581\u13c4\u13db\u13c5": 1846,
    "\u13b5\u13cd\u13a6\u13cd\u13d9\u13db": 1847,
    "\u2581\u13a1\u13dd\u13ea": 1848,
    "\u2581\u13a4\u13d3\u13c5\u13db": 1849,
    "\u2581\u13d7\u13a7\u13c3\u13a9\u13cd\u13d7": 1850,
    "\u2581\u13a0\u13db\u13aa\u13d7": 1851,
    "\u2581\u13ac\u13cd\u13a6\u13a2\u13cd\u13d3\u13a9": 1852,
    "\u2581\u13a0\u13d7\u13c6\u13b8\u13d5\u13f2": 1853,
    "\u2581\u13c2\u13a6\u13c5\u13af\u13ce\u13cd\u13d7": 1854,
    "\u2581\u13a0\u13c2\u13cc\u13da\u13cf": 1855,
    "\u2581\u13c4\u13dc\u13cf\u13db\u13d2\u13be": 1856,
    "\u2581\u13cc\u13ef\u13c2": 1857,
    "\u2581\u13a4\u13b5\u13aa\u13b2\u13cd\u13d7": 1858,
    "\u2581\u13d7\u13c1\u13b6\u13d9\u13d7": 1859,
    "\u2581\u13e7\u13c3\u13d1\u13b6\u13e8\u13af": 1860,
    "\u2581\u13e5\u13d4\u13a6": 1861,
    "\u2581\u13a4\u13b6\u13d2\u13cd\u13d4\u13c5\u13af": 1862,
    "\u2581\u13e7\u13be\u13e6\u13af\u13cd\u13d7": 1863,
    "\u2581\u13a2\u13e8\u13d4\u13f2\u13ce\u13ad": 1864,
    "\u2581\u13e7\u13be\u13b3\u13cf\u13d5\u13c2": 1865,
    "\u2581\u13b3\u13cf\u13b3": 1866,
    "\u2581\u13a2\u13f3\u13d3\u13a8\u13db": 1867,
    "\u2581\u13a2\u13e3\u13d3\u13d9\u13b5\u13cd\u13d7\u13cd\u13a8\u13cd\u13d7": 1868,
    "\u2581\u13a2\u13a9\u13cd\u13d5\u13b5\u13cd\u13a9": 1869,
    "\u2581\u13be\u13db\u13c1\u13ae\u13cd\u13d7": 1870,
    "\u2581\u13a4\u13da\u13eb\u13db": 1871,
    "\u2581\u13eb\u13c2\u13a6\u13b5\u13cd\u13d3": 1872,
    "\u2581\u13eb\u13c4\u13d2\u13b8": 1873,
    "\u2581\u13a3\u13cc\u13c2": 1874,
    "\u2581\u13a3\u13a6\u13c1\u13b3\u13c5\u13af": 1875,
    "\u2581\u13a4\u13f4\u13e3": 1876,
    "\u2581\u13a4\u13be\u13b4\u13c5\u13ae": 1877,
    "\u2581\u13a6\u13f0\u13cc\u13d7": 1878,
    "\u2581\u13e4\u13c8": 1879,
    "\u2581\u13a0\u13a6\u13d8\u13ef": 1880,
    "\u2581\u13a0\u13c2\u13a6\u13d4\u13bf\u13a2": 1881,
    "\u2581\u13ac\u13aa\u13e9\u13db\u13d7": 1882,
    "\u2581\u13d7\u13ef\u13d6\u13be": 1883,
    "\u2581\u13a0\u13b5\u13ae\u13b5\u13cd\u13d7": 1884,
    "\u2581\u13a2\u13a6\u13ea\u13db": 1885,
    "\u2581\u13a4\u13b5\u13d1\u13eb\u13d3": 1886,
    "\u13ad\u13d7": 1887,
    "\u2581\u13a4\u13a6\u13c3\u13e9": 1888,
    "\u2581\u13e7\u13be\u13d3\u13b5\u13a2": 1889,
    "\u13db\u13f3\u13a8\u13d7": 1890,
    "\u2581\u13a2\u13f3\u13c5\u13c1\u13d7\u13f1": 1891,
    "\u2581\u13a2\u13be\u13d3": 1892,
    "\u2581\u13aa\u13a8\u13f1": 1893,
    "\u2581\u13a4\u13ec\u13e2\u13c5\u13af": 1894,
    "\u2581\u13a4\u13b4\u13eb\u13cd\u13d4\u13c5": 1895,
    "\u13d4\u13f2\u13ce\u13b4": 1896,
    "\u2581\u13a0\u13d3\u13c5\u13d6\u13d7": 1897,
    "\u2581\u13a2\u13cd\u13d7": 1898,
    "\u2581\u13e3\u13c1\u13ae\u13a2": 1899,
    "\u2581\u13e7\u13b8\u13eb\u13cd\u13d3\u13c1\u13d7\u13f1": 1900,
    "\u2581\u13d7\u13a6\u13b5\u13a0\u13c5\u13af\u13db": 1901,
    "\u2581\u13c4\u13be\u13db\u13c1\u13b8\u13a9": 1902,
    "\u2581\u13da\u13f3\u13aa\u13d7": 1903,
    "\u2581\u13a4\u13be\u13c4\u13aa\u13eb\u13ce\u13a2": 1904,
    "\u2581\u13a0\u13e5\u13b8\u13a0\u13c1\u13b6\u13af": 1905,
    "\u2581\u13a4\u13d4\u13b7\u13a9\u13cd\u13a9": 1906,
    "\u2581\u13e5\u13e5": 1907,
    "\u2581\u13ac\u13e9\u13db\u13db\u13c1": 1908,
    "\u2581\u13ed\u13b6\u13d2\u13a9": 1909,
    "\u2581\u13a0\u13a6\u13d4\u13ad": 1910,
    "\u2581\u13a4\u13b5\u13cd\u13a8": 1911,
    "\u2581\u13e7\u13b5\u13a2": 1912,
    "\u2581\u13be\u13a5\u13c2\u13f3": 1913,
    "\u2581\u13a0\u13d3\u13f0\u13cd": 1914,
    "\u2581\u13d3\u13e0\u13af\u13cd\u13db\u13a2": 1915,
    "\u2581\u13d5\u13a8\u13cc\u13d7\u13d2\u13a2": 1916,
    "\u2581\u13da\u13b8\u13eb\u13cd\u13d3\u13c1\u13b2": 1917,
    "\u2581\u13a4\u13c2\u13b5": 1918,
    "\u2581\u13ad\u13d3\u13c5\u13d6\u13cd\u13ac": 1919,
    "\u2581\u13a3\u13e3": 1920,
    "\u2581\u13cd\u13aa\u13af": 1921,
    "\u13d7\u13cd\u13a8": 1922,
    "\u13cc\u13d8": 1923,
    "\u2581\u13a4\u13c1\u13e4\u13b8\u13a9": 1924,
    "\u2581\u13a7\u13c1\u13a2\u13cd\u13d7": 1925,
    "\u13c5\u13cd\u13d7": 1926,
    "an": 1927,
    "\u13a6\u13d8\u13cd\u13d9\u13d7": 1928,
    "\u2581\u13d1\u13d3\u13b5\u13c1": 1929,
    "\u2581\u13a4\u13e3\u13db": 1930,
    "\u2581\u13f3\u13c2": 1931,
    "\u2581\u13d9\u13f3": 1932,
    "\u2581\u13d7\u13a8\u13e5": 1933,
    "\u2581\u13e5\u13ef": 1934,
    "\u13b5\u13cf": 1935,
    "\u2581\u13ac\u13d7\u13cd\u13ac\u13a2": 1936,
    "\u2581\u13d7\u13e3\u13d3": 1937,
    "\u13c3\u13af\u13ce\u13b8": 1938,
    "\u2581\u13a4\u13b4\u13c5": 1939,
    "\u2581\u13a0\u13f0\u13b8\u13d7": 1940,
    "\u2581\u13f3\u13e9": 1941,
    "\u2581\u13da\u13c5": 1942,
    "\u13b5\u13cd\u13d4\u13c5": 1943,
    "\u2581\u13a4\u13f0\u13b8\u13db\u13a2": 1944,
    "\u13cd\u13d4\u13c5\u13a9": 1945,
    "\u2581\u13a4\u13d5": 1946,
    "\u2581\u13a4\u13f2\u13c9": 1947,
    "\u13c1\u13e5": 1948,
    "\u2581\u13e4\u13a9": 1949,
    "\u13ab": 1950,
    "\u2581\u13aa\u13af\u13db": 1951,
    "\u2581\u13a0\u13d3\u13c5\u13d9\u13cd\u13a9\u13c2": 1952,
    "\u13af\u13ad": 1953,
    "\u13df\u13cd\u13d7": 1954,
    "\u2581\u13cd\u13a9\u13c3": 1955,
    "\u2581\u13af\u13a6\u13d4\u13ad": 1956,
    "\u2581\u13a4\u13ec": 1957,
    "\u2581---": 1958,
    "\u2581\u13a2\u13c5\u13af": 1959,
    "\u2581\u13f1\u13a8": 1960,
    "\u13c2\u13d7\u13f3": 1961,
    "\u2581\u13d9\u13d3\u13a6": 1962,
    "\u2581\u13ec": 1963,
    "\u2581\u13a4\u13ab\u13f4\u13d7": 1964,
    "\u2581\u13d1\u13be\u13b4\u13c3": 1965,
    "\u2581\u13e9\u13c1": 1966,
    "\u2581\u13d7\u13ac\u13e9\u13c2": 1967,
    "\u2581\u13e5\u13c5\u13cf\u13d3\u13cd\u13d7": 1968,
    "\u2581\u13c4\u13cd\u13db\u13be": 1969,
    "\u2581\u13e7\u13b5": 1970,
    "\u2581\u13a4\u13aa": 1971,
    "\u2581\u13db\u13be": 1972,
    "\u2581\u13e2": 1973,
    "\u2581\u13a0\u13c1\u13d9\u13ae": 1974,
    "\u2581\u13d5\u13a8\u13f4": 1975,
    "\u2581\u13be\u13d1\u13f4": 1976,
    "\u13aa\u13e9\u13db\u13d7": 1977,
    "\u2581\u13da\u13be\u13d3\u13e1\u13e9\u13d7\u13d2": 1978,
    "\u2581\u13af\u13c6": 1979,
    "\u2581\u13c5\u13c3": 1980,
    "\u2581\u13a4\u13c4\u13aa\u13e8": 1981,
    "\u2581\u13da\u13aa\u13b2": 1982,
    "\u2581\u13a6\u13c5\u13ac": 1983,
    "\u2581\u13a4\u13ea\u13d9\u13b8": 1984,
    "\u2581\u13a4\u13ea\u13c5\u13cd\u13d7": 1985,
    "\u2581\u13e5\u13ac": 1986,
    "\u2581\u13a0\u13d2\u13a8": 1987,
    "\u2581\u13a0\u13a9\u13be\u13eb": 1988,
    "\u2581\u13a4\u13f2\u13b1\u13af\u13cd\u13d7": 1989,
    "\u2581\u13a0\u13c7": 1990,
    "\u13c4\u13ae\u13db": 1991,
    "\u2581\u13c5\u13ec\u13d8": 1992,
    "\u2581\u13d1\u13d3\u13b4\u13a9": 1993,
    "\u2581\u13a6\u13c3\u13cd\u13a9\u13cd\u13a9": 1994,
    "\u2581\u13c0\u13be": 1995,
    "\u2581\u13cd\u13cf\u13c9\u13ef": 1996,
    "\u2581\u13d7\u13a6\u13d9\u13cc\u13d7\u13cd\u13d7\u13f1": 1997,
    "\u2581\u13d7\u13c2\u13a8\u13eb": 1998,
    "\u2581\u13cc\u13d9\u13c2": 1999,
    "\u2581\u13e7\u13be\u13e6\u13f4\u13cd\u13d7": 2000,
    "\u2581\u13ae\u13b3\u13c2": 2001,
    "\u2581\u13d7\u13aa\u13d2\u13d4\u13c5": 2002,
    "\u2581\u13be\u13a6\u13a5": 2003,
    "\u2581\u13a8\u13e3\u13cd\u13a6\u13a9": 2004,
    "\u2581\u13a0\u13c9\u13f0\u13c2": 2005,
    "\u2581\u13a6\u13da\u13a2\u13d7\u13e2": 2006,
    "\u2581\u13c7\u13cd\u13d3": 2007,
    "\u2581\u13d7\u13c2\u13b0\u13b5": 2008,
    "\u2581\u13cd\u13d7\u13eb": 2009,
    "\u2581\u13cc\u13ca": 2010,
    "\u2581\u13da\u13d1\u13ac": 2011,
    "\u2581\u13a4\u13a7\u13f2\u13db\u13af": 2012,
    "\u2581\u13c1\u13c2\u13cf": 2013,
    "\u2581\u13a8\u13a6\u13d1\u13f0\u13db": 2014,
    "\u2581\u13a0\u13c2\u13a6\u13d4\u13be\u13a2": 2015,
    "\u2581\u13da\u13a6\u13d2\u13cd\u13db": 2016,
    "\u2581\u13d7\u13cd\u13c6\u13be\u13b3\u13d7\u13cd\u13d7": 2017,
    "\u2581\u13c4\u13cd\u13d7\u13d3\u13c5": 2018,
    "\u2581\u13d7\u13b3\u13d1\u13b6": 2019,
    "\u2581\u13a2\u13f3\u13d3\u13c5\u13af\u13d3": 2020,
    "\u2581\u13ac\u13a9\u13cd\u13a6\u13a9": 2021,
    "\u2581\u13a3\u13e5\u13a6\u13d4\u13ad": 2022,
    "\u2581\u13a4\u13d5\u13b6\u13b0\u13ce": 2023,
    "\u2581\u13e9\u13db\u13ac\u13a6": 2024,
    "\u2581\u13a2\u13e5\u13ef\u13eb\u13cd\u13a8\u13cd\u13d7": 2025,
    "\u2581\u13a3\u13ad\u13c2": 2026,
    "\u13aa\u13e3\u13b4\u13db": 2027,
    "\u2581\u13a0\u13c2\u13a9\u13cf\u13d9\u13af": 2028,
    "\u2581\u13a8\u13c6\u13c2": 2029,
    "\u2581\u13a0\u13c2\u13a6\u13d4\u13af": 2030,
    "\u2581\u13d7\u13e5\u13b6\u13cd\u13d4\u13c5": 2031,
    "\u2581\u13a2\u13e5\u13c5\u13df": 2032,
    "\u2581\u13a4\u13d3\u13c5\u13d6\u13b8": 2033,
    "\u2581\u13a0\u13cd\u13a6\u13f0\u13ac\u13cd\u13d4": 2034,
    "\u2581\u13e5\u13ae\u13be": 2035,
    "\u2581\u13eb\u13b6\u13af": 2036,
    "\u2581\u13a4\u13d9\u13b4\u13b0\u13ce": 2037,
    "\u2581\u13a4\u13ea\u13b7\u13c5\u13a9": 2038,
    "\u2581\u13c4\u13d5\u13d8\u13f4\u13ae\u13a2": 2039,
    "\u13c1\u13b2\u13a2": 2040,
    "\u2581\u13d3\u13f3\u13b6\u13d2": 2041,
    "\u2581\u13c2\u13a6\u13da": 2042,
    "\u2581\u13a4\u13e4": 2043,
    "\u2581\u13da\u13a7\u13be\u13c1": 2044,
    "\u2581\u13a4\u13db\u13d0\u13c5\u13af": 2045,
    "\u2581\u13a4\u13c1\u13b7\u13c1\u13a2": 2046,
    "\u2581\u13a2\u13e5\u13cd\u13a6\u13c5\u13e8\u13a2": 2047,
    "\u2581\u13aa\u13e2\u13c5\u13af": 2048,
    "\u2581\u13ef\u13c2": 2049,
    "\u2581\u13a4\u13b5\u13cd\u13d5\u13b8\u13d9\u13d7": 2050,
    "\u2581\u13a4\u13d3\u13c5\u13d2\u13a9": 2051,
    "\u2581\u13a0\u13e7\u13cf": 2052,
    "\u13a0\u13ce\u13c3": 2053,
    "\u2581\u13d5\u13a6\u13b6\u13d7\u13af": 2054,
    "\u2581\u13a0\u13a9\u13aa\u13b2\u13a9": 2055,
    "\u2581\u13a4\u13d3\u13d4\u13c5\u13af": 2056,
    "\u2581\u13d3\u13a7\u13c5\u13a2": 2057,
    "\u2581\u13d3\u13d3": 2058,
    "\u2581\u13ac\u13e9\u13b7\u13e4\u13b8\u13a9": 2059,
    "\u2581\u13aa\u13e2\u13d2\u13a2": 2060,
    "\u2581\u13a1\u13b3\u13d7\u13e3": 2061,
    "\u13bf\u13a8": 2062,
    "\u2581\u13a2\u13e7\u13e9\u13c1": 2063,
    "\u2581\u13a4\u13c4\u13aa\u13e4": 2064,
    "\u13d7\u13cd\u13aa\u13a2": 2065,
    "\u2581\u13a0\u13e5\u13b8\u13a8\u13b6\u13af": 2066,
    "\u2581\u13a1\u13d9\u13af": 2067,
    "\u2581\u13d3\u13ac\u13be": 2068,
    "\u13b6\u13a2": 2069,
    "\u2581\u13a0\u13c1\u13b3": 2070,
    "\u2581\u13a8\u13be\u13c2\u13f1": 2071,
    "\u2581\u13da\u13be\u13d3\u13e1\u13e9\u13d7\u13d2\u13a2": 2072,
    "\u2581\u13a4\u13c1\u13b3\u13c5\u13af\u13f1": 2073,
    "\u2581\u13a4\u13c2\u13cd\u13a6\u13c5\u13e8\u13af": 2074,
    "\u13cc\u13c2": 2075,
    "\u13ee": 2076,
    "\u2581\u13a4\u13be\u13d3\u13d1\u13f4": 2077,
    "\u2581\u13aa\u13e3\u13b4\u13db": 2078,
    "\u2581\u13ae\u13d7": 2079,
    "\u2581\u13a4\u13cd\u13d8\u13f0\u13ac": 2080,
    "\u2581\u13e5\u13aa\u13a8": 2081,
    "\u2581\u13e3\u13c2\u13c3": 2082,
    "\u13d9\u13d3": 2083,
    "\u13d6\u13b8\u13d7": 2084,
    "\u2581\u13da\u13c2\u13b8\u13eb\u13cd\u13d3\u13c1\u13b2\u13a2": 2085,
    "\u13d3\u13e5": 2086,
    "\u2581\u13a0\u13d4\u13b4\u13d2\u13a2": 2087,
    "\u13b8\u13d7": 2088,
    "\u2581\u13c2\u13a6\u13ea\u13cd\u13ac\u13a9": 2089,
    "\u13b5\u13d3\u13cd\u13d7": 2090,
    "\u13d5\u13a9": 2091,
    "\u2581\u13f1\u13a6\u13a9": 2092,
    "\u2581\u13a4\u13aa\u13ae\u13a2": 2093,
    "\u2581\u13e1\u13ac\u13a2": 2094,
    "\u2581\u13a4\u13b4": 2095,
    "\u2581\u13a4\u13e3": 2096,
    "\u2581\u13d9\u13d7": 2097,
    "\u2581\u13a0\u13cd\u13a6": 2098,
    "\u2581\u13a4\u13f2\u13b1\u13d2\u13a2": 2099,
    "\u2581\u13d3\u13f0": 2100,
    "\u2581\u13a1\u13b3": 2101,
    "\u2581\u13bb": 2102,
    "\u13f4\u13d3": 2103,
    "\u13b5\u13cd\u13aa\u13b8\u13d3\u13c1\u13b8\u13af": 2104,
    "\u2581\u13a0\u13c2\u13c2": 2105,
    "\u2581\u13e5\u13d3\u13c2": 2106,
    "\u2581\u13a4\u13e9\u13db\u13d7": 2107,
    "\u13da\u13a6": 2108,
    "\u13b4\u13ad": 2109,
    "\u2581\u13e5\u13f4": 2110,
    "\u13e3\u13d3": 2111,
    "\u13b7\u13e5\u13cf": 2112,
    "\u13d6\u13cd\u13d7": 2113,
    "\u2581\u13a4\u13c4\u13ec": 2114,
    "\u2581\u13a4\u13c2\u13c1\u13e8": 2115,
    "\u13a5\u13be": 2116,
    "\u2581\u13a6\u13be": 2117,
    "\u13d3\u13d1\u13ef": 2118,
    "\u13c5\u13ce": 2119,
    "\u13d3\u13c2\u13b8\u13e8\u13af": 2120,
    "\u2581\u13a2\u13cd": 2121,
    "\u13d7\u13e3": 2122,
    "\u2581\u13f1\u13ac\u13e9": 2123,
    "\u2581\u13a4\u13e6": 2124,
    "\u2581\u13a6\u13c1": 2125,
    "\u2581\u13cf\u13bb\u13ef\u13c2": 2126,
    "\u13ce\u13b8": 2127,
    "\u2581\u13aa\u13af\u13f3\u13d7\u13cd\u13a9": 2128,
    "\u13e4\u13b5": 2129,
    "\u2581\u13a0\u13af\u13d7": 2130,
    "\u2581\u13a3\u13a6\u13e4\u13b5": 2131,
    "\u13c1\u13b6\u13d7": 2132,
    "\u2581\u13a6\u13db": 2133,
    "\u13d2\u13c5": 2134,
    "\u2581\u13c2\u13ac\u13c1": 2135,
    "\u2581\u13a7\u13c3\u13ae\u13cd\u13ac": 2136,
    "\u2581\u13c4\u13be\u13db\u13c1\u13b8": 2137,
    "\u2581\u13a0\u13cd\u13d3": 2138,
    "\u2581\u13a0\u13c5\u13d7\u13cd\u13ac": 2139,
    "\u2581\u13a4\u13dc\u13c5\u13db": 2140,
    "\u2581\u13a4\u13bf\u13e5": 2141,
    "\u2581\u13eb\u13da\u13ef\u13c5\u13ae": 2142,
    "\u2581\u13a0\u13e8\u13ef": 2143,
    "\u2581\u13a0\u13c2\u13c1\u13ac": 2144,
    "\u2581\u13a4\u13be\u13da\u13b5\u13cd\u13ac": 2145,
    "\u2581\u13a4\u13c2\u13a9\u13ce": 2146,
    "\u13a5\u13af\u13cd\u13d7": 2147,
    "\u2581\u13aa\u13f1\u13c1": 2148,
    "\u2581\u13da\u13b8\u13cc\u13db": 2149,
    "\u2581\u13a0\u13c7\u13b5\u13d2": 2150,
    "\u2581\u13c2\u13da\u13e9\u13c1\u13b8": 2151,
    "\u2581\u13a4\u13ea\u13c5\u13d2": 2152,
    "\u13ac\u13ad\u13b7\u13f4": 2153,
    "\u2581\u13e5\u13c1\u13ac": 2154,
    "\u2581\u13a0\u13f4\u13eb\u13ef": 2155,
    "\u13b8\u13cc\u13db": 2156,
    "\u2581\u13a2\u13e8\u13ef": 2157,
    "\u2581\u13f1\u13e5\u13a6\u13d4": 2158,
    "\u13b6\u13d2": 2159,
    "\u2581\u13eb\u13ac": 2160,
    "\u2581\u13a2\u13ef\u13c6\u13db\u13c1\u13d7": 2161,
    "\u2581\u13c2\u13e8\u13c1\u13b8": 2162,
    "\u2581\u13a4\u13c1\u13d3\u13cd\u13d7": 2163,
    "\u2581\u13d7\u13a6\u13aa\u13d7": 2164,
    "\u2581\u13a0\u13c1\u13b5\u13cd\u13a8": 2165,
    "\u2581\u13a1\u13b3\u13c2\u13ac": 2166,
    "\u2581\u13a4\u13e9\u13db\u13b2": 2167,
    "\u2581\u13a4\u13b5\u13ec\u13e8": 2168,
    "\u2581\u13a0\u13c2\u13e9\u13e5\u13c2": 2169,
    "\u2581\u13a6\u13b3\u13b1\u13c2": 2170,
    "\u2581\u13d5\u13a6\u13b3\u13eb\u13a5": 2171,
    "\u2581\u13e7\u13d3\u13bf\u13e9\u13db": 2172,
    "\u2581\u13a2\u13c6\u13b6\u13c2": 2173,
    "\u2581\u13be\u13aa\u13d4\u13c5\u13be": 2174,
    "\u2581\u13da\u13be\u13a7\u13db": 2175,
    "\u2581\u13d7\u13c2\u13ec\u13c2\u13cd\u13a9": 2176,
    "\u2581\u13e3\u13d4\u13a6": 2177,
    "\u2581\u13a4\u13d9\u13b4\u13b0\u13af\u13cd\u13d7\u13f1": 2178,
    "\u2581\u13da\u13c3\u13e2\u13d4\u13c5\u13a9": 2179,
    "\u2581\u13a2\u13d5\u13af": 2180,
    "\u2581\u13c4\u13d3\u13b5\u13d3\u13cd\u13db\u13be": 2181,
    "\u2581\u13d7\u13a8\u13e5\u13a4\u13cd\u13d5\u13ce\u13b8\u13af": 2182,
    "\u2581\u13c5\u13d3\u13a6\u13b5\u13cd\u13d9\u13d3": 2183,
    "\u2581\u13d7\u13c2\u13cd\u13aa\u13b5": 2184,
    "\u2581\u13c2\u13a6\u13b5\u13cd\u13d4\u13c2\u13d9\u13b2": 2185,
    "\u2581\u13a6\u13c2\u13d3\u13db": 2186,
    "\u2581\u13cd\u13aa\u13ef": 2187,
    "\u2581\u13e7\u13c6\u13b6\u13ac": 2188,
    "\u2581\u13c2\u13e3\u13db\u13c1\u13ae\u13cd\u13d7": 2189,
    "\u2581\u13be\u13b5\u13cd\u13c6\u13d7\u13cd\u13ac\u13be": 2190,
    "\u2581\u13a2\u13e5\u13f0\u13b8\u13ce\u13cd\u13d7": 2191,
    "\u2581\u13a2\u13e3\u13c5\u13d6\u13cd\u13d7": 2192,
    "\u2581\u13a4\u13ec\u13d1\u13b6\u13e8\u13af": 2193,
    "\u2581\u13a5\u13a9\u13c5\u13cf\u13db": 2194,
    "\u2581\u13a0\u13c2\u13c3\u13cd\u13a9\u13cd\u13a9": 2195,
    "\u2581\u13d7\u13d3\u13ec\u13cd\u13a9": 2196,
    "\u2581\u13d3\u13ac\u13e9": 2197,
    "\u2581\u13a2\u13f3\u13d5\u13d8\u13f4\u13d3": 2198,
    "\u2581\u13a2\u13e7\u13b3\u13d7\u13e2": 2199,
    "\u2581\u13af\u13cd\u13a6\u13ef": 2200,
    "\u2581\u13a2\u13e5\u13a6\u13d4\u13ae\u13cd\u13d7": 2201,
    "\u2581\u13a1\u13c2\u13d7": 2202,
    "\u2581\u13c2\u13da\u13be\u13d3\u13ea\u13ce\u13b4\u13a2": 2203,
    "\u2581\u13a0\u13cc\u13c5\u13d9\u13d7": 2204,
    "\u2581\u13d7\u13d1\u13e2\u13db": 2205,
    "\u2581\u13a3\u13c2\u13d7\u13e2": 2206,
    "\u2581\u13c5\u13d3\u13a6\u13b5\u13cd\u13d9\u13d4\u13c2": 2207,
    "\u2581\u13a0\u13b5\u13e5\u13d9\u13b2\u13cd\u13a9": 2208,
    "\u2581\u13a2\u13ef\u13cd\u13d8": 2209,
    "\u2581\u13a1\u13c8\u13b5": 2210,
    "\u2581\u13a2\u13e5\u13a6\u13d9\u13a5\u13af\u13cd\u13d7\u13f1": 2211,
    "\u2581\u13e7\u13be\u13b5\u13c2\u13a9\u13db": 2212,
    "\u2581\u13a0\u13a6\u13ef\u13b7\u13d7": 2213,
    "\u2581\u13a0\u13e5\u13a4\u13cd\u13d5\u13ce\u13b8\u13af": 2214,
    "\u2581\u13aa\u13af\u13f3\u13b2\u13cd\u13a9": 2215,
    "\u2581\u13c2\u13ac\u13ea\u13ce\u13ad": 2216,
    "\u2581\u13e3\u13d3\u13c5\u13d9": 2217,
    "\u2581\u13e7\u13cd\u13aa\u13b5": 2218,
    "\u2581\u13a6\u13be\u13cd\u13d3": 2219,
    "\u2581\u13c2\u13a6\u13b5\u13cd\u13d4\u13c5\u13ad": 2220,
    "\u2581\u13c5\u13e7\u13b5\u13cd\u13d9\u13d4\u13c5": 2221,
    "\u2581\u13cd\u13a9\u13d9\u13b5\u13a9": 2222,
    "\u2581\u13a4\u13d5\u13b5\u13d2": 2223,
    "\u2581\u13a2\u13f3\u13b5\u13cd\u13d4\u13c5\u13af": 2224,
    "\u2581\u13a4\u13b5\u13cd\u13d7\u13f3": 2225,
    "\u2581\u13e7\u13c2\u13b3\u13eb\u13a2\u13cd\u13d7\u13f1": 2226,
    "\u2581\u13a2\u13d5\u13be": 2227,
    "\u2581\u13d3\u13d3\u13cf": 2228,
    "\u2581\u13a0\u13a6\u13d4\u13bf\u13a2": 2229,
    "\u2581\u13a0\u13c6\u13b5\u13cf": 2230,
    "\u2581\u13da\u13e0\u13f1\u13b4\u13a2": 2231,
    "\u2581\u13a4\u13cd\u13c6\u13db": 2232,
    "\u2581\u13a2\u13ef\u13c6\u13db\u13c1\u13d7\u13f1": 2233,
    "\u2581\u13a2\u13d3\u13b5": 2234,
    "\u2581\u13b9\u13d7": 2235,
    "\u2581\u13a4\u13ea\u13d7\u13f1": 2236,
    "\u2581\u13a8\u13a5\u13a2": 2237,
    "\u2581\u13a4\u13df\u13c2\u13a9\u13d3": 2238,
    "\u13b7\u13e4\u13d7\u13f1": 2239,
    "\u2581\u13a4\u13c2\u13a9\u13d2\u13a9": 2240,
    "\u2581\u13d8\u13b5": 2241,
    "\u2581\u13a1\u13d8\u13f4": 2242,
    "\u2581\u13a4\u13be\u13db\u13c1\u13a2": 2243,
    "\u2581\u13a4\u13e9\u13c5": 2244,
    "\u2581\u13b9\u13a9": 2245,
    "\u2581\u13c2\u13da\u13e9\u13c1\u13b8\u13a9": 2246,
    "\u2581\u13c4\u13be\u13cd\u13d7": 2247,
    "\u2581\u13e7\u13c2\u13be\u13eb\u13f1": 2248,
    "\u2581\u13eb\u13da\u13c2": 2249,
    "\u2581\u13e7\u13d3\u13c5\u13db\u13a2": 2250,
    "\u2581\u13ac\u13e9\u13aa\u13b2": 2251,
    "\u2581\u13ed\u13c2\u13b7\u13e4\u13a2": 2252,
    "\u2581\u13a8\u13d9\u13b2": 2253,
    "\u13e2\u13d7": 2254,
    "\u2581\u13a8\u13c2\u13d7": 2255,
    "\u2581\u13c2\u13d9": 2256,
    "\u13c3\u13c1\u13b8\u13a9": 2257,
    "\u13d3\u13e1\u13ac": 2258,
    "\u2581\u13c8": 2259,
    "\u2581\u13c2\u13eb": 2260,
    "\u2581\u13ef\u13c6\u13da\u13b5": 2261,
    "\u2581\u13a0\u13c6\u13b5": 2262,
    "\u2581\u13a4\u13e3\u13d6": 2263,
    "\u2581\u13ad\u13b5": 2264,
    "\u2581\u13f1\u13b0": 2265,
    "\u2581\u13af\u13b8\u13af": 2266,
    "\u2581\u13a6\u13db\u13ac\u13a2": 2267,
    "\u13c1\u13cd\u13a8": 2268,
    "\u2581\u13a4\u13aa\u13b2\u13af": 2269,
    "\u2581\u13a8\u13d3\u13b5": 2270,
    "\u2581\u13a4\u13c1\u13a2\u13cd\u13d7": 2271,
    "\u2581\u13a4\u13ad\u13a8": 2272,
    "\u13d9\u13a5": 2273,
    "\u2581\u13c4\u13db\u13c1\u13b8\u13a2": 2274,
    "\u13a1\u13cd\u13d7": 2275,
    "\u13d3\u13c5": 2276,
    "\u13c3\u13b2\u13cf": 2277,
    "\u13d9\u13b5\u13cd\u13d7": 2278,
    "\u2581\u13a4\u13e9\u13a8\u13eb": 2279,
    "\u13cd\u13c6\u13c2\u13aa\u13d7": 2280,
    "\u13ab\u13f4\u13d9\u13d7": 2281,
    "\u13ea\u13e8\u13af": 2282,
    "\u2581\u13a4\u13b4\u13c5\u13b2": 2283,
    "\u2581\u13e7\u13ea\u13d8": 2284,
    "\u2581\u13a4\u13ef": 2285,
    "\u2581\u13d7\u13ac\u13d9\u13d7": 2286,
    "\u13c5\u13ad": 2287,
    "\u2581\u13a0\u13a9\u13ad": 2288,
    "\u2581\u13af\u13be": 2289,
    "\u13d3\u13cf": 2290,
    "\u13e9\u13db\u13ae": 2291,
    "\u2581\u13a0\u13a6\u13db": 2292,
    "\u2581\u13d3\u13e5\u13ef": 2293,
    "\u2581\u13a4\u13d4\u13c5": 2294,
    "\u13a0\u13ef\u13d7": 2295,
    "\u2581\u13a4\u13d9\u13d3\u13c3": 2296,
    "\u13c2\u13d2": 2297,
    "\u13c5\u13cf\u13d9\u13af": 2298,
    "\u13cd\u13d5\u13cd\u13d7": 2299,
    "\u2581\u13a4\u13db\u13c5\u13a9": 2300,
    "\u2581\u13a8\u13b6\u13af": 2301,
    "\u2581\u13ed\u13c2\u13b7\u13e4": 2302,
    "\u13c1\u13b8\u13d4\u13c5": 2303,
    "\u2581\u13c4\u13d3": 2304,
    "\u2581\u13c2\u13e3\u13db\u13c5\u13a2": 2305,
    "\u13e7\u13cf": 2306,
    "\u13a4\u13d9\u13af\u13f3": 2307,
    "\u13d3\u13c1\u13b8": 2308,
    "\u13d9\u13b5": 2309,
    "\u13f4\u13ad": 2310,
    "\u13d0\u13c5": 2311,
    "\u13a9\u13cd\u13a8\u13cd\u13d7": 2312,
    "\u13a5\u13dd": 2313,
    "\u13d3\u13c5\u13a6\u13b8\u13db": 2314,
    "\u2581\u13a0\u13c2\u13c1": 2315,
    "\u2581\u13a0\u13cd\u13a6\u13c5\u13e8": 2316,
    "\u13d3\u13b6\u13c2\u13a8": 2317,
    "\u2581\u13be\u13c6\u13db\u13c1\u13b8": 2318,
    "\u13d4\u13b7\u13a9\u13cd\u13a9": 2319,
    "\u13a8\u13b3\u13cd\u13d7": 2320,
    "\u13da\u13b5": 2321,
    "\u2581\u13a0\u13a9\u13c1\u13e8": 2322,
    "\u2581\u13a0\u13d3\u13c5\u13d6\u13cd\u13a8": 2323,
    "\u2581\u13a1\u13b5\u13cd\u13a8": 2324,
    "\u2581\u13eb\u13a6\u13c5\u13c5": 2325,
    "\u2581\u13a0\u13c2\u13e8\u13ef": 2326,
    "\u2581\u13a0\u13d3\u13ef": 2327,
    "\u2581\u13a4\u13a9\u13e8\u13c5": 2328,
    "\u2581\u13a4\u13b5\u13c2\u13ac\u13ac": 2329,
    "\u2581\u13d5\u13a6\u13c5\u13c5": 2330,
    "\u2581\u13d7\u13e4\u13b2": 2331,
    "\u2581\u13a5\u13d3\u13b8": 2332,
    "\u13a9\u13af": 2333,
    "\u13a2\u13f3\u13be\u13cd\u13d7": 2334,
    "\u2581\u13a4\u13c2\u13c3\u13ae\u13b8": 2335,
    "\u2581\u13e3\u13a7\u13db": 2336,
    "\u2581\u13a6\u13f0\u13cc\u13db": 2337,
    "\u2581\u13ac\u13e9\u13b7\u13e4\u13b4": 2338,
    "\u2581\u13d7\u13d3\u13c1\u13b8": 2339,
    "\u2581\u13c2\u13e3\u13db\u13c5": 2340,
    "\u2581\u13a4\u13f0\u13b8\u13c1": 2341,
    "\u13ce\u13d7": 2342,
    "\u2581\u13a4\u13bf\u13a5": 2343,
    "\u2581\u13d7\u13e5\u13f0\u13b8": 2344,
    "\u2581\u13e5\u13d9\u13ac": 2345,
    "\u2581\u13eb\u13da\u13ef\u13c5\u13b2": 2346,
    "\u13cd\u13d7\u13cd\u13a8\u13cd\u13d7": 2347,
    "\u2581\u13a0\u13cd\u13da\u13b2": 2348,
    "\u13c5\u13d3": 2349,
    "\u2581\u13ac\u13e9\u13b7\u13e4\u13b8": 2350,
    "\u2581\u13c2\u13aa": 2351,
    "\u2581\u13a0\u13c2\u13c3\u13af\u13b5\u13d9": 2352,
    "\u2581\u13d7\u13c4\u13aa\u13d7\u13cd\u13a9": 2353,
    "\u2581\u13a2\u13ac\u13e9\u13c1\u13d7": 2354,
    "\u2581\u13a0\u13e5\u13a2\u13cd\u13d7": 2355,
    "\u2581\u13f1\u13d9": 2356,
    "\u2581\u13a0\u13c1\u13b5\u13cd\u13ac": 2357,
    "\u13d4\u13c5\u13a2": 2358,
    "\u2581\u13da\u13c5\u13ce": 2359,
    "\u2581\u13a0\u13f0\u13b2": 2360,
    "\u2581\u13c2\u13d3\u13aa\u13d4\u13c5\u13be": 2361,
    "\u2581\u13a1\u13a9\u13b5\u13c8": 2362,
    "\u2581\u13a2\u13d7\u13cd\u13d3\u13d3\u13b3": 2363,
    "\u2581\u13a2\u13ef\u13ac\u13c1\u13b8\u13af": 2364,
    "\u2581\u13cc\u13ec\u13da": 2365,
    "\u2581Chap": 2366,
    "\u2581\u13a0\u13c2\u13c8\u13b5\u13cd\u13d7": 2367,
    "\u2581\u13cc\u13f1\u13b3": 2368,
    "\u2581\u13a0\u13f0\u13b3\u13cd\u13d8": 2369,
    "\u2581\u13da\u13a7\u13d4\u13cd\u13d4\u13c1\u13a2": 2370,
    "\u2581\u13e3\u13a6\u13df\u13b6\u13cd\u13d4\u13c5\u13af": 2371,
    "\u2581\u13e5\u13cd\u13aa\u13f4": 2372,
    "\u2581\u13c5\u13d3\u13a6\u13e5\u13f4\u13c1\u13b5": 2373,
    "\u2581\u13e7\u13d3\u13d5\u13cd\u13d7\u13f1": 2374,
    "\u2581\u13a0\u13d7\u13d2\u13cd\u13d7": 2375,
    "\u2581\u13ae\u13bc": 2376,
    "\u2581\u13a4\u13f2\u13cd\u13db\u13c9": 2377,
    "\u2581\u13a0\u13d5\u13d2\u13b2\u13cd\u13a9": 2378,
    "\u2581\u13a2\u13c6\u13bb": 2379,
    "\u2581\u13d7\u13e5\u13a6\u13d9\u13b5": 2380,
    "\u2581\u13e7\u13be\u13d3\u13c5\u13d9": 2381,
    "\u2581\u13a4\u13c2\u13c1\u13ab\u13e5\u13db": 2382,
    "\u2581\u13e5\u13c2\u13e3\u13db\u13c5": 2383,
    "\u2581\u13a4\u13b3\u13a8\u13ef\u13db\u13e4\u13a2": 2384,
    "\u2581\u13a4\u13a9\u13d3\u13df\u13c5\u13ef": 2385,
    "\u2581\u13a2\u13f3\u13db\u13c1\u13b8\u13af": 2386,
    "\u2581\u13cc\u13da": 2387,
    "\u2581\u13a0\u13b9\u13f3\u13b8\u13d3": 2388,
    "\u2581\u13f1\u13e5\u13cd\u13a6\u13a2\u13ae\u13cd\u13d7": 2389,
    "\u2581\u13a0\u13a9\u13ac\u13eb\u13f3\u13af": 2390,
    "\u2581\u13e3\u13e4\u13b5\u13aa\u13af": 2391,
    "\u2581\u13cf\u13b5\u13f1": 2392,
    "\u2581\u13a6\u13ab\u13cd\u13db\u13d7": 2393,
    "\u2581\u13e4\u13d9\u13b2": 2394,
    "\u2581\u13a4\u13cd\u13da\u13a2\u13d2": 2395,
    "\u2581\u13a4\u13e3\u13d4": 2396,
    "\u2581\u13ed\u13b7\u13e3": 2397,
    "\u2581\u13c7\u13d5\u13b5": 2398,
    "\u2581\u13d7\u13a8\u13e5\u13be\u13cc\u13a2": 2399,
    "\u2581\u13a0\u13c2\u13c3\u13ae\u13cd\u13a9": 2400,
    "\u2581\u13a7\u13c1\u13cd\u13aa": 2401,
    "\u2581\u13e5\u13f2\u13ce\u13b8": 2402,
    "\u2581\u13a0\u13c9\u13b3": 2403,
    "\u2581\u13a0\u13a6\u13d4\u13be\u13a2": 2404,
    "\u2581\u13a4\u13be\u13d7\u13cd\u13a6\u13b6\u13d7": 2405,
    "\u2581\u13d3\u13ac\u13d4\u13c2": 2406,
    "\u2581\u13a3\u13a9\u13d9\u13d3": 2407,
    "\u2581\u13ac\u13e9\u13cd\u13d3\u13e9\u13db\u13d2\u13a9": 2408,
    "\u2581\u13d7\u13a6\u13c5\u13cd\u13a8\u13c2": 2409,
    "\u2581\u13ac\u13b5\u13cd\u13c6\u13d7\u13cd\u13a9": 2410,
    "\u2581\u13d7\u13ac\u13e9\u13b8\u13cc\u13db": 2411,
    "\u2581\u13a2\u13f3\u13e9\u13c1\u13af": 2412,
    "\u2581\u13e5\u13e5\u13a6\u13d4\u13ad": 2413,
    "\u2581\u13a0\u13b5\u13cd\u13aa\u13b8\u13d3\u13c1\u13d7": 2414,
    "\u2581\u13da\u13c3\u13a1\u13a2": 2415,
    "\u2581\u13ef\u13a6\u13d4\u13ad": 2416,
    "\u2581\u13a0\u13c3\u13cd\u13db": 2417,
    "\u2581\u13d3\u13a8\u13cf": 2418,
    "\u2581\u13be\u13e5\u13be\u13dd\u13a5\u13be": 2419,
    "\u2581\u13a4\u13c1\u13e2\u13d4\u13c5\u13af": 2420,
    "\u2581\u13be\u13a8": 2421,
    "\u13ac\u13eb\u13f3\u13d2": 2422,
    "\u2581\u13a0\u13c2\u13c5\u13a2": 2423,
    "\u2581\u13e6\u13b3\u13c2": 2424,
    "\u2581\u13e7\u13c2\u13a6\u13f4\u13b5\u13a8": 2425,
    "\u2581\u13ed\u13b6\u13af\u13cd\u13d7\u13f1": 2426,
    "\u2581\u13f3\u13e9\u13c1\u13a6": 2427,
    "\u2581\u13a2\u13e3\u13e0\u13be\u13cd\u13d7": 2428,
    "\u2581\u13aa\u13ea\u13b3\u13c5\u13af": 2429,
    "\u2581\u13e6\u13c8": 2430,
    "\u2581\u13ac\u13c2\u13a8\u13d2\u13a2\u13f3": 2431,
    "\u2581\u13e5\u13c2\u13a6\u13ea\u13ad": 2432,
    "\u2581\u13e6\u13b3": 2433,
    "\u13a6\u13c5\u13af\u13d3": 2434,
    "\u2581\u13a0\u13e5\u13c3\u13ae\u13cd\u13ac\u13a2": 2435,
    "\u2581\u13c2\u13a6\u13c5\u13af\u13d2\u13a9": 2436,
    "\u2581\u13e7\u13c1\u13ac": 2437,
    "\u2581\u13c2\u13da\u13cd\u13db": 2438,
    "\u2581\u13a4\u13ec\u13e2\u13c5\u13a9": 2439,
    "\u2581\u13a4\u13e2\u13a9": 2440,
    "\u2581\u13a2\u13f3\u13e9": 2441,
    "\u2581\u13a4\u13c5\u13cf\u13d9\u13af": 2442,
    "\u2581\u13a1\u13c9\u13d7\u13f1": 2443,
    "\u2581\u13d5\u13cd\u13a9": 2444,
    "\u2581\u13a4\u13d3\u13c5\u13d6\u13b8\u13af": 2445,
    "\u2581\u13a4\u13d5\u13c1\u13b8\u13af": 2446,
    "\u13be\u13f0\u13cd\u13ac\u13be": 2447,
    "\u13b8\u13c9\u13d7": 2448,
    "\u2581\u13a1\u13b3\u13d7\u13e2": 2449,
    "\u2581\u13d3\u13c2\u13c1\u13b8\u13a2": 2450,
    "\u2581\u13a0\u13a2\u13d2\u13a2": 2451,
    "\u2581\u13ac\u13c2\u13f3": 2452,
    "\u2581\u13a4\u13cd\u13a6\u13c5\u13e8\u13af": 2453,
    "\u13a8\u13f3\u13d7": 2454,
    "\u13cf\u13d7\u13d2": 2455,
    "\u13f3\u13af": 2456,
    "\u2581\u13e7\u13ec\u13da\u13af": 2457,
    "\u2581\u13a6\u13c5\u13af\u13d3": 2458,
    "\u2581\u13a0\u13a9\u13cd\u13d7\u13f1": 2459,
    "\u2581\u13a4\u13bf\u13a5\u13a2": 2460,
    "\u2581\u13a8\u13b3\u13cd\u13d7": 2461,
    "\u2581\u13a4\u13c4\u13e2": 2462,
    "\u13d3\u13b5": 2463,
    "\u2581\u13e4\u13c6": 2464,
    "\u2581\u13d5\u13e1\u13ac\u13a2": 2465,
    "\u13d7\u13cd\u13ac\u13a2": 2466,
    "\u13d1\u13f0\u13db": 2467,
    "\u2581\u13a4\u13be\u13db\u13a6\u13c5\u13af": 2468,
    "\u2581\u13e5\u13a8": 2469,
    "\u2581\u13be\u13c6": 2470,
    "\u2581\u13a4\u13be\u13db": 2471,
    "\u2581\u13d5\u13c2": 2472,
    "\u2581\u13eb\u13cd\u13a9": 2473,
    "\u13a1\u13b8\u13af": 2474,
    "\u2581\u13a0\u13a9\u13f0\u13b8": 2475,
    "\u13c5\u13d7": 2476,
    "\u2581\u13a0\u13c6\u13d3\u13c5\u13d9\u13a9": 2477,
    "\u2581\u13a6\u13d9\u13ac\u13a9": 2478,
    "\u13c4\u13aa\u13eb\u13d2\u13a9": 2479,
    "\u13c1\u13c3": 2480,
    "\u2581\u13c2\u13ac\u13c1\u13b2": 2481,
    "\u2581\u13be\u13db\u13c1\u13b2": 2482,
    "\u13f0\u13af": 2483,
    "\u13d9\u13d3\u13c6\u13d3": 2484,
    "\u13d9\u13e2\u13c5": 2485,
    "\u13d5\u13b6\u13b0\u13af\u13cd\u13d7": 2486,
    "\u2581\u13a4\u13c2\u13cd\u13a6\u13c5\u13e8\u13a2": 2487,
    "\u13d4\u13c5\u13be": 2488,
    "\u2581\u13a4\u13b7\u13e4\u13a2": 2489,
    "\u2581\u13da\u13a6": 2490,
    "\u2581\u13a4\u13da": 2491,
    "\u2581\u13c5\u13d7\u13a6\u13b5\u13cd\u13d9\u13d7\u13cd\u13ac\u13a2": 2492,
    "\u2581\u13d5\u13ac": 2493,
    "\u2581\u13a4\u13ef\u13c5": 2494,
    "\u13c2\u13d3\u13cd\u13d7\u13f1": 2495,
    "\u2581\u13a0\u13ad": 2496,
    "\u13b4\u13c5": 2497,
    "\u13d4\u13f2\u13cf": 2498,
    "\u2581\u13a0\u13d2\u13a9": 2499,
    "\u2581\u13a2\u13d2": 2500,
    "\u2581\u13ac\u13ef": 2501,
    "\u13e4\u13b8": 2502,
    "\u2581\u13e6\u13af\u13f3\u13d2": 2503,
    "\u13e6\u13e2\u13d7": 2504,
    "id": 2505,
    "\u13c1\u13e4\u13b4": 2506,
    "\u13a6\u13d9": 2507,
    "\u2581\u13d7\u13e8": 2508,
    "\u2581\u13a0\u13a9\u13aa\u13b2": 2509,
    "\u2581\u13a4\u13c2\u13b2": 2510,
    "\u13d9\u13b4\u13b0\u13cf": 2511,
    "\u13b5\u13cf\u13f1": 2512,
    "\u2581\u13ad\u13e9": 2513,
    "\u2581\u13a6\u13f2\u13b5": 2514,
    "\u13c9\u13d7": 2515,
    "\u2581\u13e5\u13d9": 2516,
    "\u13cd\u13d4\u13c5\u13af": 2517,
    "\u13a9\u13b3": 2518,
    "l": 2519,
    "\u13a7\u13b5\u13a2": 2520,
    "\u2581\u13a2\u13e5\u13f0\u13b8": 2521,
    "\u13cc\u13c1": 2522,
    "\u13c2\u13a9\u13db": 2523,
    "\u2581\u13a0\u13c2\u13eb\u13be": 2524,
    "\u13f2\u13af\u13cd\u13d7": 2525,
    "\u2581\u13a2\u13cf\u13b5\u13f1": 2526,
    "\u2581\u13eb\u13a9": 2527,
    "\u2581\u13a0\u13f0": 2528,
    "\u13c5\u13d3\u13d3": 2529,
    "\u2581\u13a0\u13be\u13b5": 2530,
    "\u13c1\u13e4\u13d7": 2531,
    "\u13aa\u13b5\u13f0\u13d7": 2532,
    "\u13db\u13c2": 2533,
    "\u2581\u13c7": 2534,
    "\u13b5\u13cd\u13d4\u13c1": 2535,
    "\u13d2\u13c3": 2536,
    "\u13a9\u13d3": 2537,
    "\u13c4\u13a6": 2538,
    "\u13b6\u13e8": 2539,
    "\u2581\u13e5\u13c4": 2540,
    "\u2581\u13af\u13cd\u13a9\u13c1": 2541,
    "\u2581\u13a0\u13a2\u13d2": 2542,
    "\u2581\u13a0\u13a6\u13d4": 2543,
    "\u2581\u13c2\u13a8": 2544,
    "\u13e5\u13f2\u13cf": 2545,
    "\u13c1\u13e4\u13b8\u13af": 2546,
    "\u2581\u13a0\u13cb": 2547,
    "\u2581\u13da\u13be\u13b4\u13c1": 2548,
    "\u2581\u13af\u13a6\u13d8\u13cf": 2549,
    "\u2581\u13ad\u13bb": 2550,
    "\u13d5\u13c5": 2551,
    "\u13d7\u13e2": 2552,
    "\u13aa\u13e9\u13d8\u13ad": 2553,
    "\u13ec\u13c2\u13af\u13cd\u13d7": 2554,
    "\u2581\u13da\u13a7\u13bf\u13c5": 2555,
    "\u2581\u13a4\u13c2\u13e3\u13db": 2556,
    "\u2581\u13a3\u13a9\u13be": 2557,
    "\u2581\u13be\u13a9": 2558,
    "\u13ac\u13bf": 2559,
    "\u2581\u13a0\u13d4\u13b4\u13a6\u13d2": 2560,
    "\u2581\u13a4\u13c3\u13c1\u13b4": 2561,
    "\u2581\u13d5\u13a6\u13da\u13e9\u13d7\u13d2": 2562,
    "\u2581\u13a4\u13c2\u13b7\u13e4\u13d7": 2563,
    "\u2581\u13e7\u13e9\u13ab\u13d4\u13c5\u13d2": 2564,
    "\u13be\u13c4\u13aa\u13eb\u13cf": 2565,
    "\u2581\u13d3\u13d5\u13f2\u13b2\u13cd\u13ac": 2566,
    "\u2581\u13f1\u13a8\u13d0": 2567,
    "\u2581\u13da\u13ec\u13a1": 2568,
    "\u2581\u13a0\u13a6\u13cd\u13a6\u13c2": 2569,
    "\u2581\u13a0\u13da\u13a2\u13cd\u13db": 2570,
    "\u2581\u13a6\u13b8\u13c9": 2571,
    "\u2581\u13a4\u13f0\u13b8\u13c5": 2572,
    "\u2581\u13d3\u13c2\u13c1\u13b8": 2573,
    "\u2581\u13a0\u13d3\u13d9\u13b5\u13cd\u13d7": 2574,
    "\u13c3\u13ae\u13cd\u13ac\u13a2": 2575,
    "\u2581\u13a4\u13a6\u13d4\u13b2\u13d2": 2576,
    "\u2581\u13a3\u13b5\u13e9": 2577,
    "\u2581\u13a4\u13b7\u13e4\u13b4": 2578,
    "\u2581\u13a4\u13ec\u13da": 2579,
    "\u2581\u13e4\u13ae": 2580,
    "\u2581\u13d5\u13aa\u13ea\u13b8": 2581,
    "\u2581\u13a4\u13db\u13d0\u13c5": 2582,
    "\u13f2\u13af\u13cd\u13d4\u13c5": 2583,
    "\u2581\u13a6\u13b4\u13c2": 2584,
    "\u13ef\u13c5\u13b2": 2585,
    "\u2581\u13a6\u13c1\u13e5": 2586,
    "\u2581\u13a4\u13c5\u13ce": 2587,
    "\u2581\u13e9\u13a9": 2588,
    "\u13d3\u13b4\u13c5\u13db": 2589,
    "\u13b0\u13b2\u13cd\u13d7": 2590,
    "\u2581\u13a1\u13c2\u13be\u13ef": 2591,
    "\u2581\u13a2\u13cd\u13a6\u13b3\u13d7": 2592,
    "\u2581\u13a5\u13d8\u13a3\u13a9": 2593,
    "\u2581\u13a6\u13cc\u13c6\u13b8": 2594,
    "\u2581\u13d1\u13d3\u13b3\u13cd\u13aa\u13af": 2595,
    "\u2581\u13d7\u13ab\u13d3\u13b8\u13d7\u13f1": 2596,
    "\u2581\u13e4\u13a6\u13b3\u13ef": 2597,
    "\u2581\u13a1\u13b9\u13c2\u13d3": 2598,
    "\u2581\u13e7\u13d9\u13d3\u13cb\u13d3": 2599,
    "\u2581\u13e7\u13ef\u13d6\u13c3\u13af": 2600,
    "\u2581\u13ef\u13c3\u13a9\u13f3": 2601,
    "\u2581\u13eb\u13da\u13a7\u13bf\u13c1": 2602,
    "\u2581\u13a4\u13ef\u13d6\u13c3\u13af": 2603,
    "\u2581\u13d7\u13cd\u13c6\u13a8\u13c2": 2604,
    "\u2581\u13a2\u13e4\u13b3\u13d7\u13d9\u13ae\u13cd\u13d7": 2605,
    "\u2581\u13ac\u13c9\u13ce\u13b0": 2606,
    "\u2581\u13d5\u13a8\u13e5\u13f0\u13b8\u13d4\u13c5\u13a9": 2607,
    "\u2581\u13a4\u13be\u13e2\u13c9\u13d7": 2608,
    "\u2581\u13bb\u13be\u13cc": 2609,
    "\u2581\u13c2\u13e3\u13ea\u13d2": 2610,
    "\u2581\u13a2\u13f3\u13e9\u13c2\u13cc\u13c5\u13af": 2611,
    "\u2581\u13d1\u13be\u13d3\u13b4\u13a9": 2612,
    "\u2581\u13a6\u13b6\u13af\u13cd\u13d7\u13f3\u13b6\u13d7": 2613,
    "\u2581\u13a1\u13e5\u13b8\u13c9\u13d3": 2614,
    "\u2581\u13a4\u13c2\u13c3\u13ae\u13b4": 2615,
    "\u2581\u13c5\u13d3\u13f3\u13b5\u13cd\u13d9\u13d7\u13f1": 2616,
    "\u2581\u13a8\u13e3\u13cd\u13d3\u13e9\u13d7\u13d9\u13af": 2617,
    "\u2581\u13d7\u13a7\u13be\u13e9\u13db\u13cd\u13d7": 2618,
    "\u2581\u13a0\u13a6\u13b5\u13cd\u13ac": 2619,
    "\u2581\u13c4\u13b5\u13cd\u13d4\u13be": 2620,
    "\u2581\u13cd\u13a9\u13c4\u13cd\u13db": 2621,
    "\u2581\u13a2\u13f2\u13cd\u13db": 2622,
    "\u2581\u13a6\u13cc\u13be\u13b5": 2623,
    "\u2581\u13c5\u13d3\u13ac\u13c1\u13b5": 2624,
    "\u2581\u13f1\u13c5\u13a6\u13b5\u13cd\u13d3": 2625,
    "\u2581\u13aa\u13cc\u13c2": 2626,
    "\u2581\u13f1\u13da\u13c2": 2627,
    "\u2581\u13a2\u13f3\u13e9\u13c2\u13b8": 2628,
    "\u2581\u13a0\u13c2\u13c8\u13b7": 2629,
    "\u2581\u13a4\u13b5\u13cd\u13d4\u13f4\u13d7": 2630,
    "\u2581\u13a4\u13f0\u13b8\u13ae": 2631,
    "\u2581\u13d1\u13d5\u13d8\u13f4\u13db": 2632,
    "\u2581\u13c4\u13be\u13b5\u13cd\u13d4\u13c1": 2633,
    "\u2581\u13ed\u13f4\u13b8": 2634,
    "\u2581\u13af\u13a8\u13f4": 2635,
    "\u2581\u13d7\u13d3\u13b4\u13b2\u13cd\u13a6": 2636,
    "\u2581\u13a2\u13f3\u13db\u13bf\u13d5\u13a9": 2637,
    "\u2581\u13a2\u13a7\u13c1\u13e8\u13af": 2638,
    "\u13cd\u13a6\u13a2\u13b2\u13be": 2639,
    "\u2581\u13d7\u13d3\u13c2\u13d0\u13d7\u13f1": 2640,
    "\u2581\u13d3\u13d3\u13b6\u13c2": 2641,
    "\u2581\u13eb\u13e8\u13b7\u13e4\u13d7\u13f1": 2642,
    "\u13b8\u13c9\u13d5\u13cd\u13d7": 2643,
    "\u2581\u13a4\u13c2\u13b7\u13af\u13cd\u13d7\u13f1": 2644,
    "\u2581\u13a4\u13b5\u13e0\u13ef\u13cd\u13d5\u13cd\u13d7": 2645,
    "\u2581\u13a0\u13c2\u13e6\u13a2": 2646,
    "\u2581\u13db\u13cd\u13c6\u13b8\u13af": 2647,
    "\u2581\u13a2\u13e3\u13b5\u13cd\u13d5\u13b8\u13d9\u13d7": 2648,
    "\u2581\u13a2\u13e3\u13db\u13a6\u13c5\u13af": 2649,
    "\u2581\u13d7\u13a6\u13b4\u13c2": 2650,
    "\u2581\u13a0\u13d9\u13b4\u13b0\u13af\u13cd\u13d9\u13d7": 2651,
    "\u2581\u13a4\u13c2\u13a9\u13cd\u13d7": 2652,
    "\u2581\u13a4\u13db\u13aa\u13d7\u13f1": 2653,
    "\u2581\u13a2\u13f3\u13e9\u13c1\u13b8\u13af": 2654,
    "\u2581\u13a0\u13a9\u13c5\u13cf\u13db": 2655,
    "\u2581\u13ed\u13c2\u13b6\u13af\u13cd\u13d7\u13f1": 2656,
    "\u2581\u13a4\u13ea\u13b5\u13cd\u13d7": 2657,
    "\u2581\u13a4\u13d3\u13d9\u13b5\u13cd\u13d3\u13c1\u13b4\u13a2": 2658,
    "\u2581\u13a2\u13e3\u13d3\u13e1\u13ac": 2659,
    "\u2581\u13be\u13c2\u13a6\u13d4\u13b2\u13be": 2660,
    "\u2581\u13a4\u13c1\u13b7\u13c5\u13a9": 2661,
    "\u2581\u13a7\u13c3\u13ae\u13d3": 2662,
    "\u2581\u13a4\u13c1\u13cd\u13d3\u13b3": 2663,
    "\u2581\u13a4\u13d3\u13d9\u13b5\u13e3\u13d8\u13f3": 2664,
    "\u2581\u13e6\u13d3\u13b8": 2665,
    "\u2581\u13a4\u13ea\u13d9\u13b5\u13cd\u13d7": 2666,
    "\u2581\u13ac\u13e9\u13d4\u13f2\u13ce\u13b4": 2667,
    "\u2581\u13a2\u13a8\u13ac\u13c1\u13d7": 2668,
    "\u2581\u13d9\u13d3\u13f3": 2669,
    "\u2581\u13be\u13a9\u13ea\u13d2\u13a9": 2670,
    "\u2581\u13c2\u13a6\u13b5\u13cd\u13d7\u13cd\u13a8\u13cd\u13d7": 2671,
    "\u2581\u13a4\u13c2\u13c7\u13d3\u13b8\u13a2": 2672,
    "\u2581\u13aa\u13e2\u13c5": 2673,
    "\u2581\u13a0\u13a6\u13cd\u13ac": 2674,
    "\u2581\u13e5\u13cd\u13c6\u13ef": 2675,
    "\u2581\u13a4\u13c2\u13c1\u13ab": 2676,
    "\u2581\u13d7\u13a6\u13b6\u13d7": 2677,
    "\u13a6\u13f4\u13b5\u13a8": 2678,
    "\u2581\u13d9\u13a9\u13be": 2679,
    "\u2581\u13a4\u13be\u13d5\u13c5\u13af": 2680,
    "\u2581\u13a4\u13c2\u13c3\u13ae\u13b8\u13af": 2681,
    "\u2581\u13c2\u13ac\u13c1\u13ad": 2682,
    "\u2581\u13a4\u13b5\u13ec\u13e8\u13af": 2683,
    "\u2581\u13a6\u13c1\u13b3": 2684,
    "\u2581\u13f4\u13a8\u13e5": 2685,
    "\u2581\u13a0\u13c2\u13c1\u13b5": 2686,
    "\u2581\u13da\u13c2\u13c5\u13ce": 2687,
    "\u2581\u13da\u13c1\u13e4\u13b8\u13a9": 2688,
    "\u2581\u13d9\u13e7\u13be\u13d3\u13c5\u13db\u13a2": 2689,
    "\u2581\u13ad\u13b4": 2690,
    "\u2581\u13a2\u13f3\u13db\u13c1\u13d7\u13f1": 2691,
    "\u2581\u13a4\u13ea\u13c5\u13cd\u13d7\u13f1": 2692,
    "\u2581\u13a4\u13d3\u13b4\u13c5\u13db": 2693,
    "\u2581\u13a4\u13d3\u13d1\u13ef": 2694,
    "\u2581\u13a4\u13f0\u13b8\u13af": 2695,
    "\u2581\u13a4\u13be\u13b5\u13cd\u13d3\u13f4\u13d7\u13f1": 2696,
    "\u2581\u13e4\u13b2\u13a9": 2697,
    "\u2581\u13c4\u13be\u13db\u13c1\u13b4\u13a2": 2698,
    "\u2581\u13a0\u13c6\u13d3\u13c5\u13db": 2699,
    "\u2581\u13eb\u13da\u13ef\u13c5\u13b2\u13a9": 2700,
    "\u2581\u13a3\u13ac\u13d2": 2701,
    "\u2581\u13be\u13a6\u13d4\u13b2\u13be": 2702,
    "\u13a6\u13d4\u13af": 2703,
    "\u2581\u13a4\u13ea\u13c5\u13d2\u13a9": 2704,
    "\u2581\u13da\u13cc\u13b3\u13d3\u13c1": 2705,
    "\u2581\u13a4\u13ea\u13d9\u13b8\u13a9": 2706,
    "\u2581\u13be\u13c2\u13ea\u13cd\u13ac\u13a2": 2707,
    "\u2581\u13a0\u13e5\u13b8\u13a8\u13b3\u13cd\u13d7\u13f1": 2708,
    "\u2581\u13d3\u13d5\u13f2\u13b2\u13cd\u13ac\u13a2": 2709,
    "\u2581\u13e7\u13d2\u13af": 2710,
    "\u2581\u13a8\u13a6\u13ab\u13f4\u13a1": 2711,
    "\u2581\u13a7\u13c5\u13d1\u13b8": 2712,
    "\u2581\u13a2\u13be\u13a9": 2713,
    "\u13cf\u13c5\u13d3": 2714,
    "\u2581\u13a4\u13c4\u13aa\u13e8\u13a9": 2715,
    "\u2581\u13a0\u13ce\u13cd\u13a9\u13c2\u13c3\u13c5": 2716,
    "\u2581\u13a4\u13f0\u13b8\u13c1\u13a2": 2717,
    "\u2581\u13a0\u13e8\u13ef\u13a2": 2718,
    "\u13c5\u13c3": 2719,
    "\u2581\u13e9\u13be": 2720,
    "\u2581\u13a4\u13c2\u13f0": 2721,
    "\u13d3\u13c2": 2722,
    "\u2581\u13d5\u13b3": 2723,
    "\u13c4\u13aa\u13e9": 2724,
    "\u2581\u13a4\u13c2\u13f0\u13b8\u13c1": 2725,
    "\u2581\u13a0\u13eb\u13cd\u13a9": 2726,
    "\u2581\u13a7\u13aa": 2727,
    "\u2581\u13a0\u13e4\u13b5\u13cd\u13db\u13a2": 2728,
    "\u13cd\u13d4\u13c1": 2729,
    "\u2581\u13e7\u13d9": 2730,
    "\u2581\u13a4\u13e5\u13b8\u13d2": 2731,
    "\u13cd\u13db\u13be": 2732,
    "\u13c1\u13b8\u13be": 2733,
    "\u2581\u13c4\u13e9\u13c1\u13b4\u13a2": 2734,
    "\u2581\u13a6\u13ec\u13c2\u13cd\u13ac\u13a2": 2735,
    "\u2581\u13a4\u13b6\u13a9\u13b8\u13a2": 2736,
    "\u13c5\u13cd\u13d7\u13f1": 2737,
    "\u13d3\u13f1\u13b5": 2738,
    "\u2581\u13a3\u13ac": 2739,
    "\u2581\u13be\u13cb\u13c1\u13b8": 2740,
    "\u13c1\u13ae": 2741,
    "\u2581\u13d7\u13a6\u13c5\u13cc\u13d7": 2742,
    "\u2581\u13a6\u13f0\u13e5": 2743,
    "\u13a8\u13db": 2744,
    "\u13c6\u13b5": 2745,
    "\u2581\u13d5\u13aa": 2746,
    "\u2581\u13a0\u13c9": 2747,
    "\u13f2\u13af": 2748,
    "\u2581\u13d7\u13aa\u13ea\u13b6\u13d7": 2749,
    "\u2581\u13e7\u13ec": 2750,
    "\u2581\u13a4\u13b4\u13c1": 2751,
    "\u13a6\u13d3\u13c1": 2752,
    "\u2581\u13f1\u13cf": 2753,
    "\u2581\u13d5\u13ad": 2754,
    "\u13a2\u13f4": 2755,
    "\u13c5\u13cf\u13d3\u13cd\u13d7": 2756,
    "\u2581\u13a4\u13a7\u13db\u13a2": 2757,
    "\u13b0\u13b5": 2758,
    "\u13cd\u13d3\u13f4": 2759,
    "\u13a6\u13d4\u13b0": 2760,
    "\u2581\u13a4\u13b2\u13a2": 2761,
    "\u2581\u13c2\u13d5\u13ac\u13c1": 2762,
    "\u13cf\u13c6": 2763,
    "\u13c1\u13c6": 2764,
    "\u2581\u13a9\u13b6\u13a2": 2765,
    "\u13a1\u13b8\u13a9": 2766,
    "\u2581\u13a0\u13f2": 2767,
    "\u13e3\u13db\u13c1\u13af": 2768,
    "\u13eb\u13cd\u13d7": 2769,
    "\u13d3\u13b3": 2770,
    "\u13c2\u13cc\u13c1": 2771,
    "\u13be\u13a5": 2772,
    "\u2581\u13a6\u13c3": 2773,
    "\u13db\u13d9\u13d7": 2774,
    "\u2581\u13c4\u13b5\u13cd\u13d4\u13c1\u13ae": 2775,
    "\u2581\u13f1\u13d9\u13a6": 2776,
    "\u13cd\u13c6\u13d9\u13c5": 2777,
    "\u13e4\u13b5\u13a6": 2778,
    "\u2581\u13f0\u13b5\u13cd\u13a8": 2779,
    "\u13a0\u13c8": 2780,
    "\u2581\u13a2\u13af": 2781,
    "\u13e5\u13aa\u13e9\u13db": 2782,
    "\u2581\u13a3\u13a9\u13c2": 2783,
    "\u13d7\u13cf": 2784,
    "\u2581\u13a2\u13e3\u13d3\u13c5\u13d8": 2785,
    "\u13a6\u13d0\u13af": 2786,
    "\u13c1\u13ae\u13a2": 2787,
    "\u2581\u13a4\u13b2": 2788,
    "\u2581\u13a2\u13ac\u13c1": 2789,
    "\u13b5\u13ef": 2790,
    "\u13d9\u13ae\u13cd\u13d7": 2791,
    "\u13b5\u13aa": 2792,
    "\u2581\u13a9\u13b3\u13af": 2793,
    "\u13b8\u13c9\u13d9\u13d7\u13f1": 2794,
    "\u13be\u13c4\u13aa\u13e8\u13af": 2795,
    "\u13b7\u13e3": 2796,
    "\u2581\u13a1\u13e5\u13c1\u13d7": 2797,
    "\u2581\u13a6\u13c5": 2798,
    "\u2581\u13a4\u13be\u13db\u13a6\u13c1": 2799,
    "\u2581\u13a2\u13b3": 2800,
    "\u13cd\u13d3\u13e9\u13d7\u13d9\u13af": 2801,
    "\u13aa\u13b5\u13f0\u13a1": 2802,
    "\u13af\u13eb": 2803,
    "\u2581\u13ee": 2804,
    "\u2581\u13a4\u13b6\u13d2": 2805,
    "\u2581\u13a4\u13f2\u13b1\u13ce": 2806,
    "\u2581\u13b9": 2807,
    "\u13f0\u13c2": 2808,
    "\u2581\u13a4\u13b6": 2809,
    "\u13d9\u13b8": 2810,
    "\u13cd\u13a6\u13a9": 2811,
    "\u13c5\u13d3\u13d7\u13cd\u13d9\u13d7": 2812,
    "\u2581\u13f2\u13a9": 2813,
    "\u2581\u13e5\u13be": 2814,
    "\u2581\u13d7\u13be\u13d3": 2815,
    "\u13cd\u13d4\u13f1": 2816,
    "\u2581\u13a0\u13c2\u13d0\u13a2\u13c3": 2817,
    "\u2581\u13e5\u13c2\u13a6\u13ea": 2818,
    "\u2581\u13c4\u13ea": 2819,
    "\u2581\u13be\u13bf\u13c9": 2820,
    "\u2581\u13a0\u13d3\u13c5\u13d6\u13b5\u13d9": 2821,
    "\u13a8\u13c2": 2822,
    "\u2581\u13e5\u13c2": 2823,
    "\u13cf\u13c1": 2824,
    "\u13a9\u13a1\u13b8": 2825,
    "\u2581\u13a0\u13cd\u13aa\u13af\u13c3": 2826,
    "\u2581\u13eb\u13d3\u13c2": 2827,
    "\u13a1\u13b4\u13a2": 2828,
    "\u2581\u13c4\u13c2\u13ea\u13d2": 2829,
    "\u13e0\u13f1": 2830,
    "\u2581\u13aa\u13e2\u13d2": 2831,
    "\u13a0\u13ce": 2832,
    "\u13f0\u13ad": 2833,
    "\u2581\u13f1\u13d7\u13a6": 2834,
    "\u13cd\u13d5": 2835,
    "\u2581\u13be\u13ac\u13c1\u13b8": 2836,
    "\u2581\u13be\u13c2\u13ea\u13cd\u13ac": 2837,
    "\u2581\u13e5\u13c1\u13b8": 2838,
    "\u2581\u13e3\u13d3": 2839,
    "\u13d7\u13d2": 2840,
    "\u2581\u13c2\u13a6\u13b5\u13cd\u13d7\u13cd\u13a8": 2841,
    "\u13ce\u13b4": 2842,
    "\u13d7\u13c2\u13c5\u13cc\u13d7": 2843,
    "\u13ad\u13d5\u13ec": 2844,
    "\u2581\u13a3\u13d3\u13c5\u13db": 2845,
    "\u2581\u13a4\u13f2\u13af\u13cd\u13d4\u13c1": 2846,
    "\u13a8\u13b5\u13a0": 2847,
    "\u13aa\u13b1\u13cd\u13d7": 2848,
    "\u13a0\u13d5\u13b8": 2849,
    "\u13a7\u13b5\u13e8\u13af": 2850,
    "\u13d7\u13a6\u13d8\u13ef": 2851,
    "\u13a0\u13a9\u13be": 2852,
    "\u2581\u13af\u13f0\u13b8": 2853,
    "\u2581\u13a1\u13d9\u13ae": 2854,
    "\u2581\u13a0\u13d5": 2855,
    "\u2581\u13e7\u13d3\u13c5\u13db": 2856,
    "\u2581\u13d5\u13a4\u13b4\u13d4\u13c5": 2857,
    "\u2581\u13da\u13c2\u13b8\u13eb\u13cd\u13d3\u13c1\u13b8": 2858,
    "\u2581\u13a4\u13c1\u13a6\u13b8": 2859,
    "\u13e0\u13a0\u13cf": 2860,
    "\u2581\u13a0\u13d3\u13c1\u13e3\u13cd\u13da\u13b6": 2861,
    "\u2581\u13e7\u13be\u13b4\u13af\u13d0": 2862,
    "\u13b6\u13d0\u13c5": 2863,
    "\u2581\u13a4\u13be\u13b5\u13ae\u13b5\u13e4": 2864,
    "\u2581\u13a2\u13d9\u13bb": 2865,
    "\u2581\u13cf\u13d3\u13c1\u13b8": 2866,
    "\u2581\u13c5\u13f2": 2867,
    "\u2581\u13e7\u13c2\u13b3\u13eb\u13a2\u13cd\u13d7": 2868,
    "\u2581\u13a0\u13e5\u13cd\u13d5\u13b8\u13d7": 2869,
    "\u13b5\u13cd\u13d7\u13f1": 2870,
    "\u2581\u13a0\u13f2\u13b1\u13d2": 2871,
    "\u2581\u13e3\u13be\u13eb": 2872,
    "\u2581\u13a4\u13be\u13d5\u13c5": 2873,
    "\u2581\u13f1\u13d3\u13c2": 2874,
    "\u13b6\u13af\u13cd\u13d7\u13f1": 2875,
    "\u13cd\u13d5\u13b8\u13af": 2876,
    "\u13a5\u13a9": 2877,
    "\u2581\u13d7\u13aa\u13ea\u13b5": 2878,
    "\u13f2\u13a2\u13f4": 2879,
    "\u13ad\u13c4\u13b8\u13af": 2880,
    "\u13cd\u13c6\u13c2\u13aa\u13d9\u13d7\u13f1": 2881,
    "rs": 2882,
    "\u2581Philadelphia": 2883,
    "\u2581\u13a0\u13d3\u13ea\u13b3\u13a9\u13cd\u13a9": 2884,
    "\u2581\u13d0\u13b5\u13b9\u13c5": 2885,
    "\u2581\u13d5\u13e6\u13af\u13f3\u13ce\u13cd\u13d7": 2886,
    "\u2581\u13da\u13cd\u13c6\u13b8\u13d4\u13c1": 2887,
    "\u2581\u13f1\u13c4\u13b5\u13cd\u13d4\u13be": 2888,
    "\u2581\u13c6\u13b3\u13c6": 2889,
    "\u2581\u13d7\u13a6\u13d2\u13cd\u13d4\u13c5": 2890,
    "\u2581\u13a2\u13e6\u13af\u13f3\u13af": 2891,
    "\u2581\u13c7\u13da\u13a1\u13b5": 2892,
    "\u2581\u13a4\u13e3\u13b4\u13d3": 2893,
    "\u2581\u13d7\u13be\u13d5\u13f2\u13b2\u13cd\u13a9": 2894,
    "\u2581\u13e7\u13b4\u13af\u13cc\u13c5\u13af": 2895,
    "\u2581\u13a7\u13c2\u13b5\u13ef": 2896,
    "\u2581\u13d7\u13c7\u13c5\u13d2": 2897,
    "\u2581\u13e7\u13f4\u13e8": 2898,
    "\u2581\u13a4\u13ec\u13d3\u13b8": 2899,
    "\u2581\u13da\u13a7\u13bf\u13c1": 2900,
    "\u2581\u13d3\u13f3\u13c2\u13b6\u13d2": 2901,
    "\u2581\u13a0\u13da\u13b8\u13d7": 2902,
    "\u2581\u13a4\u13d3\u13c5\u13b5\u13f0\u13a5": 2903,
    "\u2581\u13a2\u13d7\u13c5\u13c1": 2904,
    "\u2581\u13f1\u13e3\u13d3\u13c5\u13d6\u13d7\u13cd\u13a8\u13cd\u13d7": 2905,
    "\u2581\u13a2\u13e5\u13c6\u13b5\u13cf": 2906,
    "\u2581\u13ac\u13e9\u13e0\u13ef\u13cd\u13d7": 2907,
    "\u2581\u13a2\u13e7\u13be\u13d3\u13b3": 2908,
    "\u2581\u13d7\u13e5\u13b8\u13eb\u13cd\u13d3\u13c1\u13d7\u13f1": 2909,
    "\u2581\u13d7\u13a6\u13b8\u13eb\u13cd\u13d3\u13c1\u13b8\u13af": 2910,
    "\u2581\u13a4\u13d3\u13d1\u13f1": 2911,
    "\u2581\u13da\u13db\u13db\u13c1": 2912,
    "\u2581\u13a8\u13c5\u13a2\u13cd\u13d7": 2913,
    "\u2581\u13a1\u13e3\u13c2\u13b5": 2914,
    "\u2581\u13d5\u13aa\u13ea\u13b5\u13cd\u13ac": 2915,
    "\u2581\u13d7\u13db\u13d3\u13c5\u13af": 2916,
    "\u2581\u13d7\u13a8\u13e5\u13be\u13dd\u13a2": 2917,
    "\u2581\u13a4\u13d2\u13af\u13f0\u13f1": 2918,
    "\u2581\u13a6\u13d3\u13b7\u13ef\u13db": 2919,
    "\u2581\u13a0\u13be\u13db\u13a9\u13cd\u13a9": 2920,
    "\u2581\u13d7\u13ac\u13aa\u13e9\u13db\u13d7": 2921,
    "\u2581\u13a0\u13a9\u13b7\u13e5\u13b8": 2922,
    "\u2581\u13f1\u13aa\u13b5\u13a6": 2923,
    "\u2581\u13a0\u13cd\u13c6\u13da\u13b8": 2924,
    "\u2581\u13a0\u13c2\u13b4\u13f4\u13cd\u13a9": 2925,
    "\u2581\u13a0\u13b5\u13ae\u13b5\u13ac": 2926,
    "\u2581\u13a4\u13c2\u13aa\u13ae": 2927,
    "\u2581\u13e7\u13d3\u13b4\u13c5\u13b2": 2928,
    "\u2581\u13a4\u13be\u13d3\u13d3\u13cd\u13ac": 2929,
    "\u2581\u13c2\u13e3\u13db\u13a6": 2930,
    "\u2581\u13ac\u13e9\u13f2\u13b1\u13af\u13cd\u13d7": 2931,
    "\u2581\u13be\u13ef\u13db\u13a1\u13cd\u13d7": 2932,
    "\u2581\u13a0\u13c4\u13a6\u13b8": 2933,
    "\u2581\u13a6\u13e3\u13c3\u13cd": 2934,
    "\u2581\u13e5\u13d5\u13a6": 2935,
    "\u2581\u13a7\u13f4\u13d0\u13b5": 2936,
    "\u2581\u13da\u13c3\u13e2\u13c5\u13a9": 2937,
    "\u2581\u13d7\u13aa\u13d1\u13b4\u13d7\u13f1": 2938,
    "\u2581\u13e7\u13f4\u13e2": 2939,
    "\u2581\u13a4\u13d3\u13b4\u13e8": 2940,
    "\u2581\u13e7\u13b4\u13d4\u13c5\u13af": 2941,
    "\u2581\u13a4\u13c4\u13aa\u13a2\u13cd\u13d7": 2942,
    "\u2581\u13e5\u13a3\u13b5": 2943,
    "\u2581\u13ac\u13c6\u13db\u13c1\u13d7\u13f1": 2944,
    "\u2581\u13a0\u13d3\u13cd\u13d3\u13e9\u13d7\u13d9\u13af": 2945,
    "\u2581\u13c2\u13e5\u13a6\u13d4\u13b2\u13be": 2946,
    "\u2581\u13c0\u13a2\u13f3": 2947,
    "\u2581\u13a5\u13e5\u13aa\u13a5\u13a9": 2948,
    "\u13b3\u13cf\u13d5\u13be": 2949,
    "\u2581\u13a4\u13be\u13b5\u13d7\u13a9\u13db": 2950,
    "\u2581\u13a4\u13ec\u13ea\u13b3\u13c5\u13af": 2951,
    "\u2581\u13da\u13b7\u13eb\u13cd\u13d4\u13c1\u13b2": 2952,
    "\u2581\u13a2\u13e7\u13d5\u13d8\u13f4\u13db": 2953,
    "\u2581\u13a0\u13b9\u13b4\u13a9": 2954,
    "\u2581\u13d4\u13b8\u13d7": 2955,
    "\u2581\u13a4\u13d7\u13d4\u13b2": 2956,
    "\u2581\u13a2\u13a9\u13c5\u13df": 2957,
    "\u13db\u13c5\u13a2\u13cd\u13d9\u13d7\u13f1": 2958,
    "\u2581\u13cd\u13a9\u13be\u13dd\u13a2": 2959,
    "\u2581\u13a4\u13ac\u13eb\u13f3\u13ce\u13cd\u13d7": 2960,
    "\u2581\u13a6\u13c5\u13d9\u13d7": 2961,
    "\u2581\u13e7\u13be\u13c4\u13e9\u13a2": 2962,
    "\u2581\u13c4\u13e9\u13c5": 2963,
    "\u2581\u13be\u13c1\u13b2\u13be": 2964,
    "\u2581\u13a4\u13c2\u13f0\u13b8\u13d2\u13a9": 2965,
    "\u2581\u13a4\u13d5\u13c1\u13a2": 2966,
    "\u2581\u13a2\u13f3\u13d3\u13b5\u13ad": 2967,
    "\u2581\u13a0\u13a9\u13f0\u13b8\u13b2": 2968,
    "\u2581\u13a4\u13a7\u13ad\u13db": 2969,
    "\u2581\u13ed\u13c2\u13f4\u13b4\u13a2": 2970,
    "\u2581\u13e9\u13a9\u13b7\u13e8": 2971,
    "\u2581\u13a4\u13b4\u13eb\u13cd\u13d4\u13c1": 2972,
    "\u13e5\u13af\u13cd\u13d7": 2973,
    "\u2581\u13a0\u13b5\u13e5\u13d9\u13b2\u13cd\u13a8": 2974,
    "\u2581\u13a4\u13be\u13d7\u13c5\u13d7": 2975,
    "\u2581\u13a1\u13d9\u13ad": 2976,
    "\u2581\u13a4\u13cc\u13b3\u13d3\u13c5": 2977,
    "\u2581\u13a8\u13e5\u13c1\u13b8\u13af": 2978,
    "\u2581\u13a5\u13a9\u13d9\u13c9": 2979,
    "\u13f2\u13af\u13ce\u13b8\u13a9": 2980,
    "\u2581\u13a0\u13df\u13cd\u13db\u13a2": 2981,
    "\u2581\u13a4\u13ec\u13af\u13f3": 2982,
    "\u2581\u13ed\u13c2\u13b6\u13d2\u13a9": 2983,
    "\u2581\u13c5\u13d3\u13ac": 2984,
    "\u2581\u13a4\u13ea\u13a7\u13c5\u13a9": 2985,
    "\u2581\u13a4\u13c5\u13d9\u13d7\u13f1": 2986,
    "\u2581\u13d7\u13c2\u13a6\u13d8\u13ef": 2987,
    "\u2581\u13a4\u13d5\u13d7\u13f1": 2988,
    "\u2581\u13be\u13cd\u13a6\u13a2\u13b2\u13be": 2989,
    "\u2581\u13c4\u13c2\u13ea\u13ce\u13b8\u13a9": 2990,
    "\u2581\u13be\u13c2\u13a1\u13a2": 2991,
    "\u2581\u13a4\u13b5\u13cf\u13c2": 2992,
    "\u2581\u13e7\u13ec\u13b8": 2993,
    "\u2581\u13a2\u13d7\u13a6\u13ea\u13cd": 2994,
    "\u2581\u13a0\u13a7\u13b5\u13ec\u13af": 2995,
    "\u2581\u13a4\u13e8\u13c9\u13d7": 2996,
    "\u2581\u13a4\u13ea\u13c1\u13a2": 2997,
    "\u2581\u13d7\u13df\u13cd\u13d7": 2998,
    "\u2581\u13a4\u13e2": 2999,
    "\u2581\u13d7\u13a6\u13b5\u13cd\u13d9\u13d7\u13ad": 3000,
    "\u2581\u13a4\u13aa\u13e9\u13db\u13d7": 3001,
    "\u2581\u13a4\u13d4\u13be": 3002,
    "\u13be\u13c4\u13aa\u13a2\u13cd\u13d7": 3003,
    "\u2581\u13d0\u13d3\u13bb\u13f1": 3004,
    "\u2581\u13a2\u13a9\u13c1\u13b8\u13af": 3005,
    "\u2581\u13e7\u13c1\u13b3": 3006,
    "\u13d7\u13cd\u13aa\u13c2\u13af": 3007,
    "\u2581\u13d3\u13f3\u13d3\u13b4\u13c5\u13d3": 3008,
    "\u2581\u13ef\u13a9\u13ad": 3009,
    "\u2581\u13a2\u13a6\u13c1\u13b3\u13c5\u13af": 3010,
    "\u13c1\u13ac": 3011,
    "\u2581\u13a2\u13ef\u13ac\u13c1\u13d7": 3012,
    "\u2581\u13a4\u13ef\u13c5\u13af": 3013,
    "\u2581\u13a6\u13c1\u13cc\u13a2\u13af": 3014,
    "\u2581\u13da\u13c2\u13b8\u13eb\u13cd\u13d3\u13c1\u13b8\u13a2": 3015,
    "\u2581\u13d7\u13d0\u13a2": 3016,
    "\u2581\u13a1\u13d9\u13ae\u13a2": 3017,
    "\u2581\u13ad\u13be\u13c2": 3018,
    "\u2581\u13e5\u13a8\u13e5": 3019,
    "\u2581\u13a4\u13be\u13db\u13a6\u13c1\u13a2": 3020,
    "\u2581\u13d3\u13c8": 3021,
    "\u2581\u13a4\u13e9\u13db\u13ae\u13a2": 3022,
    "\u2581\u13cd\u13a9\u13a8\u13f3": 3023,
    "\u13c2\u13ef": 3024,
    "\u2581\u13d7\u13cd\u13a9": 3025,
    "\u2581\u13a7\u13b8": 3026,
    "\u2581\u13ed\u13b7\u13e8\u13a9": 3027,
    "\u2581\u13a4\u13ef\u13a2": 3028,
    "\u2581\u13a1\u13b5\u13cd\u13a8\u13a2": 3029,
    "\u2581\u13a4\u13ce\u13b5\u13d4\u13c5": 3030,
    "\u13a1\u13d7": 3031,
    "\u2581\u13a0\u13d2\u13ad": 3032,
    "\u2581\u13a5\u13b5": 3033,
    "\u13ad\u13f2\u13b2": 3034,
    "\u13d3\u13cd\u13d7": 3035,
    "\u13b3\u13c1\u13a2": 3036,
    "\u2581\u13a4\u13d3\u13c5\u13d6\u13b8\u13a2": 3037,
    "on": 3038,
    "\u2581\u13d5\u13e5\u13b8\u13eb\u13cd\u13d3\u13c1\u13b2\u13a2": 3039,
    "\u2581\u13ac\u13d9\u13d7\u13f1": 3040,
    "\u13aa\u13b5\u13ef": 3041,
    "\u2581\u13a4\u13d3\u13c5\u13db\u13a2": 3042,
    "\u2581\u13a4\u13c3\u13ae\u13b4": 3043,
    "\u2581\u13c7\u13b5\u13e5": 3044,
    "\u2581\u13a4\u13d3\u13c5\u13ce\u13a2": 3045,
    "\u2581\u13d7\u13ac\u13d7": 3046,
    "\u2581\u13da\u13c1\u13b4\u13a2": 3047,
    "\u2581\u13be\u13be\u13db\u13c1\u13b2\u13a2": 3048,
    "\u2581\u13a2\u13e6\u13af\u13f3\u13d2\u13a2": 3049,
    "\u2581\u13a6\u13d3\u13c5\u13d6\u13cd\u13ac\u13a2": 3050,
    "\u13c1\u13b0\u13a2": 3051,
    "\u2581\u13a4\u13f2\u13b4": 3052,
    "\u2581\u13a2\u13e6": 3053,
    "\u13a6\u13e8": 3054,
    "\u2581\u13a0\u13cd\u13a6\u13be\u13a2": 3055,
    "\u2581\u13a0\u13c1\u13b0": 3056,
    "\u2581\u13e6\u13be": 3057,
    "\u2581\u13da\u13c1\u13e4\u13b4\u13a2": 3058,
    "\u2581\u13a1\u13b2\u13a9": 3059,
    "\u2581\u13a1\u13b5\u13a9": 3060,
    "\u2581\u13e7\u13b4": 3061,
    "\u2581\u13cc\u13b5": 3062,
    "\u13cd\u13db\u13f1": 3063,
    "\u13bf\u13a2": 3064,
    "\u13f2\u13b0\u13ce\u13b8": 3065,
    "\u2581\u13a4\u13c5\u13c5": 3066,
    "\u2581\u13a4\u13ea\u13c5\u13ce\u13a2": 3067,
    "\u2581\u13e7\u13be\u13c4\u13aa\u13eb\u13ce\u13d7": 3068,
    "\u2581\u13a0\u13cd\u13db\u13a2": 3069,
    "\u13cd\u13aa\u13c3": 3070,
    "\u2581\u13c5\u13d3\u13f3\u13be\u13b5\u13cd\u13aa\u13b8\u13d4": 3071,
    "\u2581\u13a4\u13e9\u13c2": 3072,
    "\u13d5\u13d7": 3073,
    "\u13a6\u13ef": 3074,
    "\u2581\u13d7\u13ac\u13e9\u13d3\u13c2\u13b8\u13a2\u13cd": 3075,
    "\u2581\u13aa\u13cd\u13d4": 3076,
    "\u2581\u13a9\u13b5": 3077,
    "\u2581\u13a4\u13aa\u13b2\u13a9": 3078,
    "\u2581\u13a0\u13d3\u13c5\u13d6\u13cd\u13ac\u13a2": 3079,
    "\u2581\u13a4\u13be\u13c4\u13aa\u13eb\u13d2": 3080,
    "\u2581\u13a4\u13ea\u13b7\u13c1\u13a2": 3081,
    "\u2581\u13d7\u13c2\u13e9\u13be\u13a6\u13b3": 3082,
    "\u13f3\u13b5": 3083,
    "\u2581\u13a2\u13ef\u13c2\u13a2": 3084,
    "\u2581\u13a2\u13e3\u13d3": 3085,
    "\u2581\u13a4\u13be\u13d9\u13d3\u13c6\u13cd\u13ac\u13a2": 3086,
    "\u2581\u13a6\u13e8": 3087,
    "\u2581\u13a4\u13c2\u13ac": 3088,
    "\u2581\u13d7\u13c2\u13c3": 3089,
    "\u2581\u13c5\u13d7\u13a6\u13b5\u13cd\u13d9\u13d7\u13cd\u13a8\u13a2": 3090,
    "\u13d9\u13a2": 3091,
    "\u13b4\u13c5\u13af": 3092,
    "\u2581\u13a0\u13c6\u13d3\u13c5\u13d6\u13d7": 3093,
    "\u2581\u13a6\u13da\u13f1": 3094,
    "\u2581\u13a4\u13a9\u13b8": 3095,
    "\u13d3\u13c1\u13df\u13f4\u13db": 3096,
    "\u13b1\u13cd\u13d7": 3097,
    "\u13b2\u13cd\u13a6": 3098,
    "\u13ce\u13ad": 3099,
    "\u13b3\u13cf": 3100,
    "\u13c2\u13eb": 3101,
    "\u2581\u13da\u13d9": 3102,
    "\u2581\u13eb\u13da\u13be": 3103,
    "\u2581\u13a4\u13c2\u13e9\u13db\u13d7": 3104,
    "\u2581\u13d9\u13d8": 3105,
    "\u2581\u13de": 3106,
    "\u2581\u13a0\u13eb\u13be": 3107,
    "\u2581\u13ac\u13d7\u13ad": 3108,
    "\u13cd\u13c6\u13c2\u13aa\u13d5\u13cd\u13d7": 3109,
    "\u13c1\u13e4\u13b5": 3110,
    "\u13e2\u13c5": 3111,
    "\u2581\u13e6\u13a6": 3112,
    "\u2581\u13d7\u13e8\u13c2\u13d7": 3113,
    "\u2581\u13a4\u13be\u13c4\u13aa\u13eb\u13ce": 3114,
    "\u2581\u13e3\u13c1": 3115,
    "\u13e5\u13e9\u13db\u13b2": 3116,
    "\u2581\u13c2\u13a6\u13b5\u13cd\u13d9\u13d7\u13cd\u13a8": 3117,
    "\u2581\u13a4\u13b5\u13ae\u13b5\u13e4": 3118,
    "\u2581\u13a6\u13c5\u13a8": 3119,
    "\u2581\u13da\u13c1\u13b8": 3120,
    "\u13b5\u13cd\u13ac": 3121,
    "\u2581\u13a4\u13ac": 3122,
    "\u13df\u13b6\u13cd\u13d9\u13d7": 3123,
    "\u2581\u13a0\u13a6\u13d5": 3124,
    "\u13be\u13c4\u13aa\u13eb\u13d2\u13af": 3125,
    "\u2581\u13a7\u13c1\u13c9": 3126,
    "\u2581\u13d7\u13a8\u13e3": 3127,
    "\u2581\u13e7\u13c2\u13b5": 3128,
    "\u13b5\u13cd\u13d5\u13b8\u13d9\u13d7": 3129,
    "\u13d7\u13cd\u13ac\u13be": 3130,
    "\u13b8\u13d3": 3131,
    "\u2581\u13a2\u13e5\u13a9\u13cd\u13d7": 3132,
    "\u2581\u13a0\u13cb\u13ad": 3133,
    "\u2581\u13a0\u13a6\u13d8\u13f0": 3134,
    "\u2581\u13a4\u13c1\u13b4": 3135,
    "\u13cf\u13f3": 3136,
    "\u2581\u13db\u13a9": 3137,
    "\u13a4\u13c5\u13d3\u13d5": 3138,
    "\u13cd\u13d5\u13b5\u13ad": 3139,
    "\u2581\u13a5\u13cd\u13a9": 3140,
    "\u2581\u13a4\u13e5\u13c3": 3141,
    "\u13a6\u13d9\u13a5\u13af\u13cd\u13d7\u13f1": 3142,
    "\u2581\u13a1\u13e3\u13ab\u13f4": 3143,
    "\u13a9\u13cd\u13aa": 3144,
    "\u2581\u13be\u13a6\u13db": 3145,
    "\u2581\u13bf": 3146,
    "\u13ce\u13b8\u13a9": 3147,
    "\u2581\u13c4\u13c5": 3148,
    "\u13a8\u13cd\u13d7\u13d7": 3149,
    "\u2581\u13a4\u13c2\u13b8\u13c9\u13d7": 3150,
    "\u2581\u13a2\u13e5\u13b2": 3151,
    "\u2581\u13db\u13c2": 3152,
    "\u2581\u13c2\u13af\u13cd\u13aa": 3153,
    "\u2581\u13a0\u13f2\u13b1\u13cd": 3154,
    "\u2581\u13a1\u13b3\u13ea\u13f1": 3155,
    "\u13a2\u13cd\u13d4\u13c2": 3156,
    "\u2581\u13c2\u13ac\u13e9": 3157,
    "\u13da\u13ac": 3158,
    "\u13c1\u13cd\u13d7": 3159,
    "\u13e6\u13c5": 3160,
    "\u2581\u13f1\u13eb": 3161,
    "\u2581\u13e3\u13a9": 3162,
    "\u2581\u13a4\u13c2\u13d7": 3163,
    "\u2581\u13e3\u13c6": 3164,
    "\u13c1\u13df\u13f4\u13cd\u13d7": 3165,
    "\u13ac\u13eb\u13f3\u13af": 3166,
    "\u13c2\u13ac\u13a6": 3167,
    "\u13c7\u13d3\u13b5": 3168,
    "\u2581\u13a4\u13a7\u13d4": 3169,
    "\u2581\u13a6\u13d7": 3170,
    "\u2581\u13a0\u13d7\u13cd\u13ac": 3171,
    "\u13f2\u13aa": 3172,
    "\u13b7\u13e8": 3173,
    "\u2581\u13c1\u13b5\u13cd\u13ac": 3174,
    "\u13ce\u13b8\u13af": 3175,
    "\u2581\u13a3\u13cd\u13d7": 3176,
    "\u13aa\u13e9\u13db": 3177,
    "h": 3178,
    "\u13a5\u13a6": 3179,
    "\u13b4\u13c5\u13db": 3180,
    "\u13f0\u13cc\u13db": 3181,
    "\u2581\u13a4\u13ec\u13c2\u13d2": 3182,
    "\u2581\u13c2\u13da\u13ea\u13ce\u13b8": 3183,
    "\u2581\u13af\u13a0\u13c9": 3184,
    "\u13a6\u13d4": 3185,
    "\u2581\u13be\u13cd": 3186,
    "\u2581\u13a0\u13f2\u13df": 3187,
    "\u2581\u13d3\u13b5\u13cd\u13d7\u13b3\u13c1\u13ac": 3188,
    "r": 3189,
    "\u13e5\u13a8\u13f3\u13a2": 3190,
    "\u2581\u13a4\u13ec\u13b4": 3191,
    "\u2581\u13d7\u13a6\u13c5\u13ec": 3192,
    "\u2581\u13a4\u13c1\u13b5\u13ce": 3193,
    "\u2581\u13a7\u13b8\u13ac": 3194,
    "\u2581\u13a2\u13d5\u13b2": 3195,
    "\u2581\u13d3\u13c2\u13b3\u13eb\u13a5": 3196,
    "\u2581\u13d7\u13e5\u13a6\u13f4\u13b5\u13a8": 3197,
    "\u2581\u13d3\u13df\u13b6\u13cd\u13db": 3198,
    "\u2581\u13a4\u13d7\u13db\u13ae": 3199,
    "\u2581\u13a4\u13da\u13a2\u13cd\u13d4\u13c5": 3200,
    "\u2581\u13a2\u13a9\u13cd\u13a6\u13c5\u13e8": 3201,
    "\u2581\u13a4\u13ec\u13ce\u13b4": 3202,
    "\u2581\u13a4\u13cd\u13d3\u13a6\u13b8": 3203,
    "\u13a0\u13b9": 3204,
    "\u13d4\u13be": 3205,
    "\u2581\u13a0\u13c2\u13d9\u13be\u13a1": 3206,
    "\u2581\u13da\u13b4\u13af\u13cc\u13c5": 3207,
    "\u2581\u13a4\u13ea\u13a7\u13c1\u13b4": 3208,
    "\u2581\u13a0\u13c2\u13a6\u13f4\u13b5\u13a8": 3209,
    "\u2581\u13d3\u13c2\u13a7\u13c5": 3210,
    "\u2581\u13e7\u13a6\u13f4\u13b5\u13a8": 3211,
    "\u2581\u13a4\u13c2\u13a6\u13d9\u13a5\u13d2": 3212,
    "\u13d8\u13f0": 3213,
    "\u13b5\u13ec\u13e8": 3214,
    "\u13ef\u13a0": 3215,
    "\u13a4\u13cd\u13c6\u13c2\u13a9\u13d7": 3216,
    "\u13c2\u13a6\u13d3": 3217,
    "\u13ac\u13eb\u13f3\u13cc\u13d5\u13a9": 3218,
    "\u2581\u13da\u13c1\u13e4\u13b8": 3219,
    "\u13a7\u13b5\u13ec\u13af": 3220,
    "\u2581\u13f3\u13eb": 3221,
    "\u2581\u13a4\u13c2\u13f4": 3222,
    "\u2581\u13a4\u13c2\u13a9\u13d2": 3223,
    "\u2581\u13a2\u13e3\u13da\u13b5": 3224,
    "\u13df\u13c2\u13a9\u13d3": 3225,
    "\u2581\u13a0\u13c1\u13ae": 3226,
    "\u2581\u13a4\u13c2\u13cd\u13c6\u13c2\u13aa\u13d9\u13d7": 3227,
    "\u2581\u13aa\u13b9\u13b5": 3228,
    "\u2581\u13da\u13b7\u13eb\u13cd\u13d4\u13c1": 3229,
    "\u2581\u13e3\u13a8": 3230,
    "\u2581\u13a2\u13e5\u13cd\u13c6\u13c2\u13aa\u13d9\u13d7": 3231,
    "\u2581\u13a2\u13f3\u13c5\u13c1\u13d7": 3232,
    "\u2581\u13a4\u13be\u13c5\u13d7": 3233,
    "\u13d4\u13f2\u13ce\u13b8\u13a9": 3234,
    "\u13b4\u13af\u13cc\u13c5": 3235,
    "\u2581\u13a8\u13e5\u13c1\u13d7": 3236,
    "\u2581\u13a4\u13e9\u13db\u13ae": 3237,
    "\u2581\u13a4\u13be\u13c5\u13c5": 3238,
    "\u13f4\u13d0\u13b5": 3239,
    "\u13be\u13d3\u13b4\u13a9": 3240,
    "\u2581\u13a1\u13c9\u13c4\u13b6\u13d7": 3241,
    "\u2581\u13a4\u13ad\u13b8\u13c2\u13af": 3242,
    "\u2581\u13a4\u13c2\u13da\u13ef\u13cd\u13d7": 3243,
    "\u2581\u13a4\u13d3\u13cf\u13c2\u13d5\u13be": 3244,
    "\u2581\u13a4\u13ea\u13f2\u13d3\u13db": 3245,
    "\u2581\u13c5\u13d3\u13ac\u13f4\u13c1\u13b5": 3246,
    "\u2581\u13c8\u13ef\u13cf\u13c6": 3247,
    "\u2581\u13d5\u13a8\u13a6\u13e8\u13cd\u13d7\u13cd\u13ac": 3248,
    "\u2581\u13d7\u13be\u13d9\u13c2\u13cd\u13a9": 3249,
    "\u2581\u13e6\u13a9\u13b8\u13eb\u13cd\u13d3\u13c1\u13af": 3250,
    "\u13a6\u13cc\u13ef\u13cd\u13d5\u13cd\u13d7": 3251,
    "\u2581\u13a2\u13f0\u13c6": 3252,
    "\u2581\u13a6\u13b5\u13e6\u13d9\u13d9\u13d7": 3253,
    "\u2581\u13c6\u13bb\u13c6\u13c2": 3254,
    "\u2581\u13da\u13e9\u13c2\u13a6\u13e2": 3255,
    "\u2581\u13a0\u13e3\u13ea\u13d0\u13b8\u13cd\u13d9\u13d7\u13f1": 3256,
    "\u2581\u13af\u13a7\u13c5\u13ad": 3257,
    "\u2581\u13e7\u13e3\u13f2\u13cd": 3258,
    "\u2581\u13af\u13a6\u13d9\u13b5": 3259,
    "\u2581\u13a0\u13b5\u13ae\u13b5\u13a8": 3260,
    "\u2581\u13a4\u13d3\u13db\u13db\u13c1": 3261,
    "\u2581\u13e7\u13a6\u13c3\u13ee": 3262,
    "\u2581\u13c2\u13da\u13be\u13d3\u13ea\u13ce\u13b8\u13a9": 3263,
    "\u2581\u13eb\u13c2\u13a6\u13b5\u13cd\u13d9\u13d3": 3264,
    "\u2581\u13d7\u13c9\u13f0\u13c2": 3265,
    "\u2581\u13d7\u13be\u13d3\u13c2\u13f1\u13cd\u13a9": 3266,
    "\u2581\u13d7\u13a6\u13c3\u13e3\u13df": 3267,
    "\u2581\u13be\u13c2\u13b3\u13cd\u13d3\u13b8": 3268,
    "\u2581\u13e7\u13d9\u13a2\u13d3": 3269,
    "\u2581\u13d7\u13c6\u13b3\u13cf\u13d5\u13c2": 3270,
    "\u2581\u13c4\u13ec\u13af\u13f3\u13d2\u13be": 3271,
    "\u2581\u13c5\u13d3\u13aa\u13af\u13e5": 3272,
    "\u2581\u13c5\u13c3\u13b1\u13b6\u13d7": 3273,
    "\u2581\u13c5\u13e9\u13d9\u13af": 3274,
    "\u13cd\u13a6\u13a3\u13c5": 3275,
    "\u2581\u13a4\u13ec\u13de": 3276,
    "\u2581\u13a4\u13ea\u13da\u13b2": 3277,
    "\u2581\u13e7\u13e9\u13c2\u13a6\u13dd\u13c5": 3278,
    "\u2581\u13a6\u13e3\u13c4\u13b8": 3279,
    "\u2581\u13d5\u13e5\u13f2\u13b5\u13b8\u13ad": 3280,
    "\u2581\u13ac\u13e9\u13d5\u13c1\u13b8\u13af": 3281,
    "\u2581\u13cc\u13b6\u13b5": 3282,
    "\u2581\u13a4\u13c2\u13ac\u13a5\u13cd\u13a9": 3283,
    "\u2581\u13aa\u13d2\u13d4\u13c5": 3284,
    "\u2581\u13a4\u13c2\u13b8\u13c9\u13d4\u13c1": 3285,
    "\u2581\u13f1\u13c4\u13b5\u13cd\u13d4\u13c5": 3286,
    "\u2581\u13b2\u13d7\u13cd\u13a8\u13cd\u13d7": 3287,
    "\u13a5\u13cd\u13a8\u13cd\u13d7": 3288,
    "\u2581\u13b0\u13ea\u13b8\u13a6": 3289,
    "\u2581\u13e7\u13d3\u13d8\u13be\u13a2": 3290,
    "\u2581\u13d7\u13a7\u13c1\u13a2\u13cd\u13d7": 3291,
    "\u2581\u13aa\u13e2\u13d7": 3292,
    "\u2581\u13a4\u13be\u13d3\u13d1\u13f0\u13db": 3293,
    "\u2581\u13a5\u13a9\u13c5\u13df": 3294,
    "\u2581\u13a2\u13e8\u13cd\u13d7\u13f0\u13d7\u13ad": 3295,
    "\u2581\u13a6\u13ef\u13b4\u13cd\u13d7": 3296,
    "\u2581\u13a2\u13ac\u13ea\u13c5\u13db": 3297,
    "\u2581\u13a0\u13d3\u13cd\u13d3\u13f4\u13d7": 3298,
    "\u2581\u13d5\u13aa\u13e2\u13e9\u13d7\u13d2": 3299,
    "\u2581\u13e7\u13c3\u13e9": 3300,
    "\u2581\u13c5\u13d3\u13f3\u13d3\u13b4\u13c5\u13db": 3301,
    "\u2581\u13c2\u13da\u13c5\u13cf\u13f4": 3302,
    "\u2581\u13d7\u13a9\u13c5\u13d2": 3303,
    "\u2581\u13c4\u13c2\u13b2\u13be": 3304,
    "\u2581\u13d7\u13c1\u13d9\u13b2": 3305,
    "\u2581\u13a0\u13c2\u13be\u13c1\u13cd\u13ac": 3306,
    "\u2581\u13c4\u13e0\u13be\u13cd\u13db\u13be": 3307,
    "\u2581\u13a4\u13e2\u13c9\u13d7": 3308,
    "\u2581\u13cc\u13c8": 3309,
    "\u2581\u13da\u13a6\u13cc\u13db": 3310,
    "\u2581\u13a0\u13c6\u13b5\u13cd\u13d3\u13f4\u13d7": 3311,
    "\u2581\u13a0\u13d3\u13e0\u13cd\u13d7": 3312,
    "\u2581\u13a0\u13b9\u13f3\u13b6\u13d7": 3313,
    "\u2581\u13a2\u13e5\u13ea\u13cd\u13d7\u13f1": 3314,
    "\u13c3\u13b4": 3315,
    "\u2581\u13a4\u13c2\u13d1\u13b8\u13d3": 3316,
    "\u2581\u13a1\u13e3\u13b8\u13c9\u13d7\u13f3": 3317,
    "\u2581\u13a2\u13a0": 3318,
    "\u2581\u13ac\u13e9\u13d3\u13cd\u13d5\u13b8\u13d7": 3319,
    "\u2581\u13eb\u13a8\u13e5\u13f2\u13b5\u13ad": 3320,
    "\u2581\u13a0\u13c2\u13d9\u13be\u13a2": 3321,
    "\u2581\u13d9\u13d7\u13e3\u13d3\u13c5\u13db\u13a2": 3322,
    "\u2581\u13a0\u13c1\u13e2\u13d4\u13c5\u13af": 3323,
    "\u13c5\u13aa\u13e4": 3324,
    "\u2581\u13ac\u13c1\u13cd\u13d7": 3325,
    "\u2581\u13d3\u13ad\u13c3\u13eb": 3326,
    "\u2581\u13da\u13e6\u13af\u13cd\u13db": 3327,
    "\u2581\u13a4\u13d8\u13f4\u13af": 3328,
    "\u2581\u13a0\u13be\u13d3\u13d9\u13b5\u13cd\u13d3\u13c1\u13af": 3329,
    "\u2581\u13a1\u13c3\u13f1": 3330,
    "\u13bf\u13d5\u13a9": 3331,
    "\u2581\u13a0\u13ef\u13d6\u13be": 3332,
    "\u2581\u13e7\u13d9\u13d3\u13c6\u13db": 3333,
    "\u2581\u13a0\u13ac\u13ad\u13b8\u13db": 3334,
    "\u2581\u13a0\u13c6\u13d3\u13b5\u13a2": 3335,
    "\u2581\u13a0\u13d3\u13ea\u13b3\u13a9\u13cd\u13ac": 3336,
    "\u2581\u13a2\u13a7\u13c1\u13a2\u13cd\u13d7": 3337,
    "\u2581\u13af\u13ec\u13c2\u13cd\u13ac": 3338,
    "\u2581\u13eb\u13a6\u13b6\u13af\u13cd\u13d7": 3339,
    "\u2581\u13a4\u13c3\u13cd\u13db": 3340,
    "\u2581\u13a6\u13c6\u13d8": 3341,
    "\u2581\u13a4\u13b6\u13af\u13cd\u13d7": 3342,
    "\u2581\u13a4\u13cd\u13d7\u13a9\u13db": 3343,
    "\u2581\u13a4\u13c2\u13b5\u13e6\u13e9\u13db": 3344,
    "\u2581\u13a4\u13a9\u13b5\u13f2\u13e8": 3345,
    "\u2581\u13e5\u13c5\u13d7\u13a6\u13b5\u13cd\u13d9\u13d7\u13ad": 3346,
    "\u2581\u13d3\u13ac\u13c1\u13b5": 3347,
    "\u2581\u13f1\u13cd\u13a6\u13a2\u13ae\u13cd\u13d7": 3348,
    "\u2581\u13a4\u13be\u13db\u13c1\u13b8\u13d7": 3349,
    "\u2581\u13a4\u13c2\u13cd\u13c6\u13c2\u13aa\u13d2\u13a9": 3350,
    "\u13a6\u13c3\u13b1\u13a9\u13cd\u13ac": 3351,
    "\u2581\u13a4\u13f0\u13b8\u13ce": 3352,
    "\u2581\u13d7\u13d3\u13ec\u13cd\u13d7": 3353,
    "\u2581\u13ac\u13e9\u13c3\u13c1\u13b4": 3354,
    "\u2581\u13a0\u13aa\u13ce\u13ae\u13cd\u13d7": 3355,
    "\u2581\u13a6\u13b5\u13a1\u13b5\u13a6": 3356,
    "\u2581\u13b9\u13be": 3357,
    "\u13b3\u13a9\u13d2": 3358,
    "\u2581\u13a2\u13aa\u13af": 3359,
    "\u2581\u13a0\u13c2\u13ef\u13a2": 3360,
    "\u2581\u13d5\u13ac\u13d7\u13cd\u13ac": 3361,
    "\u2581\u13a4\u13db\u13c5\u13a2\u13cd\u13d4\u13c1": 3362,
    "\u2581\u13a2\u13e5\u13c1\u13cd\u13d7": 3363,
    "\u2581\u13ae\u13c2\u13b5": 3364,
    "\u2581\u13a0\u13d3\u13f0\u13a8\u13cd\u13d7": 3365,
    "\u2581\u13a0\u13f4\u13e4\u13c2": 3366,
    "\u2581\u13a0\u13aa\u13d4\u13c5\u13af": 3367,
    "\u2581\u13a4\u13c3\u13af\u13f3\u13d7\u13f1": 3368,
    "\u2581\u13a0\u13a6\u13b8\u13d3": 3369,
    "\u2581\u13a0\u13e5\u13c5\u13cf\u13db": 3370,
    "\u2581\u13f3\u13da\u13b5": 3371,
    "\u2581\u13e7\u13be\u13c4\u13aa\u13eb\u13d2\u13af": 3372,
    "\u2581\u13a9\u13be\u13b5\u13a2": 3373,
    "\u2581\u13ad\u13c2\u13e3": 3374,
    "\u2581\u13d5\u13a7\u13c1\u13e4": 3375,
    "\u2581\u13ee\u13db": 3376,
    "\u2581\u13a0\u13c2\u13af\u13d7": 3377,
    "\u2581\u13a4\u13be\u13a6\u13d9\u13cd\u13d5\u13a2": 3378,
    "\u2581\u13ef\u13d7\u13ad": 3379,
    "\u2581\u13a7\u13c3\u13a9\u13cd\u13d7": 3380,
    "\u13b2\u13cd\u13ac\u13be": 3381,
    "\u2581\u13c4\u13be\u13b5\u13cd\u13d3\u13c1\u13b8": 3382,
    "\u2581\u13a4\u13be\u13d5\u13d7\u13f1": 3383,
    "\u2581\u13a0\u13f2\u13d9\u13d7": 3384,
    "\u2581\u13d7\u13b5\u13cd\u13aa\u13b8\u13d3\u13c1\u13b8\u13af": 3385,
    "\u2581\u13a0\u13e5\u13b3": 3386,
    "\u2581\u13a4\u13c2\u13e9\u13db\u13ae": 3387,
    "\u2581\u13a0\u13c7\u13c5\u13cd\u13d7": 3388,
    "\u2581\u13e5\u13cd\u13aa\u13b5": 3389,
    "\u13f0\u13a2\u13b5\u13d3\u13cd\u13d7": 3390,
    "\u13d3\u13c5\u13d6\u13d7": 3391,
    "\u2581\u13d5\u13e5\u13c1\u13b8": 3392,
    "\u2581\u13a4\u13c2\u13a9\u13cd\u13d7\u13f1": 3393,
    "\u2581\u13a4\u13c2\u13c1\u13ac": 3394,
    "\u2581\u13ec\u13a9\u13b7\u13e8\u13a9": 3395,
    "\u2581\u13a4\u13d7\u13d7\u13e2": 3396,
    "\u2581\u13a4\u13e1\u13d7\u13cd\u13a9": 3397,
    "\u2581\u13d9\u13e5": 3398,
    "\u2581\u13a0\u13ac\u13d7\u13cd\u13ac\u13a2": 3399,
    "\u2581\u13a1\u13ae\u13be": 3400,
    "\u2581\u13a7\u13eb": 3401,
    "\u2581\u13a0\u13b4\u13c2\u13cd\u13a9": 3402,
    "\u2581\u13a0\u13d3\u13b4\u13c2\u13cd\u13ac": 3403,
    "\u13d3\u13c1\u13ae": 3404,
    "\u2581\u13a0\u13c2\u13a9\u13cd\u13ac": 3405,
    "\u13f2\u13be": 3406,
    "\u13a4\u13f2": 3407,
    "\u2581\u13e7\u13c1\u13e4\u13a2": 3408,
    "\u2581\u13a4\u13ea\u13c5\u13a9": 3409,
    "\u2581\u13d7\u13e5\u13be\u13eb\u13f1": 3410,
    "\u13d3\u13f4\u13b3\u13db": 3411,
    "\u2581\u13a6\u13df\u13ae": 3412,
    "\u2581\u13a0\u13aa\u13b5\u13f0\u13d7": 3413,
    "\u13db\u13c1\u13b2": 3414,
    "\u2581\u13ea": 3415,
    "\u2581\u13a4\u13f0\u13b8\u13ad": 3416,
    "\u13ef\u13d4\u13ae\u13cd\u13d7": 3417,
    "\u2581\u13d7\u13a7\u13c2\u13a8": 3418,
    "\u2581\u13d3\u13cd\u13db\u13a2": 3419,
    "\u2581\u13a4\u13cc\u13af\u13b8\u13a2": 3420,
    "\u2581\u13d7\u13c1\u13af": 3421,
    "\u2581\u13d5\u13e3\u13a7": 3422,
    "\u2581\u13ce\u13c9": 3423,
    "\u2581\u13c4\u13db\u13c5\u13a2": 3424,
    "\u13cd\u13db\u13a2": 3425,
    "\u2581\u13a0\u13e5\u13db\u13d9\u13d7": 3426,
    "\u2581\u13be\u13c6\u13cd\u13db": 3427,
    "\u2581\u13d3\u13c6\u13a7\u13be\u13c5": 3428,
    "\u2581\u13a0\u13ef\u13a5": 3429,
    "\u13ef\u13c5": 3430,
    "\u2581\u13a2\u13a9\u13cd\u13a6\u13c5\u13e8\u13a2": 3431,
    "\u2581\u13a4\u13c2\u13c1\u13e8\u13a9": 3432,
    "\u2581\u13a4\u13be\u13d3\u13c5\u13ce": 3433,
    "\u2581\u13a6\u13d3\u13cd\u13ac\u13a2": 3434,
    "\u2581\u13ae\u13d3": 3435,
    "\u2581\u13a4\u13b4\u13c5\u13a9": 3436,
    "\u2581\u13d3\u13e4\u13b8": 3437,
    "\u2581\u13d9\u13ef": 3438,
    "\u2581\u13a6\u13c1\u13df\u13f4\u13cd\u13d7": 3439,
    "\u2581\u13da\u13e9\u13db\u13ae": 3440,
    "\u2581\u13a6\u13c4\u13b8\u13d2": 3441,
    "\u2581\u13d7\u13aa\u13e2": 3442,
    "\u2581\u13c5\u13b5\u13cc\u13b5\u13c9": 3443,
    "\u2581\u13a4\u13c2\u13a9\u13ce\u13a2": 3444,
    "\u13c2\u13cd\u13d9\u13d7": 3445,
    "\u2581\u13a3\u13d2": 3446,
    "\u2581\u13ac\u13a8\u13f3\u13a2": 3447,
    "\u2581\u13a4\u13c2\u13aa\u13b2\u13af": 3448,
    "\u2581\u13cf\u13b3": 3449,
    "\u2581\u13e3\u13da\u13b5\u13cd\u13ac": 3450,
    "\u13a0\u13c6": 3451,
    "\u13d0\u13c9": 3452,
    "\u2581\u13ee\u13d3": 3453,
    "\u2581\u13a4\u13e9\u13d4\u13c5": 3454,
    "\u13c3\u13ae\u13b8": 3455,
    "\u13d5\u13ef\u13d9\u13d4\u13c5\u13a9": 3456,
    "\u13a5\u13cf": 3457,
    "\u2581\u13a0\u13cd\u13d8": 3458,
    "\u2581\u13a4\u13cd\u13c9\u13df": 3459,
    "\u2581\u13a6\u13ac\u13e9": 3460,
    "\u2581\u13d7\u13a6\u13c5": 3461,
    "\u2581\u13a4\u13c1\u13b3": 3462,
    "\u13e5\u13b6\u13cf": 3463,
    "\u13d4\u13c2\u13d3": 3464,
    "\u2581\u13a6\u13c5\u13c5\u13a2": 3465,
    "\u2581\u13aa\u13ea\u13b8\u13a9": 3466,
    "\u2581\u13a0\u13b5\u13cd\u13c6\u13d7\u13cd": 3467,
    "\u2581\u13a4\u13c1\u13d2": 3468,
    "\u2581\u13a4\u13a6\u13c3": 3469,
    "\u2581\u13d3\u13b6\u13c2\u13a8\u13a2": 3470,
    "\u2581\u13e8\u13d7": 3471,
    "\u2581\u13c4\u13d3\u13b4\u13af": 3472,
    "\u2581\u13a1\u13cd\u13a6\u13c2": 3473,
    "\u2581\u13a4\u13ec\u13b8\u13a2": 3474,
    "\u13a7\u13cf": 3475,
    "\u2581\u13a0\u13a6\u13d9": 3476,
    "\u2581\u13a0\u13c2\u13f2": 3477,
    "\u13aa\u13b2": 3478,
    "\u13d9\u13b3": 3479,
    "\u2581\u13a4\u13ed": 3480,
    "\u13e6\u13e9\u13db": 3481,
    "\u2581\u13a0\u13c2\u13cd\u13a6\u13be\u13a2": 3482,
    "\u13b8\u13c9\u13db\u13be": 3483,
    "\u2581\u13c4\u13cd\u13d5\u13a2": 3484,
    "\u13af\u13f3\u13b2\u13cd\u13a6": 3485,
    "\u2581\u13ae\u13af": 3486,
    "\u13a1\u13b5\u13cd\u13d7": 3487,
    "\u2581\u13c5\u13d7": 3488,
    "\u2581\u13a0\u13d3\u13d9\u13b5\u13cd\u13d9\u13d7": 3489,
    "\u2581\u13a4\u13a6\u13db": 3490,
    "\u2581\u13a4\u13c1\u13e4\u13b8\u13a2": 3491,
    "\u2581\u13c4\u13b5\u13cd\u13d4\u13c2\u13d9\u13b8\u13a2": 3492,
    "\u13af\u13ef": 3493,
    "\u13ac\u13be\u13a8": 3494,
    "\u2581\u13f2\u13e5": 3495,
    "\u13cd\u13a6\u13c3\u13b3": 3496,
    "\u2581\u13a5\u13e3": 3497,
    "\u2581\u13c5\u13e9\u13cd\u13db": 3498,
    "\u2581\u13da\u13ec": 3499,
    "\u2581\u13a4\u13be\u13db\u13a6\u13c5\u13a9": 3500,
    "\u13a9\u13cd\u13d7\u13f1": 3501,
    "\u13a7\u13c5": 3502,
    "\u13b5\u13b9": 3503,
    "\u2581\u13b2\u13a6": 3504,
    "\u2581\u13b5\u13cf": 3505,
    "\u2581\u13d5\u13c5": 3506,
    "\u13cd\u13d9\u13d7\u13f1": 3507,
    "\u2581\u13a7\u13b5": 3508,
    "\u2581\u13a2\u13e5\u13a9": 3509,
    "\u2581\u13f1\u13be": 3510,
    "\u13be\u13c9": 3511,
    "ss": 3512,
    "\u2581\u13a4\u13cd\u13aa": 3513,
    "\u13e6\u13f0\u13c2": 3514,
    "\u2581\u13a4\u13e9\u13c1": 3515,
    "\u13ef\u13c5\u13b2\u13a9": 3516,
    "\u2581\u13af\u13c1\u13b8": 3517,
    "s": 3518,
    "\u13de": 3519,
    "\u2581\u13a2\u13e3\u13df\u13c2\u13ac\u13c1": 3520,
    "\u2581\u13a0\u13c2\u13d4\u13b5\u13ad": 3521,
    "\u2581\u13e5\u13aa\u13a5": 3522,
    "\u13d9\u13b5\u13e8": 3523,
    "\u2581\u13ac\u13e9\u13cd\u13d3\u13e9\u13d7": 3524,
    "\u2581\u13e3\u13db": 3525,
    "\u2581\u13a4\u13b5\u13cd\u13da\u13a2": 3526,
    "\u2581\u13be\u13d5\u13d8\u13f4": 3527,
    "\u2581\u13a4\u13d7\u13d4\u13cd\u13d7": 3528,
    "\u13b4\u13c3": 3529,
    "\u2581\u13d7\u13b2": 3530,
    "\u13ec\u13c2\u13cd\u13ac": 3531,
    "\u13d3\u13c5\u13d6\u13b4": 3532,
    "\u2581\u13d9\u13c9": 3533,
    "\u13e5\u13c3\u13ae\u13cd\u13a9": 3534,
    "\u13f0\u13b8\u13ad": 3535,
    "\u13eb\u13d2": 3536,
    "\u2581\u13a4\u13c2\u13b7\u13e4\u13b8": 3537,
    "\u2581\u13f1\u13d5": 3538,
    "\u13d8\u13c3\u13ae\u13b8\u13a9": 3539,
    "\u2581\u13d3\u13f2": 3540,
    "\u13e6\u13e2\u13d9\u13d7": 3541,
    "\u2581\u13a0\u13cc": 3542,
    "\u13f0\u13b8\u13b2": 3543,
    "\u2581\u13a0\u13a9\u13f0\u13b8\u13c5": 3544,
    "\u2581\u13a8\u13a9": 3545,
    "\u13f0\u13b8\u13d7": 3546,
    "\u13cd\u13da\u13a2\u13d2": 3547,
    "\u13b6\u13cf": 3548,
    "\u2581\u13d1\u13be\u13b4\u13c9": 3549,
    "\u13cf\u13be\u13cc\u13c2": 3550,
    "\u13f4\u13b5": 3551,
    "\u2581\u13a2\u13e3\u13b5\u13ae\u13b5": 3552,
    "\u2581\u13e5\u13c1": 3553,
    "\u13e3\u13b5\u13cd\u13d9": 3554,
    "\u2581\u13a4\u13ea\u13c5\u13ce\u13c3": 3555,
    "\u2581\u13cd\u13a6": 3556,
    "\u2581\u13d7\u13ab": 3557,
    "\u2581\u13a4\u13c1\u13c5": 3558,
    "\u13a6\u13d8\u13f4": 3559,
    "\u2581\u13ac\u13e9\u13aa\u13e9\u13db": 3560,
    "\u2581\u13a0\u13c1\u13b6\u13af": 3561,
    "\u2581\u13e7\u13c4\u13ec": 3562,
    "\u2581\u13da\u13c3": 3563,
    "\u2581\u13ac\u13be": 3564,
    "\u13cd\u13d4\u13c5\u13ad": 3565,
    "\u13af\u13d3": 3566,
    "\u2581\u13d5\u13a6\u13c5": 3567,
    "\u2581\u13a0\u13a6\u13d4\u13ae": 3568,
    "\u2581\u13a6\u13c2\u13cf": 3569,
    "\u13b7\u13e4\u13b8": 3570,
    "\u13c1\u13ce\u13a2": 3571,
    "\u2581\u13f1\u13c2\u13ac": 3572,
    "\u2581\u13da\u13c2\u13f2": 3573,
    "\u2581\u13d7\u13a9\u13a6": 3574,
    "\u13d5\u13ac": 3575,
    "\u13be\u13c4\u13aa\u13e9": 3576,
    "\u2581\u13a4\u13a6": 3577,
    "\u13c1\u13b8\u13ad": 3578,
    "\u13b3\u13d5": 3579,
    "\u13db\u13c1\u13b5": 3580,
    "\u13cd\u13d6": 3581,
    "\u2581\u13d3\u13c2\u13b8": 3582,
    "\u2581\u13a4\u13c2\u13b6\u13d2": 3583,
    "\u13cf\u13b3": 3584,
    "\u13a4\u13cd\u13d7": 3585,
    "\u2581\u13d7\u13a9\u13f2\u13af": 3586,
    "\u13ed": 3587,
    "\u13e3\u13b5": 3588,
    "\u13e6": 3589,
    "\u2581\u13af\u13cd\u13a9\u13a6\u13da": 3590,
    "\u13e3\u13c5\u13a9": 3591,
    "\u13d9\u13ac": 3592,
    "\u2581\u13f1\u13cd\u13a9": 3593,
    "\u2581\u13a4\u13f0": 3594,
    "\u13c5\u13d3\u13d7\u13cd\u13d7": 3595,
    "\u13db\u13d4\u13c2": 3596,
    "\u2581\u13a4\u13cd\u13c6\u13c2\u13aa\u13d9\u13d7": 3597,
    "\u2581\u13a4\u13e9\u13d2\u13cd\u13a9\u13c2": 3598,
    "\u2581\u13a0\u13d3\u13c5": 3599,
    "\u2581\u13eb\u13e8\u13f2\u13ea\u13b3": 3600,
    "\u2581\u13be\u13d3": 3601,
    "\u2581\u13c4\u13ec": 3602,
    "\u2581\u13e5\u13a6\u13d4\u13b2": 3603,
    "\u2581\u13c2\u13e8": 3604,
    "\u13f2\u13cd\u13d4\u13c2": 3605,
    "\u2581\u13d3\u13a8\u13e3": 3606,
    "\u13cb": 3607,
    "\u13e2\u13a2": 3608,
    "\u2581\u13a4\u13be\u13d5": 3609,
    "\u13be\u13c4\u13aa\u13eb\u13ce\u13b8": 3610,
    "\u2581\u13c2\u13a6\u13a5\u13a9": 3611,
    "\u2581\u13da\u13c2\u13a7\u13b5": 3612,
    "\u13a2\u13cd\u13d9\u13d7": 3613,
    "\u13e9\u13db": 3614,
    "\u13e9\u13d2": 3615,
    "\u2581\u13cd": 3616,
    "\u2581\u13c8\u13b5": 3617,
    "\u2581\u13a2\u13cd\u13d3": 3618,
    "\u13e0\u13cd\u13d7": 3619,
    "\u13b5\u13d9\u13b4": 3620,
    "\u13af\u13af": 3621,
    "\u2581\u13d5\u13e8": 3622,
    "\u2581\u13e5\u13da\u13c2": 3623,
    "\u13e5\u13aa\u13e9\u13db\u13d7\u13f1": 3624,
    "\u13c6\u13cf": 3625,
    "\u13d8\u13c3\u13b8": 3626,
    "\u13c7\u13c5": 3627,
    "\u13cd\u13d3\u13f1": 3628,
    "\u13f4\u13d7": 3629,
    "\u2581\u13a4\u13ad": 3630,
    "\u13b8\u13db": 3631,
    "\u2581\u13a4\u13be\u13a9\u13b8": 3632,
    "\u13c1\u13e8": 3633,
    "\u13e8\u13d7": 3634,
    "\u2581\u13a4\u13cd\u13d7\u13c9": 3635,
    "\u13cd\u13d7\u13cd\u13a9": 3636,
    "\u13aa\u13db": 3637,
    "\u2581\u13ac\u13e9\u13d3": 3638,
    "\u13b4\u13a3": 3639,
    "\u2581\u13a4\u13c3\u13ae\u13b8": 3640,
    "\u2581\u13a2\u13e5\u13e0": 3641,
    "\u13cd\u13da": 3642,
    "\u2581\u13a4\u13b5\u13ae\u13b5\u13e8": 3643,
    "\u13ec\u13a5": 3644,
    "\u2581\u13c2\u13e3\u13db\u13c1\u13b2": 3645,
    "d": 3646,
    "\u2581\u13a4\u13c2\u13d9": 3647,
    "\u2581\u13da\u13be\u13c4\u13aa\u13eb\u13ce\u13b4": 3648,
    "\u2581\u13a6\u13a6\u13b6": 3649,
    "\u2581\u13d3\u13c2\u13d9\u13a8": 3650,
    "\u13e7\u13cd\u13c6\u13f4\u13cd\u13d7": 3651,
    "\u2581\u13d9\u13d3\u13c6\u13cd\u13ac": 3652,
    "\u13d7\u13a6\u13b5\u13a0\u13c5\u13af\u13db": 3653,
    "\u2581\u13e4\u13b2": 3654,
    "\u2581\u13d5\u13a6\u13b6\u13a8\u13d2": 3655,
    "\u13d1\u13be\u13b4": 3656,
    "\u2581\u13a4\u13e6\u13f1\u13b4": 3657,
    "\u2581\u13ed\u13c2\u13b6\u13ce": 3658,
    "\u2581\u13a4\u13cc\u13af\u13b8": 3659,
    "\u2581\u13d5\u13e3\u13d3\u13c5\u13db": 3660,
    "\u2581\u13a7\u13c1\u13cc": 3661,
    "\u2581\u13a0\u13cd\u13c6\u13b5\u13cd\u13ac": 3662,
    "\u2581\u13a4\u13d3\u13d1\u13f4": 3663,
    "\u2581\u13a4\u13be\u13c4\u13aa\u13eb\u13ce\u13b4": 3664,
    "\u2581\u13d7\u13e7": 3665,
    "\u13cd\u13c6\u13c2\u13aa\u13d4\u13c2": 3666,
    "\u2581\u13d9\u13d3\u13ac": 3667,
    "\u13a2\u13a6": 3668,
    "\u2581\u13c4\u13be\u13db\u13c1\u13b4": 3669,
    "\u13a4\u13d9\u13af\u13f3\u13af": 3670,
    "\u13b3\u13c1": 3671,
    "\u2581\u13a0\u13c2\u13cd\u13a6\u13a2\u13b2": 3672,
    "\u13d4\u13f2\u13cd\u13d7": 3673,
    "\u2581\u13a4\u13c2\u13f4\u13ae": 3674,
    "\u2581\u13c2\u13a8\u13ce": 3675,
    "\u2581\u13a4\u13ea\u13f4": 3676,
    "\u2581\u13e7\u13b5\u13cf": 3677,
    "\u13e0\u13e8": 3678,
    "\u13d3\u13b4\u13c2\u13cd\u13ac": 3679,
    "\u13cd\u13c8\u13ef": 3680,
    "\u2581\u13a0\u13ab": 3681,
    "\u2581\u13ec\u13a9\u13b7\u13e8": 3682,
    "\u2581\u13c2\u13a6\u13c5\u13af\u13d2": 3683,
    "\u13a6\u13b8": 3684,
    "\u2581\u13a6\u13a2\u13d2": 3685,
    "\u2581\u13a1\u13b5\u13cd\u13ac": 3686,
    "\u13ac\u13c1\u13b5": 3687,
    "\u2581\u13be\u13ef\u13db\u13a5": 3688,
    "\u2581\u13d5\u13a6\u13a7\u13b2": 3689,
    "\u13d3\u13c2\u13b8\u13a2\u13cd\u13d7": 3690,
    "\u2581\u13a4\u13c1\u13dd\u13c5": 3691,
    "\u13f0\u13b8": 3692,
    "\u2581\u13d3\u13a9\u13b8\u13eb\u13cd\u13d3\u13c1\u13b2": 3693,
    "\u2581\u13da\u13e9\u13c2\u13a6\u13b8": 3694,
    "\u2581\u13a4\u13c1\u13a2\u13cd\u13d4\u13c5": 3695,
    "\u13b8\u13eb\u13cd\u13d3\u13c1\u13d7": 3696,
    "\u13b5\u13cd\u13d3\u13f4\u13d9\u13d7": 3697,
    "\u2581\u13e7\u13ed\u13aa\u13d9\u13d7": 3698,
    "\u2581\u13a4\u13be\u13c2\u13a9\u13d2": 3699,
    "\u13a6\u13b5\u13b7\u13a8\u13cd\u13d7": 3700,
    "\u2581\u13a5\u13de": 3701,
    "\u2581\u13c2\u13a6\u13db\u13c1\u13b2": 3702,
    "\u2581\u13aa\u13b5\u13cd\u13d7": 3703,
    "\u13a6\u13d8\u13d5\u13af": 3704,
    "\u2581\u13e7\u13c2\u13b8\u13eb\u13cd\u13d3\u13c1\u13d7": 3705,
    "\u2581\u13a0\u13e9\u13be\u13a6\u13b3": 3706,
    "\u2581\u13e5\u13a6\u13d8\u13cf": 3707,
    "\u2581\u13a0\u13b5\u13cf\u13be\u13af\u13cd\u13d4\u13c5\u13af": 3708,
    "\u2581\u13a0\u13c2\u13f0\u13aa\u13a9": 3709,
    "\u2581\u13a0\u13f2\u13d3\u13cc\u13b2": 3710,
    "\u2581\u13a4\u13be\u13d7\u13cd\u13a6\u13df": 3711,
    "\u2581\u13a4\u13e9\u13ad\u13c2\u13b4": 3712,
    "\u2581\u13c2\u13a9\u13ea\u13ce\u13b8\u13ad": 3713,
    "\u2581\u13c5\u13e7\u13d3\u13b4\u13c5\u13b2\u13be": 3714,
    "\u2581\u13d7\u13e6\u13ea\u13b5\u13cd\u13a9": 3715,
    "\u2581\u13a0\u13d0\u13a5\u13cd\u13d9\u13d7": 3716,
    "\u2581\u13c5\u13db\u13c6\u13d3\u13b4\u13c5\u13af": 3717,
    "\u2581\u13cf\u13b5\u13c6": 3718,
    "\u2581\u13e3\u13d3\u13f2\u13c1\u13b8\u13a9": 3719,
    "\u2581\u13a0\u13be\u13d3\u13cd\u13a6\u13b6\u13a9": 3720,
    "\u2581\u13a6\u13c5\u13c3\u13e9": 3721,
    "\u2581\u13c5\u13e5\u13ea\u13ce\u13b8\u13a9": 3722,
    "\u2581\u13a4\u13da\u13d3\u13b4\u13db": 3723,
    "\u2581\u13a0\u13d3\u13ea\u13af": 3724,
    "\u2581\u13c4\u13be\u13d3\u13a1\u13cd\u13d7": 3725,
    "\u2581\u13e6\u13d1\u13eb": 3726,
    "\u2581\u13a4\u13ea\u13d0\u13c5\u13f4": 3727,
    "\u2581\u13a4\u13db\u13b4\u13ae": 3728,
    "\u2581\u13a4\u13bf\u13b7\u13d2\u13a9": 3729,
    "\u2581\u13a2\u13e3\u13db\u13d3\u13cd\u13d3": 3730,
    "\u2581\u13a2\u13b3\u13a9\u13f3": 3731,
    "\u13f2\u13a6": 3732,
    "\u2581\u13a0\u13aa\u13d5\u13cd\u13a9": 3733,
    "\u2581\u13e7\u13c1\u13bf\u13a2": 3734,
    "\u2581\u13a0\u13cd\u13a9\u13d3\u13cd\u13ac": 3735,
    "\u2581\u13e4\u13c6\u13b3\u13c2": 3736,
    "\u2581\u13e7\u13c1\u13b5\u13c1": 3737,
    "\u2581\u13a8\u13b4\u13cf\u13f1": 3738,
    "\u2581\u13a4\u13b5\u13cf\u13c2\u13d5\u13c5": 3739,
    "\u2581\u13a4\u13b5\u13f2\u13d7": 3740,
    "\u2581\u13a2\u13aa\u13ea\u13b3": 3741,
    "\u2581\u13d5\u13e5\u13c3\u13a9\u13cd\u13a8\u13cd\u13d7": 3742,
    "\u2581\u13be\u13a8\u13a2\u13f4": 3743,
    "\u2581\u13a0\u13be\u13d3\u13cd\u13d3\u13e9\u13d7\u13d9\u13af": 3744,
    "\u2581\u13a4\u13c2\u13a9\u13b5\u13f2\u13a2\u13cd\u13d7": 3745,
    "\u2581\u13d3\u13f2\u13e4\u13cf": 3746,
    "\u2581\u13d4\u13d8\u13c4\u13a6": 3747,
    "\u2581\u13a0\u13be\u13b5\u13cd\u13d5\u13b5\u13cd\u13a9": 3748,
    "\u2581\u13f1\u13c2\u13ac\u13c1\u13ad": 3749,
    "\u2581\u13a0\u13d3\u13c5\u13d6\u13cd\u13aa": 3750,
    "\u2581\u13c2\u13a9\u13ea\u13cf": 3751,
    "\u2581\u13da\u13a8\u13d3\u13b5\u13f4": 3752,
    "\u2581\u13a0\u13be\u13d3\u13e4\u13b5": 3753,
    "\u2581\u13a0\u13e6\u13b3\u13c5": 3754,
    "\u2581\u13d5\u13e5\u13a7\u13bf\u13e9\u13d7\u13d9\u13ae\u13cd\u13d7": 3755,
    "\u2581\u13da\u13cd\u13d3\u13a6\u13b8": 3756,
    "\u2581\u13f1\u13e4\u13b5\u13af\u13cd\u13a8\u13cd\u13d7": 3757,
    "\u2581\u13d7\u13a6\u13b6\u13d4\u13c5": 3758,
    "\u2581\u13da\u13ad\u13c4\u13ee": 3759,
    "\u2581\u13d7\u13a7\u13c3\u13a9\u13cd\u13d9\u13d7": 3760,
    "\u2581\u13e7\u13be\u13ac\u13e9\u13b6\u13d7": 3761,
    "\u2581\u13a4\u13ed\u13e2\u13d4\u13c5\u13a9": 3762,
    "\u13d8\u13ef\u13cd\u13d3\u13c1": 3763,
    "\u2581\u13d7\u13be\u13a2\u13d2": 3764,
    "\u2581\u13d5\u13aa\u13ea\u13b4\u13cd\u13d7": 3765,
    "\u2581\u13a4\u13c1\u13c9\u13e8": 3766,
    "\u2581\u13eb\u13d7\u13b6\u13af": 3767,
    "\u2581\u13d3\u13a6\u13db\u13c1\u13b5": 3768,
    "\u2581\u13c4\u13ea\u13b2\u13be": 3769,
    "\u2581\u13a2\u13e6\u13af\u13f3\u13d7\u13f1": 3770,
    "\u2581\u13a4\u13db\u13a6\u13cd\u13d5": 3771,
    "\u2581\u13d3\u13f1\u13be": 3772,
    "\u2581\u13ae\u13b5\u13a0": 3773,
    "\u2581\u13a0\u13d3\u13f2\u13c1\u13ae\u13cd\u13d7": 3774,
    "\u2581\u13a1\u13e5\u13c5\u13cf\u13d3\u13cd\u13d7": 3775,
    "\u2581\u13a2\u13ac\u13db\u13c1\u13d7": 3776,
    "\u2581\u13a3\u13a6\u13da\u13b5\u13ad": 3777,
    "\u2581\u13e5\u13da\u13f3\u13aa\u13d7": 3778,
    "\u2581\u13e7\u13c2\u13b6\u13b8\u13d7": 3779,
    "\u2581\u13a8\u13e5\u13cd\u13d5\u13b8\u13d7": 3780,
    "\u2581\u13a0\u13ab\u13e9\u13cc": 3781,
    "\u2581\u13a6\u13c2\u13a9\u13b8": 3782,
    "\u2581\u13a2\u13ef\u13e5\u13b8\u13c9\u13d7": 3783,
    "\u2581\u13a4\u13ac\u13a5\u13cd\u13a9": 3784,
    "\u2581\u13f0\u13d9\u13ad": 3785,
    "\u2581\u13a0\u13c2\u13aa\u13b2\u13ad": 3786,
    "\u2581\u13a0\u13f0\u13df": 3787,
    "\u2581\u13bf\u13db\u13a6": 3788,
    "\u2581\u13ac\u13ec\u13af\u13f3\u13c5\u13a9": 3789,
    "\u2581\u13e7\u13c2\u13c1\u13df\u13f4\u13cd\u13d7": 3790,
    "\u2581\u13e3\u13a6\u13e8\u13cd": 3791,
    "\u2581\u13a4\u13b4\u13f4\u13d2": 3792,
    "\u2581\u13a0\u13cd\u13d5\u13ef\u13d3": 3793,
    "\u2581\u13a2\u13f3\u13ea\u13ce\u13b8\u13af": 3794,
    "\u2581\u13b2\u13d3": 3795,
    "\u2581\u13d3\u13ad\u13cf": 3796,
    "\u2581\u13cd\u13a9\u13cd\u13d3\u13e9\u13da\u13a6": 3797,
    "\u2581\u13a4\u13c2\u13aa\u13e9\u13db\u13d7\u13f1": 3798,
    "\u2581\u13af\u13b8\u13c9\u13d3": 3799,
    "\u2581\u13e3\u13d9\u13b3\u13c5\u13cd\u13d7": 3800,
    "\u2581\u13a4\u13d5\u13b6\u13b0\u13d2": 3801,
    "\u2581\u13ad\u13d3\u13c5\u13be": 3802,
    "\u2581\u13d7\u13ab\u13aa\u13d7\u13cd\u13a9": 3803,
    "\u2581\u13a4\u13b6\u13d7\u13e2": 3804,
    "\u2581\u13c2\u13f4\u13c1\u13b8": 3805,
    "\u2581\u13c2\u13e3\u13db\u13bf\u13d5\u13ac\u13a2": 3806,
    "\u2581\u13d7\u13aa\u13e2\u13c5\u13af": 3807,
    "\u2581\u13d1\u13d3\u13b5\u13cd\u13aa\u13af": 3808,
    "\u2581\u13a2\u13a9\u13c1\u13b8": 3809,
    "\u2581\u13a0\u13cd\u13a9\u13d7\u13cd\u13a8\u13a2": 3810,
    "\u2581\u13a2\u13e3\u13da\u13b5\u13cd\u13a8\u13cd\u13d7": 3811,
    "\u2581\u13da\u13ef\u13ea\u13a8": 3812,
    "\u2581\u13a2\u13e5\u13ef\u13a1\u13cd\u13d7": 3813,
    "\u2581\u13cd\u13c8\u13cd\u13d4": 3814,
    "\u2581\u13d7\u13e3\u13a7\u13c5\u13a6": 3815,
    "\u2581\u13eb\u13e5\u13b7\u13e8\u13ad": 3816,
    "\u2581\u13a2\u13e3\u13b5\u13ae\u13b5\u13a8\u13cd\u13d7": 3817,
    "\u2581\u13a8\u13e5\u13c5\u13d2\u13af": 3818,
    "\u2581\u13e5\u13e3\u13db\u13a9\u13ad": 3819,
    "\u2581\u13d7\u13a9\u13b8\u13eb\u13cd\u13d3\u13c1\u13d7\u13f1": 3820,
    "\u2581\u13c7\u13d7\u13c2\u13f1": 3821,
    "\u2581\u13b6\u13bb": 3822,
    "\u2581\u13a1\u13e5\u13ef\u13c5\u13db": 3823,
    "\u2581\u13a0\u13e0\u13d7\u13f1": 3824,
    "\u2581\u13a4\u13cd\u13c6": 3825,
    "\u2581\u13ce\u13d8": 3826,
    "\u2581\u13e7\u13b3\u13cd\u13a9": 3827,
    "\u2581\u13a4\u13be\u13db\u13c5\u13a9": 3828,
    "\u2581\u13e7\u13b7\u13eb\u13cd\u13d4\u13c1\u13d7": 3829,
    "\u2581\u13a0\u13c2\u13a6\u13f2\u13df": 3830,
    "\u2581\u13d7\u13e3\u13d3\u13b4\u13c5\u13db": 3831,
    "\u2581\u13c8\u13b5\u13cf": 3832,
    "\u2581\u13cd\u13aa\u13c1": 3833,
    "\u2581\u13a0\u13a9\u13b5\u13a8\u13c2": 3834,
    "\u2581\u13a4\u13c1\u13af": 3835,
    "\u2581\u13a0\u13c2\u13f4\u13a9": 3836,
    "\u2581\u13a4\u13be\u13d3\u13d9\u13b5\u13cd\u13d3\u13c1\u13b8\u13a9": 3837,
    "\u2581\u13a6\u13c3\u13d9\u13d7\u13f1": 3838,
    "\u2581\u13aa\u13af\u13a2\u13f4": 3839,
    "\u2581\u13a2\u13a6\u13b5\u13cd\u13d9\u13d7\u13f1": 3840,
    "\u2581\u13da\u13c3\u13b8": 3841,
    "\u2581\u13a2\u13e8\u13c3\u13ae\u13ae\u13b8": 3842,
    "\u2581\u13c2\u13e8\u13a6": 3843,
    "\u2581\u13a2\u13a6\u13a6\u13d3": 3844,
    "\u2581\u13aa\u13b0\u13cd": 3845,
    "\u2581\u13a4\u13d3\u13d9\u13b5\u13e3\u13db": 3846,
    "\u2581\u13a0\u13e8\u13cd\u13db": 3847,
    "\u2581\u13b9\u13a6": 3848,
    "\u2581\u13d3\u13be\u13d5\u13f2\u13b2\u13cd\u13ac": 3849,
    "\u2581\u13c4\u13e9\u13c1\u13b0": 3850,
    "\u2581\u13a4\u13a6\u13d4\u13d4\u13c5\u13af": 3851,
    "\u2581\u13a4\u13c3\u13af\u13f3\u13c5\u13af": 3852,
    "\u2581\u13a0\u13d3\u13c1\u13e3\u13cd\u13da\u13b6\u13a9\u13af": 3853,
    "\u13a1\u13b8": 3854,
    "\u2581\u13a0\u13cd\u13ab\u13d5\u13cd\u13d7\u13f1": 3855,
    "\u2581\u13a4\u13f0\u13e8": 3856,
    "\u2581\u13ef\u13c2\u13a6\u13d4\u13ae": 3857,
    "\u2581\u13e5\u13c1\u13a6": 3858,
    "\u2581\u13a4\u13db\u13d2\u13af": 3859,
    "\u2581\u13a2\u13cd\u13d5\u13be": 3860,
    "\u2581\u13d7\u13d8\u13f2\u13af": 3861,
    "\u2581\u13c3\u13a9\u13ea\u13ce\u13b8": 3862,
    "\u2581\u13a0\u13a6\u13d4\u13af\u13f3": 3863,
    "\u2581\u13a4\u13d3\u13f4\u13ce\u13a2": 3864,
    "\u2581\u13e7\u13d3\u13b4": 3865,
    "\u2581\u13e5\u13d9\u13a6": 3866,
    "\u2581\u13ac\u13e9\u13db\u13d7": 3867,
    "\u2581\u13a4\u13ea\u13a7\u13c1\u13a2": 3868,
    "\u2581\u13a4\u13be\u13d5\u13d7": 3869,
    "\u2581\u13e5\u13aa\u13e9\u13d8\u13cd\u13ac": 3870,
    "\u2581\u13a4\u13c1\u13c9\u13e8\u13af": 3871,
    "\u2581\u13d3\u13a7\u13c5": 3872,
    "\u2581\u13a9\u13b3\u13af\u13f3": 3873,
    "\u2581\u13a4\u13be\u13c4\u13aa\u13a2\u13cd\u13d7": 3874,
    "\u2581\u13a4\u13c2\u13be\u13eb": 3875,
    "\u2581\u13c7\u13b5\u13a9": 3876,
    "\u2581\u13aa\u13ea\u13b4": 3877,
    "\u2581\u13a4\u13c3\u13af\u13f3\u13c5\u13a9": 3878,
    "\u2581\u13d3\u13e8\u13c1\u13b5": 3879,
    "\u2581\u13a1\u13a6": 3880,
    "\u2581\u13a4\u13aa\u13e9\u13db\u13d7\u13f1": 3881,
    "\u2581\u13a8\u13b5\u13cd\u13a9": 3882,
    "\u2581\u13d7\u13a6\u13e5": 3883,
    "\u2581\u13e5\u13ef\u13b5\u13a1\u13b5\u13e4": 3884,
    "\u13c1\u13c9\u13e5": 3885,
    "\u2581\u13a1\u13d3\u13cd\u13d7": 3886,
    "\u2581\u13a4\u13be\u13db\u13aa\u13d7\u13f1": 3887,
    "\u2581\u13a4\u13ea\u13cd\u13a9\u13b8\u13a2": 3888,
    "\u2581\u13eb\u13e5\u13a6\u13db\u13a2": 3889,
    "\u2581\u13e7\u13d3\u13b5\u13a2": 3890,
    "\u2581\u13a4\u13a9\u13d2\u13a9": 3891,
    "\u2581\u13a0\u13c2\u13c3\u13ae\u13ad": 3892,
    "\u2581\u13c2\u13da\u13e9\u13c1\u13b4\u13a2": 3893,
    "\u2581\u13a4\u13cd\u13c6\u13c2\u13aa\u13db": 3894,
    "\u2581\u13bb\u13b3": 3895,
    "\u2581\u13a2\u13a6\u13b5\u13a2": 3896,
    "\u2581\u13be\u13ef\u13db\u13a5\u13a9": 3897,
    "\u2581\u13a4\u13d3\u13d9\u13b5\u13cd\u13d4\u13c1\u13a2": 3898,
    "\u2581\u13d7\u13be\u13d3\u13aa\u13be\u13d7\u13cd\u13ac\u13a2": 3899,
    "\u2581\u13a0\u13be\u13d3\u13aa\u13be\u13d7\u13cd\u13ac\u13a2": 3900,
    "\u13cd\u13a6\u13ce\u13d7": 3901,
    "\u2581\u13a4\u13be\u13c2\u13a9\u13d2\u13a9": 3902,
    "\u2581\u13a6\u13d3\u13d9\u13b5\u13cd\u13d7\u13cd\u13ac\u13a2": 3903,
    "\u2581\u13a2\u13aa": 3904,
    "\u2581\u13a2\u13f3\u13d2\u13af": 3905,
    "\u2581\u13a0\u13a6\u13cd\u13a9": 3906,
    "\u13c5\u13ec\u13d7\u13f1": 3907,
    "\u2581\u13e5\u13f0\u13b8\u13a2": 3908,
    "\u2581\u13a4\u13ec\u13e2\u13c5": 3909,
    "\u2581\u13a3\u13b5\u13e9\u13f2": 3910,
    "\u13d3\u13db\u13cd\u13a9": 3911,
    "\u2581\u13a4\u13c7\u13d3\u13b5\u13c9": 3912,
    "\u2581\u13a4\u13be\u13c2\u13a9\u13ce\u13a2": 3913,
    "\u2581\u13a4\u13be\u13d3\u13c5\u13d6\u13b4": 3914,
    "\u2581\u13a4\u13e9\u13d4\u13c5\u13a9": 3915,
    "\u13c2\u13d3\u13cd\u13d7": 3916,
    "\u2581\u13a4\u13c2\u13e3\u13d6\u13cd\u13d7": 3917,
    "\u2581\u13a0\u13c6\u13e3": 3918,
    "\u2581\u13a4\u13a9\u13ce\u13a2": 3919,
    "\u2581\u13da\u13e9\u13c2\u13a6\u13b8\u13a2": 3920,
    "\u2581\u13a4\u13e6\u13f1\u13b4\u13a2": 3921,
    "\u2581\u13a4\u13b5\u13cd\u13c6\u13db": 3922,
    "\u2581\u13a0\u13a2\u13d2\u13a9": 3923,
    "\u2581\u13a4\u13be\u13d3\u13c5\u13d6\u13b8": 3924,
    "\u2581\u13a6\u13ef\u13b8": 3925,
    "\u13d3\u13c2\u13b8\u13a9": 3926,
    "\u2581\u13e5\u13c4\u13cd\u13d5": 3927,
    "\u2581\u13e3\u13d7\u13ad": 3928,
    "\u2581\u13a4\u13cd\u13aa\u13d2": 3929,
    "\u2581\u13a4\u13d7\u13db\u13ae\u13a2": 3930,
    "\u2581\u13a2\u13e3\u13d3\u13c5\u13d6\u13cd\u13ac": 3931,
    "\u2581\u13a4\u13f2\u13a2\u13f4": 3932,
    "\u13f0\u13db": 3933,
    "\u2581\u13dd\u13a8": 3934,
    "\u2581\u13ed\u13c2\u13b7\u13e8\u13a9": 3935,
    "\u13d4\u13b5": 3936,
    "\u13d7\u13c2\u13cd\u13aa\u13c2\u13af": 3937,
    "\u2581\u13a4\u13c1\u13cd\u13d4": 3938,
    "\u2581\u13a0\u13d3\u13af\u13af": 3939,
    "\u2581\u13eb\u13a6\u13b7\u13ac": 3940,
    "\u2581\u13a0\u13a9\u13c1\u13e8\u13a2": 3941,
    "\u13da\u13a2\u13cd\u13d3\u13c1\u13b4": 3942,
    "\u2581\u13e7\u13c1\u13a6": 3943,
    "\u2581\u13ab\u13a6": 3944,
    "\u2581\u13cd\u13a9\u13cd\u13d5\u13b8": 3945,
    "\u2581\u13a2\u13d7\u13ac\u13c1": 3946,
    "\u13c3\u13af\u13ce\u13b4": 3947,
    "\u2581\u13eb\u13da\u13ef\u13c5\u13ae\u13a2": 3948,
    "\u2581\u13a4\u13c4\u13aa\u13e4\u13a2": 3949,
    "\u2581\u13a2\u13e8\u13d7\u13cd\u13ac": 3950,
    "\u2581\u13a2\u13d4": 3951,
    "\u2581\u13d7\u13d0\u13f4": 3952,
    "\u13ef\u13a5\u13a2": 3953,
    "\u2581\u13c2\u13d5\u13ac\u13c1\u13b2": 3954,
    "\u2581\u13a4\u13c5\u13ce\u13a2": 3955,
    "\u2581\u13af\u13a6\u13d4\u13b2": 3956,
    "\u2581\u13a0\u13c1\u13ae\u13cd\u13d7": 3957,
    "\u2581\u13ea\u13e3": 3958,
    "\u13d4\u13c1\u13cd\u13d7": 3959,
    "\u13de\u13cd\u13d7": 3960,
    "\u2581\u13e7\u13c1\u13d7\u13f1": 3961,
    "\u2581\u13a4\u13ec\u13e8": 3962,
    "\u13db\u13c1\u13d7\u13f1": 3963,
    "\u13a6\u13db\u13a6": 3964,
    "\u2581\u13a4\u13aa\u13b5\u13f0\u13a5": 3965,
    "\u2581\u13ad\u13d7": 3966,
    "\u2581\u13a4\u13b7\u13e4\u13b4\u13a2": 3967,
    "\u13d3\u13c1\u13af": 3968,
    "\u2581\u13d7\u13ac\u13e9\u13be": 3969,
    "\u2581\u13a4\u13e9\u13d4\u13c1": 3970,
    "\u2581\u13a1\u13be\u13a2": 3971,
    "\u2581\u13a4\u13c1\u13cd\u13a9\u13b8": 3972,
    "\u2581\u13a4\u13ec\u13c2\u13ce": 3973,
    "\u13b3\u13c5\u13a9": 3974,
    "\u13c2\u13d7": 3975,
    "\u2581\u13da\u13d9\u13cd\u13db": 3976,
    "\u2581\u13a4\u13be\u13db\u13c1": 3977,
    "\u2581\u13c4\u13e9\u13c1\u13b8\u13a9": 3978,
    "\u13cd\u13d7\u13cd\u13a8\u13a2": 3979,
    "\u13a8\u13ce\u13a2": 3980,
    "\u13df\u13cc\u13c2": 3981,
    "\u2581\u13a4\u13aa\u13d7": 3982,
    "\u13b5\u13cd\u13d3\u13f4\u13b2\u13cd\u13a6": 3983,
    "\u2581\u13a0\u13be\u13b5\u13ae\u13b5\u13a8": 3984,
    "\u13b5\u13cd\u13aa\u13b8\u13d3\u13c1\u13d7\u13f1": 3985,
    "\u13cf\u13d0\u13d7": 3986,
    "\u2581\u13d9\u13d3\u13a8": 3987,
    "\u2581\u13c2\u13e5\u13ea\u13ce\u13b8": 3988,
    "\u2581\u13e7\u13c1\u13e4\u13b4": 3989,
    "\u2581\u13a4\u13e4\u13b8": 3990,
    "\u2581\u13d7\u13ac\u13a9": 3991,
    "\u13ab\u13e9": 3992,
    "\u2581\u13e5\u13d7": 3993,
    "\u2581\u13a4\u13c2\u13aa\u13b2\u13a9": 3994,
    "\u2581\u13d3\u13ac\u13a9": 3995,
    "\u13c1\u13b2\u13a9": 3996,
    "\u2581\u13d7\u13a9\u13a6\u13f4\u13b5\u13a8\u13a2": 3997,
    "\u13c5\u13a6": 3998,
    "\u13d6\u13b5": 3999,
    "\u13c4\u13aa\u13eb\u13cf": 4000,
    "\u2581\u13c2\u13da\u13a9\u13e8\u13c2\u13d2\u13a2": 4001,
    "\u13e2\u13be\u13c1\u13d7": 4002,
    "\u2581\u13a0\u13e6\u13f4\u13a2": 4003,
    "\u2581\u13e7\u13be\u13e6": 4004,
    "\u2581\u13a4\u13cd\u13a6\u13c5\u13e8\u13a2": 4005,
    "\u13c5\u13d7\u13cd\u13a8\u13cd\u13d7": 4006,
    "\u2581\u13d5\u13ac\u13e9\u13c2": 4007,
    "\u2581\u13aa\u13a6": 4008,
    "\u13b2\u13cd\u13aa\u13a2": 4009,
    "\u2581\u13a4\u13c1\u13c5\u13cd\u13d7": 4010,
    "\u2581\u13c3\u13f3": 4011,
    "\u2581\u13f1\u13d3\u13a9": 4012,
    "\u13d2\u13d7": 4013,
    "\u2581\u13a4\u13c2\u13c5": 4014,
    "\u2581\u13d5\u13e3\u13d9\u13a5\u13a2": 4015,
    "\u13f3\u13cd\u13d7": 4016,
    "\u13c7\u13b5": 4017,
    "\u13f0\u13b2": 4018,
    "\u2581\u13a4\u13d3\u13c5\u13d9\u13a9": 4019,
    "\u13ea\u13ce\u13d7": 4020,
    "\u2581\u13d7\u13cd\u13c6": 4021,
    "\u13cf\u13e9": 4022,
    "\u13cf\u13b3\u13db\u13d7": 4023,
    "\u2581\u13c3\u13a9": 4024,
    "\u2581\u13a4\u13cd\u13d3\u13f1\u13d5": 4025,
    "\u2581\u13a4\u13b5\u13cd\u13c6\u13d5": 4026,
    "\u2581\u13e3\u13aa": 4027,
    "\u13df\u13ef": 4028,
    "\u2581\u13a4\u13a7\u13b5\u13b8": 4029,
    "\u13b3\u13da": 4030,
    "\u13e8\u13be": 4031,
    "\u13ac\u13c2\u13a8": 4032,
    "\u13d3\u13c1\u13ae\u13cd\u13d7": 4033,
    "\u13a7\u13c1\u13b8": 4034,
    "\u13a9\u13cd\u13ac": 4035,
    "\u2581\u13a0\u13c2\u13c1\u13b8": 4036,
    "\u2581\u13a4\u13d9\u13af\u13f3\u13ad": 4037,
    "\u13aa\u13c5": 4038,
    "\u13cc\u13b3\u13d3\u13c1": 4039,
    "\u2581\u13d7\u13a8\u13a6": 4040,
    "\u2581\u13c2\u13ac\u13c1\u13b8": 4041,
    "\u13cf\u13d7": 4042,
    "\u2581\u13d7\u13db": 4043,
    "\u13a6\u13d4\u13b2": 4044,
    "\u2581\u13e6\u13e5": 4045,
    "\u13c2\u13cc\u13c2": 4046,
    "\u2581\u13a0\u13c9\u13e2": 4047,
    "\u2581\u13a0\u13c3\u13b5": 4048,
    "\u13c5\u13a6\u13b8\u13db": 4049,
    "\u2581\u13c4\u13ea\u13ce\u13b8\u13a2": 4050,
    "\u13aa\u13b5\u13c2\u13d7": 4051,
    "\u2581\u13a4\u13d3\u13c5\u13d2": 4052,
    "\u2581\u13a4\u13cd\u13c6\u13b8": 4053,
    "\u2581\u13a4\u13a7\u13b5": 4054,
    "\u13a6\u13d9\u13a5\u13ce": 4055,
    "\u13d9\u13b2\u13a2": 4056,
    "\u2581\u13a4\u13c1\u13c5\u13ce\u13c3": 4057,
    "\u13e7\u13c2\u13f2\u13af\u13cd\u13d7\u13f1": 4058,
    "\u2581\u13da\u13b8": 4059,
    "\u13d5\u13a6": 4060,
    "\u2581\u13a0\u13f0\u13b5\u13d2": 4061,
    "\u13af\u13b2\u13a2": 4062,
    "\u13f2\u13cf": 4063,
    "\u2581\u13a4\u13c3\u13f4\u13b5": 4064,
    "\u2581\u13a4\u13c1\u13e4\u13a2": 4065,
    "\u2581\u13ac\u13d2": 4066,
    "\u2581\u13f3\u13aa": 4067,
    "\u2581\u13c3\u13d2": 4068,
    "\u2581\u13a4\u13d9\u13af": 4069,
    "\u13c2\u13d9\u13b8": 4070,
    "\u13e3\u13d7": 4071,
    "\u13a4\u13e9\u13c2\u13a6\u13b8": 4072,
    "\u2581\u13a4\u13c1\u13e4\u13b4\u13a2": 4073,
    "\u2581\u13a4\u13d9\u13f3": 4074,
    "\u13c9\u13cd\u13aa": 4075,
    "\u13cd\u13a6\u13a2\u13ae\u13cd\u13d7": 4076,
    "\u2581\u13be\u13c2\u13a5\u13a9": 4077,
    "\u2581\u13d3\u13d4\u13b4\u13d2\u13a2": 4078,
    "\u2581\u13a4\u13c5\u13c1": 4079,
    "\u2581\u13a0\u13c2\u13b8\u13c9\u13d7\u13cd\u13a8": 4080,
    "\u2581\u13e6\u13cf": 4081,
    "\u2581\u13d9\u13d3\u13e3": 4082,
    "\u2581\u13e6\u13d2": 4083,
    "\u13e1\u13d7\u13cd\u13a9": 4084,
    "\u2581\u13a0\u13b9\u13c2": 4085,
    "\u2581\u13e4\u13b3\u13d7": 4086,
    "\u13b5\u13cd\u13d3\u13f4\u13d7": 4087,
    "\u2581\u13a6\u13f2\u13a6": 4088,
    "\u2581\u13a4\u13b3": 4089,
    "\u2581\u13f2\u13a6": 4090,
    "\u13c1\u13a2\u13cd\u13d3\u13c1\u13d7": 4091,
    "\u2581\u13a1\u13cd\u13d7": 4092,
    "\u2581\u13a0\u13ab\u13f4\u13d7": 4093,
    "\u13b3\u13db": 4094,
    "\u2581\u13a4\u13c2\u13cf\u13d7": 4095,
    "\u13e4\u13ad": 4096,
    "\u2581\u13da\u13c1\u13e4\u13b4\u13c3": 4097,
    "\u2581\u13e5\u13d5\u13e3": 4098,
    "\u2581\u13a2\u13ac\u13f1\u13f1\u13c9": 4099,
    "\u2581\u13a8\u13a2": 4100,
    "\u13ac\u13c5": 4101,
    "\u2581\u13d3\u13a6\u13e5": 4102,
    "\u13cd\u13d3\u13e9\u13d5\u13a9": 4103,
    "\u2581\u13a0\u13e5\u13c1\u13b8": 4104,
    "\u13d8\u13cd\u13d7\u13cd\u13a9": 4105,
    "\u2581\u13a0\u13a9\u13cd\u13a6\u13c5\u13e8": 4106,
    "\u13a7\u13af\u13ef\u13cd\u13d7": 4107,
    "\u2581\u13f1\u13e5\u13f0\u13b8": 4108,
    "\u13e5\u13e7\u13e3": 4109,
    "\u2581\u13a6\u13be\u13c4\u13aa": 4110,
    "\u13a6\u13da": 4111,
    "\u2581\u13a4\u13c2\u13f4\u13b8": 4112,
    "\u13e2\u13c5\u13af": 4113,
    "\u13d7\u13ef": 4114,
    "\u13d7\u13cd\u13d4\u13c1": 4115,
    "\u13f2\u13ad": 4116,
    "\u2581\u13e5\u13f3\u13aa": 4117,
    "\u13cd\u13d3\u13c1": 4118,
    "\u13c2\u13c6\u13d8\u13af": 4119,
    "\u13d7\u13d4\u13cd\u13ac": 4120,
    "\u2581\u13e9\u13f4": 4121,
    "\u13b5\u13a2": 4122,
    "\u2581\u13d7\u13a7": 4123,
    "\u2581\u13c2\u13db": 4124,
    "\u13c4\u13b5": 4125,
    "\u2581\u13e5\u13a6\u13d4": 4126,
    "\u13c2\u13f4": 4127,
    "\u2581\u13aa\u13db": 4128,
    "\u2581\u13a0\u13be\u13d7\u13cd\u13a8": 4129,
    "\u2581\u13a4\u13c2\u13c4\u13aa\u13e8": 4130,
    "\u2581\u13a2\u13f3\u13c2": 4131,
    "\u2581\u13a4\u13e3\u13c5": 4132,
    "\u13ea\u13ce\u13b4\u13a2": 4133,
    "\u13d8\u13be\u13eb\u13db\u13b2\u13a9": 4134,
    "\u13cd\u13c6\u13b5": 4135,
    "\u13eb\u13ce\u13b4\u13a2": 4136,
    "\u13cd\u13a6\u13f0\u13ac\u13cd\u13d3": 4137,
    "\u13b6\u13d3": 4138,
    "\u2581\u13a0\u13e9\u13db": 4139,
    "\u2581\u13c2\u13a6\u13a5\u13a2": 4140,
    "\u13d3\u13f1": 4141,
    "\u13cd\u13d5\u13b5\u13cd\u13ac": 4142,
    "\u13c1\u13df\u13f4": 4143,
    "\u2581\u13a2\u13a4": 4144,
    "\u2581\u13a4\u13ea\u13f0": 4145,
    "\u2581\u13a4\u13b5\u13cd\u13c6\u13b8\u13d7\u13c3": 4146,
    "\u13d3\u13ce\u13aa\u13a9\u13cd": 4147,
    "\u13a9\u13d2": 4148,
    "\u13a6\u13b3": 4149,
    "\u2581\u13be\u13af\u13f3\u13a2": 4150,
    "\u13db\u13c3\u13af": 4151,
    "\u13b8\u13c9\u13d7\u13cd\u13a9": 4152,
    "\u2581\u13da\u13f3": 4153,
    "\u2581\u13d5\u13a8\u13e5": 4154,
    "\u13f2\u13cd\u13d7\u13cd\u13ac": 4155,
    "\u13e1\u13d7\u13cd\u13ac\u13a2": 4156,
    "\u2581\u13da\u13f2\u13ce": 4157,
    "\u13eb\u13db": 4158,
    "\u2581\u13a0\u13a8": 4159,
    "\u2581\u13f1\u13a8\u13e3": 4160,
    "\u13cd\u13d7\u13cd\u13ac\u13a2": 4161,
    "\u13cd\u13d5\u13b5\u13cd\u13a9": 4162,
    "\u13f3\u13b3": 4163,
    "\u13d7\u13cd\u13d7\u13cd\u13a9": 4164,
    "\u13c5\u13aa\u13a2\u13cd\u13d7": 4165,
    "\u2581\u13a4\u13b5\u13cd\u13c6": 4166,
    "al": 4167,
    "\u13f0\u13b8\u13af": 4168,
    "\u13c2\u13d9\u13af": 4169,
    "\u2581\u13ef\u13d3\u13c5\u13d6": 4170,
    "\u13d1\u13f0\u13d2": 4171,
    "\u2581\u13a0\u13b5\u13f0\u13a2\u13b5": 4172,
    "\u2581\u13a6\u13ef": 4173,
    "\u13e2\u13d7\u13f1": 4174,
    "\u2581\u13ed\u13e9": 4175,
    "\u13f4\u13cd\u13d7": 4176,
    "\u13b5\u13f3": 4177,
    "\u2581\u13d5\u13ab": 4178,
    "\u13c2\u13a9\u13cd\u13ac": 4179,
    "\u2581\u13a9\u13ef": 4180,
    "\u2581\u13a2\u13e8\u13f2\u13ea\u13b3": 4181,
    "\u13e5\u13cd\u13a6\u13ef": 4182,
    "\u2581\u13d3\u13f3\u13c2": 4183,
    "\u2581\u13c4\u13cd\u13db\u13a9": 4184,
    "\u13cd\u13a9\u13b8": 4185,
    "\u13a1\u13b0\u13a2": 4186,
    "\u2581\u13a0\u13cd\u13c6\u13c2\u13aa\u13d9\u13d7": 4187,
    "\u13e5\u13c1\u13b8": 4188,
    "\u13c5\u13db": 4189,
    "\u13d3\u13d1\u13f0\u13cd\u13d7": 4190,
    "\u13cd\u13d3\u13e9\u13db\u13d2\u13a9": 4191,
    "\u13cd\u13d3\u13e9\u13d7\u13d2": 4192,
    "\u13db\u13c5\u13a2\u13cd\u13d3": 4193,
    "\u2581\u13e5\u13c2\u13ac": 4194,
    "\u2581\u13d4\u13ef": 4195,
    "\u13d3\u13b5\u13d3\u13cd\u13d7": 4196,
    "\u13a4\u13cd\u13d3\u13a6\u13f4\u13af\u13d3": 4197,
    "\u2581\u13da\u13ed": 4198,
    "\u2581\u13a8\u13cd\u13d7\u13d7": 4199,
    "\u2581\u13a6\u13ac": 4200,
    "\u2581\u13da\u13c1": 4201,
    "\u13f2\u13d2\u13a9": 4202,
    "\u2581\u13a2\u13d7\u13a6\u13d8": 4203,
    "\u2581\u13a2\u13f3\u13cd\u13a9\u13c2\u13c3": 4204,
    "\u13b3\u13d3": 4205,
    "\u13a6\u13c1\u13b6\u13d7": 4206,
    "\u13f2\u13b5": 4207,
    "\u13b3\u13c2": 4208,
    "\u2581\u13a5\u13a9\u13b8\u13c9": 4209,
    "\u2581\u13a4\u13b5\u13f0": 4210,
    "\u13d3\u13d9\u13b5\u13cd\u13d7\u13cd\u13ac": 4211,
    "\u13b7\u13af\u13cd\u13d7": 4212,
    "\u13d8\u13c3\u13af\u13cd\u13d7\u13f1": 4213,
    "\u13cd\u13a6\u13e8\u13af": 4214,
    "\u13c2\u13aa\u13b2": 4215,
    "\u13a6\u13d8\u13d3": 4216,
    "\u2581\u13a2\u13cd\u13db": 4217,
    "\u2581\u13ac\u13f0\u13b8": 4218,
    "\u2581\u13c5\u13d3\u13ac\u13e9": 4219,
    "\u2581\u13a0\u13e2": 4220,
    "\u13a7\u13c1": 4221,
    "\u13d9\u13ae": 4222,
    "\u2581\u13a4\u13c2\u13cd\u13c6\u13c2\u13aa\u13ce": 4223,
    "\u13b8\u13c2": 4224,
    "\u2581\u13d7\u13e3\u13c1\u13b6": 4225,
    "\u2581\u13d7\u13cd\u13da": 4226,
    "\u13c9\u13c2": 4227,
    "\u2581\u13a4\u13b7": 4228,
    "\u13d3\u13c2\u13b8\u13e4\u13a2": 4229,
    "\u2581\u13f3\u13ec\u13af\u13f3": 4230,
    "\u13b6\u13af\u13cd\u13d7": 4231,
    "\u13e9\u13d5\u13ac": 4232,
    "\u13bc": 4233,
    "\u2581\u13a0\u13c2\u13a6": 4234,
    "\u13a6\u13c5\u13a6": 4235,
    "\u2581\u13c4\u13c2\u13ea\u13ce": 4236,
    "\u2581\u13e3\u13a6": 4237,
    "\u2581\u13e7\u13c1\u13e8": 4238,
    "\u13ea\u13ce\u13b8\u13a9": 4239,
    "\u13bf\u13a5\u13a2": 4240,
    "\u2581\u13a4\u13b8\u13c9\u13d7": 4241,
    "\u2581\u13a7\u13c3\u13ae": 4242,
    "\u13ea\u13b6\u13d7": 4243,
    "\u13cd\u13d5\u13b8\u13d7\u13f1": 4244,
    "\u13a2\u13a6\u13b8\u13c9\u13d7": 4245,
    "\u13e6\u13c1": 4246,
    "\u13e2\u13db": 4247,
    "\u2581\u13a6\u13df": 4248,
    "\u2581\u13a4\u13c1\u13b7\u13ac": 4249,
    "\u13d3\u13ec\u13cd\u13d7": 4250,
    "\u2581\u13e7\u13b3\u13d1\u13b6": 4251,
    "\u2581\u13a4\u13c3\u13b8": 4252,
    "\u13af\u13cd\u13d4\u13c2": 4253,
    "\u2581\u13d9\u13e7": 4254,
    "\u2581\u13a4\u13cd\u13a6": 4255,
    "\u2581\u13d5\u13a6\u13c4\u13aa\u13eb\u13cd": 4256,
    "\u13aa\u13b5\u13f0\u13a5\u13af": 4257,
    "\u2581\u13a5\u13e5": 4258,
    "\u13cd\u13a6\u13c3\u13b5": 4259,
    "\u2581\u13a2\u13a9\u13f0\u13b8": 4260,
    "\u2581\u13d5\u13a6\u13c4\u13aa\u13ac": 4261,
    "\u2581\u13d5\u13a6\u13b3\u13c5\u13db": 4262,
    "\u13a6\u13b8\u13b3\u13d7": 4263,
    "\u2581\u13a4\u13cd\u13c6\u13c2\u13aa\u13ce": 4264,
    "\u2581\u13a0\u13d0\u13f4": 4265,
    "\u2581\u13a3\u13a6\u13db\u13a6\u13c5": 4266,
    "\u13d3\u13a9\u13cd\u13a8": 4267,
    "\u2581\u13a0\u13d3\u13ea\u13b5\u13a9\u13cd\u13ac": 4268,
    "\u2581\u13da\u13f2": 4269,
    "\u13c4\u13d3\u13b4": 4270,
    "\u13eb\u13b5\u13bb": 4271,
    "\u13d7\u13a6\u13db\u13af": 4272,
    "\u2581\u13a0\u13a9\u13c7\u13d3\u13b8": 4273,
    "\u2581\u13c2\u13a6\u13b5\u13cd\u13d7\u13cd\u13aa": 4274,
    "\u2581\u13d5\u13a6\u13cd\u13a9\u13b8": 4275,
    "\u2581\u13a2\u13e3\u13d3\u13d9\u13b5\u13cd\u13d7\u13cd\u13ac": 4276,
    "\u2581\u13e7\u13c1": 4277,
    "\u2581\u13f1\u13a8\u13e5": 4278,
    "\u2581\u13ac\u13e9\u13be\u13d5": 4279,
    "\u2581\u13a4\u13b5\u13f0\u13d4\u13c1": 4280,
    "\u2581\u13d9\u13e7\u13be\u13d3\u13c5\u13db": 4281,
    "\u2581\u13f1\u13e5\u13a6\u13d4\u13ae": 4282,
    "\u2581\u13c4\u13c2\u13ea\u13ce\u13b4": 4283,
    "\u2581\u13a2\u13e3\u13b5\u13ae\u13b5\u13ac": 4284,
    "\u2581\u13a4\u13be\u13c2\u13a9\u13ce": 4285,
    "\u2581\u13da\u13d3\u13d8\u13be\u13a5": 4286,
    "\u2581\u13a4\u13b6\u13a8\u13d2": 4287,
    "\u2581\u13ef\u13db\u13c5": 4288,
    "\u2581\u13f1\u13c4\u13cd\u13d5": 4289,
    "\u2581\u13a4\u13ec\u13af\u13f3\u13d2": 4290,
    "\u13b0\u13e9": 4291,
    "\u2581\u13a4\u13c4\u13e9\u13a5": 4292,
    "\u2581\u13c8\u13ac": 4293,
    "\u2581\u13d5\u13a6\u13ec\u13c1\u13d7\u13cd\u13ac": 4294,
    "\u2581\u13be\u13a9\u13ea\u13ce\u13b8": 4295,
    "\u13a3\u13cf": 4296,
    "\u13aa\u13b2\u13cd\u13d9\u13d7": 4297,
    "\u2581\u13ed\u13ef\u13c5\u13b2": 4298,
    "\u2581\u13a0\u13a9\u13e9\u13db\u13b2": 4299,
    "\u2581\u13c4\u13c5\u13c1\u13b8": 4300,
    "\u2581\u13c4\u13db\u13c1": 4301,
    "\u13b5\u13d9\u13af": 4302,
    "\u2581\u13a4\u13b5\u13e6\u13db": 4303,
    "\u2581\u13a5\u13a9\u13d9": 4304,
    "\u13f0\u13b3\u13cd\u13d7": 4305,
    "\u2581\u13a2\u13ab\u13e9": 4306,
    "\u2581\u13be\u13cf": 4307,
    "\u13ec\u13d7\u13a8": 4308,
    "\u2581\u13a0\u13c2\u13aa\u13e9\u13d8\u13cd\u13ac": 4309,
    "\u13aa\u13b5\u13f0": 4310,
    "\u2581\u13c7\u13d3\u13c1\u13b3\u13bb": 4311,
    "\u2581\u13a0\u13d3\u13a8\u13d7": 4312,
    "\u2581\u13e7\u13c2\u13a7\u13bf\u13e9\u13db\u13cd\u13d7": 4313,
    "\u2581\u13eb\u13d7\u13a6": 4314,
    "\u2581\u13a0\u13cd\u13ab\u13d5\u13cd\u13d7": 4315,
    "\u13a4\u13b7\u13e8": 4316,
    "\u2581\u13a4\u13ec\u13af\u13f3\u13c5": 4317,
    "\u2581\u13c2\u13d5\u13a6\u13ea\u13ce\u13b2": 4318,
    "\u2581\u13d7\u13ab\u13cd\u13d9\u13cd\u13d7": 4319,
    "\u13d2\u13c6\u13b6\u13cd\u13d7": 4320,
    "\u2581\u13d7\u13a8\u13ab\u13aa\u13d3\u13c1\u13d7": 4321,
    "\u2581\u13a4\u13ea\u13d3\u13cd\u13d7": 4322,
    "\u13c5\u13b5": 4323,
    "\u13f2\u13b1\u13af\u13ce\u13b8\u13af": 4324,
    "\u2581\u13a0\u13e5\u13c1\u13d7": 4325,
    "\u2581\u13ed\u13b7\u13e4\u13b4": 4326,
    "\u2581\u13e4\u13c5\u13cd\u13d7": 4327,
    "\u13b2\u13ce": 4328,
    "\u2581\u13a4\u13be\u13db\u13aa\u13d7": 4329,
    "\u2581\u13a0\u13c7\u13d3\u13cd\u13d7": 4330,
    "\u2581\u13c5\u13d3\u13f0": 4331,
    "\u2581\u13da\u13c4\u13aa\u13eb\u13d2": 4332,
    "\u2581\u13a0\u13c2\u13be\u13f0\u13cd\u13a9": 4333,
    "\u2581\u13a0\u13c2\u13e5\u13ca\u13cf": 4334,
    "\u2581\u13a2\u13a8\u13ac\u13c1\u13b8\u13af": 4335,
    "\u2581\u13a2\u13b5\u13a1\u13cc": 4336,
    "\u2581\u13a4\u13cd\u13d4\u13f2\u13d2": 4337,
    "\u2581\u13a4\u13d6\u13b8\u13b3\u13db": 4338,
    "\u2581\u13a5\u13c6\u13b8\u13a2\u13db": 4339,
    "\u2581\u13ab\u13eb\u13cd\u13ab\u13eb": 4340,
    "\u2581\u13ac\u13ec\u13af\u13f3\u13b2\u13cd\u13a9": 4341,
    "\u2581\u13b0\u13e2\u13d4\u13c5\u13ad": 4342,
    "\u2581\u13b4\u13a3\u13d7\u13cf\u13ef": 4343,
    "\u2581\u13bb\u13da\u13cf\u13b3": 4344,
    "\u2581\u13c2\u13e6\u13b5\u13ac\u13be": 4345,
    "\u2581\u13c7\u13e3\u13b5\u13b5": 4346,
    "\u2581\u13cd\u13aa\u13c2\u13d7\u13e2": 4347,
    "\u2581\u13d3\u13c7\u13aa\u13d4\u13c5": 4348,
    "\u2581\u13d7\u13be\u13d9\u13b4\u13c6\u13cd\u13a9": 4349,
    "\u2581\u13d7\u13d3\u13b4\u13c5\u13d7\u13cd\u13a9": 4350,
    "\u2581\u13e5\u13c8\u13a3\u13c2": 4351,
    "\u2581\u13e7\u13c2\u13e6\u13ef\u13cd\u13d7": 4352,
    "\u2581\u13a4\u13c2\u13b5\u13c5\u13e8\u13af": 4353,
    "\u2581\u13d7\u13ac\u13e9\u13a9\u13e8\u13d7": 4354,
    "\u2581\u13ed\u13d5\u13b5\u13e4": 4355,
    "\u2581\u13d3\u13d7\u13b6\u13c2": 4356,
    "\u2581\u13e7\u13be\u13d7\u13a9\u13d3": 4357,
    "\u2581\u13a2\u13ef\u13db\u13c1\u13b5\u13d3\u13cd\u13d7": 4358,
    "\u2581\u13d7\u13e5\u13a8\u13eb": 4359,
    "\u13eb\u13c2\u13d7\u13e2": 4360,
    "\u2581\u13e6\u13cd\u13d3\u13d3\u13c5\u13df": 4361,
    "\u2581\u13e5\u13c2\u13e8\u13ea\u13ce\u13b8\u13a9": 4362,
    "\u2581\u13a0\u13c6\u13d7\u13d4\u13cd\u13d7": 4363,
    "\u2581\u13a4\u13ea\u13ef\u13b8\u13e4\u13a2": 4364,
    "\u2581\u13a0\u13b5\u13cf\u13be\u13af\u13cd\u13d9\u13d7": 4365,
    "\u2581\u13a0\u13be\u13b5\u13d6\u13b8\u13b2\u13cd\u13a9": 4366,
    "\u2581\u13a2\u13ac\u13c6\u13db\u13c1\u13d7": 4367,
    "\u2581\u13a4\u13b5\u13cd\u13db\u13e7\u13c1": 4368,
    "\u2581\u13a0\u13df\u13b6\u13a5": 4369,
    "\u2581\u13d7\u13a8\u13d8\u13c2\u13d3\u13cd\u13d7": 4370,
    "\u2581\u13b9\u13ba\u13b5": 4371,
    "\u2581\u13a0\u13c2\u13b6\u13cd\u13a9": 4372,
    "\u2581\u13e7\u13ac\u13e9\u13b3\u13c5\u13af": 4373,
    "\u2581\u13ed\u13d5\u13b5\u13e8": 4374,
    "\u2581\u13a4\u13e6\u13a0\u13ce\u13d7": 4375,
    "\u2581\u13aa\u13af\u13f3\u13b2\u13cd\u13a8\u13cd\u13d7": 4376,
    "\u2581\u13a4\u13b5\u13c3\u13af\u13f4\u13af": 4377,
    "\u2581\u13a4\u13a6\u13db\u13be\u13e8\u13af": 4378,
    "\u2581\u13e3\u13a6\u13d1\u13b2\u13a2": 4379,
    "\u2581\u13a0\u13aa\u13b2\u13cd\u13d4\u13c5\u13af": 4380,
    "\u2581\u13c6\u13cf\u13b9": 4381,
    "\u2581\u13a2\u13e5\u13c1\u13ab": 4382,
    "\u2581\u13d5\u13e5\u13c2\u13f4\u13ce\u13cd\u13d7": 4383,
    "\u2581\u13d3\u13f2\u13e3\u13db\u13c1\u13b5": 4384,
    "\u2581\u13a0\u13c1\u13b8\u13d7\u13cd\u13a8\u13a2": 4385,
    "\u2581\u13a2\u13aa\u13c2\u13ef": 4386,
    "\u2581\u13d6\u13b9": 4387,
    "\u2581\u13ac\u13f2\u13ce\u13ad": 4388,
    "\u2581\u13c5\u13d3\u13f3\u13be\u13d3\u13b4\u13c5\u13af": 4389,
    "\u2581\u13d7\u13a9\u13f2\u13b1\u13d2\u13af": 4390,
    "\u2581\u13e7\u13c3\u13da\u13af": 4391,
    "\u2581\u13be\u13c2\u13cd\u13a6\u13c5\u13be": 4392,
    "\u2581\u13d5\u13a6\u13c5\u13d9\u13ac": 4393,
    "\u2581\u13f1\u13e5\u13aa\u13b5\u13f0\u13a3": 4394,
    "\u2581\u13a6\u13d7\u13a8\u13c2": 4395,
    "\u13d9\u13b4\u13cb": 4396,
    "\u2581\u13a0\u13c2\u13aa\u13d7\u13f3": 4397,
    "\u2581\u13be\u13c3\u13af\u13f3\u13b2\u13cd\u13ac\u13be": 4398,
    "\u2581\u13e7\u13c8\u13ef": 4399,
    "\u2581\u13e9\u13a9\u13b7\u13e3": 4400,
    "\u13a9\u13cf\u13d5\u13a9": 4401,
    "\u2581\u13ac\u13e9\u13d5\u13f1\u13db": 4402,
    "\u2581\u13a2\u13e5\u13c7\u13d3\u13b8": 4403,
    "\u2581\u13a0\u13d9\u13b4\u13b0\u13d2\u13af": 4404,
    "\u2581\u13a4\u13a6\u13c3\u13ee": 4405,
    "\u2581\u13c4\u13be\u13db\u13c1\u13b5\u13d9\u13b8": 4406,
    "\u2581\u13d3\u13d3\u13db\u13c2": 4407,
    "\u2581\u13f3\u13f2\u13b1\u13d2": 4408,
    "\u2581\u13d7\u13ac\u13e9\u13c2\u13f0\u13af": 4409,
    "\u2581\u13d7\u13c2\u13c3\u13a8\u13c2": 4410,
    "\u2581\u13a6\u13b6\u13e3\u13d7": 4411,
    "\u2581\u13a4\u13f4\u13b5\u13b4": 4412,
    "\u2581\u13a2\u13f3\u13be\u13d3\u13b3": 4413,
    "\u2581\u13d7\u13c2\u13d0\u13af": 4414,
    "\u2581\u13c1\u13c6\u13b8": 4415,
    "\u2581\u13d8\u13a6\u13d9\u13b5": 4416,
    "\u2581\u13a4\u13c6\u13db\u13a9": 4417,
    "\u2581\u13a2\u13ac\u13be\u13d5\u13c5": 4418,
    "\u2581\u13da\u13ea\u13a7\u13c5\u13a9": 4419,
    "\u2581\u13eb\u13e5\u13f2\u13b5\u13a6": 4420,
    "\u2581\u13b6\u13e9\u13c2": 4421,
    "\u2581\u13a6\u13b5\u13c6\u13da": 4422,
    "\u2581\u13a0\u13c2\u13b1\u13e3": 4423,
    "\u2581\u13da\u13ed\u13e2\u13d4\u13c5\u13a9": 4424,
    "\u2581\u13a0\u13c6\u13df\u13c2\u13ac\u13c1\u13b8": 4425,
    "\u13cc\u13b3\u13db\u13a6": 4426,
    "\u2581\u13e7\u13be\u13aa\u13c5\u13cd\u13d3\u13b5": 4427,
    "\u2581\u13a5\u13c3\u13e5": 4428,
    "\u2581\u13e7\u13ec\u13e2\u13c5\u13af": 4429,
    "\u2581\u13e7\u13b5\u13ac\u13e9\u13df": 4430,
    "\u2581\u13d7\u13a6\u13be\u13cc\u13a2": 4431,
    "\u2581\u13a2\u13ef\u13d3\u13db\u13c1\u13af": 4432,
    "\u2581\u13d3\u13a9\u13ef\u13ea\u13a6": 4433,
    "\u2581\u13d0\u13c1\u13b3": 4434,
    "\u2581\u13d7\u13df\u13cd\u13d9\u13d7": 4435,
    "\u13d0\u13ad\u13db": 4436,
    "\u2581\u13ad\u13db\u13d3\u13cd\u13d3": 4437,
    "\u2581\u13a0\u13c2\u13c3\u13ae\u13cd\u13a8": 4438,
    "\u2581\u13d7\u13e3\u13b4\u13b2\u13a6": 4439,
    "\u2581\u13a4\u13be\u13da\u13b5\u13cd\u13a9": 4440,
    "\u2581\u13d3\u13a6\u13e5\u13c1\u13b5": 4441,
    "\u2581\u13a2\u13ef\u13c6\u13b5\u13cd\u13d9\u13d7\u13f1": 4442,
    "\u2581\u13aa\u13a2\u13f3\u13b2\u13cd\u13a6": 4443,
    "\u2581\u13c5\u13c1\u13b8\u13ad": 4444,
    "\u2581\u13d7\u13a9\u13f4\u13eb": 4445,
    "\u2581\u13a6\u13e5\u13ef\u13c1\u13b3\u13c5\u13af": 4446,
    "\u2581\u13e5\u13cd\u13a6\u13a2\u13b2": 4447,
    "\u2581\u13c5\u13d3\u13f3\u13c5\u13cf\u13db": 4448,
    "\u2581\u13b1\u13b7\u13e3": 4449,
    "\u2581\u13d5\u13a6\u13f0\u13cc\u13db": 4450,
    "\u2581\u13a4\u13be\u13d9\u13b4\u13b0\u13af\u13cd\u13d9\u13d7": 4451,
    "\u2581\u13d3\u13d3\u13c2\u13b8\u13a8\u13cd\u13d7": 4452,
    "\u2581\u13a1\u13e5\u13f2\u13b5\u13b8\u13ad": 4453,
    "\u2581\u13a0\u13ac\u13d3\u13a8\u13c2": 4454,
    "\u2581\u13c4\u13d3\u13d1\u13f4\u13be": 4455,
    "\u2581\u13a4\u13c3\u13af\u13f3\u13af": 4456,
    "\u2581\u13e6\u13a8\u13e5": 4457,
    "\u2581\u13a0\u13be\u13d3\u13ad\u13f2\u13af": 4458,
    "\u2581\u13d5\u13c5\u13d9\u13a5": 4459,
    "\u2581\u13c5\u13d3\u13cd\u13c6": 4460,
    "\u2581\u13d7\u13e5\u13b8\u13eb\u13cd\u13d3\u13c1\u13af": 4461,
    "\u2581\u13a0\u13c2\u13a1\u13bc\u13b5": 4462,
    "\u2581\u13a4\u13c2\u13c6\u13d8\u13cd\u13d7": 4463,
    "\u2581\u13a0\u13c6\u13d5\u13b6\u13b0\u13d2": 4464,
    "\u2581\u13a2\u13e5\u13a8\u13f4": 4465,
    "\u2581\u13a0\u13c6\u13db\u13c5\u13a2\u13cd\u13d7": 4466,
    "\u2581\u13a4\u13b8\u13c9\u13d4\u13c1": 4467,
    "\u13e1\u13d4\u13c2": 4468,
    "\u2581\u13a2\u13e7\u13d6": 4469,
    "\u2581\u13d7\u13e3\u13b3\u13cf": 4470,
    "\u2581\u13d7\u13ad\u13be\u13ec": 4471,
    "\u2581\u13a4\u13a7": 4472,
    "\u13f2\u13b5\u13cd\u13d7\u13f1": 4473,
    "\u2581\u13ec\u13e4": 4474,
    "\u2581\u13eb\u13c2\u13ea\u13cf": 4475,
    "\u2581\u13da\u13c4\u13cc\u13db": 4476,
    "\u2581\u13d7\u13a6\u13aa\u13d9\u13d7": 4477,
    "\u2581\u13a4\u13d3\u13d1\u13f0\u13db": 4478,
    "\u2581\u13af\u13cd\u13aa\u13b5": 4479,
    "\u13c2\u13b4": 4480,
    "\u2581\u13aa\u13d2\u13c5": 4481,
    "\u13d3\u13b4\u13d2": 4482,
    "\u2581\u13d3\u13c2\u13f4\u13ac\u13a2": 4483,
    "\u2581\u13e3\u13d3\u13b8\u13a9": 4484,
    "\u2581\u13e5\u13a6\u13da\u13ad": 4485,
    "\u2581\u13d3\u13c2\u13f4\u13a8\u13cd\u13d7": 4486,
    "\u2581\u13ac\u13d4\u13f2\u13ce\u13ad": 4487,
    "\u2581\u13a4\u13d9\u13b3\u13c5\u13cd\u13d7": 4488,
    "\u2581\u13d3\u13c2\u13c4\u13d9\u13ac\u13a2": 4489,
    "\u2581\u13da\u13da\u13d3\u13db\u13a2": 4490,
    "\u2581\u13a0\u13a8\u13ef": 4491,
    "\u2581\u13a0\u13c4\u13ec\u13a9\u13af": 4492,
    "\u2581\u13a2\u13e4\u13c5\u13cd\u13d7\u13f1": 4493,
    "\u2581\u13a4\u13ec\u13d2\u13c5": 4494,
    "\u2581\u13da\u13d5\u13f2\u13c1": 4495,
    "\u2581\u13d7\u13e3\u13b3\u13cf\u13d5\u13c2": 4496,
    "\u2581\u13d3\u13e5\u13c1\u13b5": 4497,
    "\u2581\u13e4\u13b5\u13aa": 4498,
    "\u2581\u13a1\u13c8\u13b3": 4499,
    "\u2581\u13ed\u13b3\u13a9\u13d2": 4500,
    "\u2581\u13ed\u13a9\u13b6\u13eb\u13ce": 4501,
    "\u2581\u13a0\u13c2\u13a9\u13be": 4502,
    "\u2581\u13da\u13ec\u13c1\u13d4\u13c5\u13a9": 4503,
    "\u2581\u13e7\u13f2\u13af\u13cd\u13d7\u13f1": 4504,
    "\u2581\u13a2\u13e8\u13f2\u13ea\u13b3\u13c1\u13ad": 4505,
    "\u2581\u13d9\u13b3\u13e7\u13a6": 4506,
    "\u13a9\u13be\u13dd\u13a2": 4507,
    "\u2581\u13a4\u13b5\u13e6\u13af\u13db": 4508,
    "\u13cd\u13a6\u13a2\u13cd\u13d7": 4509,
    "\u2581\u13c7\u13b5\u13cf": 4510,
    "\u2581\u13e7\u13b8\u13eb\u13cd\u13d3\u13c1\u13b8\u13af": 4511,
    "\u2581\u13c5\u13db\u13db\u13c1\u13b5": 4512,
    "\u2581\u13d5\u13af\u13a7\u13c5": 4513,
    "\u2581\u13a4\u13c5\u13ea": 4514,
    "\u2581\u13d7\u13a6\u13c1\u13b2": 4515,
    "\u2581\u13e7\u13ec\u13ea\u13b3\u13c5": 4516,
    "\u2581\u13da\u13d8\u13c3\u13ae\u13b4\u13a2": 4517,
    "\u2581\u13eb\u13c4\u13ea\u13ce\u13a2": 4518,
    "\u2581\u13e3\u13d4\u13b3\u13ec\u13af\u13cd\u13d7": 4519,
    "\u2581\u13ac\u13ef\u13b5\u13a1\u13b5\u13e4": 4520,
    "\u2581\u13a2\u13ef\u13d3\u13c5\u13d6\u13d7": 4521,
    "\u2581\u13b7": 4522,
    "\u2581\u13da\u13cf\u13d4\u13db": 4523,
    "\u13c4\u13cd\u13d7": 4524,
    "\u2581\u13a0\u13c8\u13b7": 4525,
    "\u2581\u13a0\u13cc\u13b3\u13d9\u13d7": 4526,
    "\u2581\u13a2\u13e5\u13c1\u13e8": 4527,
    "\u2581\u13c2\u13e5\u13ea\u13cd\u13ac": 4528,
    "\u2581\u13e7\u13a7\u13ad\u13f2": 4529,
    "\u2581\u13a7\u13c1\u13cd\u13ac": 4530,
    "\u2581\u13a4\u13b5\u13e8\u13d3\u13c6\u13d3": 4531,
    "\u2581\u13b4\u13bb\u13a9": 4532,
    "\u2581\u13a2\u13e4\u13b5\u13ad": 4533,
    "\u2581\u13e7\u13be\u13c1\u13b3\u13c5\u13af": 4534,
    "\u2581\u13d3\u13a7\u13c1": 4535,
    "\u2581\u13a0\u13c1\u13d9\u13ad": 4536,
    "\u2581\u13a2\u13e3\u13b5\u13cd\u13d3\u13f4\u13d7\u13f1": 4537,
    "\u2581\u13a2\u13e8\u13c1\u13d7": 4538,
    "\u2581\u13a0\u13c6\u13d3\u13c5\u13d6\u13db": 4539,
    "\u2581\u13e3\u13d3\u13c5\u13db\u13a2": 4540,
    "\u2581\u13a0\u13c6\u13db\u13c1\u13d7\u13f1": 4541,
    "\u2581\u13a4\u13ec\u13ea\u13b3\u13c5\u13a9": 4542,
    "\u2581\u13a4\u13f2\u13b1\u13ce\u13ae\u13cd\u13d7": 4543,
    "\u2581\u13d1\u13d3\u13b5\u13e7\u13c8": 4544,
    "\u2581\u13a1\u13cd\u13a6\u13c2\u13f3": 4545,
    "\u2581\u13a0\u13a6\u13d9\u13b5": 4546,
    "-\u201c": 4547,
    "\u2581\u13a0\u13d3\u13ac\u13bf": 4548,
    "\u2581\u13a6\u13f0\u13b5\u13cd\u13d7": 4549,
    "\u2581\u13a0\u13c2\u13cd\u13a6\u13f0\u13ac\u13cd\u13d3": 4550,
    "\u2581\u13a4\u13c3\u13ea\u13b3\u13c5": 4551,
    "\u2581\u13a0\u13c2\u13a6\u13d8\u13ef": 4552,
    "\u2581\u13a0\u13eb\u13cc\u13c5": 4553,
    "\u2581\u13a0\u13e4\u13cd\u13d9\u13a9\u13af": 4554,
    "\u2581\u13a4\u13db\u13a6\u13be": 4555,
    "\u2581\u13a6\u13aa\u13b5\u13cd\u13d7": 4556,
    "\u2581\u13a0\u13ba": 4557,
    "\u2581\u13d7\u13e5\u13a7\u13bf\u13e9\u13db\u13cd\u13d7\u13f1": 4558,
    "\u2581\u13da\u13ed\u13aa\u13d4\u13c5": 4559,
    "\u2581\u13a4\u13ec\u13b3": 4560,
    "\u2581\u13da\u13ea\u13f4": 4561,
    "\u2581\u13e3\u13cd\u13c6": 4562,
    "\u2581\u13a4\u13c1\u13c5\u13d2\u13a9": 4563,
    "\u2581\u13f3\u13ea\u13ad": 4564,
    "\u2581\u13d3\u13be\u13e0\u13f1\u13b2": 4565,
    "\u2581\u13a4\u13e9\u13c2\u13a6\u13b8\u13a2": 4566,
    "\u2581\u13a4\u13be\u13c4\u13aa\u13e5\u13b8": 4567,
    "\u2581\u13f1\u13e5\u13cf\u13be": 4568,
    "\u2581\u13a4\u13c2\u13be\u13a5": 4569,
    "\u2581\u13a4\u13cd\u13c6\u13c2\u13aa\u13d4\u13c1\u13a2": 4570,
    "\u2581\u13a4\u13c2\u13cd\u13a6\u13b4\u13a2": 4571,
    "\u2581\u13a0\u13cb\u13d4\u13c5\u13af": 4572,
    "\u2581\u13a4\u13ea\u13d9\u13b4\u13a2": 4573,
    "\u2581\u13a2\u13f3\u13e9\u13ac\u13d7": 4574,
    "\u2581\u13a6\u13c3\u13af\u13b5\u13d9": 4575,
    "\u2581\u13d7\u13ab\u13cd\u13d9\u13cd\u13d7\u13f1": 4576,
    "\u2581\u13ad\u13df\u13c2\u13ac\u13c1": 4577,
    "\u2581\u13f1\u13c5\u13a6": 4578,
    "\u2581\u13be\u13e5\u13ea\u13ce\u13b4\u13a2": 4579,
    "\u2581\u13a2\u13f3\u13ea\u13cd\u13d7": 4580,
    "\u2581\u13a2\u13e3\u13db\u13c1\u13d7": 4581,
    "\u2581\u13a4\u13c2\u13c1\u13c9\u13e4": 4582,
    "\u2581\u13a4\u13a6\u13b9": 4583,
    "\u2581\u13a4\u13c2\u13c3\u13ae\u13d7\u13f1": 4584,
    "\u2581\u13e7\u13be\u13db\u13be": 4585,
    "\u13e5\u13a4\u13cd\u13d5\u13ce\u13b8\u13be": 4586,
    "\u2581\u13c2\u13e8\u13c1\u13b2": 4587,
    "\u2581\u13ac\u13e9\u13cd\u13a6\u13a9": 4588,
    "\u2581\u13be\u13e5\u13a4\u13cd\u13d5\u13ce\u13b8\u13be": 4589,
    "\u2581\u13f1\u13c2\u13a6\u13a9": 4590,
    "\u2581\u13a4\u13d5\u13d4\u13c5\u13af": 4591,
    "\u2581\u13d7\u13e5\u13c1\u13df\u13f4": 4592,
    "\u13f4\u13b5\u13b8": 4593,
    "\u13e9\u13db\u13b2\u13cd\u13d7\u13f1": 4594,
    "\u2581\u13a4\u13db\u13c5\u13d7\u13a6\u13b3\u13eb\u13a2\u13cd\u13d7\u13f1": 4595,
    "\u2581\u13a4\u13b5\u13cd\u13aa\u13b8\u13d4\u13c5\u13af": 4596,
    "\u2581\u13e4\u13e3\u13a7\u13c3\u13d7": 4597,
    "\u13c1\u13c9\u13e3\u13d8": 4598,
    "\u2581\u13a4\u13c2\u13da\u13b2\u13a2": 4599,
    "\u2581\u13a2\u13e8\u13d9\u13d7\u13f1": 4600,
    "\u2581\u13a0\u13a9\u13b7\u13e4\u13b8\u13a9": 4601,
    "\u2581\u13d3\u13aa": 4602,
    "\u2581\u13e5\u13c4\u13cd\u13db": 4603,
    "\u2581\u13e3\u13be\u13eb\u13f1": 4604,
    "\u2581\u13a4\u13be\u13c5\u13d7\u13f1": 4605,
    "\u2581\u13a2\u13e5\u13c1\u13d7": 4606,
    "\u2581\u13e5\u13ac\u13e9": 4607,
    "\u13c1\u13c5": 4608,
    "\u13b5\u13d6\u13b8\u13c2\u13cd\u13d7": 4609,
    "\u2581\u13a2\u13e3\u13c1\u13b3\u13c5\u13af": 4610,
    "\u2581\u13a4\u13c2\u13f0\u13b8\u13af": 4611,
    "\u2581\u13a6\u13c1\u13e5\u13f1": 4612,
    "\u2581\u13ed\u13d3\u13d2\u13cd\u13d4\u13c1": 4613,
    "\u2581\u13ed\u13d3\u13aa\u13be\u13db\u13db": 4614,
    "\u2581\u13a4\u13f4\u13b8\u13a9": 4615,
    "\u2581\u13a4\u13c1\u13dd\u13c5\u13af": 4616,
    "\u2581\u13a4\u13a6\u13d4\u13b2\u13ce": 4617,
    "\u2581\u13cd\u13a6\u13f0\u13ac\u13cd\u13d4": 4618,
    "\u2581\u13a4\u13e6\u13cd\u13d7": 4619,
    "\u2581\u13a0\u13cd\u13d5\u13b5\u13cd\u13a9": 4620,
    "\u2581\u13b1\u13c2\u13b7\u13e4": 4621,
    "\u2581\u13a1\u13e5\u13c1\u13b8\u13af": 4622,
    "\u2581\u13af\u13c4\u13aa\u13a2": 4623,
    "\u2581\u13a6\u13ac\u13e9\u13d0\u13e2": 4624,
    "\u2581\u13da\u13c3\u13c1\u13b4": 4625,
    "\u2581\u13a0\u13c2\u13a9\u13a6\u13a8": 4626,
    "\u2581\u13a3\u13a8\u13c5\u13d2": 4627,
    "\u2581\u13c2\u13a8\u13e5\u13ea\u13ce\u13b8": 4628,
    "\u2581\u13d7\u13aa\u13e9\u13db\u13d7": 4629,
    "\u2581\u13e7\u13be\u13cd\u13d7\u13a6": 4630,
    "\u2581\u13e9\u13a6\u13db\u13a2": 4631,
    "\u2581\u13a4\u13be\u13c4\u13aa\u13eb\u13cd\u13d7\u13f1": 4632,
    "\u2581\u13a4\u13a9\u13b5": 4633,
    "\u2581\u13a4\u13be\u13d3\u13df\u13cc\u13c5": 4634,
    "\u2581\u13a4\u13d4\u13ea\u13d9\u13c1\u13a2": 4635,
    "\u2581\u13a4\u13cd\u13d5\u13b8\u13d7\u13f1": 4636,
    "\u2581\u13a0\u13b3\u13d1\u13b6": 4637,
    "\u2581\u13a2\u13d3\u13d9\u13b4\u13b0\u13af\u13cd\u13d7": 4638,
    "\u2581\u13a0\u13a6\u13c5\u13a9": 4639,
    "\u13d8\u13c1\u13d2\u13ad": 4640,
    "\u2581\u13a4\u13c5\u13d9\u13d7": 4641,
    "\u2581\u13a4\u13cd\u13da\u13c1": 4642,
    "\u2581\u13cc\u13bb": 4643,
    "\u2581\u13a0\u13a9\u13aa\u13e9\u13db\u13d7\u13f1": 4644,
    "\u13ec\u13c1\u13d4\u13c1": 4645,
    "\u2581\u13d5\u13a6\u13a7\u13b2\u13a9": 4646,
    "\u2581\u13a0\u13be\u13d7\u13cd\u13ac": 4647,
    "\u2581\u13e7\u13ea\u13e5\u13db\u13af": 4648,
    "\u2581\u13b9\u13b5": 4649,
    "\u2581\u13a4\u13c2\u13f4\u13d7": 4650,
    "\u2581\u13a0\u13e9\u13db\u13d7": 4651,
    "\u2581\u13a2\u13be\u13cf": 4652,
    "\u2581\u13a4\u13ec\u13e2\u13c1\u13a2": 4653,
    "\u2581\u13e7\u13d3\u13b4\u13c1\u13a2": 4654,
    "\u2581\u13e7\u13a6": 4655,
    "\u2581\u13a4\u13cd\u13a6\u13e4": 4656,
    "\u13a7\u13b8": 4657,
    "\u13b4\u13c1\u13af": 4658,
    "\u2581\u13a6\u13c1\u13ae\u13a2": 4659,
    "\u2581\u13a4\u13cd\u13d3\u13e9\u13d7\u13d9\u13af": 4660,
    "\u2581\u13d3\u13e5\u13c2": 4661,
    "\u2581\u13d3\u13cd\u13db": 4662,
    "\u2581\u13e5\u13c5\u13b5": 4663,
    "\u2581\u13bc": 4664,
    "\u13ce\u13d7\u13f1": 4665,
    "\u2581\u13af\u13f4": 4666,
    "\u2581\u13a2\u13a8\u13e3\u13db\u13c1\u13d7": 4667,
    "\u13c2\u13ec\u13c2\u13af\u13cd\u13d7": 4668,
    "\u2581\u13d5\u13a0": 4669,
    "\u2581\u13a6\u13c6\u13b5": 4670,
    "\u2581\u13a4\u13b5\u13f0\u13d4\u13c1\u13a2": 4671,
    "\u2581\u13a4\u13c4\u13ec\u13cd\u13d7": 4672,
    "\u2581\u13a0\u13a9\u13c3\u13ae\u13b8": 4673,
    "\u13cd\u13d7\u13f0\u13d7\u13ad": 4674,
    "\u2581\u13a4\u13c2\u13be": 4675,
    "\u2581\u13a4\u13be\u13b4\u13c5\u13b2": 4676,
    "\u2581\u13d5\u13aa\u13ea\u13b8\u13a9": 4677,
    "\u2581\u13ed\u13f4\u13b8\u13a9": 4678,
    "\u2581\u13c2\u13e3\u13db\u13c1\u13b2\u13a2": 4679,
    "\u2581\u13d7\u13a6\u13ab\u13cd\u13db\u13d7\u13f1": 4680,
    "\u2581\u13a3\u13a9\u13be\u13b5\u13aa": 4681,
    "\u2581\u13a4\u13b6\u13a8\u13d2\u13a2": 4682,
    "\u2581\u13a0\u13eb\u13d2\u13af": 4683,
    "\u2581\u13a4\u13f0\u13ac": 4684,
    "\u2581\u13a4\u13ec\u13e2\u13c5\u13a2": 4685,
    "\u2581\u13ed\u13b7\u13e4\u13b4\u13a2": 4686,
    "\u2581\u13e9\u13a9\u13a6": 4687,
    "\u13e5\u13c1\u13a2\u13cd\u13d7\u13ad": 4688,
    "\u2581\u13a4\u13cd\u13d3\u13a6\u13b8\u13a2": 4689,
    "\u2581\u13d3\u13df\u13b6\u13cd\u13db\u13a2": 4690,
    "\u2581\u13a0\u13c7\u13b5\u13d2\u13a9": 4691,
    "\u2581\u13a6\u13b5\u13b7\u13a8\u13cd\u13d7": 4692,
    "\u13d5\u13aa\u13a2": 4693,
    "\u2581\u13a7\u13c3\u13ae\u13cd\u13ac\u13a9": 4694,
    "\u2581\u13c2\u13d7\u13a8": 4695,
    "ill": 4696,
    "\u2581\u13a2\u13e3\u13b4\u13c2\u13d9\u13b2": 4697,
    "\u2581\u13a4\u13ec\u13ad": 4698,
    "\u2581\u13f1\u13cd\u13db": 4699,
    "\u2581\u13e5\u13c2\u13a8\u13ac\u13c1": 4700,
    "\u2581\u13a4\u13c2\u13f4\u13ae\u13a2": 4701,
    "\u2581\u13e7\u13c3\u13b8": 4702,
    "\u2581\u13a4\u13ec\u13ce\u13b4\u13a2": 4703,
    "\u13e2\u13c2": 4704,
    "\u2581\u13a6\u13f2\u13df\u13a8": 4705,
    "\u13e9\u13d4": 4706,
    "\u2581\u13ce\u13b3\u13a9": 4707,
    "\u13b5\u13d3\u13cd\u13d4\u13c5": 4708,
    "\u2581\u13a4\u13c4\u13b8": 4709,
    "\u2581\u13e7\u13e9\u13ab\u13d4\u13c5\u13d2\u13a2": 4710,
    "\u13b6\u13b8\u13d7": 4711,
    "\u13d5\u13b6\u13b0\u13cc": 4712,
    "\u13d3\u13c5\u13a1\u13ae\u13cd\u13d7": 4713,
    "\u13d8\u13f1": 4714,
    "\u2581\u13ac\u13e9\u13a6": 4715,
    "\u2581\u13a4\u13be\u13d9\u13b4\u13b0\u13d2\u13a9": 4716,
    "\u13a0\u13a9\u13cf\u13d9\u13af": 4717,
    "\u2581\u13ad\u13d5\u13ec": 4718,
    "\u2581\u13af\u13cc": 4719,
    "\u13ef\u13ea\u13a2\u13cd\u13d7": 4720,
    "\u13b5\u13ce\u13b2": 4721,
    "\u2581\u13e3\u13a7\u13db\u13a2": 4722,
    "\u2581\u13da\u13c2\u13aa\u13b2": 4723,
    "\u2581\u13be\u13c6\u13db\u13c1\u13b8\u13a2": 4724,
    "\u13db\u13db\u13be": 4725,
    "\u2581\u13ac\u13e9\u13b7\u13e4\u13b4\u13a2": 4726,
    "\u2581\u13a1\u13d9\u13b2\u13a9": 4727,
    "\u2581\u13a0\u13e5\u13be": 4728,
    "\u2581\u13a8\u13d9\u13b2\u13a2": 4729,
    "\u13a6\u13b6\u13a8\u13d2": 4730,
    "\u2581\u13a0\u13c2\u13c1\u13ac\u13a2": 4731,
    "\u2581\u13be\u13db\u13c1\u13b2\u13a2": 4732,
    "\u13da\u13b5\u13cd\u13aa": 4733,
    "\u2581\u13e4\u13cf": 4734,
    "\u2581\u13a6\u13b5\u13e6\u13d9\u13d7": 4735,
    "\u2581\u13a6\u13c1\u13af": 4736,
    "\u13b3\u13d7\u13cd\u13ac": 4737,
    "\u13da\u13d3\u13b4\u13cd\u13d7\u13f1": 4738,
    "\u2581\u13cf\u13a6": 4739,
    "\u2581\u13a2\u13cc": 4740,
    "\u2581\u13a4\u13ea\u13ad": 4741,
    "\u2581\u13ef\u13a9\u13f0\u13b8": 4742,
    "\u2581\u13a2\u13e5\u13b2\u13a2": 4743,
    "\u2581\u13be\u13db\u13a6": 4744,
    "\u2581\u13d3\u13eb\u13d2\u13a2": 4745,
    "\u2581\u13e7\u13be\u13d7\u13d4\u13cd\u13d7": 4746,
    "\u2581\u13a2\u13e2": 4747,
    "\u2581\u13e3\u13cd\u13a6\u13c5\u13e8": 4748,
    "\u2581\u13a0\u13a2\u13ce": 4749,
    "\u13b5\u13cd\u13aa\u13b8\u13d9\u13d7": 4750,
    "\u13d9\u13a1\u13cd\u13d7": 4751,
    "\u2581\u13a0\u13a9\u13b2": 4752,
    "\u2581\u13a1\u13b3\u13c2\u13ac\u13a2": 4753,
    "\u2581\u13a4\u13c2\u13af": 4754,
    "\u13cd\u13da\u13df\u13cd\u13d7": 4755,
    "\u2581\u13da\u13b7\u13ac": 4756,
    "\u13a9\u13f3\u13cd\u13c8\u13db": 4757,
    "\u2581\u13d9\u13d3\u13b8\u13a2": 4758,
    "ha": 4759,
    "\u2581\u13a4\u13c4\u13ea": 4760,
    "\u2581\u13d5\u13a8\u13d2": 4761,
    "\u2581\u13d5\u13af\u13c1\u13b8": 4762,
    "\u2581\u13e5\u13a9\u13b5\u13f2\u13ac": 4763,
    "\u2581\u13a4\u13da\u13b8\u13b2": 4764,
    "\u2581\u13a0\u13be\u13a2\u13d2\u13a2": 4765,
    "\u13f1\u13c6": 4766,
    "\u2581\u13a0\u13a6\u13b5\u13cd\u13aa\u13b8\u13d3\u13c1\u13b8": 4767,
    "\u2581\u13c1\u13e3": 4768,
    "\u13cc\u13db\u13d7": 4769,
    "\u2581\u13c4\u13b3": 4770,
    "\u2581\u13d7\u13cd\u13a9\u13a7\u13c1": 4771,
    "\u2581\u13c5\u13a9\u13c3": 4772,
    "\u2581\u13a4\u13c1\u13b3\u13c5": 4773,
[...]
